{
  "version": "1.0",
  "truncation": null,
  "padding": null,
  "added_tokens": [
    {
      "id": 0,
      "content": "<s>",
      "single_word": false,
      "lstrip": false,
      "rstrip": false,
      "normalized": false,
      "special": true
    },
    {
      "id": 1,
      "content": "</s>",
      "single_word": false,
      "lstrip": false,
      "rstrip": false,
      "normalized": false,
      "special": true
    },
    {
      "id": 2,
      "content": "<pad>",
      "single_word": false,
      "lstrip": false,
      "rstrip": false,
      "normalized": false,
      "special": true
    },
    {
      "id": 3,
      "content": "<unk>",
      "single_word": false,
      "lstrip": false,
      "rstrip": false,
      "normalized": false,
      "special": true
    },
    {
      "id": 4,
      "content": "<fim_prefix>",
      "single_word": false,
      "lstrip": false,
      "rstrip": false,
      "normalized": false,
      "special": true
    },
    {
      "id": 5,
      "content": "<fim_suffix>",
      "single_word": false,
      "lstrip": false,
      "rstrip": false,
      "normalized": false,
      "special": true
    },
    {
      "id": 6,
      "content": "<fim_middle>",
      "single_word": false,
      "lstrip": false,
      "rstrip": false,
      "normalized": false,
      "special": true
    },
    {
      "id": 7,
      "content": "<fim_hole>",
      "single_word": false,
      "lstrip": false,
      "rstrip": false,
      "normalized": false,
      "special": true
    },
    {
      "id": 8,
      "content": "<fim_pad>",
      "single_word": false,
      "lstrip": false,
      "rstrip": false,
      "normalized": false,
      "special": true
    },
    {
      "id": 9,
      "content": "<repo_name>",
      "single_word": false,
      "lstrip": false,
      "rstrip": false,
      "normalized": false,
      "special": true
    },
    {
      "id": 10,
      "content": "<file_sep>",
      "single_word": false,
      "lstrip": false,
      "rstrip": false,
      "normalized": false,
      "special": true
    },
    {
      "id": 11,
      "content": "<file_path>",
      "single_word": false,
      "lstrip": false,
      "rstrip": false,
      "normalized": false,
      "special": true
    },
    {
      "id": 12,
      "content": "<tool_call>",
      "single_word": false,
      "lstrip": false,
      "rstrip": false,
      "normalized": false,
      "special": true
    },
    {
      "id": 13,
      "content": "</tool_call>",
      "single_word": false,
      "lstrip": false,
      "rstrip": false,
      "normalized": false,
      "special": true
    },
    {
      "id": 14,
      "content": "<tool_response>",
      "single_word": false,
      "lstrip": false,
      "rstrip": false,
      "normalized": false,
      "special": true
    },
    {
      "id": 15,
      "content": "</tool_response>",
      "single_word": false,
      "lstrip": false,
      "rstrip": false,
      "normalized": false,
      "special": true
    },
    {
      "id": 16,
      "content": "<scratchpad>",
      "single_word": false,
      "lstrip": false,
      "rstrip": false,
      "normalized": false,
      "special": true
    },
    {
      "id": 17,
      "content": "</scratchpad>",
      "single_word": false,
      "lstrip": false,
      "rstrip": false,
      "normalized": false,
      "special": true
    },
    {
      "id": 18,
      "content": "<|system|>",
      "single_word": false,
      "lstrip": false,
      "rstrip": false,
      "normalized": false,
      "special": true
    },
    {
      "id": 19,
      "content": "<|user|>",
      "single_word": false,
      "lstrip": false,
      "rstrip": false,
      "normalized": false,
      "special": true
    },
    {
      "id": 20,
      "content": "<|assistant|>",
      "single_word": false,
      "lstrip": false,
      "rstrip": false,
      "normalized": false,
      "special": true
    }
  ],
  "normalizer": {
    "type": "NFKC"
  },
  "pre_tokenizer": {
    "type": "ByteLevel",
    "add_prefix_space": false,
    "trim_offsets": true,
    "use_regex": true
  },
  "post_processor": {
    "type": "TemplateProcessing",
    "single": [
      {
        "SpecialToken": {
          "id": "<s>",
          "type_id": 0
        }
      },
      {
        "Sequence": {
          "id": "A",
          "type_id": 0
        }
      },
      {
        "SpecialToken": {
          "id": "</s>",
          "type_id": 0
        }
      }
    ],
    "pair": [
      {
        "SpecialToken": {
          "id": "<s>",
          "type_id": 0
        }
      },
      {
        "Sequence": {
          "id": "A",
          "type_id": 0
        }
      },
      {
        "SpecialToken": {
          "id": "</s>",
          "type_id": 0
        }
      },
      {
        "SpecialToken": {
          "id": "<s>",
          "type_id": 0
        }
      },
      {
        "Sequence": {
          "id": "B",
          "type_id": 0
        }
      },
      {
        "SpecialToken": {
          "id": "</s>",
          "type_id": 0
        }
      }
    ],
    "special_tokens": {
      "</s>": {
        "id": "</s>",
        "ids": [
          1
        ],
        "tokens": [
          "</s>"
        ]
      },
      "<s>": {
        "id": "<s>",
        "ids": [
          0
        ],
        "tokens": [
          "<s>"
        ]
      }
    }
  },
  "decoder": {
    "type": "ByteLevel",
    "add_prefix_space": true,
    "trim_offsets": true,
    "use_regex": true
  },
  "model": {
    "type": "BPE",
    "dropout": null,
    "unk_token": null,
    "continuing_subword_prefix": null,
    "end_of_word_suffix": null,
    "fuse_unk": false,
    "byte_fallback": false,
    "ignore_merges": false,
    "vocab": {
      "<s>": 0,
      "</s>": 1,
      "<pad>": 2,
      "<unk>": 3,
      "<fim_prefix>": 4,
      "<fim_suffix>": 5,
      "<fim_middle>": 6,
      "<fim_hole>": 7,
      "<fim_pad>": 8,
      "<repo_name>": 9,
      "<file_sep>": 10,
      "<file_path>": 11,
      "<tool_call>": 12,
      "</tool_call>": 13,
      "<tool_response>": 14,
      "</tool_response>": 15,
      "<scratchpad>": 16,
      "</scratchpad>": 17,
      "<|system|>": 18,
      "<|user|>": 19,
      "<|assistant|>": 20,
      "!": 21,
      "\"": 22,
      "#": 23,
      "$": 24,
      "%": 25,
      "&": 26,
      "'": 27,
      "(": 28,
      ")": 29,
      "*": 30,
      "+": 31,
      ",": 32,
      "-": 33,
      ".": 34,
      "/": 35,
      "0": 36,
      "1": 37,
      "2": 38,
      "3": 39,
      "4": 40,
      "5": 41,
      "6": 42,
      "7": 43,
      "8": 44,
      "9": 45,
      ":": 46,
      ";": 47,
      "<": 48,
      "=": 49,
      ">": 50,
      "?": 51,
      "@": 52,
      "A": 53,
      "B": 54,
      "C": 55,
      "D": 56,
      "E": 57,
      "F": 58,
      "G": 59,
      "H": 60,
      "I": 61,
      "J": 62,
      "K": 63,
      "L": 64,
      "M": 65,
      "N": 66,
      "O": 67,
      "P": 68,
      "Q": 69,
      "R": 70,
      "S": 71,
      "T": 72,
      "U": 73,
      "V": 74,
      "W": 75,
      "X": 76,
      "Y": 77,
      "Z": 78,
      "[": 79,
      "\\": 80,
      "]": 81,
      "^": 82,
      "_": 83,
      "`": 84,
      "a": 85,
      "b": 86,
      "c": 87,
      "d": 88,
      "e": 89,
      "f": 90,
      "g": 91,
      "h": 92,
      "i": 93,
      "j": 94,
      "k": 95,
      "l": 96,
      "m": 97,
      "n": 98,
      "o": 99,
      "p": 100,
      "q": 101,
      "r": 102,
      "s": 103,
      "t": 104,
      "u": 105,
      "v": 106,
      "w": 107,
      "x": 108,
      "y": 109,
      "z": 110,
      "{": 111,
      "|": 112,
      "}": 113,
      "~": 114,
      "¡": 115,
      "¢": 116,
      "£": 117,
      "¤": 118,
      "¥": 119,
      "¦": 120,
      "§": 121,
      "¨": 122,
      "©": 123,
      "ª": 124,
      "«": 125,
      "¬": 126,
      "®": 127,
      "¯": 128,
      "°": 129,
      "±": 130,
      "²": 131,
      "³": 132,
      "´": 133,
      "µ": 134,
      "¶": 135,
      "·": 136,
      "¸": 137,
      "¹": 138,
      "º": 139,
      "»": 140,
      "¼": 141,
      "½": 142,
      "¾": 143,
      "¿": 144,
      "À": 145,
      "Á": 146,
      "Â": 147,
      "Ã": 148,
      "Ä": 149,
      "Å": 150,
      "Æ": 151,
      "Ç": 152,
      "È": 153,
      "É": 154,
      "Ê": 155,
      "Ë": 156,
      "Ì": 157,
      "Í": 158,
      "Î": 159,
      "Ï": 160,
      "Ð": 161,
      "Ñ": 162,
      "Ò": 163,
      "Ó": 164,
      "Ô": 165,
      "Õ": 166,
      "Ö": 167,
      "×": 168,
      "Ø": 169,
      "Ù": 170,
      "Ú": 171,
      "Û": 172,
      "Ü": 173,
      "Ý": 174,
      "Þ": 175,
      "ß": 176,
      "à": 177,
      "á": 178,
      "â": 179,
      "ã": 180,
      "ä": 181,
      "å": 182,
      "æ": 183,
      "ç": 184,
      "è": 185,
      "é": 186,
      "ê": 187,
      "ë": 188,
      "ì": 189,
      "í": 190,
      "î": 191,
      "ï": 192,
      "ð": 193,
      "ñ": 194,
      "ò": 195,
      "ó": 196,
      "ô": 197,
      "õ": 198,
      "ö": 199,
      "÷": 200,
      "ø": 201,
      "ù": 202,
      "ú": 203,
      "û": 204,
      "ü": 205,
      "ý": 206,
      "þ": 207,
      "ÿ": 208,
      "Ā": 209,
      "ā": 210,
      "Ă": 211,
      "ă": 212,
      "Ą": 213,
      "ą": 214,
      "Ć": 215,
      "ć": 216,
      "Ĉ": 217,
      "ĉ": 218,
      "Ċ": 219,
      "ċ": 220,
      "Č": 221,
      "č": 222,
      "Ď": 223,
      "ď": 224,
      "Đ": 225,
      "đ": 226,
      "Ē": 227,
      "ē": 228,
      "Ĕ": 229,
      "ĕ": 230,
      "Ė": 231,
      "ė": 232,
      "Ę": 233,
      "ę": 234,
      "Ě": 235,
      "ě": 236,
      "Ĝ": 237,
      "ĝ": 238,
      "Ğ": 239,
      "ğ": 240,
      "Ġ": 241,
      "ġ": 242,
      "Ģ": 243,
      "ģ": 244,
      "Ĥ": 245,
      "ĥ": 246,
      "Ħ": 247,
      "ħ": 248,
      "Ĩ": 249,
      "ĩ": 250,
      "Ī": 251,
      "ī": 252,
      "Ĭ": 253,
      "ĭ": 254,
      "Į": 255,
      "į": 256,
      "İ": 257,
      "ı": 258,
      "Ĳ": 259,
      "ĳ": 260,
      "Ĵ": 261,
      "ĵ": 262,
      "Ķ": 263,
      "ķ": 264,
      "ĸ": 265,
      "Ĺ": 266,
      "ĺ": 267,
      "Ļ": 268,
      "ļ": 269,
      "Ľ": 270,
      "ľ": 271,
      "Ŀ": 272,
      "ŀ": 273,
      "Ł": 274,
      "ł": 275,
      "Ń": 276,
      "ãģ": 277,
      "ãĥ": 278,
      "in": 279,
      "on": 280,
      "er": 281,
      "or": 282,
      "ãĤ": 283,
      "at": 284,
      "Ġt": 285,
      "ĠĠ": 286,
      "re": 287,
      "en": 288,
      "Ġa": 289,
      "st": 290,
      "se": 291,
      "ion": 292,
      "de": 293,
      "al": 294,
      "ct": 295,
      "ro": 296,
      "im": 297,
      "ing": 298,
      "he": 299,
      "it": 300,
      "Ġf": 301,
      "iz": 302,
      "ra": 303,
      "ss": 304,
      "Ġn": 305,
      "ut": 306,
      "Ġc": 307,
      "int": 308,
      "Ġ{": 309,
      "ch": 310,
      "ent": 311,
      "Ġre": 312,
      "Ġ=": 313,
      "ĠĠĠ": 314,
      "Ġp": 315,
      "Ġd": 316,
      "ort": 317,
      "ize": 318,
      "lo": 319,
      "port": 320,
      "Ġ(": 321,
      "ex": 322,
      "orm": 323,
      "ation": 324,
      "ãĥ¼": 325,
      "Ġthe": 326,
      "am": 327,
      "import": 328,
      "rom": 329,
      "ce": 330,
      "le": 331,
      "Ġst": 332,
      "ma": 333,
      "ser": 334,
      "def": 335,
      "id": 336,
      "Ġu": 337,
      "ãģĻ": 338,
      "ata": 339,
      "Ġo": 340,
      "ãĢ": 341,
      "ĊĠĠĠ": 342,
      "Ġ-": 343,
      "ãĢĤ": 344,
      "ur": 345,
      "ãĤĴ": 346,
      "Ġs": 347,
      "()": 348,
      "et": 349,
      "il": 350,
      "00": 351,
      "ig": 352,
      "Ġb": 353,
      "pe": 354,
      "co": 355,
      "Ġto": 356,
      ");": 357,
      "cl": 358,
      "orch": 359,
      "Ġas": 360,
      "ed": 361,
      "lf": 362,
      "ul": 363,
      "Ġe": 364,
      "Ġint": 365,
      "ãģ¯": 366,
      "Ġtra": 367,
      "::": 368,
      "con": 369,
      "Ġ<": 370,
      "ãģ§": 371,
      "ãģ®": 372,
      "ãĥ³": 373,
      "Ġtorch": 374,
      "ty": 375,
      "self": 376,
      "nc": 377,
      "as": 378,
      "Ġ'": 379,
      "ĠC": 380,
      "ĠR": 381,
      "Ġstr": 382,
      "ult": 383,
      "pt": 384,
      "Ġm": 385,
      "ode": 386,
      "ue": 387,
      "odel": 388,
      "The": 389,
      "pp": 390,
      "pre": 391,
      "val": 392,
      "ync": 393,
      "¾ãģĻ": 394,
      "Ĺãģ": 395,
      "ãģĹãģ": 396,
      "ãĥ©": 397,
      "ãĤ¹": 398,
      "ction": 399,
      "ar": 400,
      "es": 401,
      "form": 402,
      "from": 403,
      "fig": 404,
      "js": 405,
      "ude": 406,
      "Ġ}": 407,
      "Ġimport": 408,
      "ãģ«": 409,
      "incl": 410,
      "type": 411,
      "json": 412,
      "include": 413,
      "Ġin": 414,
      "Ġres": 415,
      "ay": 416,
      "ht": 417,
      "ps": 418,
      "put": 419,
      "ine": 420,
      "ith": 421,
      "Ġsize": 422,
      "an": 423,
      "Ġw": 424,
      "Ġdata": 425,
      "ãĥ¼ãĥ": 426,
      "Ġuse": 427,
      "ens": 428,
      "di": 429,
      "Ġcon": 430,
      "__": 431,
      "ect": 432,
      "iv": 433,
      "tur": 434,
      "use": 435,
      "user": 436,
      "ĠD": 437,
      "ĠO": 438,
      "ĠS": 439,
      "Ġl": 440,
      "Ġan": 441,
      "ame": 442,
      "Ġ->": 443,
      "turn": 444,
      "ial": 445,
      "ining": 446,
      "Ġfrom": 447,
      "ext": 448,
      "Ġtraining": 449,
      "un": 450,
      "Ġ0": 451,
      "Ġi": 452,
      "der": 453,
      "ff": 454,
      "ge": 455,
      "Ġlo": 456,
      "ck": 457,
      "ns": 458,
      "vo": 459,
      "Ġdi": 460,
      "ly": 461,
      "Ġ1": 462,
      "Ġg": 463,
      ":\"": 464,
      "IN": 465,
      "Ġ\"": 466,
      "ĠF": 467,
      "ĠP": 468,
      "ĠT": 469,
      "Ġx": 470,
      "ãģ¨": 471,
      "ãģĦ": 472,
      "ãĥĪ": 473,
      "Ġreturn": 474,
      "expre": 475,
      "ations": 476,
      "ãĥ¼ãĤ": 477,
      "amp": 478,
      "mail": 479,
      "void": 480,
      "express": 481,
      "ic": 482,
      "text": 483,
      "ayer": 484,
      "tent": 485,
      "ance": 486,
      "um": 487,
      "ver": 488,
      "¦ç": 489,
      "Ġse": 490,
      "Ġval": 491,
      "ãĤ¤": 492,
      "ãĤ¯": 493,
      "rop": 494,
      "nsform": 495,
      "ding": 496,
      "ub": 497,
      "Ġen": 498,
      "Ġpro": 499,
      "ad": 500,
      "Ġma": 501,
      "Ġnorm": 502,
      "Ġpre": 503,
      "Ġof": 504,
      "ER": 505,
      "ap": 506,
      "git": 507,
      "ho": 508,
      "model": 509,
      "nn": 510,
      "of": 511,
      "que": 512,
      "};": 513,
      "ä½": 514,
      "åĪ": 515,
      "çĶ": 516,
      "Ġ?": 517,
      "ĠA": 518,
      "ĠM": 519,
      "ĠN": 520,
      "Ġdef": 521,
      "ãģ¦": 522,
      "ãĥĨ": 523,
      "ãĥĩ": 524,
      "one": 525,
      "onfig": 526,
      "ath": 527,
      "ĠĠĠĠ": 528,
      "ime": 529,
      "Ġ=>": 530,
      "Ġasync": 531,
      "::{": 532,
      "const": 533,
      "ãģ§ãģĻ": 534,
      "ash": 535,
      "Ġstring": 536,
      "ãģĹãģ¾ãģĻ": 537,
      "htt": 538,
      "ialize": 539,
      "çĶ¨": 540,
      "li": 541,
      "os": 542,
      "ĠL": 543,
      "ptim": 544,
      "out": 545,
      "size": 546,
      "unction": 547,
      "tention": 548,
      "ase": 549,
      "ug": 550,
      "ure": 551,
      "è¨": 552,
      "Ġde": 553,
      "ãģĮ": 554,
      "ãģ¾ãģĻ": 555,
      "ãĥª": 556,
      "ross": 557,
      "Ġtok": 558,
      "Ġtransform": 559,
      "ive": 560,
      "radi": 561,
      "Ġout": 562,
      "Ġinput": 563,
      "Ġand": 564,
      "Ġenco": 565,
      "Ġnormal": 566,
      "radient": 567,
      "ab": 568,
      "Ġh": 569,
      "';": 570,
      "))": 571,
      "):": 572,
      "Er": 573,
      "Ser": 574,
      "ait": 575,
      "ass": 576,
      "data": 577,
      "el": 578,
      "eque": 579,
      "lle": 580,
      "lone": 581,
      "name": 582,
      "optim": 583,
      "ror": 584,
      "wait": 585,
      "}'": 586,
      "è¦": 587,
      "Ġ*": 588,
      "Ġ+": 589,
      "Ġ:": 590,
      "ĠV": 591,
      "Ġy": 592,
      "Ġid": 593,
      "ĠIN": 594,
      "ãĤ°": 595,
      "atch": 596,
      "atic": 597,
      "Ġapp": 598,
      "Ġawait": 599,
      "std": 600,
      "static": 601,
      "izer": 602,
      "ssion": 603,
      "Ġnn": 604,
      "Ġname": 605,
      "uto": 606,
      "define": 607,
      "url": 608,
      "ãĤĴè": 609,
      "com": 610,
      "Ġemail": 611,
      "ãģ§ãģ¯": 612,
      "ãĥ³ãĥ": 613,
      "ĠConfig": 614,
      "ĠRes": 615,
      "ãģĹãģ¦": 616,
      "Ġresult": 617,
      "api": 618,
      "ä½¿": 619,
      "Layer": 620,
      "app": 621,
      "age": 622,
      "ack": 623,
      "che": 624,
      "du": 625,
      "ew": 626,
      "ist": 627,
      "ke": 628,
      "ate": 629,
      "ated": 630,
      "set": 631,
      "loat": 632,
      "Ġwith": 633,
      "cross": 634,
      "eig": 635,
      "attention": 636,
      "ener": 637,
      "Ġfor": 638,
      "Ġnum": 639,
      "Ġdim": 640,
      "Ġis": 641,
      "Ġproce": 642,
      "eight": 643,
      "act": 644,
      "ds": 645,
      "io": 646,
      "net": 647,
      "ock": 648,
      "qu": 649,
      "sent": 650,
      "§ĭ": 651,
      "åĲ": 652,
      "æĢ": 653,
      "æķ": 654,
      "æ§ĭ": 655,
      "Ġ3": 656,
      "Ġon": 657,
      "Ġle": 658,
      "ĲĨ": 659,
      "ķãĤ": 660,
      "ãģª": 661,
      "ãĥĥ": 662,
      "ãĥĹ": 663,
      "ãĥŃ": 664,
      "ãĤ³": 665,
      "ãĤµ": 666,
      "Ġth": 667,
      "ence": 668,
      "Ġad": 669,
      "Ġact": 670,
      "ization": 671,
      "Ġrepre": 672,
      "Ġme": 673,
      "Ġloss": 674,
      "Ġoutput": 675,
      "æĢ§": 676,
      "Ġactiv": 677,
      "Ġrepresent": 678,
      "100": 679,
      "po": 680,
      "Ġlr": 681,
      "head": 682,
      "\"`": 683,
      "${": 684,
      "&&": 685,
      "'/": 686,
      "':": 687,
      "(|": 688,
      "('/": 689,
      "),": 690,
      ").": 691,
      "//": 692,
      "://": 693,
      "=-": 694,
      "Con": 695,
      "ES": 696,
      "EX": 697,
      "Git": 698,
      "Hash": 699,
      "IM": 700,
      "LU": 701,
      "Model": 702,
      "Norm": 703,
      "RO": 704,
      "ST": 705,
      "Se": 706,
      "Tens": 707,
      "User": 708,
      "ail": 709,
      "ault": 710,
      "ca": 711,
      "cf": 712,
      "ec": 713,
      "eser": 714,
      "email": 715,
      "get": 716,
      "ict": 717,
      "iel": 718,
      "norm": 719,
      "ol": 720,
      "ool": 721,
      "pon": 722,
      "tr": 723,
      "ter": 724,
      "up": 725,
      "uct": 726,
      "å®": 727,
      "åĩ": 728,
      "åŃ": 729,
      "éĸ": 730,
      "Ġ.": 731,
      "Ġ2": 732,
      "Ġ>": 733,
      "ĠW": 734,
      "Ġ`": 735,
      "Ġ__": 736,
      "Ġexpress": 737,
      "Ġhtt": 738,
      "ĠEr": 739,
      "Ġ${": 740,
      "Ġ&&": 741,
      "ģãģ§ãģĻ": 742,
      "ãĥ«": 743,
      "ãĥĲ": 744,
      "ãĥĸ": 745,
      "error": 746,
      "Ġtime": 747,
      "reated": 748,
      "allo": 749,
      "ition": 750,
      "Ġfn": 751,
      "Ġfet": 752,
      "Ġcance": 753,
      "Ġcreated": 754,
      "logit": 755,
      "Ġ((": 756,
      "examp": 757,
      "aml": 758,
      "Ġstd": 759,
      "max": 760,
      "sers": 761,
      "Ġusers": 762,
      "Ġok": 763,
      "(),": 764,
      "colle": 765,
      "class": 766,
      "Ġeps": 767,
      "config": 768,
      "ãĥ³ãĤ°": 769,
      "ĠClone": 770,
      "ĠReque": 771,
      "Ġstruct": 772,
      "ãĤ¹ãĥĪ": 773,
      "ctions": 774,
      "ãģ«ãģ¯": 775,
      "typedef": 776,
      "Ġresp": 777,
      "Ġsizeof": 778,
      "ãĥ¼ãĥī": 779,
      "users": 780,
      "ĠData": 781,
      "ĠDeser": 782,
      "Ġlog": 783,
      "Ġdict": 784,
      "Ġ100": 785,
      "ãģĦãģ¦": 786,
      "¦çĲĨ": 787,
      "Ġsession": 788,
      "Ġmain": 789,
      "host": 790,
      "ĠAuto": 791,
      "Ġdefault": 792,
      "ãĥĩãĥ¼ãĤ": 793,
      "ĠĠĠĠĠĠĠ": 794,
      "http": 795,
      "lib": 796,
      "osition": 797,
      "Server": 798,
      "optimizer": 799,
      "è¦ģãģ§ãģĻ": 800,
      "Ġyaml": 801,
      "ĠINT": 802,
      "ĠRespon": 803,
      "Tensor": 804,
      "cfg": 805,
      "ield": 806,
      "åĩ¦çĲĨ": 807,
      "Ġhttps": 808,
      "ĠErr": 809,
      "alloc": 810,
      "Ġfetch": 811,
      "Ġcancel": 812,
      "logits": 813,
      "example": 814,
      "ĠRequest": 815,
      "ĠDeserialize": 816,
      "ĠResponse": 817,
      "ara": 818,
      "cay": 819,
      "dul": 820,
      "for": 821,
      "line": 822,
      "ms": 823,
      "met": 824,
      "no": 825,
      "ot": 826,
      "oint": 827,
      "pro": 828,
      "prop": 829,
      "ri": 830,
      "rue": 831,
      "uo": 832,
      "us": 833,
      "war": 834,
      "Ġit": 835,
      "Ġself": 836,
      "ers": 837,
      "ore": 838,
      "ork": 839,
      "Ġtrue": 840,
      "ses": 841,
      "all": 842,
      "cted": 843,
      "Ġfloat": 844,
      "Ġnew": 845,
      "Ġco": 846,
      "entrop": 847,
      "Ġredu": 848,
      "Ġweight": 849,
      "Ġcontext": 850,
      "ffect": 851,
      "chedul": 852,
      "key": 853,
      "Ġprocess": 854,
      "ward": 855,
      "Ġiter": 856,
      "entropy": 857,
      "Ġreduce": 858,
      "cheduler": 859,
      "Gradient": 860,
      "ag": 861,
      "bit": 862,
      "bed": 863,
      "cre": 864,
      "gre": 865,
      "is": 866,
      "ject": 867,
      "mbed": 868,
      "ning": 869,
      "ual": 870,
      "vent": 871,
      "vect": 872,
      "Ġvect": 873,
      "erform": 874,
      "ates": 875,
      "Ġacross": 876,
      "roug": 877,
      "Ġfe": 878,
      "Ġfunction": 879,
      "Ġperform": 880,
      "Ġdur": 881,
      "izes": 882,
      "Ġsto": 883,
      "idation": 884,
      "Ġus": 885,
      "etw": 886,
      "Ġby": 887,
      "Ġbase": 888,
      "Ġembed": 889,
      "Ġinto": 890,
      "Ġmodel": 891,
      "pping": 892,
      "arning": 893,
      "Ġuses": 894,
      "ension": 895,
      "Ġgradient": 896,
      "Ġgener": 897,
      "Ġsequ": 898,
      "Ġvalidation": 899,
      "Ġprevent": 900,
      "Ġtokens": 901,
      "Ġtransformations": 902,
      "Ġencoder": 903,
      "Ġnormalization": 904,
      "Ġdimension": 905,
      "Ġlearning": 906,
      "Ġthroug": 907,
      "Ġadds": 908,
      "Ġactivations": 909,
      "Ġrepresentations": 910,
      "gress": 911,
      "jects": 912,
      "Ġvector": 913,
      "Ġperformance": 914,
      "Ġduring": 915,
      "Ġbased": 916,
      "Ġembedding": 917,
      "Ġgenerates": 918,
      "Ġthrough": 919,
      "Ty": 920,
      "eact": 921,
      "¡Į": 922,
      "¯ī": 923,
      "¿Ĵ": 924,
      "ä¸": 925,
      "ä»": 926,
      "ä¾": 927,
      "å¤": 928,
      "å¾": 929,
      "åī": 930,
      "åĬ": 931,
      "æľ": 932,
      "çı": 933,
      "ç¯ī": 934,
      "éĩ": 935,
      "Ģè": 936,
      "įè¦ģãģ§ãģĻ": 937,
      "ãģı": 938,
      "ãĥ¢": 939,
      "ãĥ¥": 940,
      "ãĥ§": 941,
      "ãĥ¬": 942,
      "ãĥģ": 943,
      "ãĥł": 944,
      "ãĥķãĤ": 945,
      "ãĤ¨": 946,
      "ãĤª": 947,
      "ãĤ»": 948,
      "ãĤĭ": 949,
      "ãĤı": 950,
      "ree": 951,
      "ãĤĴçĶ¨": 952,
      "ãĤĴä½¿": 953,
      "async": 954,
      "ãĥ©ãĥ³": 955,
      "ãĥ©ãĤ¤": 956,
      "ãģ¨ãģĹãģ¦": 957,
      "ãģĦãģ¾ãģĻ": 958,
      "¦ç¿Ĵ": 959,
      "åĪĨ": 960,
      "ãģĮéĩ": 961,
      "ocker": 962,
      "æķ°": 963,
      "æ§ĭç¯ī": 964,
      "ãĥĥãĤ¯": 965,
      "ãĥĹãĥŃ": 966,
      "ãĤµãĥ¼ãĥ": 967,
      "åŃ¦ç¿Ĵ": 968,
      "ãĥĸãĥ©": 969,
      "ãĥĩãĥ¼ãĤ¿": 970,
      "Type": 971,
      "çı¾": 972,
      "ãģĮéĩįè¦ģãģ§ãģĻ": 973,
      "16": 974,
      "64": 975,
      "ust": 976,
      "000": 977,
      "heads": 978,
      "layer": 979,
      "Ġ16": 980,
      "!/": 981,
      "\":\"": 982,
      "\"}'": 983,
      "#[": 984,
      "#!/": 985,
      "$(": 986,
      "%@": 987,
      "',": 988,
      "');": 989,
      "((": 990,
      "(`": 991,
      ")[": 992,
      ")]": 993,
      ")}'": 994,
      "+)": 995,
      "++)": 996,
      "._": 997,
      "24": 998,
      "99": 999,
      "<_": 1000,
      ">>": 1001,
      "?,": 1002,
      "AP": 1003,
      "AT": 1004,
      "AX": 1005,
      "AY": 1006,
      "Ad": 1007,
      "Ar": 1008,
      "At": 1009,
      "Ann": 1010,
      "ALU": 1011,
      "BY": 1012,
      "CR": 1013,
      "CT": 1014,
      "Config": 1015,
      "Cli": 1016,
      "Call": 1017,
      "De": 1018,
      "DER": 1019,
      "Deque": 1020,
      "DEX": 1021,
      "Dict": 1022,
      "EL": 1023,
      "EO": 1024,
      "Ex": 1025,
      "Effect": 1026,
      "EAT": 1027,
      "ECT": 1028,
      "Function": 1029,
      "GLU": 1030,
      "He": 1031,
      "Ho": 1032,
      "Hub": 1033,
      "HER": 1034,
      "IF": 1035,
      "IK": 1036,
      "IT": 1037,
      "IZ": 1038,
      "In": 1039,
      "IST": 1040,
      "LR": 1041,
      "Lo": 1042,
      "List": 1043,
      "Lock": 1044,
      "MS": 1045,
      "Me": 1046,
      "Mo": 1047,
      "Map": 1048,
      "OT": 1049,
      "OST": 1050,
      "RR": 1051,
      "Res": 1052,
      "RDER": 1053,
      "RMS": 1054,
      "Sc": 1055,
      "St": 1056,
      "Set": 1057,
      "SER": 1058,
      "SEL": 1059,
      "SIZ": 1060,
      "Tc": 1061,
      "To": 1062,
      "Time": 1063,
      "UT": 1064,
      "Un": 1065,
      "Vec": 1066,
      "With": 1067,
      "]))": 1068,
      "`);": 1069,
      "ace": 1070,
      "ader": 1071,
      "auto": 1072,
      "bf": 1073,
      "bin": 1074,
      "ber": 1075,
      "bash": 1076,
      "bug": 1077,
      "back": 1078,
      "bool": 1079,
      "cu": 1080,
      "curl": 1081,
      "da": 1082,
      "dtype": 1083,
      "docker": 1084,
      "eal": 1085,
      "elf": 1086,
      "euo": 1087,
      "fm": 1088,
      "fu": 1089,
      "fin": 1090,
      "fil": 1091,
      "function": 1092,
      "fail": 1093,
      "face": 1094,
      "ger": 1095,
      "gra": 1096,
      "gith": 1097,
      "hre": 1098,
      "if": 1099,
      "ise": 1100,
      "ipe": 1101,
      "iGLU": 1102,
      "iHe": 1103,
      "ken": 1104,
      "lamp": 1105,
      "lic": 1106,
      "late": 1107,
      "mo": 1108,
      "math": 1109,
      "match": 1110,
      "npro": 1111,
      "nore": 1112,
      "ole": 1113,
      "oun": 1114,
      "pl": 1115,
      "py": 1116,
      "ping": 1117,
      "pub": 1118,
      "pack": 1119,
      "para": 1120,
      "pList": 1121,
      "ring": 1122,
      "rder": 1123,
      "sw": 1124,
      "sync": 1125,
      "sof": 1126,
      "scheduler": 1127,
      "sole": 1128,
      "tat": 1129,
      "torch": 1130,
      "tial": 1131,
      "time": 1132,
      "tmax": 1133,
      "uint": 1134,
      "uil": 1135,
      "with": 1136,
      "wLock": 1137,
      "wiGLU": 1138,
      "ys": 1139,
      "yho": 1140,
      "yield": 1141,
      "yping": 1142,
      "{\"": 1143,
      "},": 1144,
      "}`);": 1145,
      "¢ãĥ¼ãĤ": 1146,
      "¢æķ°": 1147,
      "£ãģ¦": 1148,
      "¤ľ": 1149,
      "©Ł": 1150,
      "ªå": 1151,
      "«ĺ": 1152,
      "·±": 1153,
      "·ãĤ¹": 1154,
      "·ãĥ§": 1155,
      "åħ": 1156,
      "åı": 1157,
      "åŀ": 1158,
      "æ¨": 1159,
      "æĪ": 1160,
      "æĮ": 1161,
      "æį": 1162,
      "æĸ": 1163,
      "æ¤ľ": 1164,
      "æ©Ł": 1165,
      "ç´": 1166,
      "çİ": 1167,
      "çĻ": 1168,
      "çļ": 1169,
      "èĥ": 1170,
      "éĢ": 1171,
      "éģ": 1172,
      "éĿ": 1173,
      "é«ĺ": 1174,
      "Ġ/": 1175,
      "Ġ|": 1176,
      "Ġser": 1177,
      "Ġig": 1178,
      "Ġjson": 1179,
      "Ġens": 1180,
      "ĠER": 1181,
      "ĠEX": 1182,
      "ĠHash": 1183,
      "ĠUser": 1184,
      "Ġerror": 1185,
      "ĠBY": 1186,
      "ĠHo": 1187,
      "ĠIF": 1188,
      "ĠUn": 1189,
      "Ħãĥ¼ãĥ": 1190,
      "ĩãģ«": 1191,
      "ĩªå": 1192,
      "Īãģ§ãģ¯": 1193,
      "ĭķ": 1194,
      "ĭãĤ": 1195,
      "ĭçĻ": 1196,
      "Įãģ¾ãģĻ": 1197,
      "ĳãĤ¤": 1198,
      "ĵãĤ¹": 1199,
      "ĵãģ¨": 1200,
      "ķ¥": 1201,
      "Ļãĥ¼": 1202,
      "ŃãĥĨ": 1203,
      "Ńè¨": 1204,
      "ãģķ": 1205,
      "ãģĽ": 1206,
      "ãģķãĤ": 1207,
      "ãģ£ãģ¦": 1208,
      "ãģĵãģ¨": 1209,
      "ãĥ£": 1210,
      "ãĥŀ": 1211,
      "ãĥŁ": 1212,
      "ãĥĻãĥ¼": 1213,
      "inst": 1214,
      "inde": 1215,
      "init": 1216,
      "ontext": 1217,
      "ert": 1218,
      "erty": 1219,
      "erialize": 1220,
      "erLayer": 1221,
      "erface": 1222,
      "ãĤĦ": 1223,
      "ãĤ·ãĤ¹": 1224,
      "Ġtyping": 1225,
      "req": 1226,
      "return": 1227,
      "react": 1228,
      "repo": 1229,
      "end": 1230,
      "enco": 1231,
      "Ġaction": 1232,
      "Ġaio": 1233,
      "stdi": 1234,
      "stamp": 1235,
      "string": 1236,
      "ional": 1237,
      "decay": 1238,
      "alse": 1239,
      "alue": 1240,
      "ally": 1241,
      "ctx": 1242,
      "ctool": 1243,
      "impl": 1244,
      "ingLR": 1245,
      "itch": 1246,
      "Ġfun": 1247,
      "Ġfield": 1248,
      "Ġfree": 1249,
      "Ġfalse": 1250,
      "raps": 1251,
      "ransform": 1252,
      "Ġnp": 1253,
      "utex": 1254,
      "util": 1255,
      "Ġcd": 1256,
      "Ġcle": 1257,
      "Ġcase": 1258,
      "Ġclone": 1259,
      "Ġcalloc": 1260,
      "Ġclamp": 1261,
      "into": 1262,
      "interface": 1263,
      "entSe": 1264,
      "Ġrepo": 1265,
      "Ġ==": 1266,
      "Ġpar": 1267,
      "Ġpath": 1268,
      "Ġptr": 1269,
      "Ġpipe": 1270,
      "log": 1271,
      "low": 1272,
      "loss": 1273,
      "Ġ():": 1274,
      "Ġ(?,": 1275,
      "exce": 1276,
      "ãĥ¼ãĤĴ": 1277,
      "amW": 1278,
      "romise": 1279,
      "map": 1280,
      "main": 1281,
      "defer": 1282,
      "Ġuint": 1283,
      "ãģĻãĤĭ": 1284,
      "Ġos": 1285,
      "ãĤĴæ§ĭç¯ī": 1286,
      "Ġsys": 1287,
      "();": 1288,
      "());": 1289,
      "()),": 1290,
      "001": 1291,
      "Ġbail": 1292,
      "Ġbuil": 1293,
      "pected": 1294,
      "clas": 1295,
      "edDict": 1296,
      "ãģ¯ãĤ³": 1297,
      "::<": 1298,
      "cond": 1299,
      "context": 1300,
      "console": 1301,
      "ãģ®å": 1302,
      "ãģ®ãĥĲ": 1303,
      "Ġ'__": 1304,
      "Ġ'%@": 1305,
      "Ġ'{\"": 1306,
      "ĠCos": 1307,
      "ĠCoun": 1308,
      "ĠContext": 1309,
      "ĠRout": 1310,
      "ĠReact": 1311,
      "ĠRwLock": 1312,
      "ultiHe": 1313,
      "pthre": 1314,
      "ptional": 1315,
      "Ġmath": 1316,
      "Ġmalloc": 1317,
      "valid": 1318,
      "ãĤ¹ãģ®": 1319,
      "Ġ};": 1320,
      "Ġinline": 1321,
      "ineAnn": 1322,
      "anup": 1323,
      "Ġwraps": 1324,
      "Ġdataclass": 1325,
      "Ġdataclas": 1326,
      "ĠuseCall": 1327,
      "ĠuseEffect": 1328,
      "ĠuseMe": 1329,
      "ĠuseSt": 1330,
      "dict": 1331,
      "Ġconfig": 1332,
      "__(": 1333,
      "__':": 1334,
      "ĠDES": 1335,
      "ĠDict": 1336,
      "ĠOK": 1337,
      "ĠON": 1338,
      "ĠOk": 1339,
      "ĠORDER": 1340,
      "ĠOrder": 1341,
      "ĠOptional": 1342,
      "ĠSync": 1343,
      "ĠSelf": 1344,
      "ĠStat": 1345,
      "ĠSwiGLU": 1346,
      "ĠSerialize": 1347,
      "ĠSend": 1348,
      "Ġlen": 1349,
      "Ġlab": 1350,
      "Ġanyho": 1351,
      "extFunction": 1352,
      "derive": 1353,
      "ffn": 1354,
      "Ġgot": 1355,
      "INSER": 1356,
      "ĠFRO": 1357,
      "ĠFlow": 1358,
      "ĠPort": 1359,
      "ĠPath": 1360,
      "ĠPoint": 1361,
      "ĠPOST": 1362,
      "ĠPromise": 1363,
      "ĠTIM": 1364,
      "ĠTup": 1365,
      "ĠTransform": 1366,
      "ãĤ¯ãĥģ": 1367,
      "Ġenum": 1368,
      "adAt": 1369,
      "Ġmake": 1370,
      "hod": 1371,
      "ä½ľ": 1372,
      "åĪĹ": 1373,
      "Ġ?,": 1374,
      "Ġ?);": 1375,
      "ĠAge": 1376,
      "ĠARR": 1377,
      "ĠMIN": 1378,
      "ĠMAX": 1379,
      "ĠMutex": 1380,
      "ĠMultiHe": 1381,
      "ĠNone": 1382,
      "ĠNew": 1383,
      "ĠNOT": 1384,
      "ĠNextFunction": 1385,
      "ãĥĨãĤ¹ãĥĪ": 1386,
      "ãĥĨãĥł": 1387,
      "ãĥĩãĥ«": 1388,
      "ĠĠĠĠĠĠĠĠĠĠĠ": 1389,
      "ĠList": 1390,
      "ĠLIM": 1391,
      "ĠLIK": 1392,
      "sizeof": 1393,
      "è¨¼": 1394,
      "è¨Ńè¨": 1395,
      "Ġdeque": 1396,
      "Ġtokio": 1397,
      "Ġtransformers": 1398,
      "able": 1399,
      "Ġhi": 1400,
      "Ġhash": 1401,
      "Error": 1402,
      "Serialize": 1403,
      "assert": 1404,
      "els": 1405,
      "llections": 1406,
      "}')": 1407,
      "è¦ı": 1408,
      "Ġ:=": 1409,
      "ĠVec": 1410,
      "ĠVALU": 1411,
      "ĠValue": 1412,
      "Ġidx": 1413,
      "ĠINDEX": 1414,
      "ãĤ°ãĥ©": 1415,
      "Ġapplic": 1416,
      "stdint": 1417,
      "stdlib": 1418,
      "stdbool": 1419,
      "staticmet": 1420,
      "ãĤĴè¡Į": 1421,
      "ĠResult": 1422,
      "ä½¿ãĤı": 1423,
      "LayerNorm": 1424,
      "dule": 1425,
      "Ġforward": 1426,
      "Ġnumber": 1427,
      "Ġnumpy": 1428,
      "Ġisinst": 1429,
      "åĲĪ": 1430,
      "æķ£": 1431,
      "Ġ30": 1432,
      "ãĤ³ãĥ¼ãĥī": 1433,
      "æĢ§ãģ®": 1434,
      "100000": 1435,
      "Ġlru": 1436,
      "Context": 1437,
      "Content": 1438,
      "GitHub": 1439,
      "HashMap": 1440,
      "ROR": 1441,
      "Second": 1442,
      "cast": 1443,
      "cache": 1444,
      "try": 1445,
      "å®Ł": 1446,
      "éĸ¢æķ°": 1447,
      "éĸĭçĻ": 1448,
      "ĠWork": 1449,
      "ĠWHER": 1450,
      "Ġtimestamp": 1451,
      "collect": 1452,
      "collections": 1453,
      "ĠDataset": 1454,
      "ĠDataLo": 1455,
      "Ġlogs": 1456,
      "Ġlogger": 1457,
      "ĠAutoModel": 1458,
      "ĠAutoTo": 1459,
      "Ġdefaultdict": 1460,
      "ĠINTO": 1461,
      "property": 1462,
      "ript": 1463,
      "Ġcollections": 1464,
      "Ġiterable": 1465,
      "ä¸Ģè": 1466,
      "å¤§": 1467,
      "åĬĽ": 1468,
      "ãģıä½¿ãĤı": 1469,
      "ãĥ¢ãĥĩãĥ«": 1470,
      "ãĥķãĤ©": 1471,
      "ãĤ¨ãĥ©": 1472,
      "ãĤĴçĶ¨ãģĦãģ¦": 1473,
      "ãĤĴä½¿çĶ¨": 1474,
      "ãĥ©ãĥ³ãĤ¹": 1475,
      "ãĥ©ãĤ¤ãĥĸãĥ©": 1476,
      "åĪĨæķ£": 1477,
      "ãĥĥãĤ¯ãĤ¹": 1478,
      "ãĥĹãĥŃãĤ°ãĥ©": 1479,
      "ãĤµãĥ¼ãĥĵãĤ¹": 1480,
      "åŃ¦ç¿Ĵãĥ¢ãĥĩãĥ«": 1481,
      "<_>>": 1482,
      "AdamW": 1483,
      "Arc": 1484,
      "CREAT": 1485,
      "ClientSe": 1486,
      "Debug": 1487,
      "EOUT": 1488,
      "Expected": 1489,
      "Invalid": 1490,
      "ISTS": 1491,
      "Module": 1492,
      "Result": 1493,
      "RMSNorm": 1494,
      "Script": 1495,
      "SELECT": 1496,
      "SIZE": 1497,
      "TcpList": 1498,
      "Timeout": 1499,
      "WithTimeout": 1500,
      "autocast": 1501,
      "bfloat": 1502,
      "cuda": 1503,
      "ealingLR": 1504,
      "fmt": 1505,
      "func": 1506,
      "finally": 1507,
      "filter": 1508,
      "functional": 1509,
      "grad": 1510,
      "github": 1511,
      "kenizer": 1512,
      "latest": 1513,
      "nproc": 1514,
      "package": 1515,
      "params": 1516,
      "switch": 1517,
      "softmax": 1518,
      "¢ãĥ¼ãĤŃãĥĨ": 1519,
      "åı¯": 1520,
      "åŀĭ": 1521,
      "çİĩ": 1522,
      "çļĦ": 1523,
      "èĥ½": 1524,
      "éģ©": 1525,
      "Ġserde": 1526,
      "Ġignore": 1527,
      "Ġensure": 1528,
      "ĠERROR": 1529,
      "ĠEXISTS": 1530,
      "ĠHashSet": 1531,
      "ĠHost": 1532,
      "ĠUnion": 1533,
      "Ħãĥ¼ãĥ«": 1534,
      "ãģĵãģ¨ãģ§": 1535,
      "ãĥĻãĥ¼ãĤ¹ãģ®": 1536,
      "index": 1537,
      "ãĤ·ãĤ¹ãĥĨãĥł": 1538,
      "encoding": 1539,
      "Ġaiohttp": 1540,
      "stdio": 1541,
      "ctools": 1542,
      "Ġfunctools": 1543,
      "utils": 1544,
      "Ġcleanup": 1545,
      "Ġpartial": 1546,
      "Ġpathlib": 1547,
      "Ġpipefail": 1548,
      "except": 1549,
      "ãģĻãĤĭãģĵãģ¨ãģ§": 1550,
      "Ġbuild": 1551,
      "ĠCosineAnn": 1552,
      "ĠCounter": 1553,
      "ĠRouter": 1554,
      "pthread": 1555,
      "Ġdataclasses": 1556,
      "ĠuseCallback": 1557,
      "ĠuseMemo": 1558,
      "ĠuseState": 1559,
      "ĠDESC": 1560,
      "ĠOrderedDict": 1561,
      "ĠStatus": 1562,
      "Ġlabels": 1563,
      "Ġanyhow": 1564,
      "INSERT": 1565,
      "ĠFROM": 1566,
      "ĠTIMEOUT": 1567,
      "ĠTuple": 1568,
      "ĠTransformerLayer": 1569,
      "ãĤ¯ãĥģãĥ£": 1570,
      "adAttention": 1571,
      "ĠARRAY": 1572,
      "ĠMultiHeadAttention": 1573,
      "ĠNewServer": 1574,
      "ĠLIMIT": 1575,
      "ĠLIKE": 1576,
      "è¨Ńè¨Īãģ§ãģ¯": 1577,
      "ĠVecDeque": 1578,
      "ĠVALUES": 1579,
      "ĠValueError": 1580,
      "Ġapplication": 1581,
      "staticmethod": 1582,
      "ãĤĴè¡ĮãģĦãģ¾ãģĻ": 1583,
      "Ġisinstance": 1584,
      "éĸĭçĻº": 1585,
      "ĠWorker": 1586,
      "ĠWHERE": 1587,
      "ĠDataLoader": 1588,
      "ĠAutoTokenizer": 1589,
      "ä¸Ģè²": 1590,
      "ãģıä½¿ãĤıãĤ": 1591,
      "ãĥ©ãĤ¤ãĥĸãĥ©ãĥª": 1592,
      "åŃ¦ç¿Ĵãĥ¢ãĥĩãĥ«ãģ®": 1593,
      "<_>>()": 1594,
      "CREATE": 1595,
      "ClientSession": 1596,
      "TcpListener": 1597,
      "¢ãĥ¼ãĤŃãĥĨãĤ¯ãĥģãĥ£": 1598,
      "ĠCosineAnnealingLR": 1599,
      "'s": 1600,
      "Batch": 1601,
      "Cross": 1602,
      "Data": 1603,
      "Drop": 1604,
      "Ea": 1605,
      "Ear": 1606,
      "Mi": 1607,
      "Position": 1608,
      "Tra": 1609,
      "Weight": 1610,
      "ast": 1611,
      "but": 1612,
      "bout": 1613,
      "cent": 1614,
      "cis": 1615,
      "do": 1616,
      "dge": 1617,
      "dated": 1618,
      "ep": 1619,
      "een": 1620,
      "eur": 1621,
      "ection": 1622,
      "fer": 1623,
      "fit": 1624,
      "gor": 1625,
      "gence": 1626,
      "hen": 1627,
      "ient": 1628,
      "just": 1629,
      "kno": 1630,
      "lgor": 1631,
      "mor": 1632,
      "ment": 1633,
      "mput": 1634,
      "mly": 1635,
      "mall": 1636,
      "nse": 1637,
      "ndo": 1638,
      "nection": 1639,
      "ph": 1640,
      "plo": 1641,
      "pdated": 1642,
      "rch": 1643,
      "rate": 1644,
      "sist": 1645,
      "sses": 1646,
      "scre": 1647,
      "scent": 1648,
      "te": 1649,
      "ts": 1650,
      "tin": 1651,
      "ting": 1652,
      "tra": 1653,
      "ura": 1654,
      "ving": 1655,
      "wo": 1656,
      "wle": 1657,
      "xed": 1658,
      "zer": 1659,
      "Ġim": 1660,
      "Ġra": 1661,
      "Ġex": 1662,
      "Ġattention": 1663,
      "Ġqu": 1664,
      "Ġhead": 1665,
      "Ġkey": 1666,
      "Ġkno": 1667,
      "Ġrate": 1668,
      "Ġzer": 1669,
      "inim": 1670,
      "ined": 1671,
      "inds": 1672,
      "ons": 1673,
      "onit": 1674,
      "ery": 1675,
      "erence": 1676,
      "ature": 1677,
      "ative": 1678,
      "Ġtas": 1679,
      "Ġtwo": 1680,
      "rect": 1681,
      "enal": 1682,
      "Ġare": 1683,
      "Ġaut": 1684,
      "Ġaug": 1685,
      "Ġabout": 1686,
      "Ġalgor": 1687,
      "Ġarch": 1688,
      "stri": 1689,
      "ions": 1690,
      "alts": 1691,
      "itect": 1692,
      "Ġfast": 1693,
      "Ġfinds": 1694,
      "izing": 1695,
      "raph": 1696,
      "Ġnon": 1697,
      "Ġnetw": 1698,
      "Ġneur": 1699,
      "Ġcli": 1700,
      "Ġcapp": 1701,
      "chan": 1702,
      "ential": 1703,
      "Ġposition": 1704,
      "Ġpara": 1705,
      "Ġpoint": 1706,
      "Ġpenal": 1707,
      "ized": 1708,
      "ational": 1709,
      "Ġstab": 1710,
      "Ġstep": 1711,
      "idual": 1712,
      "Ġunse": 1713,
      "Ġupdated": 1714,
      "Ġover": 1715,
      "Ġoptim": 1716,
      "Ġsub": 1717,
      "Ġscheduler": 1718,
      "Ġsmall": 1719,
      "ilizes": 1720,
      "Ġbatch": 1721,
      "Ġback": 1722,
      "Ġbot": 1723,
      "Ġbetw": 1724,
      "coder": 1725,
      "Ġeff": 1726,
      "Ġeffect": 1727,
      "asure": 1728,
      "Ġminim": 1729,
      "Ġmonit": 1730,
      "formation": 1731,
      "Ġincre": 1732,
      "Ġinjects": 1733,
      "Ġinformation": 1734,
      "Ġresidual": 1735,
      "inear": 1736,
      "ithm": 1737,
      "Ġwhen": 1738,
      "Ġdataset": 1739,
      "Ġused": 1740,
      "dicted": 1741,
      "Ġconver": 1742,
      "Ġconnection": 1743,
      "Ġconsist": 1744,
      "Ġcontin": 1745,
      "Ġlayer": 1746,
      "Ġlinear": 1747,
      "fference": 1748,
      "nsfer": 1749,
      "Ġdiscre": 1750,
      "Ġdirect": 1751,
      "Ġdistri": 1752,
      "Ġdifference": 1753,
      "Ġgraph": 1754,
      "icient": 1755,
      "verag": 1756,
      "Ġset": 1757,
      "Ġvalue": 1758,
      "Ġprogress": 1759,
      "Ġprojects": 1760,
      "Ġmaps": 1761,
      "Ġprecis": 1762,
      "Ġpredicted": 1763,
      "ases": 1764,
      "Ġdecay": 1765,
      "Ġdescent": 1766,
      "Ġdecoder": 1767,
      "Ġtoken": 1768,
      "Ġtransformer": 1769,
      "ively": 1770,
      "Ġencoding": 1771,
      "Ġencoura": 1772,
      "Ġnormalizes": 1773,
      "Ġnormalizing": 1774,
      "Ġhalts": 1775,
      "Ġprocesses": 1776,
      "Ġ32": 1777,
      "Ġleverag": 1778,
      "Ġthat": 1779,
      "Ġadjust": 1780,
      "Ġmemor": 1781,
      "Ġmechan": 1782,
      "Ġmeasure": 1783,
      "Ġactivation": 1784,
      "Ġrepresentation": 1785,
      "forward": 1786,
      "linear": 1787,
      "meters": 1788,
      "proving": 1789,
      "propag": 1790,
      "uous": 1791,
      "oregress": 1792,
      "Ġfloating": 1793,
      "Ġcomput": 1794,
      "Ġweights": 1795,
      "Ġcontextual": 1796,
      "Ġiterative": 1797,
      "isms": 1798,
      "Ġfeed": 1799,
      "Ġfeature": 1800,
      "Ġstops": 1801,
      "Ġstopping": 1802,
      "Ġusing": 1803,
      "Ġusage": 1804,
      "Ġgradients": 1805,
      "Ġsequence": 1806,
      "Ġsequential": 1807,
      "Ġprevents": 1808,
      "Ġembeddings": 1809,
      "Dropout": 1810,
      "Each": 1811,
      "Early": 1812,
      "Mixed": 1813,
      "Positional": 1814,
      "Transfer": 1815,
      "butions": 1816,
      "fitting": 1817,
      "mentation": 1818,
      "ndomly": 1819,
      "ploding": 1820,
      "trained": 1821,
      "wledge": 1822,
      "Ġimproving": 1823,
      "Ġrandomly": 1824,
      "Ġexploding": 1825,
      "Ġquery": 1826,
      "Ġknowledge": 1827,
      "Ġzeros": 1828,
      "Ġtask": 1829,
      "Ġautoregress": 1830,
      "Ġaugmentation": 1831,
      "Ġalgorithm": 1832,
      "Ġarchitect": 1833,
      "Ġfaster": 1834,
      "Ġnetwork": 1835,
      "Ġneurons": 1836,
      "Ġclipping": 1837,
      "Ġcapping": 1838,
      "Ġpositions": 1839,
      "Ġparameters": 1840,
      "Ġpenalty": 1841,
      "Ġstabilizes": 1842,
      "Ġunseen": 1843,
      "Ġoverfitting": 1844,
      "Ġoptimization": 1845,
      "Ġsublayer": 1846,
      "Ġsmaller": 1847,
      "Ġbackpropag": 1848,
      "Ġboth": 1849,
      "Ġbetween": 1850,
      "Ġefficient": 1851,
      "Ġeffective": 1852,
      "Ġminimum": 1853,
      "Ġmonitor": 1854,
      "Ġincreases": 1855,
      "Ġconvergence": 1856,
      "Ġconsists": 1857,
      "Ġcontinuous": 1858,
      "Ġdiscrete": 1859,
      "Ġdirectly": 1860,
      "Ġdistributions": 1861,
      "Ġprecision": 1862,
      "Ġencourage": 1863,
      "Ġleverages": 1864,
      "Ġadjusts": 1865,
      "Ġmemory": 1866,
      "Ġmechanisms": 1867,
      "Ġmeasures": 1868,
      "Ġcomputational": 1869,
      "Ġcontextualized": 1870,
      "Ġautoregressively": 1871,
      "Ġarchitecture": 1872,
      "Ġbackpropagation": 1873,
      "Ġefficiently": 1874,
      "04": 1875,
      "024": 1876,
      "19": 1877,
      "32": 1878,
      "36": 1879,
      "55": 1880,
      "655": 1881,
      "819": 1882,
      "Ġ4": 1883,
      "Ġ5": 1884,
      "048": 1885,
      "65536": 1886,
      "8192": 1887,
      "CD": 1888,
      "CI": 1889,
      "CAP": 1890,
      "Docker": 1891,
      "GP": 1892,
      "Iãģ®": 1893,
      "Iãĥ©ãĤ¤ãĥĸãĥ©ãĥª": 1894,
      "Ja": 1895,
      "Kub": 1896,
      "Py": 1897,
      "React": 1898,
      "Rust": 1899,
      "UãģĮ": 1900,
      "UIãĥ©ãĤ¤ãĥĸãĥ©ãĥª": 1901,
      "aScript": 1902,
      "hon": 1903,
      "tree": 1904,
      "thon": 1905,
      "vaScript": 1906,
      "¡¨": 1907,
      "¡ç": 1908,
      "¡ãģª": 1909,
      "¡ãģ«ãģ¯": 1910,
      "¡ãĥ¢": 1911,
      "¡ãĤĴè¡ĮãģĦãģ¾ãģĻ": 1912,
      "¢°": 1913,
      "¢ĥ": 1914,
      "¢ãĤĴ": 1915,
      "£å": 1916,
      "£ħ": 1917,
      "£ãĥĥãĤ¯": 1918,
      "£è¦ı": 1919,
      "¤ĩ": 1920,
      "¤ãģ®ãĥĲ": 1921,
      "¤åŃ¦ç¿Ĵãĥ¢ãĥĩãĥ«ãģ®": 1922,
      "¥ãģĦãģ¦": 1923,
      "¥åĬĽ": 1924,
      "¦è": 1925,
      "§Ĩ": 1926,
      "§ãĤ¯": 1927,
      "¨æ": 1928,
      "¨æĢ§": 1929,
      "©ķ": 1930,
      "©ãĤ·ãĤ¹ãĥĨãĥł": 1931,
      "ªŀ": 1932,
      "ªãĤĴè": 1933,
      "«ĭ": 1934,
      "«æĢ§": 1935,
      "¬ç": 1936,
      "¬ä»": 1937,
      "®ãģĹãģ¾ãģĻ": 1938,
      "¯¾": 1939,
      "¯ä½ľ": 1940,
      "°å": 1941,
      "°¡ç": 1942,
      "±ãĤ¹ãĥĪ": 1943,
      "±¤åŃ¦ç¿Ĵãĥ¢ãĥĩãĥ«ãģ®": 1944,
      "²ĭ": 1945,
      "²ãģĹãģ¾ãģĻ": 1946,
      "³»": 1947,
      "³¨æ": 1948,
      "³ªãĤĴè": 1949,
      "µĦ": 1950,
      "¶Ń": 1951,
      "¶å¾": 1952,
      "·åĬĽ": 1953,
      "¸ãĤ": 1954,
      "¸ãģĦãģ¦": 1955,
      "¸ãĥ§": 1956,
      "¹ä": 1957,
      "¹ħ": 1958,
      "ºĥ": 1959,
      "ºĴ": 1960,
      "ºãģ": 1961,
      "ºãģĮéĩįè¦ģãģ§ãģĻ": 1962,
      "»ãģ®å": 1963,
      "¼ãģĹãģ¦": 1964,
      "¼·åĬĽ": 1965,
      "½åĬ": 1966,
      "¿ħ": 1967,
      "¿Ŀ": 1968,
      "¿ãĥ¼": 1969,
      "¿ãĤ¤": 1970,
      "¿åĲĪ": 1971,
      "¿½åĬ": 1972,
      "ä¿Ŀ": 1973,
      "åĢ": 1974,
      "åĨ": 1975,
      "åĮ": 1976,
      "åį": 1977,
      "åŁ": 1978,
      "åĭķ": 1979,
      "å±¤åŃ¦ç¿Ĵãĥ¢ãĥĩãĥ«ãģ®": 1980,
      "å¹ħ": 1981,
      "åºĥ": 1982,
      "å¼·åĬĽ": 1983,
      "å¿ħ": 1984,
      "æħ": 1985,
      "æī": 1986,
      "æİ": 1987,
      "æı": 1988,
      "æĻ": 1989,
      "æĽ": 1990,
      "æŃ": 1991,
      "æ·±": 1992,
      "æ¢°": 1993,
      "æ³¨æ": 1994,
      "çĭ": 1995,
      "çĴ": 1996,
      "çŃ": 1997,
      "çĲĨ": 1998,
      "ç°¡ç": 1999,
      "ç²ĭ": 2000,
      "çµĦ": 2001,
      "ç¶Ń": 2002,
      "èĩªå": 2003,
      "è¡¨": 2004,
      "è£ħ": 2005,
      "è©ķ": 2006,
      "è³ªãĤĴè": 2007,
      "éł": 2008,
      "é§Ĩ": 2009,
      "Ģĥ": 2010,
      "ĢåĪ": 2011,
      "Ģæľ": 2012,
      "ģãģĮéĩįè¦ģãģ§ãģĻ": 2013,
      "ģæĪ": 2014,
      "ģè³ªãĤĴè": 2015,
      "Ĥãģ«": 2016,
      "Ħı": 2017,
      "ĦãĤµãĥ¼ãĥĵãĤ¹": 2018,
      "ĨãĥĥãĤ¯ãĤ¹": 2019,
      "ĩåĲ": 2020,
      "ĩåŃ": 2021,
      "Īãģıä½¿ãĤıãĤ": 2022,
      "īãģĹãģ¾ãģĻ": 2023,
      "īãĥª": 2024,
      "īåħ": 2025,
      "īæ¨": 2026,
      "īå®Ł": 2027,
      "ĬãĤª": 2028,
      "ĭãĥ³ãĤ°": 2029,
      "ĭå¤": 2030,
      "Įãģ¦": 2031,
      "Įæľ": 2032,
      "ĮãĤĭ": 2033,
      "Įæĸ": 2034,
      "įãĥ³": 2035,
      "įãģ¾ãģĻ": 2036,
      "įçı¾": 2037,
      "İŁ": 2038,
      "ıãĥ³ãĥ": 2039,
      "Ĳãĥ¼": 2040,
      "ĲãģĹãģ¦": 2041,
      "ĳãĤ": 2042,
      "ĳãĤĴè": 2043,
      "ĳè¨Ńè¨Īãģ§ãģ¯": 2044,
      "Ĵä»": 2045,
      "ĵãĥ¥": 2046,
      "ĵãģ£ãģ¦": 2047,
      "ĵģè³ªãĤĴè": 2048,
      "Ķç²ĭ": 2049,
      "ķãĤĴè": 2050,
      "ķæį": 2051,
      "ĸåĪ": 2052,
      "ĸåĩ¦çĲĨ": 2053,
      "ĸãģ¨ãģĹãģ¦": 2054,
      "ĸãģķãĤ": 2055,
      "ĹåĪĹ": 2056,
      "ĺãģ": 2057,
      "ĺä¸Ģè²": 2058,
      "ĻçļĦ": 2059,
      "ļçĲĨ": 2060,
      "ĽæĢ§ãģ®": 2061,
      "Ŀãģ«": 2062,
      "Ŀãĥ¼ãĥ": 2063,
      "Ŀéł": 2064,
      "ŀãĥ¼ãĤ": 2065,
      "ŀåĲ": 2066,
      "ŀãĥĥ": 2067,
      "Łè¨": 2068,
      "Łãģª": 2069,
      "Łåĩ¦çĲĨ": 2070,
      "łãģĹãģ": 2071,
      "łãģķ": 2072,
      "łãĤĴçĶ¨ãģĦãģ¦": 2073,
      "Ńãĥ¥": 2074,
      "ãģ¦ç": 2075,
      "ãģĭãĤ": 2076,
      "ãģ¿åĲĪ": 2077,
      "ãģįãģ¾ãģĻ": 2078,
      "ãģłãģķ": 2079,
      "ãĥĭãĤ": 2080,
      "ãĥĳãĤ¤": 2081,
      "ãĥĦãĥ¼ãĥ«": 2082,
      "ãĥ¡ãĥ¢": 2083,
      "ãĥĬãĤª": 2084,
      "ãĥĭãĥ³ãĤ°": 2085,
      "ãĥĳãĤ": 2086,
      "ãĥĵãĥ¥": 2087,
      "ãĥķãĤĴè": 2088,
      "ernet": 2089,
      "ãĤ¢ãĥ¼ãĤŃãĥĨãĤ¯ãĥģãĥ£": 2090,
      "ãĤ£å": 2091,
      "ãĤ¸ãĤ": 2092,
      "ãĤºãģĮéĩįè¦ģãģ§ãģĻ": 2093,
      "ãĤĪãģıä½¿ãĤıãĤ": 2094,
      "ãĤŃãĥ¥": 2095,
      "ãĥ¼ãģ¯": 2096,
      "ãĤĴãĤ³": 2097,
      "ãĤĴåĩ¦çĲĨ": 2098,
      "ãĤĴåĪĨ": 2099,
      "ãĤĴä½ľ": 2100,
      "ãĤĴæĽ": 2101,
      "ãĤĴçµĦ": 2102,
      "ãģ¯B": 2103,
      "ãģ¯åī": 2104,
      "ãģ¯æĸ": 2105,
      "ãģ¯Ja": 2106,
      "ãģ¯èĩªå": 2107,
      "ãģ¯ãĥ¡ãĥ¢": 2108,
      "ãģ§ãĥĹ": 2109,
      "ãģ§ãģįãģ¾ãģĻ": 2110,
      "ãģ®ãģª": 2111,
      "ãģ®æ§ĭç¯ī": 2112,
      "ãģ®ãĤµãĥ¼ãĥ": 2113,
      "ãģ®ãĥĸãĥ©": 2114,
      "ãģ®éĿ": 2115,
      "ãģ®æī": 2116,
      "ãģ®ãĥĳãĤ": 2117,
      "ãĥ³ãģ¨": 2118,
      "ãĥ³ãĥĨ": 2119,
      "ãĥ³ãĥĩ": 2120,
      "ãĥ³ãĤĴæ§ĭç¯ī": 2121,
      "ãĥ©ãĤ¹": 2122,
      "ãĥ©ãĥķãĤ": 2123,
      "esãģ¯ãĤ³": 2124,
      "ãģ«ä½¿": 2125,
      "ãģ«æ¤ľ": 2126,
      "ãģ«éĿ": 2127,
      "ãģ«åĪĨæķ£": 2128,
      "ãģ«åŁ": 2129,
      "ãģ«ç°¡ç": 2130,
      "ãĥ¼ãĥĨãĥĥãĤ¯ãĤ¹": 2131,
      "ãĥ¼ãĥıãĥ³ãĥ": 2132,
      "ãĥ¼ãĥŀãĥ¼ãĤ": 2133,
      "ãģ¨å¾": 2134,
      "ãģ¨é«ĺ": 2135,
      "ãģ¨åı¯": 2136,
      "ãģ¨åĨ": 2137,
      "ãģĦç´": 2138,
      "ãģĦãģ¦ç": 2139,
      "ãĥĪãĥ¬": 2140,
      "ãĥĪæĮ": 2141,
      "ãĥĪãĥ©ãĥ³ãĤ¹": 2142,
      "ãĥĪãĥĻãĥ¼ãĤ¹ãģ®": 2143,
      "ãĥĪãĥ©ãĥķãĤ": 2144,
      "ãĥĪãģ¨é«ĺ": 2145,
      "ãĥ¼ãĤ·ãĥ§": 2146,
      "ãĥ¼ãĤ±ãĤ¹ãĥĪ": 2147,
      "ãĥ¼ãĤ¸ãĥ§": 2148,
      "¦çķ¥": 2149,
      "ãĤ¤ãĤ¯": 2150,
      "ãĤ¤åı¯": 2151,
      "ãĤ¤ãĥ³ãĥĩ": 2152,
      "ãĤ¯ãĤ¨": 2153,
      "ãĤ¯ãĥ©ãĤ¹": 2154,
      "åĪĩãģ«": 2155,
      "ãģ¦ãĥĹãĥŃãĤ°ãĥ©": 2156,
      "ãĥĨãĤ£å": 2157,
      "ãĥĩãĥĹãĥŃ": 2158,
      "çĶ¨ãģķãĤ": 2159,
      "çĶ¨æĢ§ãģ®": 2160,
      "çĶ¨ãģ®ãģª": 2161,
      "ãģĮå¤§": 2162,
      "ãģĮçĭ": 2163,
      "ãģĮãĤĪãģıä½¿ãĤıãĤ": 2164,
      "ãĥªå®": 2165,
      "ãĥªãĥĩãĥ¼ãĤ": 2166,
      "ãĥªãĤ¯ãĤ¨": 2167,
      "ãĥªãĥĨãĤ£å": 2168,
      "ãĤĴè¤ĩ": 2169,
      "ãģ§ãģ¯åĲ": 2170,
      "ãģ§ãģ¯æľ": 2171,
      "ãģ§ãģ¯ãĥŁ": 2172,
      "ãģ§ãģ¯CAP": 2173,
      "ãĥ³ãĥĳãĤ¤": 2174,
      "ãĥ³ãĥĦãĥ¼ãĥ«": 2175,
      "ãĥ³ãĥģæĪ": 2176,
      "ãĥ³ãĥĿãĥ¼ãĥ": 2177,
      "ãĥ³ãĥŀãĥĥ": 2178,
      "ãģĹãģ¦ãĥĩãĥĹãĥŃ": 2179,
      "ioãĥ©ãĤ¤ãĥĸãĥ©ãĥª": 2180,
      "æ§ĭãĤĴçĶ¨": 2181,
      "æ§ĭéĢ": 2182,
      "ãģªGP": 2183,
      "ãģªãĥĦãĥ¼ãĥ«": 2184,
      "ãĥĥãĥĪãģ¨é«ĺ": 2185,
      "ãĥĹãĥ©ãĤ¤": 2186,
      "ãĥŃãĥ¼ãĥī": 2187,
      "ãĥŃãĤµãĥ¼ãĥĵãĤ¹": 2188,
      "ãĤµãĥĭãĤ": 2189,
      "ãĤµãĥ¼ãģ¯": 2190,
      "æĢ§èĥ½": 2191,
      "Gitãģ®ãĥĸãĥ©": 2192,
      "å®ļçĲĨ": 2193,
      "ãĥ«æĻ": 2194,
      "ãĥ«ãĥªãĤ¯ãĤ¨": 2195,
      "ãĥĲãĥ©ãĥ³": 2196,
      "ãĥĲãĥ¼ãĤ¸ãĥ§": 2197,
      "ãĥĸãĤ¸ãĤ": 2198,
      "ãĥ³ãĤ°ãģ«ãģ¯": 2199,
      "ãĥ³ãĤ°ãģ¯åī": 2200,
      "ãĥ³ãĤ°ãģ«ä½¿": 2201,
      "ãĤ¹ãĥĪãĤĴä½ľ": 2202,
      "ãģ«ãģ¯async": 2203,
      "ãģ«ãģ¯å¤§": 2204,
      "ãĥ¼ãĥīãĤª": 2205,
      "åĩ¦çĲĨãģ§ãģ¯ãĥŁ": 2206,
      "¡Įåĩ¦çĲĨãģ§ãģ¯ãĥŁ": 2207,
      "ä¸¦è": 2208,
      "ä»ĺãģ": 2209,
      "ä¾¡ãģ«ãģ¯": 2210,
      "ä¾ĭå¤": 2211,
      "ä¾Ŀéł": 2212,
      "å¾ĵãģ£ãģ¦": 2213,
      "åīĩãģ«": 2214,
      "åī²ãģĹãģ¾ãģĻ": 2215,
      "Ģèªŀ": 2216,
      "ãģıãģłãģķ": 2217,
      "ãĥ¥ãĥ¼ãĥĨãĥĥãĤ¯ãĤ¹": 2218,
      "ãĥ¬ãĥĵãĥ¥": 2219,
      "ãĥ¬ãĥ¼ãĤ·ãĥ§": 2220,
      "ãĥģãĥ³ãĤ°ãģ«ä½¿": 2221,
      "ãĥłãĤĴæ§ĭç¯ī": 2222,
      "ãĤªãĥĸãĤ¸ãĤ": 2223,
      "ãĤ»ãĥŀ": 2224,
      "ãĤ»ãĤŃãĥ¥": 2225,
      "ãĤ»ãĥĥãĥĪãģ¨é«ĺ": 2226,
      "ãĤıãģĽ": 2227,
      "ãĤĴä½¿ãģ£ãģ¦": 2228,
      "ãģ¨ãģĹãģ¦GitHub": 2229,
      "ãģ¨ãģĹãģ¦åºĥ": 2230,
      "æķ°ãģ®ãĤµãĥ¼ãĥ": 2231,
      "åŃ¦ç¿Ĵãģ«ãģ¯å¤§": 2232,
      "ãĥĩãĥ¼ãĤ¿ãĥĻãĥ¼ãĤ¹ãģ®": 2233,
      "ãĥĩãĥ¼ãĤ¿ãĤĴåĩ¦çĲĨ": 2234,
      "ãĥĩãĥ¼ãĤ¿ãĤ»ãĥĥãĥĪãģ¨é«ĺ": 2235,
      "TypeScript": 2236,
      "çı¾ãģĹãģ¾ãģĻ": 2237,
      "çı¾ãģ¯æĸ": 2238,
      "APIãģ®": 2239,
      "·±æ³¨æ": 2240,
      "·ãĥ§ãĥ³ãģ¨": 2241,
      "åħ¥åĬĽ": 2242,
      "æ¨¡ãģª": 2243,
      "æĪĲãģĹãģ¦": 2244,
      "æĮģãģĮéĩįè¦ģãģ§ãģĻ": 2245,
      "æįķæį": 2246,
      "æ¤ľç´": 2247,
      "æ©Łæ¢°": 2248,
      "æ©Łæ§ĭãĤĴçĶ¨": 2249,
      "éĢŁãģª": 2250,
      "é«ĺéĢŁãģª": 2251,
      "ĩªåĭķ": 2252,
      "ķ¥åĮ": 2253,
      "ãģķãģĽ": 2254,
      "ãĥŀãĤ¤ãĤ¯": 2255,
      "ãĥŁãĥ³ãĤ°ãģ¯åī": 2256,
      "ãĤĦGit": 2257,
      "ãĤĦãĤ»ãĥŀ": 2258,
      "ãĥ¼ãĤĴä¾Ŀéł": 2259,
      "ãĥ¼ãĤĴæįķæį": 2260,
      "ãģ¯ãĤ³ãĥ³ãĥĿãĥ¼ãĥ": 2261,
      "ãģ®åĵģè³ªãĤĴè": 2262,
      "ãģ®ãĥĲãĥ©ãĥ³ãĤ¹": 2263,
      "ĠFlowãģĮãĤĪãģıä½¿ãĤıãĤ": 2264,
      "ĠFlowãĤĦGit": 2265,
      "åĪĹãĥĩãĥ¼ãĤ¿ãĤĴåĩ¦çĲĨ": 2266,
      "ãĥĨãĤ¹ãĥĪé§Ĩ": 2267,
      "ãĥĨãĤ¹ãĥĪãĤĴæĽ": 2268,
      "è¨¼ãģĹãģ¾ãģĻ": 2269,
      "è¨¼ãģ§ãģįãģ¾ãģĻ": 2270,
      "è¦ıæ¨¡ãģª": 2271,
      "åĲĪçİĩ": 2272,
      "ãĤ³ãĥ¼ãĥīãĥ¬ãĥĵãĥ¥": 2273,
      "ãĤ³ãĥ¼ãĥīãģ®åĵģè³ªãĤĴè": 2274,
      "GitHubãģ§ãĥĹ": 2275,
      "å®Łçı¾ãģĹãģ¾ãģĻ": 2276,
      "éĸ¢æķ°åŀĭ": 2277,
      "éĸ¢æķ°ãĤĴçµĦ": 2278,
      "ãĥķãĤ©ãĥ¼ãĥŀãĥ¼ãĤ": 2279,
      "ãĥķãĤ©ãĤĴä½¿ãģ£ãģ¦": 2280,
      "ãĤ¨ãĥ©ãĥ¼ãĥıãĥ³ãĥ": 2281,
      "ãĤ¨ãĥ©ãĥ¼ãĤĴæįķæį": 2282,
      "ãĤĴçĶ¨ãģĦãģ¦éģ©": 2283,
      "ãĤĴä½¿çĶ¨ãģĹãģ¾ãģĻ": 2284,
      "ãĤĴä½¿çĶ¨ãģĻãĤĭãģĵãģ¨ãģ§": 2285,
      "åĪĨæķ£ãĤ·ãĤ¹ãĥĨãĥł": 2286,
      "ãĥĥãĤ¯ãĤ¹ãģ¯B": 2287,
      "ãĥĹãĥŃãĤ°ãĥ©ãĥŁãĥ³ãĤ°ãģ¯åī": 2288,
      "åŀĭä»ĺãģ": 2289,
      "çİĩãģ®ãĥĲãĥ©ãĥ³ãĤ¹": 2290,
      "çļĦãģ«æ¤ľ": 2291,
      "èĥ½ãģ§ãģĻ": 2292,
      "éģ©åĲĪçİĩ": 2293,
      "ãģĻãĤĭãģĵãģ¨ãģ§ãĤ³ãĥ¼ãĥīãģ®åĵģè³ªãĤĴè": 2294,
      "è¨Ńè¨Īãģ§ãģ¯ãĥĲãĥ¼ãĤ¸ãĥ§": 2295,
      "éĸĭçĻºçĴ": 2296,
      "éĸĭçĻºãģ§ãģ¯æľ": 2297,
      "ä¸Ģè²«æĢ§": 2298,
      "ãģıä½¿ãĤıãĤĮãģ¦": 2299,
      "åŃ¦ç¿Ĵãĥ¢ãĥĩãĥ«ãģ®è©ķ": 2300,
      "¢ãĥ¼ãĤŃãĥĨãĤ¯ãĥģãĥ£ãģ¯èĩªå": 2301,
      "CDãĥĳãĤ¤": 2302,
      "DockerãĤĴä½¿çĶ¨ãģĻãĤĭãģĵãģ¨ãģ§": 2303,
      "Kubernet": 2304,
      "Python": 2305,
      "Reactãģ¯ãĤ³ãĥ³ãĥĿãĥ¼ãĥ": 2306,
      "Rustãģ®æī": 2307,
      "UãģĮå¿ħ": 2308,
      "UIãĥ©ãĤ¤ãĥĸãĥ©ãĥªãģ§ãģĻ": 2309,
      "treeæ§ĭéĢ": 2310,
      "vaScriptãģ«éĿ": 2311,
      "¢ĥãģ®æ§ĭç¯ī": 2312,
      "¢ãĤĴå®Łçı¾ãģĹãģ¾ãģĻ": 2313,
      "£ãĥĥãĤ¯ãĤĴè¤ĩ": 2314,
      "£è¦ıè¡¨": 2315,
      "¤ãģ®ãĥĲãĥªãĥĩãĥ¼ãĤ": 2316,
      "¥ãģĦãģ¦ä¸Ģè²«æĢ§": 2317,
      "§ãĤ¯ãĥĪæĮ": 2318,
      "¨æĢ§ãĤĴãĤ³": 2319,
      "©ãĤ·ãĤ¹ãĥĨãĥłãģ¯ãĥ¡ãĥ¢": 2320,
      "«ĭãģĹãģ¦ãĥĩãĥĹãĥŃ": 2321,
      "¬ç«ĭãģĹãģ¦ãĥĩãĥĹãĥŃ": 2322,
      "¬ä»»ãģ®å": 2323,
      "¯¾çŃ": 2324,
      "¯ä½ľçĶ¨ãģ®ãģª": 2325,
      "°å¢ĥãģ®æ§ĭç¯ī": 2326,
      "³»åĪĹãĥĩãĥ¼ãĤ¿ãĤĴåĩ¦çĲĨ": 2327,
      "¶å¾¡ãĤĴè¡ĮãģĦãģ¾ãģĻ": 2328,
      "¸ãģĦãģ¦ãģĭãĤ": 2329,
      "¹äºĴ": 2330,
      "ºãģ¥ãģĦãģ¦ä¸Ģè²«æĢ§": 2331,
      "¼ãģĹãģ¦ãģıãģłãģķ": 2332,
      "¿ãĥ¼ãĥ³ãĥŀãĥĥ": 2333,
      "¿ãĤ¤ãĤºãģĮéĩįè¦ģãģ§ãģĻ": 2334,
      "¿½åĬłãģĹãģ": 2335,
      "ä¿Ŀè¨¼ãģĹãģ¾ãģĻ": 2336,
      "åĢ¤ãģ®ãĥĲãĥªãĥĩãĥ¼ãĤ": 2337,
      "åįĺä¸Ģè²": 2338,
      "åĭķéĸĭçĻºãģ§ãģ¯æľ": 2339,
      "å±¤åŃ¦ç¿Ĵãĥ¢ãĥĩãĥ«ãģ®åŃ¦ç¿Ĵãģ«ãģ¯å¤§": 2340,
      "å¹ħãģ«ç°¡ç": 2341,
      "å¼·åĬĽãģªãĥĦãĥ¼ãĥ«": 2342,
      "æħ®ãģĹãģ¾ãģĻ": 2343,
      "æİĴä»": 2344,
      "æıĽæĢ§ãģ®": 2345,
      "æŃ£è¦ıè¡¨": 2346,
      "æ·±å±¤åŃ¦ç¿Ĵãĥ¢ãĥĩãĥ«ãģ®åŃ¦ç¿Ĵãģ«ãģ¯å¤§": 2347,
      "ç¶ŃæĮģãģĮéĩįè¦ģãģ§ãģĻ": 2348,
      "è£ħãĤĴè¡ĮãģĦãģ¾ãģĻ": 2349,
      "Ģĥæħ®ãģĹãģ¾ãģĻ": 2350,
      "ĢåĪĿãģ«": 2351,
      "Ģæľīæ¨": 2352,
      "Ĥãģ«ä¿Ŀè¨¼ãģĹãģ¾ãģĻ": 2353,
      "Ħıæ©Łæ§ĭãĤĴçĶ¨": 2354,
      "ĦãĤµãĥ¼ãĥĵãĤ¹ãģĮçĭ": 2355,
      "ĩåĲĳè¨Ńè¨Īãģ§ãģ¯": 2356,
      "ĩåŃĹåĪĹ": 2357,
      "īãĥªãĥ³ãĤ°ãģ«ãģ¯": 2358,
      "īåħ¨æĢ§ãĤĴãĤ³": 2359,
      "īå®Łè£ħãĤĴè¡ĮãģĦãģ¾ãģĻ": 2360,
      "ĮæľŁåĩ¦çĲĨ": 2361,
      "ĮãĤĭå¼·åĬĽãģªãĥĦãĥ¼ãĥ«": 2362,
      "Įæĸ¹äºĴ": 2363,
      "įãĥ³ãĥĪãĥĻãĥ¼ãĤ¹ãģ®": 2364,
      "įçı¾çİĩãģ®ãĥĲãĥ©ãĥ³ãĤ¹": 2365,
      "İŁåīĩãģ«": 2366,
      "Ĳãĥ¼ãģ«åĪĨæķ£": 2367,
      "ĳãĤĴè¿½åĬłãģĹãģ": 2368,
      "Ķç²ĭéĸ¢æķ°ãĤĴçµĦ": 2369,
      "ĸåĪ¶å¾¡ãĤĴè¡ĮãģĦãģ¾ãģĻ": 2370,
      "ĸåĩ¦çĲĨãĤĴçĶ¨ãģĦãģ¦éģ©": 2371,
      "ĸãģ¨ãģĹãģ¦åħ¥åĬĽ": 2372,
      "ĸãģķãĤĮãģ¾ãģĻ": 2373,
      "ĻçļĦåŀĭä»ĺãģ": 2374,
      "ŀåĲĮæľŁåĩ¦çĲĨ": 2375,
      "Łè¨Ģèªŀ": 2376,
      "łãĤĴçĶ¨ãģĦãģ¦é«ĺéĢŁãģª": 2377,
      "ãģ¿åĲĪãĤıãģĽ": 2378,
      "ãĥĬãĤªãĥ¼ãĤ±ãĤ¹ãĥĪ": 2379,
      "ãĥĭãĥ³ãĤ°ãģ¨å¾": 2380,
      "ãĥķãĤĴèĢĥæħ®ãģĹãģ¾ãģĻ": 2381,
      "ãĤ¢ãĥ¼ãĤŃãĥĨãĤ¯ãĥģãĥ£ãģ§ãģ¯åĲ": 2382,
      "ãĤĴåĪĨåī²ãģĹãģ¾ãģĻ": 2383,
      "ãģ¯JavaScriptãģ«éĿ": 2384,
      "ãģ®éĿŀåĲĮæľŁåĩ¦çĲĨ": 2385,
      "ãģ®ãĥĳãĤ¿ãĥ¼ãĥ³ãĥŀãĥĥ": 2386,
      "ãĥ³ãĥĨãĥĬãĤªãĥ¼ãĤ±ãĤ¹ãĥĪ": 2387,
      "ãĥ³ãĤĴæ§ĭç¯īãģĻãĤĭãģĵãģ¨ãģ§ãĤ³ãĥ¼ãĥīãģ®åĵģè³ªãĤĴè": 2388,
      "esãģ¯ãĤ³ãĥ³ãĥĨãĥĬãĤªãĥ¼ãĤ±ãĤ¹ãĥĪ": 2389,
      "ãģ«åŁºãģ¥ãģĦãģ¦ä¸Ģè²«æĢ§": 2390,
      "ãģ¨åı¯çĶ¨æĢ§ãģ®": 2391,
      "ãģ¨åĨįçı¾çİĩãģ®ãĥĲãĥ©ãĥ³ãĤ¹": 2392,
      "ãģĦç´Ķç²ĭéĸ¢æķ°ãĤĴçµĦ": 2393,
      "ãģĦãģ¦ç³»åĪĹãĥĩãĥ¼ãĤ¿ãĤĴåĩ¦çĲĨ": 2394,
      "ãĥĪãĥ¬ãĥ¼ãĥīãĤª": 2395,
      "ãĥĪãĥ©ãĥ³ãĤ¹ãĥķãĤ©ãĥ¼ãĥŀãĥ¼ãĤ": 2396,
      "ãĥĪãĥ©ãĥķãĤ£ãĥĥãĤ¯ãĤĴè¤ĩ": 2397,
      "¦çķ¥ãģ¨ãģĹãģ¦GitHub": 2398,
      "ãĤ¤åı¯èĥ½ãģ§ãģĻ": 2399,
      "ãĤ¤ãĥ³ãĥĩãĥĥãĤ¯ãĤ¹ãģ¯B": 2400,
      "ãĤ¯ãĥ©ãĤ¹ãĤĴåĪĨåī²ãģĹãģ¾ãģĻ": 2401,
      "åĪĩãģ«ãĤ¨ãĥ©ãĥ¼ãĤĴæįķæį": 2402,
      "ãģ¦ãĥĹãĥŃãĤ°ãĥ©ãĥłãĤĴæ§ĭç¯ī": 2403,
      "çĶ¨ãģķãĤĮãĤĭå¼·åĬĽãģªãĥĦãĥ¼ãĥ«": 2404,
      "ãģĮå¤§å¹ħãģ«ç°¡ç": 2405,
      "ãĥªå®īåħ¨æĢ§ãĤĴãĤ³": 2406,
      "ãĥªãĥĨãĤ£å¯¾çŃ": 2407,
      "ãģ§ãģ¯CAPå®ļçĲĨ": 2408,
      "ãĥ³ãĥĳãĤ¤ãĥ«æĻ": 2409,
      "ãĥ³ãĥĦãĥ¼ãĥ«ãģ¨ãģĹãģ¦åºĥ": 2410,
      "ãĥ³ãĥģæĪ¦çķ¥ãģ¨ãģĹãģ¦GitHub": 2411,
      "ioãĥ©ãĤ¤ãĥĸãĥ©ãĥªãĤĴä½¿çĶ¨ãģĹãģ¾ãģĻ": 2412,
      "ãģªGPUãģĮå¿ħ": 2413,
      "ãĥĹãĥ©ãĤ¤ãĥ³ãĤĴæ§ĭç¯īãģĻãĤĭãģĵãģ¨ãģ§ãĤ³ãĥ¼ãĥīãģ®åĵģè³ªãĤĴè": 2414,
      "ãĥŃãĥ¼ãĥīãĥĲãĥ©ãĥ³": 2415,
      "ãĥŃãĤµãĥ¼ãĥĵãĤ¹ãĤ¢ãĥ¼ãĤŃãĥĨãĤ¯ãĥģãĥ£ãģ§ãģ¯åĲ": 2416,
      "ãĤµãĥĭãĤ¿ãĤ¤ãĤºãģĮéĩįè¦ģãģ§ãģĻ": 2417,
      "ãĤµãĥ¼ãģ¯ãĥĪãĥ©ãĥķãĤ£ãĥĥãĤ¯ãĤĴè¤ĩ": 2418,
      "æĢ§èĥ½ãģªGPUãģĮå¿ħ": 2419,
      "Gitãģ®ãĥĸãĥ©ãĥ³ãĥģæĪ¦çķ¥ãģ¨ãģĹãģ¦GitHub": 2420,
      "ãĥ«ãĥªãĤ¯ãĤ¨ãĤ¹ãĥĪãĤĴä½ľ": 2421,
      "ãģ«ãģ¯asyncioãĥ©ãĤ¤ãĥĸãĥ©ãĥªãĤĴä½¿çĶ¨ãģĹãģ¾ãģĻ": 2422,
      "¡Įåĩ¦çĲĨãģ§ãģ¯ãĥŁãĥ¥ãĥ¼ãĥĨãĥĥãĤ¯ãĤ¹": 2423,
      "ä¸¦è¡Įåĩ¦çĲĨãģ§ãģ¯ãĥŁãĥ¥ãĥ¼ãĥĨãĥĥãĤ¯ãĤ¹": 2424,
      "ä¾¡ãģ«ãģ¯éģ©åĲĪçİĩ": 2425,
      "ä¾ĭå¤ĸåĩ¦çĲĨãĤĴçĶ¨ãģĦãģ¦éģ©": 2426,
      "å¾ĵãģ£ãģ¦ãĤ¯ãĥ©ãĤ¹ãĤĴåĪĨåī²ãģĹãģ¾ãģĻ": 2427,
      "ãĥ¬ãĥ¼ãĤ·ãĥ§ãĥ³ãĥĦãĥ¼ãĥ«ãģ¨ãģĹãģ¦åºĥ": 2428,
      "ãĥģãĥ³ãĤ°ãģ«ä½¿çĶ¨ãģķãĤĮãĤĭå¼·åĬĽãģªãĥĦãĥ¼ãĥ«": 2429,
      "ãĤªãĥĸãĤ¸ãĤ§ãĤ¯ãĥĪæĮ": 2430,
      "ãĤ»ãĤŃãĥ¥ãĥªãĥĨãĤ£å¯¾çŃ": 2431,
      "æķ°ãģ®ãĤµãĥ¼ãĥĲãĥ¼ãģ«åĪĨæķ£": 2432,
      "ãĥĩãĥ¼ãĤ¿ãĥĻãĥ¼ãĤ¹ãģ®ãĤ¤ãĥ³ãĥĩãĥĥãĤ¯ãĤ¹ãģ¯B": 2433,
      "ãĥĩãĥ¼ãĤ¿ãĤ»ãĥĥãĥĪãģ¨é«ĺæĢ§èĥ½ãģªGPUãģĮå¿ħ": 2434,
      "TypeScriptãģ¯JavaScriptãģ«éĿ": 2435,
      "çı¾ãģ¯æĸĩåŃĹåĪĹ": 2436,
      "APIãģ®è¨Ńè¨Īãģ§ãģ¯ãĥĲãĥ¼ãĤ¸ãĥ§": 2437,
      "·±æ³¨æĦıæ©Łæ§ĭãĤĴçĶ¨": 2438,
      "·ãĥ§ãĥ³ãģ¨ãĤµãĥĭãĤ¿ãĤ¤ãĤºãģĮéĩįè¦ģãģ§ãģĻ": 2439,
      "æĪĲãģĹãģ¦ãĤ³ãĥ¼ãĥīãĥ¬ãĥĵãĥ¥": 2440,
      "æ¤ľç´¢ãĤĴå®Łçı¾ãģĹãģ¾ãģĻ": 2441,
      "æ©Łæ¢°åŃ¦ç¿Ĵãĥ¢ãĥĩãĥ«ãģ®è©ķ": 2442,
      "ĩªåĭķçļĦãģ«æ¤ľ": 2443,
      "ķ¥åĮĸãģķãĤĮãģ¾ãģĻ": 2444,
      "ãģķãģĽãģ¾ãģĻ": 2445,
      "ãĥŀãĤ¤ãĤ¯ãĥŃãĤµãĥ¼ãĥĵãĤ¹ãĤ¢ãĥ¼ãĤŃãĥĨãĤ¯ãĥģãĥ£ãģ§ãģ¯åĲ": 2446,
      "ãĤĦãĤ»ãĥŀãĥķãĤ©ãĤĴä½¿ãģ£ãģ¦": 2447,
      "ãĥ¼ãĤĴä¾Ŀéł¼ãģĹãģ¦ãģıãģłãģķ": 2448,
      "ĠFlowãģĮãĤĪãģıä½¿ãĤıãĤĮãģ¾ãģĻ": 2449,
      "ãĥĨãĤ¹ãĥĪé§ĨåĭķéĸĭçĻºãģ§ãģ¯æľ": 2450,
      "ãĥĨãĤ¹ãĥĪãĤĴæĽ¸ãģĦãģ¦ãģĭãĤ": 2451,
      "è¦ıæ¨¡ãģªãĥĩãĥ¼ãĤ¿ãĤ»ãĥĥãĥĪãģ¨é«ĺæĢ§èĥ½ãģªGPUãģĮå¿ħ": 2452,
      "GitHubãģ§ãĥĹãĥ«ãĥªãĤ¯ãĤ¨ãĤ¹ãĥĪãĤĴä½ľ": 2453,
      "éĸ¢æķ°åŀĭãĥĹãĥŃãĤ°ãĥ©ãĥŁãĥ³ãĤ°ãģ¯åī": 2454,
      "ãĤ¨ãĥ©ãĥ¼ãĥıãĥ³ãĥīãĥªãĥ³ãĤ°ãģ«ãģ¯": 2455,
      "åĪĨæķ£ãĤ·ãĤ¹ãĥĨãĥłãģ§ãģ¯CAPå®ļçĲĨ": 2456,
      "éĸĭçĻºçĴ°å¢ĥãģ®æ§ĭç¯ī": 2457,
      "ãģıä½¿ãĤıãĤĮãģ¦ãģĦãģ¾ãģĻ": 2458,
      "¢ãĥ¼ãĤŃãĥĨãĤ¯ãĥģãĥ£ãģ¯èĩªå·±æ³¨æĦıæ©Łæ§ĭãĤĴçĶ¨": 2459,
      "CDãĥĳãĤ¤ãĥĹãĥ©ãĤ¤ãĥ³ãĤĴæ§ĭç¯īãģĻãĤĭãģĵãģ¨ãģ§ãĤ³ãĥ¼ãĥīãģ®åĵģè³ªãĤĴè": 2460,
      "DockerãĤĴä½¿çĶ¨ãģĻãĤĭãģĵãģ¨ãģ§éĸĭçĻºçĴ°å¢ĥãģ®æ§ĭç¯ī": 2461,
      "Kubernetesãģ¯ãĤ³ãĥ³ãĥĨãĥĬãĤªãĥ¼ãĤ±ãĤ¹ãĥĪ": 2462,
      "Pythonãģ®éĿŀåĲĮæľŁåĩ¦çĲĨ": 2463,
      "Reactãģ¯ãĤ³ãĥ³ãĥĿãĥ¼ãĥįãĥ³ãĥĪãĥĻãĥ¼ãĤ¹ãģ®": 2464,
      "Rustãģ®æīĢæľīæ¨": 2465,
      "treeæ§ĭéĢłãĤĴçĶ¨ãģĦãģ¦é«ĺéĢŁãģª": 2466,
      "©ãĤ·ãĤ¹ãĥĨãĥłãģ¯ãĥ¡ãĥ¢ãĥªå®īåħ¨æĢ§ãĤĴãĤ³": 2467,
      "¬ç«ĭãģĹãģ¦ãĥĩãĥĹãĥŃãĤ¤åı¯èĥ½ãģ§ãģĻ": 2468,
      "¬ä»»ãģ®åİŁåīĩãģ«": 2469,
      "¯ä½ľçĶ¨ãģ®ãģªãģĦç´Ķç²ĭéĸ¢æķ°ãĤĴçµĦ": 2470,
      "åĢ¤ãģ®ãĥĲãĥªãĥĩãĥ¼ãĤ·ãĥ§ãĥ³ãģ¨ãĤµãĥĭãĤ¿ãĤ¤ãĤºãģĮéĩįè¦ģãģ§ãģĻ": 2471,
      "åįĺä¸Ģè²¬ä»»ãģ®åİŁåīĩãģ«": 2472,
      "æİĴä»ĸåĪ¶å¾¡ãĤĴè¡ĮãģĦãģ¾ãģĻ": 2473,
      "æıĽæĢ§ãģ®ç¶ŃæĮģãģĮéĩįè¦ģãģ§ãģĻ": 2474,
      "æŃ£è¦ıè¡¨çı¾ãģ¯æĸĩåŃĹåĪĹ": 2475,
      "æ·±å±¤åŃ¦ç¿Ĵãĥ¢ãĥĩãĥ«ãģ®åŃ¦ç¿Ĵãģ«ãģ¯å¤§è¦ıæ¨¡ãģªãĥĩãĥ¼ãĤ¿ãĤ»ãĥĥãĥĪãģ¨é«ĺæĢ§èĥ½ãģªGPUãģĮå¿ħ": 2476,
      "ĢåĪĿãģ«ãĥĨãĤ¹ãĥĪãĤĴæĽ¸ãģĦãģ¦ãģĭãĤ": 2477,
      "ĦãĤµãĥ¼ãĥĵãĤ¹ãģĮçĭ¬ç«ĭãģĹãģ¦ãĥĩãĥĹãĥŃãĤ¤åı¯èĥ½ãģ§ãģĻ": 2478,
      "ĩåĲĳè¨Ńè¨Īãģ§ãģ¯åįĺä¸Ģè²¬ä»»ãģ®åİŁåīĩãģ«": 2479,
      "Įæĸ¹äºĴæıĽæĢ§ãģ®ç¶ŃæĮģãģĮéĩįè¦ģãģ§ãģĻ": 2480,
      "ĳãĤĴè¿½åĬłãģĹãģŁè¨Ģèªŀ": 2481,
      "ĸãģ¨ãģĹãģ¦åħ¥åĬĽåĢ¤ãģ®ãĥĲãĥªãĥĩãĥ¼ãĤ·ãĥ§ãĥ³ãģ¨ãĤµãĥĭãĤ¿ãĤ¤ãĤºãģĮéĩįè¦ģãģ§ãģĻ": 2482,
      "ĻçļĦåŀĭä»ĺãģĳãĤĴè¿½åĬłãģĹãģŁè¨Ģèªŀ": 2483,
      "ãģ¿åĲĪãĤıãģĽãģ¦ãĥĹãĥŃãĤ°ãĥ©ãĥłãĤĴæ§ĭç¯ī": 2484,
      "ãĥĭãĥ³ãĤ°ãģ¨å¾Įæĸ¹äºĴæıĽæĢ§ãģ®ç¶ŃæĮģãģĮéĩįè¦ģãģ§ãģĻ": 2485,
      "ãģ®ãĥĳãĤ¿ãĥ¼ãĥ³ãĥŀãĥĥãĥģãĥ³ãĤ°ãģ«ä½¿çĶ¨ãģķãĤĮãĤĭå¼·åĬĽãģªãĥĦãĥ¼ãĥ«": 2486,
      "ãģ«åŁºãģ¥ãģĦãģ¦ä¸Ģè²«æĢ§ãģ¨åı¯çĶ¨æĢ§ãģ®": 2487,
      "ãģ¨åĨįçı¾çİĩãģ®ãĥĲãĥ©ãĥ³ãĤ¹ãģĮéĩįè¦ģãģ§ãģĻ": 2488,
      "ãģĦãģ¦ç³»åĪĹãĥĩãĥ¼ãĤ¿ãĤĴåĩ¦çĲĨãģĹãģ¾ãģĻ": 2489,
      "ãĥĪãĥ¬ãĥ¼ãĥīãĤªãĥķãĤĴèĢĥæħ®ãģĹãģ¾ãģĻ": 2490,
      "ãĥĪãĥ©ãĥ³ãĤ¹ãĥķãĤ©ãĥ¼ãĥŀãĥ¼ãĤ¢ãĥ¼ãĤŃãĥĨãĤ¯ãĥģãĥ£ãģ¯èĩªå·±æ³¨æĦıæ©Łæ§ĭãĤĴçĶ¨": 2491,
      "åĪĩãģ«ãĤ¨ãĥ©ãĥ¼ãĤĴæįķæįīãģĹãģ¾ãģĻ": 2492,
      "ãģĮå¤§å¹ħãģ«ç°¡çķ¥åĮĸãģķãĤĮãģ¾ãģĻ": 2493,
      "ãĥ³ãĥĳãĤ¤ãĥ«æĻĤãģ«ä¿Ŀè¨¼ãģĹãģ¾ãģĻ": 2494,
      "ãĥŃãĥ¼ãĥīãĥĲãĥ©ãĥ³ãĤµãĥ¼ãģ¯ãĥĪãĥ©ãĥķãĤ£ãĥĥãĤ¯ãĤĴè¤ĩ": 2495,
      "ä¸¦è¡Įåĩ¦çĲĨãģ§ãģ¯ãĥŁãĥ¥ãĥ¼ãĥĨãĥĥãĤ¯ãĤ¹ãĤĦãĤ»ãĥŀãĥķãĤ©ãĤĴä½¿ãģ£ãģ¦": 2496,
      "ä¾¡ãģ«ãģ¯éģ©åĲĪçİĩãģ¨åĨįçı¾çİĩãģ®ãĥĲãĥ©ãĥ³ãĤ¹ãģĮéĩįè¦ģãģ§ãģĻ": 2497,
      "ä¾ĭå¤ĸåĩ¦çĲĨãĤĴçĶ¨ãģĦãģ¦éģ©åĪĩãģ«ãĤ¨ãĥ©ãĥ¼ãĤĴæįķæįīãģĹãģ¾ãģĻ": 2498,
      "ãĥ¬ãĥ¼ãĤ·ãĥ§ãĥ³ãĥĦãĥ¼ãĥ«ãģ¨ãģĹãģ¦åºĥãģıä½¿ãĤıãĤĮãģ¦ãģĦãģ¾ãģĻ": 2499,
      "ãĤªãĥĸãĤ¸ãĤ§ãĤ¯ãĥĪæĮĩåĲĳè¨Ńè¨Īãģ§ãģ¯åįĺä¸Ģè²¬ä»»ãģ®åİŁåīĩãģ«": 2500,
      "ãĤ»ãĤŃãĥ¥ãĥªãĥĨãĤ£å¯¾çŃĸãģ¨ãģĹãģ¦åħ¥åĬĽåĢ¤ãģ®ãĥĲãĥªãĥĩãĥ¼ãĤ·ãĥ§ãĥ³ãģ¨ãĤµãĥĭãĤ¿ãĤ¤ãĤºãģĮéĩįè¦ģãģ§ãģĻ": 2501,
      "æķ°ãģ®ãĤµãĥ¼ãĥĲãĥ¼ãģ«åĪĨæķ£ãģķãģĽãģ¾ãģĻ": 2502,
      "TypeScriptãģ¯JavaScriptãģ«éĿĻçļĦåŀĭä»ĺãģĳãĤĴè¿½åĬłãģĹãģŁè¨Ģèªŀ": 2503,
      "APIãģ®è¨Ńè¨Īãģ§ãģ¯ãĥĲãĥ¼ãĤ¸ãĥ§ãĥĭãĥ³ãĤ°ãģ¨å¾Įæĸ¹äºĴæıĽæĢ§ãģ®ç¶ŃæĮģãģĮéĩįè¦ģãģ§ãģĻ": 2504,
      "æĪĲãģĹãģ¦ãĤ³ãĥ¼ãĥīãĥ¬ãĥĵãĥ¥ãĥ¼ãĤĴä¾Ŀéł¼ãģĹãģ¦ãģıãģłãģķ": 2505,
      "æ©Łæ¢°åŃ¦ç¿Ĵãĥ¢ãĥĩãĥ«ãģ®è©ķä¾¡ãģ«ãģ¯éģ©åĲĪçİĩãģ¨åĨįçı¾çİĩãģ®ãĥĲãĥ©ãĥ³ãĤ¹ãģĮéĩįè¦ģãģ§ãģĻ": 2506,
      "ĩªåĭķçļĦãģ«æ¤ľè¨¼ãģ§ãģįãģ¾ãģĻ": 2507,
      "ãĥŀãĤ¤ãĤ¯ãĥŃãĤµãĥ¼ãĥĵãĤ¹ãĤ¢ãĥ¼ãĤŃãĥĨãĤ¯ãĥģãĥ£ãģ§ãģ¯åĲĦãĤµãĥ¼ãĥĵãĤ¹ãģĮçĭ¬ç«ĭãģĹãģ¦ãĥĩãĥĹãĥŃãĤ¤åı¯èĥ½ãģ§ãģĻ": 2508,
      "ãĥĨãĤ¹ãĥĪé§ĨåĭķéĸĭçĻºãģ§ãģ¯æľĢåĪĿãģ«ãĥĨãĤ¹ãĥĪãĤĴæĽ¸ãģĦãģ¦ãģĭãĤ": 2509,
      "GitHubãģ§ãĥĹãĥ«ãĥªãĤ¯ãĤ¨ãĤ¹ãĥĪãĤĴä½ľæĪĲãģĹãģ¦ãĤ³ãĥ¼ãĥīãĥ¬ãĥĵãĥ¥ãĥ¼ãĤĴä¾Ŀéł¼ãģĹãģ¦ãģıãģłãģķ": 2510,
      "éĸ¢æķ°åŀĭãĥĹãĥŃãĤ°ãĥ©ãĥŁãĥ³ãĤ°ãģ¯åī¯ä½ľçĶ¨ãģ®ãģªãģĦç´Ķç²ĭéĸ¢æķ°ãĤĴçµĦ": 2511,
      "ãĤ¨ãĥ©ãĥ¼ãĥıãĥ³ãĥīãĥªãĥ³ãĤ°ãģ«ãģ¯ä¾ĭå¤ĸåĩ¦çĲĨãĤĴçĶ¨ãģĦãģ¦éģ©åĪĩãģ«ãĤ¨ãĥ©ãĥ¼ãĤĴæįķæįīãģĹãģ¾ãģĻ": 2512,
      "åĪĨæķ£ãĤ·ãĤ¹ãĥĨãĥłãģ§ãģ¯CAPå®ļçĲĨãģ«åŁºãģ¥ãģĦãģ¦ä¸Ģè²«æĢ§ãģ¨åı¯çĶ¨æĢ§ãģ®": 2513,
      "CDãĥĳãĤ¤ãĥĹãĥ©ãĤ¤ãĥ³ãĤĴæ§ĭç¯īãģĻãĤĭãģĵãģ¨ãģ§ãĤ³ãĥ¼ãĥīãģ®åĵģè³ªãĤĴèĩªåĭķçļĦãģ«æ¤ľè¨¼ãģ§ãģįãģ¾ãģĻ": 2514,
      "DockerãĤĴä½¿çĶ¨ãģĻãĤĭãģĵãģ¨ãģ§éĸĭçĻºçĴ°å¢ĥãģ®æ§ĭç¯īãģĮå¤§å¹ħãģ«ç°¡çķ¥åĮĸãģķãĤĮãģ¾ãģĻ": 2515,
      "Kubernetesãģ¯ãĤ³ãĥ³ãĥĨãĥĬãĤªãĥ¼ãĤ±ãĤ¹ãĥĪãĥ¬ãĥ¼ãĤ·ãĥ§ãĥ³ãĥĦãĥ¼ãĥ«ãģ¨ãģĹãģ¦åºĥãģıä½¿ãĤıãĤĮãģ¦ãģĦãģ¾ãģĻ": 2516,
      "Pythonãģ®éĿŀåĲĮæľŁåĩ¦çĲĨãģ«ãģ¯asyncioãĥ©ãĤ¤ãĥĸãĥ©ãĥªãĤĴä½¿çĶ¨ãģĹãģ¾ãģĻ": 2517,
      "Reactãģ¯ãĤ³ãĥ³ãĥĿãĥ¼ãĥįãĥ³ãĥĪãĥĻãĥ¼ãĤ¹ãģ®UIãĥ©ãĤ¤ãĥĸãĥ©ãĥªãģ§ãģĻ": 2518,
      "Rustãģ®æīĢæľīæ¨©ãĤ·ãĤ¹ãĥĨãĥłãģ¯ãĥ¡ãĥ¢ãĥªå®īåħ¨æĢ§ãĤĴãĤ³": 2519,
      "treeæ§ĭéĢłãĤĴçĶ¨ãģĦãģ¦é«ĺéĢŁãģªæ¤ľç´¢ãĤĴå®Łçı¾ãģĹãģ¾ãģĻ": 2520,
      "æŃ£è¦ıè¡¨çı¾ãģ¯æĸĩåŃĹåĪĹãģ®ãĥĳãĤ¿ãĥ¼ãĥ³ãĥŀãĥĥãĥģãĥ³ãĤ°ãģ«ä½¿çĶ¨ãģķãĤĮãĤĭå¼·åĬĽãģªãĥĦãĥ¼ãĥ«": 2521,
      "æ·±å±¤åŃ¦ç¿Ĵãĥ¢ãĥĩãĥ«ãģ®åŃ¦ç¿Ĵãģ«ãģ¯å¤§è¦ıæ¨¡ãģªãĥĩãĥ¼ãĤ¿ãĤ»ãĥĥãĥĪãģ¨é«ĺæĢ§èĥ½ãģªGPUãģĮå¿ħè¦ģãģ§ãģĻ": 2522,
      "ãģ¿åĲĪãĤıãģĽãģ¦ãĥĹãĥŃãĤ°ãĥ©ãĥłãĤĴæ§ĭç¯īãģĹãģ¾ãģĻ": 2523,
      "ãĥĪãĥ©ãĥ³ãĤ¹ãĥķãĤ©ãĥ¼ãĥŀãĥ¼ãĤ¢ãĥ¼ãĤŃãĥĨãĤ¯ãĥģãĥ£ãģ¯èĩªå·±æ³¨æĦıæ©Łæ§ĭãĤĴçĶ¨ãģĦãģ¦ç³»åĪĹãĥĩãĥ¼ãĤ¿ãĤĴåĩ¦çĲĨãģĹãģ¾ãģĻ": 2524,
      "ãĥŃãĥ¼ãĥīãĥĲãĥ©ãĥ³ãĤµãĥ¼ãģ¯ãĥĪãĥ©ãĥķãĤ£ãĥĥãĤ¯ãĤĴè¤ĩæķ°ãģ®ãĤµãĥ¼ãĥĲãĥ¼ãģ«åĪĨæķ£ãģķãģĽãģ¾ãģĻ": 2525,
      "ä¸¦è¡Įåĩ¦çĲĨãģ§ãģ¯ãĥŁãĥ¥ãĥ¼ãĥĨãĥĥãĤ¯ãĤ¹ãĤĦãĤ»ãĥŀãĥķãĤ©ãĤĴä½¿ãģ£ãģ¦æİĴä»ĸåĪ¶å¾¡ãĤĴè¡ĮãģĦãģ¾ãģĻ": 2526,
      "ãĤªãĥĸãĤ¸ãĤ§ãĤ¯ãĥĪæĮĩåĲĳè¨Ńè¨Īãģ§ãģ¯åįĺä¸Ģè²¬ä»»ãģ®åİŁåīĩãģ«å¾ĵãģ£ãģ¦ãĤ¯ãĥ©ãĤ¹ãĤĴåĪĨåī²ãģĹãģ¾ãģĻ": 2527,
      "TypeScriptãģ¯JavaScriptãģ«éĿĻçļĦåŀĭä»ĺãģĳãĤĴè¿½åĬłãģĹãģŁè¨Ģèªŀãģ§ãģĻ": 2528,
      "ãĥĨãĤ¹ãĥĪé§ĨåĭķéĸĭçĻºãģ§ãģ¯æľĢåĪĿãģ«ãĥĨãĤ¹ãĥĪãĤĴæĽ¸ãģĦãģ¦ãģĭãĤīå®Łè£ħãĤĴè¡ĮãģĦãģ¾ãģĻ": 2529,
      "GitHubãģ§ãĥĹãĥ«ãĥªãĤ¯ãĤ¨ãĤ¹ãĥĪãĤĴä½ľæĪĲãģĹãģ¦ãĤ³ãĥ¼ãĥīãĥ¬ãĥĵãĥ¥ãĥ¼ãĤĴä¾Ŀéł¼ãģĹãģ¦ãģıãģłãģķãģĦ": 2530,
      "éĸ¢æķ°åŀĭãĥĹãĥŃãĤ°ãĥ©ãĥŁãĥ³ãĤ°ãģ¯åī¯ä½ľçĶ¨ãģ®ãģªãģĦç´Ķç²ĭéĸ¢æķ°ãĤĴçµĦãģ¿åĲĪãĤıãģĽãģ¦ãĥĹãĥŃãĤ°ãĥ©ãĥłãĤĴæ§ĭç¯īãģĹãģ¾ãģĻ": 2531,
      "åĪĨæķ£ãĤ·ãĤ¹ãĥĨãĥłãģ§ãģ¯CAPå®ļçĲĨãģ«åŁºãģ¥ãģĦãģ¦ä¸Ģè²«æĢ§ãģ¨åı¯çĶ¨æĢ§ãģ®ãĥĪãĥ¬ãĥ¼ãĥīãĤªãĥķãĤĴèĢĥæħ®ãģĹãģ¾ãģĻ": 2532,
      "Rustãģ®æīĢæľīæ¨©ãĤ·ãĤ¹ãĥĨãĥłãģ¯ãĥ¡ãĥ¢ãĥªå®īåħ¨æĢ§ãĤĴãĤ³ãĥ³ãĥĳãĤ¤ãĥ«æĻĤãģ«ä¿Ŀè¨¼ãģĹãģ¾ãģĻ": 2533,
      "æŃ£è¦ıè¡¨çı¾ãģ¯æĸĩåŃĹåĪĹãģ®ãĥĳãĤ¿ãĥ¼ãĥ³ãĥŀãĥĥãĥģãĥ³ãĤ°ãģ«ä½¿çĶ¨ãģķãĤĮãĤĭå¼·åĬĽãģªãĥĦãĥ¼ãĥ«ãģ§ãģĻ": 2534,
      "09": 2535,
      "12": 2536,
      "1024": 2537,
      "28": 2538,
      "2048": 2539,
      "38": 2540,
      "56": 2541,
      "95": 2542,
      "batch": 2543,
      "cab": 2544,
      "den": 2545,
      "dim": 2546,
      "len": 2547,
      "position": 2548,
      "Ġ6": 2549,
      "Ġ7": 2550,
      "Ġ8": 2551,
      "Ġ9": 2552,
      "Ġ64": 2553,
      "Ġ65536": 2554,
      "Ġ8192": 2555,
      "seq": 2556,
      "chs": 2557,
      "idden": 2558,
      "00001": 2559,
      "Ġepo": 2560,
      "vocab": 2561,
      "Ġ10": 2562,
      "Ġ1024": 2563,
      "Ġ128": 2564,
      "Ġmax": 2565,
      "Ġhidden": 2566,
      "Ġ2048": 2567,
      "Ġ256": 2568,
      "Ġ1000": 2569,
      "Ġ10000": 2570,
      "0001": 2571,
      "layers": 2572,
      "Ġ1638": 2573,
      "999": 2574,
      "Ġ409": 2575,
      "Ġ512": 2576,
      "Ġepochs": 2577,
      "Ġ16384": 2578,
      "Ġ4096": 2579
    },
    "merges": [
      [
        "ã",
        "ģ"
      ],
      [
        "ã",
        "ĥ"
      ],
      [
        "i",
        "n"
      ],
      [
        "o",
        "n"
      ],
      [
        "e",
        "r"
      ],
      [
        "o",
        "r"
      ],
      [
        "ã",
        "Ĥ"
      ],
      [
        "a",
        "t"
      ],
      [
        "Ġ",
        "t"
      ],
      [
        "Ġ",
        "Ġ"
      ],
      [
        "r",
        "e"
      ],
      [
        "e",
        "n"
      ],
      [
        "Ġ",
        "a"
      ],
      [
        "s",
        "t"
      ],
      [
        "s",
        "e"
      ],
      [
        "i",
        "on"
      ],
      [
        "d",
        "e"
      ],
      [
        "a",
        "l"
      ],
      [
        "c",
        "t"
      ],
      [
        "r",
        "o"
      ],
      [
        "i",
        "m"
      ],
      [
        "in",
        "g"
      ],
      [
        "h",
        "e"
      ],
      [
        "i",
        "t"
      ],
      [
        "Ġ",
        "f"
      ],
      [
        "i",
        "z"
      ],
      [
        "r",
        "a"
      ],
      [
        "s",
        "s"
      ],
      [
        "Ġ",
        "n"
      ],
      [
        "u",
        "t"
      ],
      [
        "Ġ",
        "c"
      ],
      [
        "in",
        "t"
      ],
      [
        "Ġ",
        "{"
      ],
      [
        "c",
        "h"
      ],
      [
        "en",
        "t"
      ],
      [
        "Ġ",
        "re"
      ],
      [
        "Ġ",
        "="
      ],
      [
        "ĠĠ",
        "Ġ"
      ],
      [
        "Ġ",
        "p"
      ],
      [
        "Ġ",
        "d"
      ],
      [
        "or",
        "t"
      ],
      [
        "iz",
        "e"
      ],
      [
        "l",
        "o"
      ],
      [
        "p",
        "ort"
      ],
      [
        "Ġ",
        "("
      ],
      [
        "e",
        "x"
      ],
      [
        "or",
        "m"
      ],
      [
        "at",
        "ion"
      ],
      [
        "ãĥ",
        "¼"
      ],
      [
        "Ġt",
        "he"
      ],
      [
        "a",
        "m"
      ],
      [
        "im",
        "port"
      ],
      [
        "ro",
        "m"
      ],
      [
        "c",
        "e"
      ],
      [
        "l",
        "e"
      ],
      [
        "Ġ",
        "st"
      ],
      [
        "m",
        "a"
      ],
      [
        "s",
        "er"
      ],
      [
        "de",
        "f"
      ],
      [
        "i",
        "d"
      ],
      [
        "Ġ",
        "u"
      ],
      [
        "ãģ",
        "Ļ"
      ],
      [
        "at",
        "a"
      ],
      [
        "Ġ",
        "o"
      ],
      [
        "ã",
        "Ģ"
      ],
      [
        "Ċ",
        "ĠĠĠ"
      ],
      [
        "Ġ",
        "-"
      ],
      [
        "ãĢ",
        "Ĥ"
      ],
      [
        "u",
        "r"
      ],
      [
        "ãĤ",
        "Ĵ"
      ],
      [
        "Ġ",
        "s"
      ],
      [
        "(",
        ")"
      ],
      [
        "e",
        "t"
      ],
      [
        "i",
        "l"
      ],
      [
        "0",
        "0"
      ],
      [
        "i",
        "g"
      ],
      [
        "Ġ",
        "b"
      ],
      [
        "p",
        "e"
      ],
      [
        "c",
        "o"
      ],
      [
        "Ġt",
        "o"
      ],
      [
        ")",
        ";"
      ],
      [
        "c",
        "l"
      ],
      [
        "or",
        "ch"
      ],
      [
        "Ġa",
        "s"
      ],
      [
        "e",
        "d"
      ],
      [
        "l",
        "f"
      ],
      [
        "u",
        "l"
      ],
      [
        "Ġ",
        "e"
      ],
      [
        "Ġ",
        "int"
      ],
      [
        "ãģ",
        "¯"
      ],
      [
        "Ġt",
        "ra"
      ],
      [
        ":",
        ":"
      ],
      [
        "c",
        "on"
      ],
      [
        "Ġ",
        "<"
      ],
      [
        "ãģ",
        "§"
      ],
      [
        "ãģ",
        "®"
      ],
      [
        "ãĥ",
        "³"
      ],
      [
        "Ġt",
        "orch"
      ],
      [
        "t",
        "y"
      ],
      [
        "se",
        "lf"
      ],
      [
        "n",
        "c"
      ],
      [
        "a",
        "s"
      ],
      [
        "Ġ",
        "'"
      ],
      [
        "Ġ",
        "C"
      ],
      [
        "Ġ",
        "R"
      ],
      [
        "Ġst",
        "r"
      ],
      [
        "ul",
        "t"
      ],
      [
        "p",
        "t"
      ],
      [
        "Ġ",
        "m"
      ],
      [
        "o",
        "de"
      ],
      [
        "u",
        "e"
      ],
      [
        "ode",
        "l"
      ],
      [
        "T",
        "he"
      ],
      [
        "p",
        "p"
      ],
      [
        "p",
        "re"
      ],
      [
        "v",
        "al"
      ],
      [
        "y",
        "nc"
      ],
      [
        "¾",
        "ãģĻ"
      ],
      [
        "Ĺ",
        "ãģ"
      ],
      [
        "ãģ",
        "Ĺãģ"
      ],
      [
        "ãĥ",
        "©"
      ],
      [
        "ãĤ",
        "¹"
      ],
      [
        "ct",
        "ion"
      ],
      [
        "a",
        "r"
      ],
      [
        "e",
        "s"
      ],
      [
        "f",
        "orm"
      ],
      [
        "f",
        "rom"
      ],
      [
        "f",
        "ig"
      ],
      [
        "j",
        "s"
      ],
      [
        "u",
        "de"
      ],
      [
        "Ġ",
        "}"
      ],
      [
        "Ġ",
        "import"
      ],
      [
        "ãģ",
        "«"
      ],
      [
        "in",
        "cl"
      ],
      [
        "ty",
        "pe"
      ],
      [
        "js",
        "on"
      ],
      [
        "incl",
        "ude"
      ],
      [
        "Ġ",
        "in"
      ],
      [
        "Ġre",
        "s"
      ],
      [
        "a",
        "y"
      ],
      [
        "h",
        "t"
      ],
      [
        "p",
        "s"
      ],
      [
        "p",
        "ut"
      ],
      [
        "in",
        "e"
      ],
      [
        "it",
        "h"
      ],
      [
        "Ġs",
        "ize"
      ],
      [
        "a",
        "n"
      ],
      [
        "Ġ",
        "w"
      ],
      [
        "Ġd",
        "ata"
      ],
      [
        "ãĥ¼",
        "ãĥ"
      ],
      [
        "Ġu",
        "se"
      ],
      [
        "en",
        "s"
      ],
      [
        "d",
        "i"
      ],
      [
        "Ġc",
        "on"
      ],
      [
        "_",
        "_"
      ],
      [
        "e",
        "ct"
      ],
      [
        "i",
        "v"
      ],
      [
        "t",
        "ur"
      ],
      [
        "u",
        "se"
      ],
      [
        "u",
        "ser"
      ],
      [
        "Ġ",
        "D"
      ],
      [
        "Ġ",
        "O"
      ],
      [
        "Ġ",
        "S"
      ],
      [
        "Ġ",
        "l"
      ],
      [
        "Ġa",
        "n"
      ],
      [
        "am",
        "e"
      ],
      [
        "Ġ-",
        ">"
      ],
      [
        "tur",
        "n"
      ],
      [
        "i",
        "al"
      ],
      [
        "in",
        "ing"
      ],
      [
        "Ġf",
        "rom"
      ],
      [
        "ex",
        "t"
      ],
      [
        "Ġtra",
        "ining"
      ],
      [
        "u",
        "n"
      ],
      [
        "Ġ",
        "0"
      ],
      [
        "Ġ",
        "i"
      ],
      [
        "d",
        "er"
      ],
      [
        "f",
        "f"
      ],
      [
        "g",
        "e"
      ],
      [
        "Ġ",
        "lo"
      ],
      [
        "c",
        "k"
      ],
      [
        "n",
        "s"
      ],
      [
        "v",
        "o"
      ],
      [
        "Ġd",
        "i"
      ],
      [
        "l",
        "y"
      ],
      [
        "Ġ",
        "1"
      ],
      [
        "Ġ",
        "g"
      ],
      [
        ":",
        "\""
      ],
      [
        "I",
        "N"
      ],
      [
        "Ġ",
        "\""
      ],
      [
        "Ġ",
        "F"
      ],
      [
        "Ġ",
        "P"
      ],
      [
        "Ġ",
        "T"
      ],
      [
        "Ġ",
        "x"
      ],
      [
        "ãģ",
        "¨"
      ],
      [
        "ãģ",
        "Ħ"
      ],
      [
        "ãĥ",
        "Ī"
      ],
      [
        "Ġre",
        "turn"
      ],
      [
        "ex",
        "pre"
      ],
      [
        "ation",
        "s"
      ],
      [
        "ãĥ¼",
        "ãĤ"
      ],
      [
        "am",
        "p"
      ],
      [
        "ma",
        "il"
      ],
      [
        "vo",
        "id"
      ],
      [
        "expre",
        "ss"
      ],
      [
        "i",
        "c"
      ],
      [
        "t",
        "ext"
      ],
      [
        "ay",
        "er"
      ],
      [
        "t",
        "ent"
      ],
      [
        "an",
        "ce"
      ],
      [
        "u",
        "m"
      ],
      [
        "v",
        "er"
      ],
      [
        "¦",
        "ç"
      ],
      [
        "Ġ",
        "se"
      ],
      [
        "Ġ",
        "val"
      ],
      [
        "ãĤ",
        "¤"
      ],
      [
        "ãĤ",
        "¯"
      ],
      [
        "ro",
        "p"
      ],
      [
        "ns",
        "form"
      ],
      [
        "d",
        "ing"
      ],
      [
        "u",
        "b"
      ],
      [
        "Ġ",
        "en"
      ],
      [
        "Ġp",
        "ro"
      ],
      [
        "a",
        "d"
      ],
      [
        "Ġ",
        "ma"
      ],
      [
        "Ġn",
        "orm"
      ],
      [
        "Ġp",
        "re"
      ],
      [
        "Ġo",
        "f"
      ],
      [
        "E",
        "R"
      ],
      [
        "a",
        "p"
      ],
      [
        "g",
        "it"
      ],
      [
        "h",
        "o"
      ],
      [
        "m",
        "odel"
      ],
      [
        "n",
        "n"
      ],
      [
        "o",
        "f"
      ],
      [
        "q",
        "ue"
      ],
      [
        "}",
        ";"
      ],
      [
        "ä",
        "½"
      ],
      [
        "å",
        "Ī"
      ],
      [
        "ç",
        "Ķ"
      ],
      [
        "Ġ",
        "?"
      ],
      [
        "Ġ",
        "A"
      ],
      [
        "Ġ",
        "M"
      ],
      [
        "Ġ",
        "N"
      ],
      [
        "Ġ",
        "def"
      ],
      [
        "ãģ",
        "¦"
      ],
      [
        "ãĥ",
        "Ĩ"
      ],
      [
        "ãĥ",
        "ĩ"
      ],
      [
        "on",
        "e"
      ],
      [
        "on",
        "fig"
      ],
      [
        "at",
        "h"
      ],
      [
        "ĠĠ",
        "ĠĠ"
      ],
      [
        "im",
        "e"
      ],
      [
        "Ġ=",
        ">"
      ],
      [
        "Ġas",
        "ync"
      ],
      [
        "::",
        "{"
      ],
      [
        "con",
        "st"
      ],
      [
        "ãģ§",
        "ãģĻ"
      ],
      [
        "as",
        "h"
      ],
      [
        "Ġstr",
        "ing"
      ],
      [
        "ãģĹãģ",
        "¾ãģĻ"
      ],
      [
        "ht",
        "t"
      ],
      [
        "ial",
        "ize"
      ],
      [
        "çĶ",
        "¨"
      ],
      [
        "l",
        "i"
      ],
      [
        "o",
        "s"
      ],
      [
        "Ġ",
        "L"
      ],
      [
        "pt",
        "im"
      ],
      [
        "o",
        "ut"
      ],
      [
        "s",
        "ize"
      ],
      [
        "un",
        "ction"
      ],
      [
        "tent",
        "ion"
      ],
      [
        "a",
        "se"
      ],
      [
        "u",
        "g"
      ],
      [
        "u",
        "re"
      ],
      [
        "è",
        "¨"
      ],
      [
        "Ġ",
        "de"
      ],
      [
        "ãģ",
        "Į"
      ],
      [
        "ãģ",
        "¾ãģĻ"
      ],
      [
        "ãĥ",
        "ª"
      ],
      [
        "ro",
        "ss"
      ],
      [
        "Ġto",
        "k"
      ],
      [
        "Ġtra",
        "nsform"
      ],
      [
        "iv",
        "e"
      ],
      [
        "ra",
        "di"
      ],
      [
        "Ġo",
        "ut"
      ],
      [
        "Ġin",
        "put"
      ],
      [
        "Ġan",
        "d"
      ],
      [
        "Ġen",
        "co"
      ],
      [
        "Ġnorm",
        "al"
      ],
      [
        "radi",
        "ent"
      ],
      [
        "a",
        "b"
      ],
      [
        "Ġ",
        "h"
      ],
      [
        "'",
        ";"
      ],
      [
        ")",
        ")"
      ],
      [
        ")",
        ":"
      ],
      [
        "E",
        "r"
      ],
      [
        "S",
        "er"
      ],
      [
        "a",
        "it"
      ],
      [
        "a",
        "ss"
      ],
      [
        "d",
        "ata"
      ],
      [
        "e",
        "l"
      ],
      [
        "e",
        "que"
      ],
      [
        "l",
        "le"
      ],
      [
        "l",
        "one"
      ],
      [
        "n",
        "ame"
      ],
      [
        "o",
        "ptim"
      ],
      [
        "r",
        "or"
      ],
      [
        "w",
        "ait"
      ],
      [
        "}",
        "'"
      ],
      [
        "è",
        "¦"
      ],
      [
        "Ġ",
        "*"
      ],
      [
        "Ġ",
        "+"
      ],
      [
        "Ġ",
        ":"
      ],
      [
        "Ġ",
        "V"
      ],
      [
        "Ġ",
        "y"
      ],
      [
        "Ġ",
        "id"
      ],
      [
        "Ġ",
        "IN"
      ],
      [
        "ãĤ",
        "°"
      ],
      [
        "at",
        "ch"
      ],
      [
        "at",
        "ic"
      ],
      [
        "Ġa",
        "pp"
      ],
      [
        "Ġa",
        "wait"
      ],
      [
        "st",
        "d"
      ],
      [
        "st",
        "atic"
      ],
      [
        "iz",
        "er"
      ],
      [
        "ss",
        "ion"
      ],
      [
        "Ġn",
        "n"
      ],
      [
        "Ġn",
        "ame"
      ],
      [
        "ut",
        "o"
      ],
      [
        "def",
        "ine"
      ],
      [
        "ur",
        "l"
      ],
      [
        "ãĤĴ",
        "è"
      ],
      [
        "co",
        "m"
      ],
      [
        "Ġe",
        "mail"
      ],
      [
        "ãģ§",
        "ãģ¯"
      ],
      [
        "ãĥ³",
        "ãĥ"
      ],
      [
        "ĠC",
        "onfig"
      ],
      [
        "ĠR",
        "es"
      ],
      [
        "ãģĹãģ",
        "¦"
      ],
      [
        "Ġres",
        "ult"
      ],
      [
        "ap",
        "i"
      ],
      [
        "ä½",
        "¿"
      ],
      [
        "L",
        "ayer"
      ],
      [
        "a",
        "pp"
      ],
      [
        "a",
        "ge"
      ],
      [
        "a",
        "ck"
      ],
      [
        "c",
        "he"
      ],
      [
        "d",
        "u"
      ],
      [
        "e",
        "w"
      ],
      [
        "i",
        "st"
      ],
      [
        "k",
        "e"
      ],
      [
        "at",
        "e"
      ],
      [
        "at",
        "ed"
      ],
      [
        "se",
        "t"
      ],
      [
        "lo",
        "at"
      ],
      [
        "Ġw",
        "ith"
      ],
      [
        "c",
        "ross"
      ],
      [
        "e",
        "ig"
      ],
      [
        "at",
        "tention"
      ],
      [
        "en",
        "er"
      ],
      [
        "Ġf",
        "or"
      ],
      [
        "Ġn",
        "um"
      ],
      [
        "Ġd",
        "im"
      ],
      [
        "Ġi",
        "s"
      ],
      [
        "Ġpro",
        "ce"
      ],
      [
        "eig",
        "ht"
      ],
      [
        "a",
        "ct"
      ],
      [
        "d",
        "s"
      ],
      [
        "i",
        "o"
      ],
      [
        "n",
        "et"
      ],
      [
        "o",
        "ck"
      ],
      [
        "q",
        "u"
      ],
      [
        "s",
        "ent"
      ],
      [
        "§",
        "ĭ"
      ],
      [
        "å",
        "Ĳ"
      ],
      [
        "æ",
        "Ģ"
      ],
      [
        "æ",
        "ķ"
      ],
      [
        "æ",
        "§ĭ"
      ],
      [
        "Ġ",
        "3"
      ],
      [
        "Ġ",
        "on"
      ],
      [
        "Ġ",
        "le"
      ],
      [
        "Ĳ",
        "Ĩ"
      ],
      [
        "ķ",
        "ãĤ"
      ],
      [
        "ãģ",
        "ª"
      ],
      [
        "ãĥ",
        "ĥ"
      ],
      [
        "ãĥ",
        "Ĺ"
      ],
      [
        "ãĥ",
        "Ń"
      ],
      [
        "ãĤ",
        "³"
      ],
      [
        "ãĤ",
        "µ"
      ],
      [
        "Ġt",
        "h"
      ],
      [
        "en",
        "ce"
      ],
      [
        "Ġa",
        "d"
      ],
      [
        "Ġa",
        "ct"
      ],
      [
        "iz",
        "ation"
      ],
      [
        "Ġre",
        "pre"
      ],
      [
        "Ġm",
        "e"
      ],
      [
        "Ġlo",
        "ss"
      ],
      [
        "Ġout",
        "put"
      ],
      [
        "æĢ",
        "§"
      ],
      [
        "Ġact",
        "iv"
      ],
      [
        "Ġrepre",
        "sent"
      ],
      [
        "1",
        "00"
      ],
      [
        "p",
        "o"
      ],
      [
        "Ġl",
        "r"
      ],
      [
        "he",
        "ad"
      ],
      [
        "\"",
        "`"
      ],
      [
        "$",
        "{"
      ],
      [
        "&",
        "&"
      ],
      [
        "'",
        "/"
      ],
      [
        "'",
        ":"
      ],
      [
        "(",
        "|"
      ],
      [
        "(",
        "'/"
      ],
      [
        ")",
        ","
      ],
      [
        ")",
        "."
      ],
      [
        "/",
        "/"
      ],
      [
        ":",
        "//"
      ],
      [
        "=",
        "-"
      ],
      [
        "C",
        "on"
      ],
      [
        "E",
        "S"
      ],
      [
        "E",
        "X"
      ],
      [
        "G",
        "it"
      ],
      [
        "H",
        "ash"
      ],
      [
        "I",
        "M"
      ],
      [
        "L",
        "U"
      ],
      [
        "M",
        "odel"
      ],
      [
        "N",
        "orm"
      ],
      [
        "R",
        "O"
      ],
      [
        "S",
        "T"
      ],
      [
        "S",
        "e"
      ],
      [
        "T",
        "ens"
      ],
      [
        "U",
        "ser"
      ],
      [
        "a",
        "il"
      ],
      [
        "a",
        "ult"
      ],
      [
        "c",
        "a"
      ],
      [
        "c",
        "f"
      ],
      [
        "e",
        "c"
      ],
      [
        "e",
        "ser"
      ],
      [
        "e",
        "mail"
      ],
      [
        "g",
        "et"
      ],
      [
        "i",
        "ct"
      ],
      [
        "i",
        "el"
      ],
      [
        "n",
        "orm"
      ],
      [
        "o",
        "l"
      ],
      [
        "o",
        "ol"
      ],
      [
        "p",
        "on"
      ],
      [
        "t",
        "r"
      ],
      [
        "t",
        "er"
      ],
      [
        "u",
        "p"
      ],
      [
        "u",
        "ct"
      ],
      [
        "å",
        "®"
      ],
      [
        "å",
        "ĩ"
      ],
      [
        "å",
        "Ń"
      ],
      [
        "é",
        "ĸ"
      ],
      [
        "Ġ",
        "."
      ],
      [
        "Ġ",
        "2"
      ],
      [
        "Ġ",
        ">"
      ],
      [
        "Ġ",
        "W"
      ],
      [
        "Ġ",
        "`"
      ],
      [
        "Ġ",
        "__"
      ],
      [
        "Ġ",
        "express"
      ],
      [
        "Ġ",
        "htt"
      ],
      [
        "Ġ",
        "Er"
      ],
      [
        "Ġ",
        "${"
      ],
      [
        "Ġ",
        "&&"
      ],
      [
        "ģ",
        "ãģ§ãģĻ"
      ],
      [
        "ãĥ",
        "«"
      ],
      [
        "ãĥ",
        "Ĳ"
      ],
      [
        "ãĥ",
        "ĸ"
      ],
      [
        "er",
        "ror"
      ],
      [
        "Ġt",
        "ime"
      ],
      [
        "re",
        "ated"
      ],
      [
        "al",
        "lo"
      ],
      [
        "it",
        "ion"
      ],
      [
        "Ġf",
        "n"
      ],
      [
        "Ġf",
        "et"
      ],
      [
        "Ġc",
        "ance"
      ],
      [
        "Ġc",
        "reated"
      ],
      [
        "lo",
        "git"
      ],
      [
        "Ġ(",
        "("
      ],
      [
        "ex",
        "amp"
      ],
      [
        "am",
        "l"
      ],
      [
        "Ġst",
        "d"
      ],
      [
        "ma",
        "x"
      ],
      [
        "ser",
        "s"
      ],
      [
        "Ġu",
        "sers"
      ],
      [
        "Ġo",
        "k"
      ],
      [
        "()",
        ","
      ],
      [
        "co",
        "lle"
      ],
      [
        "cl",
        "ass"
      ],
      [
        "Ġe",
        "ps"
      ],
      [
        "con",
        "fig"
      ],
      [
        "ãĥ³",
        "ãĤ°"
      ],
      [
        "ĠC",
        "lone"
      ],
      [
        "ĠR",
        "eque"
      ],
      [
        "Ġstr",
        "uct"
      ],
      [
        "ãĤ¹",
        "ãĥĪ"
      ],
      [
        "ction",
        "s"
      ],
      [
        "ãģ«",
        "ãģ¯"
      ],
      [
        "type",
        "def"
      ],
      [
        "Ġres",
        "p"
      ],
      [
        "Ġsize",
        "of"
      ],
      [
        "ãĥ¼ãĥ",
        "ī"
      ],
      [
        "user",
        "s"
      ],
      [
        "ĠD",
        "ata"
      ],
      [
        "ĠD",
        "eser"
      ],
      [
        "Ġlo",
        "g"
      ],
      [
        "Ġdi",
        "ct"
      ],
      [
        "Ġ1",
        "00"
      ],
      [
        "ãģĦ",
        "ãģ¦"
      ],
      [
        "¦ç",
        "ĲĨ"
      ],
      [
        "Ġse",
        "ssion"
      ],
      [
        "Ġma",
        "in"
      ],
      [
        "ho",
        "st"
      ],
      [
        "ĠA",
        "uto"
      ],
      [
        "Ġdef",
        "ault"
      ],
      [
        "ãĥĩ",
        "ãĥ¼ãĤ"
      ],
      [
        "ĠĠĠĠ",
        "ĠĠĠ"
      ],
      [
        "htt",
        "p"
      ],
      [
        "li",
        "b"
      ],
      [
        "os",
        "ition"
      ],
      [
        "Ser",
        "ver"
      ],
      [
        "optim",
        "izer"
      ],
      [
        "è¦",
        "ģãģ§ãģĻ"
      ],
      [
        "Ġy",
        "aml"
      ],
      [
        "ĠIN",
        "T"
      ],
      [
        "ĠRes",
        "pon"
      ],
      [
        "Tens",
        "or"
      ],
      [
        "cf",
        "g"
      ],
      [
        "iel",
        "d"
      ],
      [
        "åĩ",
        "¦çĲĨ"
      ],
      [
        "Ġhtt",
        "ps"
      ],
      [
        "ĠEr",
        "r"
      ],
      [
        "allo",
        "c"
      ],
      [
        "Ġfet",
        "ch"
      ],
      [
        "Ġcance",
        "l"
      ],
      [
        "logit",
        "s"
      ],
      [
        "examp",
        "le"
      ],
      [
        "ĠReque",
        "st"
      ],
      [
        "ĠDeser",
        "ialize"
      ],
      [
        "ĠRespon",
        "se"
      ],
      [
        "a",
        "ra"
      ],
      [
        "c",
        "ay"
      ],
      [
        "d",
        "ul"
      ],
      [
        "f",
        "or"
      ],
      [
        "l",
        "ine"
      ],
      [
        "m",
        "s"
      ],
      [
        "m",
        "et"
      ],
      [
        "n",
        "o"
      ],
      [
        "o",
        "t"
      ],
      [
        "o",
        "int"
      ],
      [
        "p",
        "ro"
      ],
      [
        "p",
        "rop"
      ],
      [
        "r",
        "i"
      ],
      [
        "r",
        "ue"
      ],
      [
        "u",
        "o"
      ],
      [
        "u",
        "s"
      ],
      [
        "w",
        "ar"
      ],
      [
        "Ġ",
        "it"
      ],
      [
        "Ġ",
        "self"
      ],
      [
        "er",
        "s"
      ],
      [
        "or",
        "e"
      ],
      [
        "or",
        "k"
      ],
      [
        "Ġt",
        "rue"
      ],
      [
        "se",
        "s"
      ],
      [
        "al",
        "l"
      ],
      [
        "ct",
        "ed"
      ],
      [
        "Ġf",
        "loat"
      ],
      [
        "Ġn",
        "ew"
      ],
      [
        "Ġc",
        "o"
      ],
      [
        "ent",
        "rop"
      ],
      [
        "Ġre",
        "du"
      ],
      [
        "Ġw",
        "eight"
      ],
      [
        "Ġcon",
        "text"
      ],
      [
        "ff",
        "ect"
      ],
      [
        "che",
        "dul"
      ],
      [
        "ke",
        "y"
      ],
      [
        "Ġproce",
        "ss"
      ],
      [
        "war",
        "d"
      ],
      [
        "Ġit",
        "er"
      ],
      [
        "entrop",
        "y"
      ],
      [
        "Ġredu",
        "ce"
      ],
      [
        "chedul",
        "er"
      ],
      [
        "G",
        "radient"
      ],
      [
        "a",
        "g"
      ],
      [
        "b",
        "it"
      ],
      [
        "b",
        "ed"
      ],
      [
        "c",
        "re"
      ],
      [
        "g",
        "re"
      ],
      [
        "i",
        "s"
      ],
      [
        "j",
        "ect"
      ],
      [
        "m",
        "bed"
      ],
      [
        "n",
        "ing"
      ],
      [
        "u",
        "al"
      ],
      [
        "v",
        "ent"
      ],
      [
        "v",
        "ect"
      ],
      [
        "Ġ",
        "vect"
      ],
      [
        "er",
        "form"
      ],
      [
        "at",
        "es"
      ],
      [
        "Ġa",
        "cross"
      ],
      [
        "ro",
        "ug"
      ],
      [
        "Ġf",
        "e"
      ],
      [
        "Ġf",
        "unction"
      ],
      [
        "Ġp",
        "erform"
      ],
      [
        "Ġd",
        "ur"
      ],
      [
        "ize",
        "s"
      ],
      [
        "Ġst",
        "o"
      ],
      [
        "id",
        "ation"
      ],
      [
        "Ġu",
        "s"
      ],
      [
        "et",
        "w"
      ],
      [
        "Ġb",
        "y"
      ],
      [
        "Ġb",
        "ase"
      ],
      [
        "Ġe",
        "mbed"
      ],
      [
        "Ġint",
        "o"
      ],
      [
        "Ġm",
        "odel"
      ],
      [
        "pp",
        "ing"
      ],
      [
        "ar",
        "ning"
      ],
      [
        "Ġuse",
        "s"
      ],
      [
        "ens",
        "ion"
      ],
      [
        "Ġg",
        "radient"
      ],
      [
        "Ġg",
        "ener"
      ],
      [
        "Ġse",
        "qu"
      ],
      [
        "Ġval",
        "idation"
      ],
      [
        "Ġpre",
        "vent"
      ],
      [
        "Ġtok",
        "ens"
      ],
      [
        "Ġtransform",
        "ations"
      ],
      [
        "Ġenco",
        "der"
      ],
      [
        "Ġnormal",
        "ization"
      ],
      [
        "Ġdim",
        "ension"
      ],
      [
        "Ġle",
        "arning"
      ],
      [
        "Ġth",
        "roug"
      ],
      [
        "Ġad",
        "ds"
      ],
      [
        "Ġactiv",
        "ations"
      ],
      [
        "Ġrepresent",
        "ations"
      ],
      [
        "gre",
        "ss"
      ],
      [
        "ject",
        "s"
      ],
      [
        "Ġvect",
        "or"
      ],
      [
        "Ġperform",
        "ance"
      ],
      [
        "Ġdur",
        "ing"
      ],
      [
        "Ġbase",
        "d"
      ],
      [
        "Ġembed",
        "ding"
      ],
      [
        "Ġgener",
        "ates"
      ],
      [
        "Ġthroug",
        "h"
      ],
      [
        "T",
        "y"
      ],
      [
        "e",
        "act"
      ],
      [
        "¡",
        "Į"
      ],
      [
        "¯",
        "ī"
      ],
      [
        "¿",
        "Ĵ"
      ],
      [
        "ä",
        "¸"
      ],
      [
        "ä",
        "»"
      ],
      [
        "ä",
        "¾"
      ],
      [
        "å",
        "¤"
      ],
      [
        "å",
        "¾"
      ],
      [
        "å",
        "ī"
      ],
      [
        "å",
        "Ĭ"
      ],
      [
        "æ",
        "ľ"
      ],
      [
        "ç",
        "ı"
      ],
      [
        "ç",
        "¯ī"
      ],
      [
        "é",
        "ĩ"
      ],
      [
        "Ģ",
        "è"
      ],
      [
        "į",
        "è¦ģãģ§ãģĻ"
      ],
      [
        "ãģ",
        "ı"
      ],
      [
        "ãĥ",
        "¢"
      ],
      [
        "ãĥ",
        "¥"
      ],
      [
        "ãĥ",
        "§"
      ],
      [
        "ãĥ",
        "¬"
      ],
      [
        "ãĥ",
        "ģ"
      ],
      [
        "ãĥ",
        "ł"
      ],
      [
        "ãĥ",
        "ķãĤ"
      ],
      [
        "ãĤ",
        "¨"
      ],
      [
        "ãĤ",
        "ª"
      ],
      [
        "ãĤ",
        "»"
      ],
      [
        "ãĤ",
        "ĭ"
      ],
      [
        "ãĤ",
        "ı"
      ],
      [
        "re",
        "e"
      ],
      [
        "ãĤĴ",
        "çĶ¨"
      ],
      [
        "ãĤĴ",
        "ä½¿"
      ],
      [
        "as",
        "ync"
      ],
      [
        "ãĥ©",
        "ãĥ³"
      ],
      [
        "ãĥ©",
        "ãĤ¤"
      ],
      [
        "ãģ¨",
        "ãģĹãģ¦"
      ],
      [
        "ãģĦ",
        "ãģ¾ãģĻ"
      ],
      [
        "¦ç",
        "¿Ĵ"
      ],
      [
        "åĪ",
        "Ĩ"
      ],
      [
        "ãģĮ",
        "éĩ"
      ],
      [
        "ock",
        "er"
      ],
      [
        "æķ",
        "°"
      ],
      [
        "æ§ĭ",
        "ç¯ī"
      ],
      [
        "ãĥĥ",
        "ãĤ¯"
      ],
      [
        "ãĥĹ",
        "ãĥŃ"
      ],
      [
        "ãĤµ",
        "ãĥ¼ãĥ"
      ],
      [
        "åŃ",
        "¦ç¿Ĵ"
      ],
      [
        "ãĥĸ",
        "ãĥ©"
      ],
      [
        "ãĥĩãĥ¼ãĤ",
        "¿"
      ],
      [
        "Ty",
        "pe"
      ],
      [
        "çı",
        "¾"
      ],
      [
        "ãģĮéĩ",
        "įè¦ģãģ§ãģĻ"
      ],
      [
        "1",
        "6"
      ],
      [
        "6",
        "4"
      ],
      [
        "u",
        "st"
      ],
      [
        "00",
        "0"
      ],
      [
        "head",
        "s"
      ],
      [
        "l",
        "ayer"
      ],
      [
        "Ġ1",
        "6"
      ],
      [
        "!",
        "/"
      ],
      [
        "\"",
        ":\""
      ],
      [
        "\"",
        "}'"
      ],
      [
        "#",
        "["
      ],
      [
        "#",
        "!/"
      ],
      [
        "$",
        "("
      ],
      [
        "%",
        "@"
      ],
      [
        "'",
        ","
      ],
      [
        "'",
        ");"
      ],
      [
        "(",
        "("
      ],
      [
        "(",
        "`"
      ],
      [
        ")",
        "["
      ],
      [
        ")",
        "]"
      ],
      [
        ")",
        "}'"
      ],
      [
        "+",
        ")"
      ],
      [
        "+",
        "+)"
      ],
      [
        ".",
        "_"
      ],
      [
        "2",
        "4"
      ],
      [
        "9",
        "9"
      ],
      [
        "<",
        "_"
      ],
      [
        ">",
        ">"
      ],
      [
        "?",
        ","
      ],
      [
        "A",
        "P"
      ],
      [
        "A",
        "T"
      ],
      [
        "A",
        "X"
      ],
      [
        "A",
        "Y"
      ],
      [
        "A",
        "d"
      ],
      [
        "A",
        "r"
      ],
      [
        "A",
        "t"
      ],
      [
        "A",
        "nn"
      ],
      [
        "A",
        "LU"
      ],
      [
        "B",
        "Y"
      ],
      [
        "C",
        "R"
      ],
      [
        "C",
        "T"
      ],
      [
        "C",
        "onfig"
      ],
      [
        "C",
        "li"
      ],
      [
        "C",
        "all"
      ],
      [
        "D",
        "e"
      ],
      [
        "D",
        "ER"
      ],
      [
        "D",
        "eque"
      ],
      [
        "D",
        "EX"
      ],
      [
        "D",
        "ict"
      ],
      [
        "E",
        "L"
      ],
      [
        "E",
        "O"
      ],
      [
        "E",
        "x"
      ],
      [
        "E",
        "ffect"
      ],
      [
        "E",
        "AT"
      ],
      [
        "E",
        "CT"
      ],
      [
        "F",
        "unction"
      ],
      [
        "G",
        "LU"
      ],
      [
        "H",
        "e"
      ],
      [
        "H",
        "o"
      ],
      [
        "H",
        "ub"
      ],
      [
        "H",
        "ER"
      ],
      [
        "I",
        "F"
      ],
      [
        "I",
        "K"
      ],
      [
        "I",
        "T"
      ],
      [
        "I",
        "Z"
      ],
      [
        "I",
        "n"
      ],
      [
        "I",
        "ST"
      ],
      [
        "L",
        "R"
      ],
      [
        "L",
        "o"
      ],
      [
        "L",
        "ist"
      ],
      [
        "L",
        "ock"
      ],
      [
        "M",
        "S"
      ],
      [
        "M",
        "e"
      ],
      [
        "M",
        "o"
      ],
      [
        "M",
        "ap"
      ],
      [
        "O",
        "T"
      ],
      [
        "O",
        "ST"
      ],
      [
        "R",
        "R"
      ],
      [
        "R",
        "es"
      ],
      [
        "R",
        "DER"
      ],
      [
        "R",
        "MS"
      ],
      [
        "S",
        "c"
      ],
      [
        "S",
        "t"
      ],
      [
        "S",
        "et"
      ],
      [
        "S",
        "ER"
      ],
      [
        "S",
        "EL"
      ],
      [
        "S",
        "IZ"
      ],
      [
        "T",
        "c"
      ],
      [
        "T",
        "o"
      ],
      [
        "T",
        "ime"
      ],
      [
        "U",
        "T"
      ],
      [
        "U",
        "n"
      ],
      [
        "V",
        "ec"
      ],
      [
        "W",
        "ith"
      ],
      [
        "]",
        "))"
      ],
      [
        "`",
        ");"
      ],
      [
        "a",
        "ce"
      ],
      [
        "a",
        "der"
      ],
      [
        "a",
        "uto"
      ],
      [
        "b",
        "f"
      ],
      [
        "b",
        "in"
      ],
      [
        "b",
        "er"
      ],
      [
        "b",
        "ash"
      ],
      [
        "b",
        "ug"
      ],
      [
        "b",
        "ack"
      ],
      [
        "b",
        "ool"
      ],
      [
        "c",
        "u"
      ],
      [
        "c",
        "url"
      ],
      [
        "d",
        "a"
      ],
      [
        "d",
        "type"
      ],
      [
        "d",
        "ocker"
      ],
      [
        "e",
        "al"
      ],
      [
        "e",
        "lf"
      ],
      [
        "e",
        "uo"
      ],
      [
        "f",
        "m"
      ],
      [
        "f",
        "u"
      ],
      [
        "f",
        "in"
      ],
      [
        "f",
        "il"
      ],
      [
        "f",
        "unction"
      ],
      [
        "f",
        "ail"
      ],
      [
        "f",
        "ace"
      ],
      [
        "g",
        "er"
      ],
      [
        "g",
        "ra"
      ],
      [
        "g",
        "ith"
      ],
      [
        "h",
        "re"
      ],
      [
        "i",
        "f"
      ],
      [
        "i",
        "se"
      ],
      [
        "i",
        "pe"
      ],
      [
        "i",
        "GLU"
      ],
      [
        "i",
        "He"
      ],
      [
        "k",
        "en"
      ],
      [
        "l",
        "amp"
      ],
      [
        "l",
        "ic"
      ],
      [
        "l",
        "ate"
      ],
      [
        "m",
        "o"
      ],
      [
        "m",
        "ath"
      ],
      [
        "m",
        "atch"
      ],
      [
        "n",
        "pro"
      ],
      [
        "n",
        "ore"
      ],
      [
        "o",
        "le"
      ],
      [
        "o",
        "un"
      ],
      [
        "p",
        "l"
      ],
      [
        "p",
        "y"
      ],
      [
        "p",
        "ing"
      ],
      [
        "p",
        "ub"
      ],
      [
        "p",
        "ack"
      ],
      [
        "p",
        "ara"
      ],
      [
        "p",
        "List"
      ],
      [
        "r",
        "ing"
      ],
      [
        "r",
        "der"
      ],
      [
        "s",
        "w"
      ],
      [
        "s",
        "ync"
      ],
      [
        "s",
        "of"
      ],
      [
        "s",
        "cheduler"
      ],
      [
        "s",
        "ole"
      ],
      [
        "t",
        "at"
      ],
      [
        "t",
        "orch"
      ],
      [
        "t",
        "ial"
      ],
      [
        "t",
        "ime"
      ],
      [
        "t",
        "max"
      ],
      [
        "u",
        "int"
      ],
      [
        "u",
        "il"
      ],
      [
        "w",
        "ith"
      ],
      [
        "w",
        "Lock"
      ],
      [
        "w",
        "iGLU"
      ],
      [
        "y",
        "s"
      ],
      [
        "y",
        "ho"
      ],
      [
        "y",
        "ield"
      ],
      [
        "y",
        "ping"
      ],
      [
        "{",
        "\""
      ],
      [
        "}",
        ","
      ],
      [
        "}",
        "`);"
      ],
      [
        "¢",
        "ãĥ¼ãĤ"
      ],
      [
        "¢",
        "æķ°"
      ],
      [
        "£",
        "ãģ¦"
      ],
      [
        "¤",
        "ľ"
      ],
      [
        "©",
        "Ł"
      ],
      [
        "ª",
        "å"
      ],
      [
        "«",
        "ĺ"
      ],
      [
        "·",
        "±"
      ],
      [
        "·",
        "ãĤ¹"
      ],
      [
        "·",
        "ãĥ§"
      ],
      [
        "å",
        "ħ"
      ],
      [
        "å",
        "ı"
      ],
      [
        "å",
        "ŀ"
      ],
      [
        "æ",
        "¨"
      ],
      [
        "æ",
        "Ī"
      ],
      [
        "æ",
        "Į"
      ],
      [
        "æ",
        "į"
      ],
      [
        "æ",
        "ĸ"
      ],
      [
        "æ",
        "¤ľ"
      ],
      [
        "æ",
        "©Ł"
      ],
      [
        "ç",
        "´"
      ],
      [
        "ç",
        "İ"
      ],
      [
        "ç",
        "Ļ"
      ],
      [
        "ç",
        "ļ"
      ],
      [
        "è",
        "ĥ"
      ],
      [
        "é",
        "Ģ"
      ],
      [
        "é",
        "ģ"
      ],
      [
        "é",
        "Ŀ"
      ],
      [
        "é",
        "«ĺ"
      ],
      [
        "Ġ",
        "/"
      ],
      [
        "Ġ",
        "|"
      ],
      [
        "Ġ",
        "ser"
      ],
      [
        "Ġ",
        "ig"
      ],
      [
        "Ġ",
        "json"
      ],
      [
        "Ġ",
        "ens"
      ],
      [
        "Ġ",
        "ER"
      ],
      [
        "Ġ",
        "EX"
      ],
      [
        "Ġ",
        "Hash"
      ],
      [
        "Ġ",
        "User"
      ],
      [
        "Ġ",
        "error"
      ],
      [
        "Ġ",
        "BY"
      ],
      [
        "Ġ",
        "Ho"
      ],
      [
        "Ġ",
        "IF"
      ],
      [
        "Ġ",
        "Un"
      ],
      [
        "Ħ",
        "ãĥ¼ãĥ"
      ],
      [
        "ĩ",
        "ãģ«"
      ],
      [
        "ĩ",
        "ªå"
      ],
      [
        "Ī",
        "ãģ§ãģ¯"
      ],
      [
        "ĭ",
        "ķ"
      ],
      [
        "ĭ",
        "ãĤ"
      ],
      [
        "ĭ",
        "çĻ"
      ],
      [
        "Į",
        "ãģ¾ãģĻ"
      ],
      [
        "ĳ",
        "ãĤ¤"
      ],
      [
        "ĵ",
        "ãĤ¹"
      ],
      [
        "ĵ",
        "ãģ¨"
      ],
      [
        "ķ",
        "¥"
      ],
      [
        "Ļ",
        "ãĥ¼"
      ],
      [
        "Ń",
        "ãĥĨ"
      ],
      [
        "Ń",
        "è¨"
      ],
      [
        "ãģ",
        "ķ"
      ],
      [
        "ãģ",
        "Ľ"
      ],
      [
        "ãģ",
        "ķãĤ"
      ],
      [
        "ãģ",
        "£ãģ¦"
      ],
      [
        "ãģ",
        "ĵãģ¨"
      ],
      [
        "ãĥ",
        "£"
      ],
      [
        "ãĥ",
        "ŀ"
      ],
      [
        "ãĥ",
        "Ł"
      ],
      [
        "ãĥ",
        "Ļãĥ¼"
      ],
      [
        "in",
        "st"
      ],
      [
        "in",
        "de"
      ],
      [
        "in",
        "it"
      ],
      [
        "on",
        "text"
      ],
      [
        "er",
        "t"
      ],
      [
        "er",
        "ty"
      ],
      [
        "er",
        "ialize"
      ],
      [
        "er",
        "Layer"
      ],
      [
        "er",
        "face"
      ],
      [
        "ãĤ",
        "Ħ"
      ],
      [
        "ãĤ",
        "·ãĤ¹"
      ],
      [
        "Ġt",
        "yping"
      ],
      [
        "re",
        "q"
      ],
      [
        "re",
        "turn"
      ],
      [
        "re",
        "act"
      ],
      [
        "re",
        "po"
      ],
      [
        "en",
        "d"
      ],
      [
        "en",
        "co"
      ],
      [
        "Ġa",
        "ction"
      ],
      [
        "Ġa",
        "io"
      ],
      [
        "st",
        "di"
      ],
      [
        "st",
        "amp"
      ],
      [
        "st",
        "ring"
      ],
      [
        "ion",
        "al"
      ],
      [
        "de",
        "cay"
      ],
      [
        "al",
        "se"
      ],
      [
        "al",
        "ue"
      ],
      [
        "al",
        "ly"
      ],
      [
        "ct",
        "x"
      ],
      [
        "ct",
        "ool"
      ],
      [
        "im",
        "pl"
      ],
      [
        "ing",
        "LR"
      ],
      [
        "it",
        "ch"
      ],
      [
        "Ġf",
        "un"
      ],
      [
        "Ġf",
        "ield"
      ],
      [
        "Ġf",
        "ree"
      ],
      [
        "Ġf",
        "alse"
      ],
      [
        "ra",
        "ps"
      ],
      [
        "ra",
        "nsform"
      ],
      [
        "Ġn",
        "p"
      ],
      [
        "ut",
        "ex"
      ],
      [
        "ut",
        "il"
      ],
      [
        "Ġc",
        "d"
      ],
      [
        "Ġc",
        "le"
      ],
      [
        "Ġc",
        "ase"
      ],
      [
        "Ġc",
        "lone"
      ],
      [
        "Ġc",
        "alloc"
      ],
      [
        "Ġc",
        "lamp"
      ],
      [
        "int",
        "o"
      ],
      [
        "int",
        "erface"
      ],
      [
        "ent",
        "Se"
      ],
      [
        "Ġre",
        "po"
      ],
      [
        "Ġ=",
        "="
      ],
      [
        "Ġp",
        "ar"
      ],
      [
        "Ġp",
        "ath"
      ],
      [
        "Ġp",
        "tr"
      ],
      [
        "Ġp",
        "ipe"
      ],
      [
        "lo",
        "g"
      ],
      [
        "lo",
        "w"
      ],
      [
        "lo",
        "ss"
      ],
      [
        "Ġ(",
        "):"
      ],
      [
        "Ġ(",
        "?,"
      ],
      [
        "ex",
        "ce"
      ],
      [
        "ãĥ¼",
        "ãĤĴ"
      ],
      [
        "am",
        "W"
      ],
      [
        "rom",
        "ise"
      ],
      [
        "ma",
        "p"
      ],
      [
        "ma",
        "in"
      ],
      [
        "def",
        "er"
      ],
      [
        "Ġu",
        "int"
      ],
      [
        "ãģĻ",
        "ãĤĭ"
      ],
      [
        "Ġo",
        "s"
      ],
      [
        "ãĤĴ",
        "æ§ĭç¯ī"
      ],
      [
        "Ġs",
        "ys"
      ],
      [
        "()",
        ";"
      ],
      [
        "()",
        ");"
      ],
      [
        "()",
        "),"
      ],
      [
        "00",
        "1"
      ],
      [
        "Ġb",
        "ail"
      ],
      [
        "Ġb",
        "uil"
      ],
      [
        "pe",
        "cted"
      ],
      [
        "cl",
        "as"
      ],
      [
        "ed",
        "Dict"
      ],
      [
        "ãģ¯",
        "ãĤ³"
      ],
      [
        "::",
        "<"
      ],
      [
        "con",
        "d"
      ],
      [
        "con",
        "text"
      ],
      [
        "con",
        "sole"
      ],
      [
        "ãģ®",
        "å"
      ],
      [
        "ãģ®",
        "ãĥĲ"
      ],
      [
        "Ġ'",
        "__"
      ],
      [
        "Ġ'",
        "%@"
      ],
      [
        "Ġ'",
        "{\""
      ],
      [
        "ĠC",
        "os"
      ],
      [
        "ĠC",
        "oun"
      ],
      [
        "ĠC",
        "ontext"
      ],
      [
        "ĠR",
        "out"
      ],
      [
        "ĠR",
        "eact"
      ],
      [
        "ĠR",
        "wLock"
      ],
      [
        "ult",
        "iHe"
      ],
      [
        "pt",
        "hre"
      ],
      [
        "pt",
        "ional"
      ],
      [
        "Ġm",
        "ath"
      ],
      [
        "Ġm",
        "alloc"
      ],
      [
        "val",
        "id"
      ],
      [
        "ãĤ¹",
        "ãģ®"
      ],
      [
        "Ġ}",
        ";"
      ],
      [
        "Ġin",
        "line"
      ],
      [
        "ine",
        "Ann"
      ],
      [
        "an",
        "up"
      ],
      [
        "Ġw",
        "raps"
      ],
      [
        "Ġdata",
        "class"
      ],
      [
        "Ġdata",
        "clas"
      ],
      [
        "Ġuse",
        "Call"
      ],
      [
        "Ġuse",
        "Effect"
      ],
      [
        "Ġuse",
        "Me"
      ],
      [
        "Ġuse",
        "St"
      ],
      [
        "di",
        "ct"
      ],
      [
        "Ġcon",
        "fig"
      ],
      [
        "__",
        "("
      ],
      [
        "__",
        "':"
      ],
      [
        "ĠD",
        "ES"
      ],
      [
        "ĠD",
        "ict"
      ],
      [
        "ĠO",
        "K"
      ],
      [
        "ĠO",
        "N"
      ],
      [
        "ĠO",
        "k"
      ],
      [
        "ĠO",
        "RDER"
      ],
      [
        "ĠO",
        "rder"
      ],
      [
        "ĠO",
        "ptional"
      ],
      [
        "ĠS",
        "ync"
      ],
      [
        "ĠS",
        "elf"
      ],
      [
        "ĠS",
        "tat"
      ],
      [
        "ĠS",
        "wiGLU"
      ],
      [
        "ĠS",
        "erialize"
      ],
      [
        "ĠS",
        "end"
      ],
      [
        "Ġl",
        "en"
      ],
      [
        "Ġl",
        "ab"
      ],
      [
        "Ġan",
        "yho"
      ],
      [
        "ext",
        "Function"
      ],
      [
        "der",
        "ive"
      ],
      [
        "ff",
        "n"
      ],
      [
        "Ġg",
        "ot"
      ],
      [
        "IN",
        "SER"
      ],
      [
        "ĠF",
        "RO"
      ],
      [
        "ĠF",
        "low"
      ],
      [
        "ĠP",
        "ort"
      ],
      [
        "ĠP",
        "ath"
      ],
      [
        "ĠP",
        "oint"
      ],
      [
        "ĠP",
        "OST"
      ],
      [
        "ĠP",
        "romise"
      ],
      [
        "ĠT",
        "IM"
      ],
      [
        "ĠT",
        "up"
      ],
      [
        "ĠT",
        "ransform"
      ],
      [
        "ãĤ¯",
        "ãĥģ"
      ],
      [
        "Ġen",
        "um"
      ],
      [
        "ad",
        "At"
      ],
      [
        "Ġma",
        "ke"
      ],
      [
        "ho",
        "d"
      ],
      [
        "ä½",
        "ľ"
      ],
      [
        "åĪ",
        "Ĺ"
      ],
      [
        "Ġ?",
        ","
      ],
      [
        "Ġ?",
        ");"
      ],
      [
        "ĠA",
        "ge"
      ],
      [
        "ĠA",
        "RR"
      ],
      [
        "ĠM",
        "IN"
      ],
      [
        "ĠM",
        "AX"
      ],
      [
        "ĠM",
        "utex"
      ],
      [
        "ĠM",
        "ultiHe"
      ],
      [
        "ĠN",
        "one"
      ],
      [
        "ĠN",
        "ew"
      ],
      [
        "ĠN",
        "OT"
      ],
      [
        "ĠN",
        "extFunction"
      ],
      [
        "ãĥĨ",
        "ãĤ¹ãĥĪ"
      ],
      [
        "ãĥĨ",
        "ãĥł"
      ],
      [
        "ãĥĩ",
        "ãĥ«"
      ],
      [
        "ĠĠĠĠ",
        "ĠĠĠĠĠĠĠ"
      ],
      [
        "ĠL",
        "ist"
      ],
      [
        "ĠL",
        "IM"
      ],
      [
        "ĠL",
        "IK"
      ],
      [
        "size",
        "of"
      ],
      [
        "è¨",
        "¼"
      ],
      [
        "è¨",
        "Ńè¨"
      ],
      [
        "Ġde",
        "que"
      ],
      [
        "Ġtok",
        "io"
      ],
      [
        "Ġtransform",
        "ers"
      ],
      [
        "ab",
        "le"
      ],
      [
        "Ġh",
        "i"
      ],
      [
        "Ġh",
        "ash"
      ],
      [
        "Er",
        "ror"
      ],
      [
        "Ser",
        "ialize"
      ],
      [
        "ass",
        "ert"
      ],
      [
        "el",
        "s"
      ],
      [
        "lle",
        "ctions"
      ],
      [
        "}'",
        ")"
      ],
      [
        "è¦",
        "ı"
      ],
      [
        "Ġ:",
        "="
      ],
      [
        "ĠV",
        "ec"
      ],
      [
        "ĠV",
        "ALU"
      ],
      [
        "ĠV",
        "alue"
      ],
      [
        "Ġid",
        "x"
      ],
      [
        "ĠIN",
        "DEX"
      ],
      [
        "ãĤ°",
        "ãĥ©"
      ],
      [
        "Ġapp",
        "lic"
      ],
      [
        "std",
        "int"
      ],
      [
        "std",
        "lib"
      ],
      [
        "std",
        "bool"
      ],
      [
        "static",
        "met"
      ],
      [
        "ãĤĴè",
        "¡Į"
      ],
      [
        "ĠRes",
        "ult"
      ],
      [
        "ä½¿",
        "ãĤı"
      ],
      [
        "Layer",
        "Norm"
      ],
      [
        "du",
        "le"
      ],
      [
        "Ġfor",
        "ward"
      ],
      [
        "Ġnum",
        "ber"
      ],
      [
        "Ġnum",
        "py"
      ],
      [
        "Ġis",
        "inst"
      ],
      [
        "åĲ",
        "Ī"
      ],
      [
        "æķ",
        "£"
      ],
      [
        "Ġ3",
        "0"
      ],
      [
        "ãĤ³",
        "ãĥ¼ãĥī"
      ],
      [
        "æĢ§",
        "ãģ®"
      ],
      [
        "100",
        "000"
      ],
      [
        "Ġlr",
        "u"
      ],
      [
        "Con",
        "text"
      ],
      [
        "Con",
        "tent"
      ],
      [
        "Git",
        "Hub"
      ],
      [
        "Hash",
        "Map"
      ],
      [
        "RO",
        "R"
      ],
      [
        "Se",
        "cond"
      ],
      [
        "ca",
        "st"
      ],
      [
        "ca",
        "che"
      ],
      [
        "tr",
        "y"
      ],
      [
        "å®",
        "Ł"
      ],
      [
        "éĸ",
        "¢æķ°"
      ],
      [
        "éĸ",
        "ĭçĻ"
      ],
      [
        "ĠW",
        "ork"
      ],
      [
        "ĠW",
        "HER"
      ],
      [
        "Ġtime",
        "stamp"
      ],
      [
        "colle",
        "ct"
      ],
      [
        "colle",
        "ctions"
      ],
      [
        "ĠData",
        "set"
      ],
      [
        "ĠData",
        "Lo"
      ],
      [
        "Ġlog",
        "s"
      ],
      [
        "Ġlog",
        "ger"
      ],
      [
        "ĠAuto",
        "Model"
      ],
      [
        "ĠAuto",
        "To"
      ],
      [
        "Ġdefault",
        "dict"
      ],
      [
        "ĠINT",
        "O"
      ],
      [
        "prop",
        "erty"
      ],
      [
        "ri",
        "pt"
      ],
      [
        "Ġco",
        "llections"
      ],
      [
        "Ġiter",
        "able"
      ],
      [
        "ä¸",
        "Ģè"
      ],
      [
        "å¤",
        "§"
      ],
      [
        "åĬ",
        "Ľ"
      ],
      [
        "ãģı",
        "ä½¿ãĤı"
      ],
      [
        "ãĥ¢",
        "ãĥĩãĥ«"
      ],
      [
        "ãĥķãĤ",
        "©"
      ],
      [
        "ãĤ¨",
        "ãĥ©"
      ],
      [
        "ãĤĴçĶ¨",
        "ãģĦãģ¦"
      ],
      [
        "ãĤĴä½¿",
        "çĶ¨"
      ],
      [
        "ãĥ©ãĥ³",
        "ãĤ¹"
      ],
      [
        "ãĥ©ãĤ¤",
        "ãĥĸãĥ©"
      ],
      [
        "åĪĨ",
        "æķ£"
      ],
      [
        "ãĥĥãĤ¯",
        "ãĤ¹"
      ],
      [
        "ãĥĹãĥŃ",
        "ãĤ°ãĥ©"
      ],
      [
        "ãĤµãĥ¼ãĥ",
        "ĵãĤ¹"
      ],
      [
        "åŃ¦ç¿Ĵ",
        "ãĥ¢ãĥĩãĥ«"
      ],
      [
        "<_",
        ">>"
      ],
      [
        "Ad",
        "amW"
      ],
      [
        "Ar",
        "c"
      ],
      [
        "CR",
        "EAT"
      ],
      [
        "Cli",
        "entSe"
      ],
      [
        "De",
        "bug"
      ],
      [
        "EO",
        "UT"
      ],
      [
        "Ex",
        "pected"
      ],
      [
        "In",
        "valid"
      ],
      [
        "IST",
        "S"
      ],
      [
        "Mo",
        "dule"
      ],
      [
        "Res",
        "ult"
      ],
      [
        "RMS",
        "Norm"
      ],
      [
        "Sc",
        "ript"
      ],
      [
        "SEL",
        "ECT"
      ],
      [
        "SIZ",
        "E"
      ],
      [
        "Tc",
        "pList"
      ],
      [
        "Time",
        "out"
      ],
      [
        "With",
        "Timeout"
      ],
      [
        "auto",
        "cast"
      ],
      [
        "bf",
        "loat"
      ],
      [
        "cu",
        "da"
      ],
      [
        "eal",
        "ingLR"
      ],
      [
        "fm",
        "t"
      ],
      [
        "fu",
        "nc"
      ],
      [
        "fin",
        "ally"
      ],
      [
        "fil",
        "ter"
      ],
      [
        "function",
        "al"
      ],
      [
        "gra",
        "d"
      ],
      [
        "gith",
        "ub"
      ],
      [
        "ken",
        "izer"
      ],
      [
        "late",
        "st"
      ],
      [
        "npro",
        "c"
      ],
      [
        "pack",
        "age"
      ],
      [
        "para",
        "ms"
      ],
      [
        "sw",
        "itch"
      ],
      [
        "sof",
        "tmax"
      ],
      [
        "¢ãĥ¼ãĤ",
        "ŃãĥĨ"
      ],
      [
        "åı",
        "¯"
      ],
      [
        "åŀ",
        "ĭ"
      ],
      [
        "çİ",
        "ĩ"
      ],
      [
        "çļ",
        "Ħ"
      ],
      [
        "èĥ",
        "½"
      ],
      [
        "éģ",
        "©"
      ],
      [
        "Ġser",
        "de"
      ],
      [
        "Ġig",
        "nore"
      ],
      [
        "Ġens",
        "ure"
      ],
      [
        "ĠER",
        "ROR"
      ],
      [
        "ĠEX",
        "ISTS"
      ],
      [
        "ĠHash",
        "Set"
      ],
      [
        "ĠHo",
        "st"
      ],
      [
        "ĠUn",
        "ion"
      ],
      [
        "Ħãĥ¼ãĥ",
        "«"
      ],
      [
        "ãģĵãģ¨",
        "ãģ§"
      ],
      [
        "ãĥĻãĥ¼",
        "ãĤ¹ãģ®"
      ],
      [
        "inde",
        "x"
      ],
      [
        "ãĤ·ãĤ¹",
        "ãĥĨãĥł"
      ],
      [
        "enco",
        "ding"
      ],
      [
        "Ġaio",
        "http"
      ],
      [
        "stdi",
        "o"
      ],
      [
        "ctool",
        "s"
      ],
      [
        "Ġfun",
        "ctools"
      ],
      [
        "util",
        "s"
      ],
      [
        "Ġcle",
        "anup"
      ],
      [
        "Ġpar",
        "tial"
      ],
      [
        "Ġpath",
        "lib"
      ],
      [
        "Ġpipe",
        "fail"
      ],
      [
        "exce",
        "pt"
      ],
      [
        "ãģĻãĤĭ",
        "ãģĵãģ¨ãģ§"
      ],
      [
        "Ġbuil",
        "d"
      ],
      [
        "ĠCos",
        "ineAnn"
      ],
      [
        "ĠCoun",
        "ter"
      ],
      [
        "ĠRout",
        "er"
      ],
      [
        "pthre",
        "ad"
      ],
      [
        "Ġdataclas",
        "ses"
      ],
      [
        "ĠuseCall",
        "back"
      ],
      [
        "ĠuseMe",
        "mo"
      ],
      [
        "ĠuseSt",
        "ate"
      ],
      [
        "ĠDES",
        "C"
      ],
      [
        "ĠOrder",
        "edDict"
      ],
      [
        "ĠStat",
        "us"
      ],
      [
        "Ġlab",
        "els"
      ],
      [
        "Ġanyho",
        "w"
      ],
      [
        "INSER",
        "T"
      ],
      [
        "ĠFRO",
        "M"
      ],
      [
        "ĠTIM",
        "EOUT"
      ],
      [
        "ĠTup",
        "le"
      ],
      [
        "ĠTransform",
        "erLayer"
      ],
      [
        "ãĤ¯ãĥģ",
        "ãĥ£"
      ],
      [
        "adAt",
        "tention"
      ],
      [
        "ĠARR",
        "AY"
      ],
      [
        "ĠMultiHe",
        "adAttention"
      ],
      [
        "ĠNew",
        "Server"
      ],
      [
        "ĠLIM",
        "IT"
      ],
      [
        "ĠLIK",
        "E"
      ],
      [
        "è¨Ńè¨",
        "Īãģ§ãģ¯"
      ],
      [
        "ĠVec",
        "Deque"
      ],
      [
        "ĠVALU",
        "ES"
      ],
      [
        "ĠValue",
        "Error"
      ],
      [
        "Ġapplic",
        "ation"
      ],
      [
        "staticmet",
        "hod"
      ],
      [
        "ãĤĴè¡Į",
        "ãģĦãģ¾ãģĻ"
      ],
      [
        "Ġisinst",
        "ance"
      ],
      [
        "éĸĭçĻ",
        "º"
      ],
      [
        "ĠWork",
        "er"
      ],
      [
        "ĠWHER",
        "E"
      ],
      [
        "ĠDataLo",
        "ader"
      ],
      [
        "ĠAutoTo",
        "kenizer"
      ],
      [
        "ä¸Ģè",
        "²"
      ],
      [
        "ãģıä½¿ãĤı",
        "ãĤ"
      ],
      [
        "ãĥ©ãĤ¤ãĥĸãĥ©",
        "ãĥª"
      ],
      [
        "åŃ¦ç¿Ĵãĥ¢ãĥĩãĥ«",
        "ãģ®"
      ],
      [
        "<_>>",
        "()"
      ],
      [
        "CREAT",
        "E"
      ],
      [
        "ClientSe",
        "ssion"
      ],
      [
        "TcpList",
        "ener"
      ],
      [
        "¢ãĥ¼ãĤŃãĥĨ",
        "ãĤ¯ãĥģãĥ£"
      ],
      [
        "ĠCosineAnn",
        "ealingLR"
      ],
      [
        "'",
        "s"
      ],
      [
        "B",
        "atch"
      ],
      [
        "C",
        "ross"
      ],
      [
        "D",
        "ata"
      ],
      [
        "D",
        "rop"
      ],
      [
        "E",
        "a"
      ],
      [
        "E",
        "ar"
      ],
      [
        "M",
        "i"
      ],
      [
        "P",
        "osition"
      ],
      [
        "T",
        "ra"
      ],
      [
        "W",
        "eight"
      ],
      [
        "a",
        "st"
      ],
      [
        "b",
        "ut"
      ],
      [
        "b",
        "out"
      ],
      [
        "c",
        "ent"
      ],
      [
        "c",
        "is"
      ],
      [
        "d",
        "o"
      ],
      [
        "d",
        "ge"
      ],
      [
        "d",
        "ated"
      ],
      [
        "e",
        "p"
      ],
      [
        "e",
        "en"
      ],
      [
        "e",
        "ur"
      ],
      [
        "e",
        "ction"
      ],
      [
        "f",
        "er"
      ],
      [
        "f",
        "it"
      ],
      [
        "g",
        "or"
      ],
      [
        "g",
        "ence"
      ],
      [
        "h",
        "en"
      ],
      [
        "i",
        "ent"
      ],
      [
        "j",
        "ust"
      ],
      [
        "k",
        "no"
      ],
      [
        "l",
        "gor"
      ],
      [
        "m",
        "or"
      ],
      [
        "m",
        "ent"
      ],
      [
        "m",
        "put"
      ],
      [
        "m",
        "ly"
      ],
      [
        "m",
        "all"
      ],
      [
        "n",
        "se"
      ],
      [
        "n",
        "do"
      ],
      [
        "n",
        "ection"
      ],
      [
        "p",
        "h"
      ],
      [
        "p",
        "lo"
      ],
      [
        "p",
        "dated"
      ],
      [
        "r",
        "ch"
      ],
      [
        "r",
        "ate"
      ],
      [
        "s",
        "ist"
      ],
      [
        "s",
        "ses"
      ],
      [
        "s",
        "cre"
      ],
      [
        "s",
        "cent"
      ],
      [
        "t",
        "e"
      ],
      [
        "t",
        "s"
      ],
      [
        "t",
        "in"
      ],
      [
        "t",
        "ing"
      ],
      [
        "t",
        "ra"
      ],
      [
        "u",
        "ra"
      ],
      [
        "v",
        "ing"
      ],
      [
        "w",
        "o"
      ],
      [
        "w",
        "le"
      ],
      [
        "x",
        "ed"
      ],
      [
        "z",
        "er"
      ],
      [
        "Ġ",
        "im"
      ],
      [
        "Ġ",
        "ra"
      ],
      [
        "Ġ",
        "ex"
      ],
      [
        "Ġ",
        "attention"
      ],
      [
        "Ġ",
        "qu"
      ],
      [
        "Ġ",
        "head"
      ],
      [
        "Ġ",
        "key"
      ],
      [
        "Ġ",
        "kno"
      ],
      [
        "Ġ",
        "rate"
      ],
      [
        "Ġ",
        "zer"
      ],
      [
        "in",
        "im"
      ],
      [
        "in",
        "ed"
      ],
      [
        "in",
        "ds"
      ],
      [
        "on",
        "s"
      ],
      [
        "on",
        "it"
      ],
      [
        "er",
        "y"
      ],
      [
        "er",
        "ence"
      ],
      [
        "at",
        "ure"
      ],
      [
        "at",
        "ive"
      ],
      [
        "Ġt",
        "as"
      ],
      [
        "Ġt",
        "wo"
      ],
      [
        "re",
        "ct"
      ],
      [
        "en",
        "al"
      ],
      [
        "Ġa",
        "re"
      ],
      [
        "Ġa",
        "ut"
      ],
      [
        "Ġa",
        "ug"
      ],
      [
        "Ġa",
        "bout"
      ],
      [
        "Ġa",
        "lgor"
      ],
      [
        "Ġa",
        "rch"
      ],
      [
        "st",
        "ri"
      ],
      [
        "ion",
        "s"
      ],
      [
        "al",
        "ts"
      ],
      [
        "it",
        "ect"
      ],
      [
        "Ġf",
        "ast"
      ],
      [
        "Ġf",
        "inds"
      ],
      [
        "iz",
        "ing"
      ],
      [
        "ra",
        "ph"
      ],
      [
        "Ġn",
        "on"
      ],
      [
        "Ġn",
        "etw"
      ],
      [
        "Ġn",
        "eur"
      ],
      [
        "Ġc",
        "li"
      ],
      [
        "Ġc",
        "app"
      ],
      [
        "ch",
        "an"
      ],
      [
        "ent",
        "ial"
      ],
      [
        "Ġp",
        "osition"
      ],
      [
        "Ġp",
        "ara"
      ],
      [
        "Ġp",
        "oint"
      ],
      [
        "Ġp",
        "enal"
      ],
      [
        "ize",
        "d"
      ],
      [
        "ation",
        "al"
      ],
      [
        "Ġst",
        "ab"
      ],
      [
        "Ġst",
        "ep"
      ],
      [
        "id",
        "ual"
      ],
      [
        "Ġu",
        "nse"
      ],
      [
        "Ġu",
        "pdated"
      ],
      [
        "Ġo",
        "ver"
      ],
      [
        "Ġo",
        "ptim"
      ],
      [
        "Ġs",
        "ub"
      ],
      [
        "Ġs",
        "cheduler"
      ],
      [
        "Ġs",
        "mall"
      ],
      [
        "il",
        "izes"
      ],
      [
        "Ġb",
        "atch"
      ],
      [
        "Ġb",
        "ack"
      ],
      [
        "Ġb",
        "ot"
      ],
      [
        "Ġb",
        "etw"
      ],
      [
        "co",
        "der"
      ],
      [
        "Ġe",
        "ff"
      ],
      [
        "Ġe",
        "ffect"
      ],
      [
        "as",
        "ure"
      ],
      [
        "Ġm",
        "inim"
      ],
      [
        "Ġm",
        "onit"
      ],
      [
        "form",
        "ation"
      ],
      [
        "Ġin",
        "cre"
      ],
      [
        "Ġin",
        "jects"
      ],
      [
        "Ġin",
        "formation"
      ],
      [
        "Ġres",
        "idual"
      ],
      [
        "ine",
        "ar"
      ],
      [
        "ith",
        "m"
      ],
      [
        "Ġw",
        "hen"
      ],
      [
        "Ġdata",
        "set"
      ],
      [
        "Ġuse",
        "d"
      ],
      [
        "di",
        "cted"
      ],
      [
        "Ġcon",
        "ver"
      ],
      [
        "Ġcon",
        "nection"
      ],
      [
        "Ġcon",
        "sist"
      ],
      [
        "Ġcon",
        "tin"
      ],
      [
        "Ġl",
        "ayer"
      ],
      [
        "Ġl",
        "inear"
      ],
      [
        "ff",
        "erence"
      ],
      [
        "ns",
        "fer"
      ],
      [
        "Ġdi",
        "scre"
      ],
      [
        "Ġdi",
        "rect"
      ],
      [
        "Ġdi",
        "stri"
      ],
      [
        "Ġdi",
        "fference"
      ],
      [
        "Ġg",
        "raph"
      ],
      [
        "ic",
        "ient"
      ],
      [
        "ver",
        "ag"
      ],
      [
        "Ġse",
        "t"
      ],
      [
        "Ġval",
        "ue"
      ],
      [
        "Ġpro",
        "gress"
      ],
      [
        "Ġpro",
        "jects"
      ],
      [
        "Ġma",
        "ps"
      ],
      [
        "Ġpre",
        "cis"
      ],
      [
        "Ġpre",
        "dicted"
      ],
      [
        "ase",
        "s"
      ],
      [
        "Ġde",
        "cay"
      ],
      [
        "Ġde",
        "scent"
      ],
      [
        "Ġde",
        "coder"
      ],
      [
        "Ġtok",
        "en"
      ],
      [
        "Ġtransform",
        "er"
      ],
      [
        "ive",
        "ly"
      ],
      [
        "Ġenco",
        "ding"
      ],
      [
        "Ġenco",
        "ura"
      ],
      [
        "Ġnormal",
        "izes"
      ],
      [
        "Ġnormal",
        "izing"
      ],
      [
        "Ġh",
        "alts"
      ],
      [
        "Ġproce",
        "sses"
      ],
      [
        "Ġ3",
        "2"
      ],
      [
        "Ġle",
        "verag"
      ],
      [
        "Ġth",
        "at"
      ],
      [
        "Ġad",
        "just"
      ],
      [
        "Ġme",
        "mor"
      ],
      [
        "Ġme",
        "chan"
      ],
      [
        "Ġme",
        "asure"
      ],
      [
        "Ġactiv",
        "ation"
      ],
      [
        "Ġrepresent",
        "ation"
      ],
      [
        "for",
        "ward"
      ],
      [
        "line",
        "ar"
      ],
      [
        "met",
        "ers"
      ],
      [
        "pro",
        "ving"
      ],
      [
        "prop",
        "ag"
      ],
      [
        "uo",
        "us"
      ],
      [
        "ore",
        "gress"
      ],
      [
        "Ġfloat",
        "ing"
      ],
      [
        "Ġco",
        "mput"
      ],
      [
        "Ġweight",
        "s"
      ],
      [
        "Ġcontext",
        "ual"
      ],
      [
        "Ġiter",
        "ative"
      ],
      [
        "is",
        "ms"
      ],
      [
        "Ġfe",
        "ed"
      ],
      [
        "Ġfe",
        "ature"
      ],
      [
        "Ġsto",
        "ps"
      ],
      [
        "Ġsto",
        "pping"
      ],
      [
        "Ġus",
        "ing"
      ],
      [
        "Ġus",
        "age"
      ],
      [
        "Ġgradient",
        "s"
      ],
      [
        "Ġsequ",
        "ence"
      ],
      [
        "Ġsequ",
        "ential"
      ],
      [
        "Ġprevent",
        "s"
      ],
      [
        "Ġembedding",
        "s"
      ],
      [
        "Drop",
        "out"
      ],
      [
        "Ea",
        "ch"
      ],
      [
        "Ear",
        "ly"
      ],
      [
        "Mi",
        "xed"
      ],
      [
        "Position",
        "al"
      ],
      [
        "Tra",
        "nsfer"
      ],
      [
        "but",
        "ions"
      ],
      [
        "fit",
        "ting"
      ],
      [
        "ment",
        "ation"
      ],
      [
        "ndo",
        "mly"
      ],
      [
        "plo",
        "ding"
      ],
      [
        "tra",
        "ined"
      ],
      [
        "wle",
        "dge"
      ],
      [
        "Ġim",
        "proving"
      ],
      [
        "Ġra",
        "ndomly"
      ],
      [
        "Ġex",
        "ploding"
      ],
      [
        "Ġqu",
        "ery"
      ],
      [
        "Ġkno",
        "wledge"
      ],
      [
        "Ġzer",
        "os"
      ],
      [
        "Ġtas",
        "k"
      ],
      [
        "Ġaut",
        "oregress"
      ],
      [
        "Ġaug",
        "mentation"
      ],
      [
        "Ġalgor",
        "ithm"
      ],
      [
        "Ġarch",
        "itect"
      ],
      [
        "Ġfast",
        "er"
      ],
      [
        "Ġnetw",
        "ork"
      ],
      [
        "Ġneur",
        "ons"
      ],
      [
        "Ġcli",
        "pping"
      ],
      [
        "Ġcapp",
        "ing"
      ],
      [
        "Ġposition",
        "s"
      ],
      [
        "Ġpara",
        "meters"
      ],
      [
        "Ġpenal",
        "ty"
      ],
      [
        "Ġstab",
        "ilizes"
      ],
      [
        "Ġunse",
        "en"
      ],
      [
        "Ġover",
        "fitting"
      ],
      [
        "Ġoptim",
        "ization"
      ],
      [
        "Ġsub",
        "layer"
      ],
      [
        "Ġsmall",
        "er"
      ],
      [
        "Ġback",
        "propag"
      ],
      [
        "Ġbot",
        "h"
      ],
      [
        "Ġbetw",
        "een"
      ],
      [
        "Ġeff",
        "icient"
      ],
      [
        "Ġeffect",
        "ive"
      ],
      [
        "Ġminim",
        "um"
      ],
      [
        "Ġmonit",
        "or"
      ],
      [
        "Ġincre",
        "ases"
      ],
      [
        "Ġconver",
        "gence"
      ],
      [
        "Ġconsist",
        "s"
      ],
      [
        "Ġcontin",
        "uous"
      ],
      [
        "Ġdiscre",
        "te"
      ],
      [
        "Ġdirect",
        "ly"
      ],
      [
        "Ġdistri",
        "butions"
      ],
      [
        "Ġprecis",
        "ion"
      ],
      [
        "Ġencoura",
        "ge"
      ],
      [
        "Ġleverag",
        "es"
      ],
      [
        "Ġadjust",
        "s"
      ],
      [
        "Ġmemor",
        "y"
      ],
      [
        "Ġmechan",
        "isms"
      ],
      [
        "Ġmeasure",
        "s"
      ],
      [
        "Ġcomput",
        "ational"
      ],
      [
        "Ġcontextual",
        "ized"
      ],
      [
        "Ġautoregress",
        "ively"
      ],
      [
        "Ġarchitect",
        "ure"
      ],
      [
        "Ġbackpropag",
        "ation"
      ],
      [
        "Ġefficient",
        "ly"
      ],
      [
        "0",
        "4"
      ],
      [
        "0",
        "24"
      ],
      [
        "1",
        "9"
      ],
      [
        "3",
        "2"
      ],
      [
        "3",
        "6"
      ],
      [
        "5",
        "5"
      ],
      [
        "6",
        "55"
      ],
      [
        "8",
        "19"
      ],
      [
        "Ġ",
        "4"
      ],
      [
        "Ġ",
        "5"
      ],
      [
        "04",
        "8"
      ],
      [
        "655",
        "36"
      ],
      [
        "819",
        "2"
      ],
      [
        "C",
        "D"
      ],
      [
        "C",
        "I"
      ],
      [
        "C",
        "AP"
      ],
      [
        "D",
        "ocker"
      ],
      [
        "G",
        "P"
      ],
      [
        "I",
        "ãģ®"
      ],
      [
        "I",
        "ãĥ©ãĤ¤ãĥĸãĥ©ãĥª"
      ],
      [
        "J",
        "a"
      ],
      [
        "K",
        "ub"
      ],
      [
        "P",
        "y"
      ],
      [
        "R",
        "eact"
      ],
      [
        "R",
        "ust"
      ],
      [
        "U",
        "ãģĮ"
      ],
      [
        "U",
        "Iãĥ©ãĤ¤ãĥĸãĥ©ãĥª"
      ],
      [
        "a",
        "Script"
      ],
      [
        "h",
        "on"
      ],
      [
        "t",
        "ree"
      ],
      [
        "t",
        "hon"
      ],
      [
        "v",
        "aScript"
      ],
      [
        "¡",
        "¨"
      ],
      [
        "¡",
        "ç"
      ],
      [
        "¡",
        "ãģª"
      ],
      [
        "¡",
        "ãģ«ãģ¯"
      ],
      [
        "¡",
        "ãĥ¢"
      ],
      [
        "¡",
        "ãĤĴè¡ĮãģĦãģ¾ãģĻ"
      ],
      [
        "¢",
        "°"
      ],
      [
        "¢",
        "ĥ"
      ],
      [
        "¢",
        "ãĤĴ"
      ],
      [
        "£",
        "å"
      ],
      [
        "£",
        "ħ"
      ],
      [
        "£",
        "ãĥĥãĤ¯"
      ],
      [
        "£",
        "è¦ı"
      ],
      [
        "¤",
        "ĩ"
      ],
      [
        "¤",
        "ãģ®ãĥĲ"
      ],
      [
        "¤",
        "åŃ¦ç¿Ĵãĥ¢ãĥĩãĥ«ãģ®"
      ],
      [
        "¥",
        "ãģĦãģ¦"
      ],
      [
        "¥",
        "åĬĽ"
      ],
      [
        "¦",
        "è"
      ],
      [
        "§",
        "Ĩ"
      ],
      [
        "§",
        "ãĤ¯"
      ],
      [
        "¨",
        "æ"
      ],
      [
        "¨",
        "æĢ§"
      ],
      [
        "©",
        "ķ"
      ],
      [
        "©",
        "ãĤ·ãĤ¹ãĥĨãĥł"
      ],
      [
        "ª",
        "ŀ"
      ],
      [
        "ª",
        "ãĤĴè"
      ],
      [
        "«",
        "ĭ"
      ],
      [
        "«",
        "æĢ§"
      ],
      [
        "¬",
        "ç"
      ],
      [
        "¬",
        "ä»"
      ],
      [
        "®",
        "ãģĹãģ¾ãģĻ"
      ],
      [
        "¯",
        "¾"
      ],
      [
        "¯",
        "ä½ľ"
      ],
      [
        "°",
        "å"
      ],
      [
        "°",
        "¡ç"
      ],
      [
        "±",
        "ãĤ¹ãĥĪ"
      ],
      [
        "±",
        "¤åŃ¦ç¿Ĵãĥ¢ãĥĩãĥ«ãģ®"
      ],
      [
        "²",
        "ĭ"
      ],
      [
        "²",
        "ãģĹãģ¾ãģĻ"
      ],
      [
        "³",
        "»"
      ],
      [
        "³",
        "¨æ"
      ],
      [
        "³",
        "ªãĤĴè"
      ],
      [
        "µ",
        "Ħ"
      ],
      [
        "¶",
        "Ń"
      ],
      [
        "¶",
        "å¾"
      ],
      [
        "·",
        "åĬĽ"
      ],
      [
        "¸",
        "ãĤ"
      ],
      [
        "¸",
        "ãģĦãģ¦"
      ],
      [
        "¸",
        "ãĥ§"
      ],
      [
        "¹",
        "ä"
      ],
      [
        "¹",
        "ħ"
      ],
      [
        "º",
        "ĥ"
      ],
      [
        "º",
        "Ĵ"
      ],
      [
        "º",
        "ãģ"
      ],
      [
        "º",
        "ãģĮéĩįè¦ģãģ§ãģĻ"
      ],
      [
        "»",
        "ãģ®å"
      ],
      [
        "¼",
        "ãģĹãģ¦"
      ],
      [
        "¼",
        "·åĬĽ"
      ],
      [
        "½",
        "åĬ"
      ],
      [
        "¿",
        "ħ"
      ],
      [
        "¿",
        "Ŀ"
      ],
      [
        "¿",
        "ãĥ¼"
      ],
      [
        "¿",
        "ãĤ¤"
      ],
      [
        "¿",
        "åĲĪ"
      ],
      [
        "¿",
        "½åĬ"
      ],
      [
        "ä",
        "¿Ŀ"
      ],
      [
        "å",
        "Ģ"
      ],
      [
        "å",
        "Ĩ"
      ],
      [
        "å",
        "Į"
      ],
      [
        "å",
        "į"
      ],
      [
        "å",
        "Ł"
      ],
      [
        "å",
        "ĭķ"
      ],
      [
        "å",
        "±¤åŃ¦ç¿Ĵãĥ¢ãĥĩãĥ«ãģ®"
      ],
      [
        "å",
        "¹ħ"
      ],
      [
        "å",
        "ºĥ"
      ],
      [
        "å",
        "¼·åĬĽ"
      ],
      [
        "å",
        "¿ħ"
      ],
      [
        "æ",
        "ħ"
      ],
      [
        "æ",
        "ī"
      ],
      [
        "æ",
        "İ"
      ],
      [
        "æ",
        "ı"
      ],
      [
        "æ",
        "Ļ"
      ],
      [
        "æ",
        "Ľ"
      ],
      [
        "æ",
        "Ń"
      ],
      [
        "æ",
        "·±"
      ],
      [
        "æ",
        "¢°"
      ],
      [
        "æ",
        "³¨æ"
      ],
      [
        "ç",
        "ĭ"
      ],
      [
        "ç",
        "Ĵ"
      ],
      [
        "ç",
        "Ń"
      ],
      [
        "ç",
        "ĲĨ"
      ],
      [
        "ç",
        "°¡ç"
      ],
      [
        "ç",
        "²ĭ"
      ],
      [
        "ç",
        "µĦ"
      ],
      [
        "ç",
        "¶Ń"
      ],
      [
        "è",
        "ĩªå"
      ],
      [
        "è",
        "¡¨"
      ],
      [
        "è",
        "£ħ"
      ],
      [
        "è",
        "©ķ"
      ],
      [
        "è",
        "³ªãĤĴè"
      ],
      [
        "é",
        "ł"
      ],
      [
        "é",
        "§Ĩ"
      ],
      [
        "Ģ",
        "ĥ"
      ],
      [
        "Ģ",
        "åĪ"
      ],
      [
        "Ģ",
        "æľ"
      ],
      [
        "ģ",
        "ãģĮéĩįè¦ģãģ§ãģĻ"
      ],
      [
        "ģ",
        "æĪ"
      ],
      [
        "ģ",
        "è³ªãĤĴè"
      ],
      [
        "Ĥ",
        "ãģ«"
      ],
      [
        "Ħ",
        "ı"
      ],
      [
        "Ħ",
        "ãĤµãĥ¼ãĥĵãĤ¹"
      ],
      [
        "Ĩ",
        "ãĥĥãĤ¯ãĤ¹"
      ],
      [
        "ĩ",
        "åĲ"
      ],
      [
        "ĩ",
        "åŃ"
      ],
      [
        "Ī",
        "ãģıä½¿ãĤıãĤ"
      ],
      [
        "ī",
        "ãģĹãģ¾ãģĻ"
      ],
      [
        "ī",
        "ãĥª"
      ],
      [
        "ī",
        "åħ"
      ],
      [
        "ī",
        "æ¨"
      ],
      [
        "ī",
        "å®Ł"
      ],
      [
        "Ĭ",
        "ãĤª"
      ],
      [
        "ĭ",
        "ãĥ³ãĤ°"
      ],
      [
        "ĭ",
        "å¤"
      ],
      [
        "Į",
        "ãģ¦"
      ],
      [
        "Į",
        "æľ"
      ],
      [
        "Į",
        "ãĤĭ"
      ],
      [
        "Į",
        "æĸ"
      ],
      [
        "į",
        "ãĥ³"
      ],
      [
        "į",
        "ãģ¾ãģĻ"
      ],
      [
        "į",
        "çı¾"
      ],
      [
        "İ",
        "Ł"
      ],
      [
        "ı",
        "ãĥ³ãĥ"
      ],
      [
        "Ĳ",
        "ãĥ¼"
      ],
      [
        "Ĳ",
        "ãģĹãģ¦"
      ],
      [
        "ĳ",
        "ãĤ"
      ],
      [
        "ĳ",
        "ãĤĴè"
      ],
      [
        "ĳ",
        "è¨Ńè¨Īãģ§ãģ¯"
      ],
      [
        "Ĵ",
        "ä»"
      ],
      [
        "ĵ",
        "ãĥ¥"
      ],
      [
        "ĵ",
        "ãģ£ãģ¦"
      ],
      [
        "ĵ",
        "ģè³ªãĤĴè"
      ],
      [
        "Ķ",
        "ç²ĭ"
      ],
      [
        "ķ",
        "ãĤĴè"
      ],
      [
        "ķ",
        "æį"
      ],
      [
        "ĸ",
        "åĪ"
      ],
      [
        "ĸ",
        "åĩ¦çĲĨ"
      ],
      [
        "ĸ",
        "ãģ¨ãģĹãģ¦"
      ],
      [
        "ĸ",
        "ãģķãĤ"
      ],
      [
        "Ĺ",
        "åĪĹ"
      ],
      [
        "ĺ",
        "ãģ"
      ],
      [
        "ĺ",
        "ä¸Ģè²"
      ],
      [
        "Ļ",
        "çļĦ"
      ],
      [
        "ļ",
        "çĲĨ"
      ],
      [
        "Ľ",
        "æĢ§ãģ®"
      ],
      [
        "Ŀ",
        "ãģ«"
      ],
      [
        "Ŀ",
        "ãĥ¼ãĥ"
      ],
      [
        "Ŀ",
        "éł"
      ],
      [
        "ŀ",
        "ãĥ¼ãĤ"
      ],
      [
        "ŀ",
        "åĲ"
      ],
      [
        "ŀ",
        "ãĥĥ"
      ],
      [
        "Ł",
        "è¨"
      ],
      [
        "Ł",
        "ãģª"
      ],
      [
        "Ł",
        "åĩ¦çĲĨ"
      ],
      [
        "ł",
        "ãģĹãģ"
      ],
      [
        "ł",
        "ãģķ"
      ],
      [
        "ł",
        "ãĤĴçĶ¨ãģĦãģ¦"
      ],
      [
        "Ń",
        "ãĥ¥"
      ],
      [
        "ãģ",
        "¦ç"
      ],
      [
        "ãģ",
        "ĭãĤ"
      ],
      [
        "ãģ",
        "¿åĲĪ"
      ],
      [
        "ãģ",
        "įãģ¾ãģĻ"
      ],
      [
        "ãģ",
        "łãģķ"
      ],
      [
        "ãĥ",
        "ĭãĤ"
      ],
      [
        "ãĥ",
        "ĳãĤ¤"
      ],
      [
        "ãĥ",
        "Ħãĥ¼ãĥ«"
      ],
      [
        "ãĥ",
        "¡ãĥ¢"
      ],
      [
        "ãĥ",
        "ĬãĤª"
      ],
      [
        "ãĥ",
        "ĭãĥ³ãĤ°"
      ],
      [
        "ãĥ",
        "ĳãĤ"
      ],
      [
        "ãĥ",
        "ĵãĥ¥"
      ],
      [
        "ãĥ",
        "ķãĤĴè"
      ],
      [
        "er",
        "net"
      ],
      [
        "ãĤ",
        "¢ãĥ¼ãĤŃãĥĨãĤ¯ãĥģãĥ£"
      ],
      [
        "ãĤ",
        "£å"
      ],
      [
        "ãĤ",
        "¸ãĤ"
      ],
      [
        "ãĤ",
        "ºãģĮéĩįè¦ģãģ§ãģĻ"
      ],
      [
        "ãĤ",
        "Īãģıä½¿ãĤıãĤ"
      ],
      [
        "ãĤ",
        "Ńãĥ¥"
      ],
      [
        "ãĥ¼",
        "ãģ¯"
      ],
      [
        "ãĤĴ",
        "ãĤ³"
      ],
      [
        "ãĤĴ",
        "åĩ¦çĲĨ"
      ],
      [
        "ãĤĴ",
        "åĪĨ"
      ],
      [
        "ãĤĴ",
        "ä½ľ"
      ],
      [
        "ãĤĴ",
        "æĽ"
      ],
      [
        "ãĤĴ",
        "çµĦ"
      ],
      [
        "ãģ¯",
        "B"
      ],
      [
        "ãģ¯",
        "åī"
      ],
      [
        "ãģ¯",
        "æĸ"
      ],
      [
        "ãģ¯",
        "Ja"
      ],
      [
        "ãģ¯",
        "èĩªå"
      ],
      [
        "ãģ¯",
        "ãĥ¡ãĥ¢"
      ],
      [
        "ãģ§",
        "ãĥĹ"
      ],
      [
        "ãģ§",
        "ãģįãģ¾ãģĻ"
      ],
      [
        "ãģ®",
        "ãģª"
      ],
      [
        "ãģ®",
        "æ§ĭç¯ī"
      ],
      [
        "ãģ®",
        "ãĤµãĥ¼ãĥ"
      ],
      [
        "ãģ®",
        "ãĥĸãĥ©"
      ],
      [
        "ãģ®",
        "éĿ"
      ],
      [
        "ãģ®",
        "æī"
      ],
      [
        "ãģ®",
        "ãĥĳãĤ"
      ],
      [
        "ãĥ³",
        "ãģ¨"
      ],
      [
        "ãĥ³",
        "ãĥĨ"
      ],
      [
        "ãĥ³",
        "ãĥĩ"
      ],
      [
        "ãĥ³",
        "ãĤĴæ§ĭç¯ī"
      ],
      [
        "ãĥ©",
        "ãĤ¹"
      ],
      [
        "ãĥ©",
        "ãĥķãĤ"
      ],
      [
        "es",
        "ãģ¯ãĤ³"
      ],
      [
        "ãģ«",
        "ä½¿"
      ],
      [
        "ãģ«",
        "æ¤ľ"
      ],
      [
        "ãģ«",
        "éĿ"
      ],
      [
        "ãģ«",
        "åĪĨæķ£"
      ],
      [
        "ãģ«",
        "åŁ"
      ],
      [
        "ãģ«",
        "ç°¡ç"
      ],
      [
        "ãĥ¼ãĥ",
        "ĨãĥĥãĤ¯ãĤ¹"
      ],
      [
        "ãĥ¼ãĥ",
        "ıãĥ³ãĥ"
      ],
      [
        "ãĥ¼ãĥ",
        "ŀãĥ¼ãĤ"
      ],
      [
        "ãģ¨",
        "å¾"
      ],
      [
        "ãģ¨",
        "é«ĺ"
      ],
      [
        "ãģ¨",
        "åı¯"
      ],
      [
        "ãģ¨",
        "åĨ"
      ],
      [
        "ãģĦ",
        "ç´"
      ],
      [
        "ãģĦ",
        "ãģ¦ç"
      ],
      [
        "ãĥĪ",
        "ãĥ¬"
      ],
      [
        "ãĥĪ",
        "æĮ"
      ],
      [
        "ãĥĪ",
        "ãĥ©ãĥ³ãĤ¹"
      ],
      [
        "ãĥĪ",
        "ãĥĻãĥ¼ãĤ¹ãģ®"
      ],
      [
        "ãĥĪ",
        "ãĥ©ãĥķãĤ"
      ],
      [
        "ãĥĪ",
        "ãģ¨é«ĺ"
      ],
      [
        "ãĥ¼ãĤ",
        "·ãĥ§"
      ],
      [
        "ãĥ¼ãĤ",
        "±ãĤ¹ãĥĪ"
      ],
      [
        "ãĥ¼ãĤ",
        "¸ãĥ§"
      ],
      [
        "¦ç",
        "ķ¥"
      ],
      [
        "ãĤ¤",
        "ãĤ¯"
      ],
      [
        "ãĤ¤",
        "åı¯"
      ],
      [
        "ãĤ¤",
        "ãĥ³ãĥĩ"
      ],
      [
        "ãĤ¯",
        "ãĤ¨"
      ],
      [
        "ãĤ¯",
        "ãĥ©ãĤ¹"
      ],
      [
        "åĪ",
        "ĩãģ«"
      ],
      [
        "ãģ¦",
        "ãĥĹãĥŃãĤ°ãĥ©"
      ],
      [
        "ãĥĨ",
        "ãĤ£å"
      ],
      [
        "ãĥĩ",
        "ãĥĹãĥŃ"
      ],
      [
        "çĶ¨",
        "ãģķãĤ"
      ],
      [
        "çĶ¨",
        "æĢ§ãģ®"
      ],
      [
        "çĶ¨",
        "ãģ®ãģª"
      ],
      [
        "ãģĮ",
        "å¤§"
      ],
      [
        "ãģĮ",
        "çĭ"
      ],
      [
        "ãģĮ",
        "ãĤĪãģıä½¿ãĤıãĤ"
      ],
      [
        "ãĥª",
        "å®"
      ],
      [
        "ãĥª",
        "ãĥĩãĥ¼ãĤ"
      ],
      [
        "ãĥª",
        "ãĤ¯ãĤ¨"
      ],
      [
        "ãĥª",
        "ãĥĨãĤ£å"
      ],
      [
        "ãĤĴè",
        "¤ĩ"
      ],
      [
        "ãģ§ãģ¯",
        "åĲ"
      ],
      [
        "ãģ§ãģ¯",
        "æľ"
      ],
      [
        "ãģ§ãģ¯",
        "ãĥŁ"
      ],
      [
        "ãģ§ãģ¯",
        "CAP"
      ],
      [
        "ãĥ³ãĥ",
        "ĳãĤ¤"
      ],
      [
        "ãĥ³ãĥ",
        "Ħãĥ¼ãĥ«"
      ],
      [
        "ãĥ³ãĥ",
        "ģæĪ"
      ],
      [
        "ãĥ³ãĥ",
        "Ŀãĥ¼ãĥ"
      ],
      [
        "ãĥ³ãĥ",
        "ŀãĥĥ"
      ],
      [
        "ãģĹãģ¦",
        "ãĥĩãĥĹãĥŃ"
      ],
      [
        "io",
        "ãĥ©ãĤ¤ãĥĸãĥ©ãĥª"
      ],
      [
        "æ§ĭ",
        "ãĤĴçĶ¨"
      ],
      [
        "æ§ĭ",
        "éĢ"
      ],
      [
        "ãģª",
        "GP"
      ],
      [
        "ãģª",
        "ãĥĦãĥ¼ãĥ«"
      ],
      [
        "ãĥĥ",
        "ãĥĪãģ¨é«ĺ"
      ],
      [
        "ãĥĹ",
        "ãĥ©ãĤ¤"
      ],
      [
        "ãĥŃ",
        "ãĥ¼ãĥī"
      ],
      [
        "ãĥŃ",
        "ãĤµãĥ¼ãĥĵãĤ¹"
      ],
      [
        "ãĤµ",
        "ãĥĭãĤ"
      ],
      [
        "ãĤµ",
        "ãĥ¼ãģ¯"
      ],
      [
        "æĢ§",
        "èĥ½"
      ],
      [
        "Git",
        "ãģ®ãĥĸãĥ©"
      ],
      [
        "å®",
        "ļçĲĨ"
      ],
      [
        "ãĥ«",
        "æĻ"
      ],
      [
        "ãĥ«",
        "ãĥªãĤ¯ãĤ¨"
      ],
      [
        "ãĥĲ",
        "ãĥ©ãĥ³"
      ],
      [
        "ãĥĲ",
        "ãĥ¼ãĤ¸ãĥ§"
      ],
      [
        "ãĥĸ",
        "ãĤ¸ãĤ"
      ],
      [
        "ãĥ³ãĤ°",
        "ãģ«ãģ¯"
      ],
      [
        "ãĥ³ãĤ°",
        "ãģ¯åī"
      ],
      [
        "ãĥ³ãĤ°",
        "ãģ«ä½¿"
      ],
      [
        "ãĤ¹ãĥĪ",
        "ãĤĴä½ľ"
      ],
      [
        "ãģ«ãģ¯",
        "async"
      ],
      [
        "ãģ«ãģ¯",
        "å¤§"
      ],
      [
        "ãĥ¼ãĥī",
        "ãĤª"
      ],
      [
        "åĩ¦çĲĨ",
        "ãģ§ãģ¯ãĥŁ"
      ],
      [
        "¡Į",
        "åĩ¦çĲĨãģ§ãģ¯ãĥŁ"
      ],
      [
        "ä¸",
        "¦è"
      ],
      [
        "ä»",
        "ĺãģ"
      ],
      [
        "ä¾",
        "¡ãģ«ãģ¯"
      ],
      [
        "ä¾",
        "ĭå¤"
      ],
      [
        "ä¾",
        "Ŀéł"
      ],
      [
        "å¾",
        "ĵãģ£ãģ¦"
      ],
      [
        "åī",
        "ĩãģ«"
      ],
      [
        "åī",
        "²ãģĹãģ¾ãģĻ"
      ],
      [
        "Ģè",
        "ªŀ"
      ],
      [
        "ãģı",
        "ãģłãģķ"
      ],
      [
        "ãĥ¥",
        "ãĥ¼ãĥĨãĥĥãĤ¯ãĤ¹"
      ],
      [
        "ãĥ¬",
        "ãĥĵãĥ¥"
      ],
      [
        "ãĥ¬",
        "ãĥ¼ãĤ·ãĥ§"
      ],
      [
        "ãĥģ",
        "ãĥ³ãĤ°ãģ«ä½¿"
      ],
      [
        "ãĥł",
        "ãĤĴæ§ĭç¯ī"
      ],
      [
        "ãĤª",
        "ãĥĸãĤ¸ãĤ"
      ],
      [
        "ãĤ»",
        "ãĥŀ"
      ],
      [
        "ãĤ»",
        "ãĤŃãĥ¥"
      ],
      [
        "ãĤ»",
        "ãĥĥãĥĪãģ¨é«ĺ"
      ],
      [
        "ãĤı",
        "ãģĽ"
      ],
      [
        "ãĤĴä½¿",
        "ãģ£ãģ¦"
      ],
      [
        "ãģ¨ãģĹãģ¦",
        "GitHub"
      ],
      [
        "ãģ¨ãģĹãģ¦",
        "åºĥ"
      ],
      [
        "æķ°",
        "ãģ®ãĤµãĥ¼ãĥ"
      ],
      [
        "åŃ¦ç¿Ĵ",
        "ãģ«ãģ¯å¤§"
      ],
      [
        "ãĥĩãĥ¼ãĤ¿",
        "ãĥĻãĥ¼ãĤ¹ãģ®"
      ],
      [
        "ãĥĩãĥ¼ãĤ¿",
        "ãĤĴåĩ¦çĲĨ"
      ],
      [
        "ãĥĩãĥ¼ãĤ¿",
        "ãĤ»ãĥĥãĥĪãģ¨é«ĺ"
      ],
      [
        "Type",
        "Script"
      ],
      [
        "çı¾",
        "ãģĹãģ¾ãģĻ"
      ],
      [
        "çı¾",
        "ãģ¯æĸ"
      ],
      [
        "AP",
        "Iãģ®"
      ],
      [
        "·±",
        "æ³¨æ"
      ],
      [
        "·ãĥ§",
        "ãĥ³ãģ¨"
      ],
      [
        "åħ",
        "¥åĬĽ"
      ],
      [
        "æ¨",
        "¡ãģª"
      ],
      [
        "æĪ",
        "ĲãģĹãģ¦"
      ],
      [
        "æĮ",
        "ģãģĮéĩįè¦ģãģ§ãģĻ"
      ],
      [
        "æį",
        "ķæį"
      ],
      [
        "æ¤ľ",
        "ç´"
      ],
      [
        "æ©Ł",
        "æ¢°"
      ],
      [
        "æ©Ł",
        "æ§ĭãĤĴçĶ¨"
      ],
      [
        "éĢ",
        "Łãģª"
      ],
      [
        "é«ĺ",
        "éĢŁãģª"
      ],
      [
        "ĩªå",
        "ĭķ"
      ],
      [
        "ķ¥",
        "åĮ"
      ],
      [
        "ãģķ",
        "ãģĽ"
      ],
      [
        "ãĥŀ",
        "ãĤ¤ãĤ¯"
      ],
      [
        "ãĥŁ",
        "ãĥ³ãĤ°ãģ¯åī"
      ],
      [
        "ãĤĦ",
        "Git"
      ],
      [
        "ãĤĦ",
        "ãĤ»ãĥŀ"
      ],
      [
        "ãĥ¼ãĤĴ",
        "ä¾Ŀéł"
      ],
      [
        "ãĥ¼ãĤĴ",
        "æįķæį"
      ],
      [
        "ãģ¯ãĤ³",
        "ãĥ³ãĥĿãĥ¼ãĥ"
      ],
      [
        "ãģ®å",
        "ĵģè³ªãĤĴè"
      ],
      [
        "ãģ®ãĥĲ",
        "ãĥ©ãĥ³ãĤ¹"
      ],
      [
        "ĠFlow",
        "ãģĮãĤĪãģıä½¿ãĤıãĤ"
      ],
      [
        "ĠFlow",
        "ãĤĦGit"
      ],
      [
        "åĪĹ",
        "ãĥĩãĥ¼ãĤ¿ãĤĴåĩ¦çĲĨ"
      ],
      [
        "ãĥĨãĤ¹ãĥĪ",
        "é§Ĩ"
      ],
      [
        "ãĥĨãĤ¹ãĥĪ",
        "ãĤĴæĽ"
      ],
      [
        "è¨¼",
        "ãģĹãģ¾ãģĻ"
      ],
      [
        "è¨¼",
        "ãģ§ãģįãģ¾ãģĻ"
      ],
      [
        "è¦ı",
        "æ¨¡ãģª"
      ],
      [
        "åĲĪ",
        "çİĩ"
      ],
      [
        "ãĤ³ãĥ¼ãĥī",
        "ãĥ¬ãĥĵãĥ¥"
      ],
      [
        "ãĤ³ãĥ¼ãĥī",
        "ãģ®åĵģè³ªãĤĴè"
      ],
      [
        "GitHub",
        "ãģ§ãĥĹ"
      ],
      [
        "å®Ł",
        "çı¾ãģĹãģ¾ãģĻ"
      ],
      [
        "éĸ¢æķ°",
        "åŀĭ"
      ],
      [
        "éĸ¢æķ°",
        "ãĤĴçµĦ"
      ],
      [
        "ãĥķãĤ©",
        "ãĥ¼ãĥŀãĥ¼ãĤ"
      ],
      [
        "ãĥķãĤ©",
        "ãĤĴä½¿ãģ£ãģ¦"
      ],
      [
        "ãĤ¨ãĥ©",
        "ãĥ¼ãĥıãĥ³ãĥ"
      ],
      [
        "ãĤ¨ãĥ©",
        "ãĥ¼ãĤĴæįķæį"
      ],
      [
        "ãĤĴçĶ¨ãģĦãģ¦",
        "éģ©"
      ],
      [
        "ãĤĴä½¿çĶ¨",
        "ãģĹãģ¾ãģĻ"
      ],
      [
        "ãĤĴä½¿çĶ¨",
        "ãģĻãĤĭãģĵãģ¨ãģ§"
      ],
      [
        "åĪĨæķ£",
        "ãĤ·ãĤ¹ãĥĨãĥł"
      ],
      [
        "ãĥĥãĤ¯ãĤ¹",
        "ãģ¯B"
      ],
      [
        "ãĥĹãĥŃãĤ°ãĥ©",
        "ãĥŁãĥ³ãĤ°ãģ¯åī"
      ],
      [
        "åŀĭ",
        "ä»ĺãģ"
      ],
      [
        "çİĩ",
        "ãģ®ãĥĲãĥ©ãĥ³ãĤ¹"
      ],
      [
        "çļĦ",
        "ãģ«æ¤ľ"
      ],
      [
        "èĥ½",
        "ãģ§ãģĻ"
      ],
      [
        "éģ©",
        "åĲĪçİĩ"
      ],
      [
        "ãģĻãĤĭãģĵãģ¨ãģ§",
        "ãĤ³ãĥ¼ãĥīãģ®åĵģè³ªãĤĴè"
      ],
      [
        "è¨Ńè¨Īãģ§ãģ¯",
        "ãĥĲãĥ¼ãĤ¸ãĥ§"
      ],
      [
        "éĸĭçĻº",
        "çĴ"
      ],
      [
        "éĸĭçĻº",
        "ãģ§ãģ¯æľ"
      ],
      [
        "ä¸Ģè²",
        "«æĢ§"
      ],
      [
        "ãģıä½¿ãĤıãĤ",
        "Įãģ¦"
      ],
      [
        "åŃ¦ç¿Ĵãĥ¢ãĥĩãĥ«ãģ®",
        "è©ķ"
      ],
      [
        "¢ãĥ¼ãĤŃãĥĨãĤ¯ãĥģãĥ£",
        "ãģ¯èĩªå"
      ],
      [
        "CD",
        "ãĥĳãĤ¤"
      ],
      [
        "Docker",
        "ãĤĴä½¿çĶ¨ãģĻãĤĭãģĵãģ¨ãģ§"
      ],
      [
        "Kub",
        "ernet"
      ],
      [
        "Py",
        "thon"
      ],
      [
        "React",
        "ãģ¯ãĤ³ãĥ³ãĥĿãĥ¼ãĥ"
      ],
      [
        "Rust",
        "ãģ®æī"
      ],
      [
        "UãģĮ",
        "å¿ħ"
      ],
      [
        "UIãĥ©ãĤ¤ãĥĸãĥ©ãĥª",
        "ãģ§ãģĻ"
      ],
      [
        "tree",
        "æ§ĭéĢ"
      ],
      [
        "vaScript",
        "ãģ«éĿ"
      ],
      [
        "¢ĥ",
        "ãģ®æ§ĭç¯ī"
      ],
      [
        "¢ãĤĴ",
        "å®Łçı¾ãģĹãģ¾ãģĻ"
      ],
      [
        "£ãĥĥãĤ¯",
        "ãĤĴè¤ĩ"
      ],
      [
        "£è¦ı",
        "è¡¨"
      ],
      [
        "¤ãģ®ãĥĲ",
        "ãĥªãĥĩãĥ¼ãĤ"
      ],
      [
        "¥ãģĦãģ¦",
        "ä¸Ģè²«æĢ§"
      ],
      [
        "§ãĤ¯",
        "ãĥĪæĮ"
      ],
      [
        "¨æĢ§",
        "ãĤĴãĤ³"
      ],
      [
        "©ãĤ·ãĤ¹ãĥĨãĥł",
        "ãģ¯ãĥ¡ãĥ¢"
      ],
      [
        "«ĭ",
        "ãģĹãģ¦ãĥĩãĥĹãĥŃ"
      ],
      [
        "¬ç",
        "«ĭãģĹãģ¦ãĥĩãĥĹãĥŃ"
      ],
      [
        "¬ä»",
        "»ãģ®å"
      ],
      [
        "¯¾",
        "çŃ"
      ],
      [
        "¯ä½ľ",
        "çĶ¨ãģ®ãģª"
      ],
      [
        "°å",
        "¢ĥãģ®æ§ĭç¯ī"
      ],
      [
        "³»",
        "åĪĹãĥĩãĥ¼ãĤ¿ãĤĴåĩ¦çĲĨ"
      ],
      [
        "¶å¾",
        "¡ãĤĴè¡ĮãģĦãģ¾ãģĻ"
      ],
      [
        "¸ãģĦãģ¦",
        "ãģĭãĤ"
      ],
      [
        "¹ä",
        "ºĴ"
      ],
      [
        "ºãģ",
        "¥ãģĦãģ¦ä¸Ģè²«æĢ§"
      ],
      [
        "¼ãģĹãģ¦",
        "ãģıãģłãģķ"
      ],
      [
        "¿ãĥ¼",
        "ãĥ³ãĥŀãĥĥ"
      ],
      [
        "¿ãĤ¤",
        "ãĤºãģĮéĩįè¦ģãģ§ãģĻ"
      ],
      [
        "¿½åĬ",
        "łãģĹãģ"
      ],
      [
        "ä¿Ŀ",
        "è¨¼ãģĹãģ¾ãģĻ"
      ],
      [
        "åĢ",
        "¤ãģ®ãĥĲãĥªãĥĩãĥ¼ãĤ"
      ],
      [
        "åį",
        "ĺä¸Ģè²"
      ],
      [
        "åĭķ",
        "éĸĭçĻºãģ§ãģ¯æľ"
      ],
      [
        "å±¤åŃ¦ç¿Ĵãĥ¢ãĥĩãĥ«ãģ®",
        "åŃ¦ç¿Ĵãģ«ãģ¯å¤§"
      ],
      [
        "å¹ħ",
        "ãģ«ç°¡ç"
      ],
      [
        "å¼·åĬĽ",
        "ãģªãĥĦãĥ¼ãĥ«"
      ],
      [
        "æħ",
        "®ãģĹãģ¾ãģĻ"
      ],
      [
        "æİ",
        "Ĵä»"
      ],
      [
        "æı",
        "ĽæĢ§ãģ®"
      ],
      [
        "æŃ",
        "£è¦ıè¡¨"
      ],
      [
        "æ·±",
        "å±¤åŃ¦ç¿Ĵãĥ¢ãĥĩãĥ«ãģ®åŃ¦ç¿Ĵãģ«ãģ¯å¤§"
      ],
      [
        "ç¶Ń",
        "æĮģãģĮéĩįè¦ģãģ§ãģĻ"
      ],
      [
        "è£ħ",
        "ãĤĴè¡ĮãģĦãģ¾ãģĻ"
      ],
      [
        "Ģĥ",
        "æħ®ãģĹãģ¾ãģĻ"
      ],
      [
        "ĢåĪ",
        "Ŀãģ«"
      ],
      [
        "Ģæľ",
        "īæ¨"
      ],
      [
        "Ĥãģ«",
        "ä¿Ŀè¨¼ãģĹãģ¾ãģĻ"
      ],
      [
        "Ħı",
        "æ©Łæ§ĭãĤĴçĶ¨"
      ],
      [
        "ĦãĤµãĥ¼ãĥĵãĤ¹",
        "ãģĮçĭ"
      ],
      [
        "ĩåĲ",
        "ĳè¨Ńè¨Īãģ§ãģ¯"
      ],
      [
        "ĩåŃ",
        "ĹåĪĹ"
      ],
      [
        "īãĥª",
        "ãĥ³ãĤ°ãģ«ãģ¯"
      ],
      [
        "īåħ",
        "¨æĢ§ãĤĴãĤ³"
      ],
      [
        "īå®Ł",
        "è£ħãĤĴè¡ĮãģĦãģ¾ãģĻ"
      ],
      [
        "Įæľ",
        "Łåĩ¦çĲĨ"
      ],
      [
        "ĮãĤĭ",
        "å¼·åĬĽãģªãĥĦãĥ¼ãĥ«"
      ],
      [
        "Įæĸ",
        "¹äºĴ"
      ],
      [
        "įãĥ³",
        "ãĥĪãĥĻãĥ¼ãĤ¹ãģ®"
      ],
      [
        "įçı¾",
        "çİĩãģ®ãĥĲãĥ©ãĥ³ãĤ¹"
      ],
      [
        "İŁ",
        "åīĩãģ«"
      ],
      [
        "Ĳãĥ¼",
        "ãģ«åĪĨæķ£"
      ],
      [
        "ĳãĤĴè",
        "¿½åĬłãģĹãģ"
      ],
      [
        "Ķç²ĭ",
        "éĸ¢æķ°ãĤĴçµĦ"
      ],
      [
        "ĸåĪ",
        "¶å¾¡ãĤĴè¡ĮãģĦãģ¾ãģĻ"
      ],
      [
        "ĸåĩ¦çĲĨ",
        "ãĤĴçĶ¨ãģĦãģ¦éģ©"
      ],
      [
        "ĸãģ¨ãģĹãģ¦",
        "åħ¥åĬĽ"
      ],
      [
        "ĸãģķãĤ",
        "Įãģ¾ãģĻ"
      ],
      [
        "ĻçļĦ",
        "åŀĭä»ĺãģ"
      ],
      [
        "ŀåĲ",
        "ĮæľŁåĩ¦çĲĨ"
      ],
      [
        "Łè¨",
        "Ģèªŀ"
      ],
      [
        "łãĤĴçĶ¨ãģĦãģ¦",
        "é«ĺéĢŁãģª"
      ],
      [
        "ãģ¿åĲĪ",
        "ãĤıãģĽ"
      ],
      [
        "ãĥĬãĤª",
        "ãĥ¼ãĤ±ãĤ¹ãĥĪ"
      ],
      [
        "ãĥĭãĥ³ãĤ°",
        "ãģ¨å¾"
      ],
      [
        "ãĥķãĤĴè",
        "Ģĥæħ®ãģĹãģ¾ãģĻ"
      ],
      [
        "ãĤ¢ãĥ¼ãĤŃãĥĨãĤ¯ãĥģãĥ£",
        "ãģ§ãģ¯åĲ"
      ],
      [
        "ãĤĴåĪĨ",
        "åī²ãģĹãģ¾ãģĻ"
      ],
      [
        "ãģ¯Ja",
        "vaScriptãģ«éĿ"
      ],
      [
        "ãģ®éĿ",
        "ŀåĲĮæľŁåĩ¦çĲĨ"
      ],
      [
        "ãģ®ãĥĳãĤ",
        "¿ãĥ¼ãĥ³ãĥŀãĥĥ"
      ],
      [
        "ãĥ³ãĥĨ",
        "ãĥĬãĤªãĥ¼ãĤ±ãĤ¹ãĥĪ"
      ],
      [
        "ãĥ³ãĤĴæ§ĭç¯ī",
        "ãģĻãĤĭãģĵãģ¨ãģ§ãĤ³ãĥ¼ãĥīãģ®åĵģè³ªãĤĴè"
      ],
      [
        "esãģ¯ãĤ³",
        "ãĥ³ãĥĨãĥĬãĤªãĥ¼ãĤ±ãĤ¹ãĥĪ"
      ],
      [
        "ãģ«åŁ",
        "ºãģ¥ãģĦãģ¦ä¸Ģè²«æĢ§"
      ],
      [
        "ãģ¨åı¯",
        "çĶ¨æĢ§ãģ®"
      ],
      [
        "ãģ¨åĨ",
        "įçı¾çİĩãģ®ãĥĲãĥ©ãĥ³ãĤ¹"
      ],
      [
        "ãģĦç´",
        "Ķç²ĭéĸ¢æķ°ãĤĴçµĦ"
      ],
      [
        "ãģĦãģ¦ç",
        "³»åĪĹãĥĩãĥ¼ãĤ¿ãĤĴåĩ¦çĲĨ"
      ],
      [
        "ãĥĪãĥ¬",
        "ãĥ¼ãĥīãĤª"
      ],
      [
        "ãĥĪãĥ©ãĥ³ãĤ¹",
        "ãĥķãĤ©ãĥ¼ãĥŀãĥ¼ãĤ"
      ],
      [
        "ãĥĪãĥ©ãĥķãĤ",
        "£ãĥĥãĤ¯ãĤĴè¤ĩ"
      ],
      [
        "¦çķ¥",
        "ãģ¨ãģĹãģ¦GitHub"
      ],
      [
        "ãĤ¤åı¯",
        "èĥ½ãģ§ãģĻ"
      ],
      [
        "ãĤ¤ãĥ³ãĥĩ",
        "ãĥĥãĤ¯ãĤ¹ãģ¯B"
      ],
      [
        "ãĤ¯ãĥ©ãĤ¹",
        "ãĤĴåĪĨåī²ãģĹãģ¾ãģĻ"
      ],
      [
        "åĪĩãģ«",
        "ãĤ¨ãĥ©ãĥ¼ãĤĴæįķæį"
      ],
      [
        "ãģ¦ãĥĹãĥŃãĤ°ãĥ©",
        "ãĥłãĤĴæ§ĭç¯ī"
      ],
      [
        "çĶ¨ãģķãĤ",
        "ĮãĤĭå¼·åĬĽãģªãĥĦãĥ¼ãĥ«"
      ],
      [
        "ãģĮå¤§",
        "å¹ħãģ«ç°¡ç"
      ],
      [
        "ãĥªå®",
        "īåħ¨æĢ§ãĤĴãĤ³"
      ],
      [
        "ãĥªãĥĨãĤ£å",
        "¯¾çŃ"
      ],
      [
        "ãģ§ãģ¯CAP",
        "å®ļçĲĨ"
      ],
      [
        "ãĥ³ãĥĳãĤ¤",
        "ãĥ«æĻ"
      ],
      [
        "ãĥ³ãĥĦãĥ¼ãĥ«",
        "ãģ¨ãģĹãģ¦åºĥ"
      ],
      [
        "ãĥ³ãĥģæĪ",
        "¦çķ¥ãģ¨ãģĹãģ¦GitHub"
      ],
      [
        "ioãĥ©ãĤ¤ãĥĸãĥ©ãĥª",
        "ãĤĴä½¿çĶ¨ãģĹãģ¾ãģĻ"
      ],
      [
        "ãģªGP",
        "UãģĮå¿ħ"
      ],
      [
        "ãĥĹãĥ©ãĤ¤",
        "ãĥ³ãĤĴæ§ĭç¯īãģĻãĤĭãģĵãģ¨ãģ§ãĤ³ãĥ¼ãĥīãģ®åĵģè³ªãĤĴè"
      ],
      [
        "ãĥŃãĥ¼ãĥī",
        "ãĥĲãĥ©ãĥ³"
      ],
      [
        "ãĥŃãĤµãĥ¼ãĥĵãĤ¹",
        "ãĤ¢ãĥ¼ãĤŃãĥĨãĤ¯ãĥģãĥ£ãģ§ãģ¯åĲ"
      ],
      [
        "ãĤµãĥĭãĤ",
        "¿ãĤ¤ãĤºãģĮéĩįè¦ģãģ§ãģĻ"
      ],
      [
        "ãĤµãĥ¼ãģ¯",
        "ãĥĪãĥ©ãĥķãĤ£ãĥĥãĤ¯ãĤĴè¤ĩ"
      ],
      [
        "æĢ§èĥ½",
        "ãģªGPUãģĮå¿ħ"
      ],
      [
        "Gitãģ®ãĥĸãĥ©",
        "ãĥ³ãĥģæĪ¦çķ¥ãģ¨ãģĹãģ¦GitHub"
      ],
      [
        "ãĥ«ãĥªãĤ¯ãĤ¨",
        "ãĤ¹ãĥĪãĤĴä½ľ"
      ],
      [
        "ãģ«ãģ¯async",
        "ioãĥ©ãĤ¤ãĥĸãĥ©ãĥªãĤĴä½¿çĶ¨ãģĹãģ¾ãģĻ"
      ],
      [
        "¡Įåĩ¦çĲĨãģ§ãģ¯ãĥŁ",
        "ãĥ¥ãĥ¼ãĥĨãĥĥãĤ¯ãĤ¹"
      ],
      [
        "ä¸¦è",
        "¡Įåĩ¦çĲĨãģ§ãģ¯ãĥŁãĥ¥ãĥ¼ãĥĨãĥĥãĤ¯ãĤ¹"
      ],
      [
        "ä¾¡ãģ«ãģ¯",
        "éģ©åĲĪçİĩ"
      ],
      [
        "ä¾ĭå¤",
        "ĸåĩ¦çĲĨãĤĴçĶ¨ãģĦãģ¦éģ©"
      ],
      [
        "å¾ĵãģ£ãģ¦",
        "ãĤ¯ãĥ©ãĤ¹ãĤĴåĪĨåī²ãģĹãģ¾ãģĻ"
      ],
      [
        "ãĥ¬ãĥ¼ãĤ·ãĥ§",
        "ãĥ³ãĥĦãĥ¼ãĥ«ãģ¨ãģĹãģ¦åºĥ"
      ],
      [
        "ãĥģãĥ³ãĤ°ãģ«ä½¿",
        "çĶ¨ãģķãĤĮãĤĭå¼·åĬĽãģªãĥĦãĥ¼ãĥ«"
      ],
      [
        "ãĤªãĥĸãĤ¸ãĤ",
        "§ãĤ¯ãĥĪæĮ"
      ],
      [
        "ãĤ»ãĤŃãĥ¥",
        "ãĥªãĥĨãĤ£å¯¾çŃ"
      ],
      [
        "æķ°ãģ®ãĤµãĥ¼ãĥ",
        "Ĳãĥ¼ãģ«åĪĨæķ£"
      ],
      [
        "ãĥĩãĥ¼ãĤ¿ãĥĻãĥ¼ãĤ¹ãģ®",
        "ãĤ¤ãĥ³ãĥĩãĥĥãĤ¯ãĤ¹ãģ¯B"
      ],
      [
        "ãĥĩãĥ¼ãĤ¿ãĤ»ãĥĥãĥĪãģ¨é«ĺ",
        "æĢ§èĥ½ãģªGPUãģĮå¿ħ"
      ],
      [
        "TypeScript",
        "ãģ¯JavaScriptãģ«éĿ"
      ],
      [
        "çı¾ãģ¯æĸ",
        "ĩåŃĹåĪĹ"
      ],
      [
        "APIãģ®",
        "è¨Ńè¨Īãģ§ãģ¯ãĥĲãĥ¼ãĤ¸ãĥ§"
      ],
      [
        "·±æ³¨æ",
        "Ħıæ©Łæ§ĭãĤĴçĶ¨"
      ],
      [
        "·ãĥ§ãĥ³ãģ¨",
        "ãĤµãĥĭãĤ¿ãĤ¤ãĤºãģĮéĩįè¦ģãģ§ãģĻ"
      ],
      [
        "æĪĲãģĹãģ¦",
        "ãĤ³ãĥ¼ãĥīãĥ¬ãĥĵãĥ¥"
      ],
      [
        "æ¤ľç´",
        "¢ãĤĴå®Łçı¾ãģĹãģ¾ãģĻ"
      ],
      [
        "æ©Łæ¢°",
        "åŃ¦ç¿Ĵãĥ¢ãĥĩãĥ«ãģ®è©ķ"
      ],
      [
        "ĩªåĭķ",
        "çļĦãģ«æ¤ľ"
      ],
      [
        "ķ¥åĮ",
        "ĸãģķãĤĮãģ¾ãģĻ"
      ],
      [
        "ãģķãģĽ",
        "ãģ¾ãģĻ"
      ],
      [
        "ãĥŀãĤ¤ãĤ¯",
        "ãĥŃãĤµãĥ¼ãĥĵãĤ¹ãĤ¢ãĥ¼ãĤŃãĥĨãĤ¯ãĥģãĥ£ãģ§ãģ¯åĲ"
      ],
      [
        "ãĤĦãĤ»ãĥŀ",
        "ãĥķãĤ©ãĤĴä½¿ãģ£ãģ¦"
      ],
      [
        "ãĥ¼ãĤĴä¾Ŀéł",
        "¼ãģĹãģ¦ãģıãģłãģķ"
      ],
      [
        "ĠFlowãģĮãĤĪãģıä½¿ãĤıãĤ",
        "Įãģ¾ãģĻ"
      ],
      [
        "ãĥĨãĤ¹ãĥĪé§Ĩ",
        "åĭķéĸĭçĻºãģ§ãģ¯æľ"
      ],
      [
        "ãĥĨãĤ¹ãĥĪãĤĴæĽ",
        "¸ãģĦãģ¦ãģĭãĤ"
      ],
      [
        "è¦ıæ¨¡ãģª",
        "ãĥĩãĥ¼ãĤ¿ãĤ»ãĥĥãĥĪãģ¨é«ĺæĢ§èĥ½ãģªGPUãģĮå¿ħ"
      ],
      [
        "GitHubãģ§ãĥĹ",
        "ãĥ«ãĥªãĤ¯ãĤ¨ãĤ¹ãĥĪãĤĴä½ľ"
      ],
      [
        "éĸ¢æķ°åŀĭ",
        "ãĥĹãĥŃãĤ°ãĥ©ãĥŁãĥ³ãĤ°ãģ¯åī"
      ],
      [
        "ãĤ¨ãĥ©ãĥ¼ãĥıãĥ³ãĥ",
        "īãĥªãĥ³ãĤ°ãģ«ãģ¯"
      ],
      [
        "åĪĨæķ£ãĤ·ãĤ¹ãĥĨãĥł",
        "ãģ§ãģ¯CAPå®ļçĲĨ"
      ],
      [
        "éĸĭçĻºçĴ",
        "°å¢ĥãģ®æ§ĭç¯ī"
      ],
      [
        "ãģıä½¿ãĤıãĤĮãģ¦",
        "ãģĦãģ¾ãģĻ"
      ],
      [
        "¢ãĥ¼ãĤŃãĥĨãĤ¯ãĥģãĥ£ãģ¯èĩªå",
        "·±æ³¨æĦıæ©Łæ§ĭãĤĴçĶ¨"
      ],
      [
        "CDãĥĳãĤ¤",
        "ãĥĹãĥ©ãĤ¤ãĥ³ãĤĴæ§ĭç¯īãģĻãĤĭãģĵãģ¨ãģ§ãĤ³ãĥ¼ãĥīãģ®åĵģè³ªãĤĴè"
      ],
      [
        "DockerãĤĴä½¿çĶ¨ãģĻãĤĭãģĵãģ¨ãģ§",
        "éĸĭçĻºçĴ°å¢ĥãģ®æ§ĭç¯ī"
      ],
      [
        "Kubernet",
        "esãģ¯ãĤ³ãĥ³ãĥĨãĥĬãĤªãĥ¼ãĤ±ãĤ¹ãĥĪ"
      ],
      [
        "Python",
        "ãģ®éĿŀåĲĮæľŁåĩ¦çĲĨ"
      ],
      [
        "Reactãģ¯ãĤ³ãĥ³ãĥĿãĥ¼ãĥ",
        "įãĥ³ãĥĪãĥĻãĥ¼ãĤ¹ãģ®"
      ],
      [
        "Rustãģ®æī",
        "Ģæľīæ¨"
      ],
      [
        "treeæ§ĭéĢ",
        "łãĤĴçĶ¨ãģĦãģ¦é«ĺéĢŁãģª"
      ],
      [
        "©ãĤ·ãĤ¹ãĥĨãĥłãģ¯ãĥ¡ãĥ¢",
        "ãĥªå®īåħ¨æĢ§ãĤĴãĤ³"
      ],
      [
        "¬ç«ĭãģĹãģ¦ãĥĩãĥĹãĥŃ",
        "ãĤ¤åı¯èĥ½ãģ§ãģĻ"
      ],
      [
        "¬ä»»ãģ®å",
        "İŁåīĩãģ«"
      ],
      [
        "¯ä½ľçĶ¨ãģ®ãģª",
        "ãģĦç´Ķç²ĭéĸ¢æķ°ãĤĴçµĦ"
      ],
      [
        "åĢ¤ãģ®ãĥĲãĥªãĥĩãĥ¼ãĤ",
        "·ãĥ§ãĥ³ãģ¨ãĤµãĥĭãĤ¿ãĤ¤ãĤºãģĮéĩįè¦ģãģ§ãģĻ"
      ],
      [
        "åįĺä¸Ģè²",
        "¬ä»»ãģ®åİŁåīĩãģ«"
      ],
      [
        "æİĴä»",
        "ĸåĪ¶å¾¡ãĤĴè¡ĮãģĦãģ¾ãģĻ"
      ],
      [
        "æıĽæĢ§ãģ®",
        "ç¶ŃæĮģãģĮéĩįè¦ģãģ§ãģĻ"
      ],
      [
        "æŃ£è¦ıè¡¨",
        "çı¾ãģ¯æĸĩåŃĹåĪĹ"
      ],
      [
        "æ·±å±¤åŃ¦ç¿Ĵãĥ¢ãĥĩãĥ«ãģ®åŃ¦ç¿Ĵãģ«ãģ¯å¤§",
        "è¦ıæ¨¡ãģªãĥĩãĥ¼ãĤ¿ãĤ»ãĥĥãĥĪãģ¨é«ĺæĢ§èĥ½ãģªGPUãģĮå¿ħ"
      ],
      [
        "ĢåĪĿãģ«",
        "ãĥĨãĤ¹ãĥĪãĤĴæĽ¸ãģĦãģ¦ãģĭãĤ"
      ],
      [
        "ĦãĤµãĥ¼ãĥĵãĤ¹ãģĮçĭ",
        "¬ç«ĭãģĹãģ¦ãĥĩãĥĹãĥŃãĤ¤åı¯èĥ½ãģ§ãģĻ"
      ],
      [
        "ĩåĲĳè¨Ńè¨Īãģ§ãģ¯",
        "åįĺä¸Ģè²¬ä»»ãģ®åİŁåīĩãģ«"
      ],
      [
        "Įæĸ¹äºĴ",
        "æıĽæĢ§ãģ®ç¶ŃæĮģãģĮéĩįè¦ģãģ§ãģĻ"
      ],
      [
        "ĳãĤĴè¿½åĬłãģĹãģ",
        "Łè¨Ģèªŀ"
      ],
      [
        "ĸãģ¨ãģĹãģ¦åħ¥åĬĽ",
        "åĢ¤ãģ®ãĥĲãĥªãĥĩãĥ¼ãĤ·ãĥ§ãĥ³ãģ¨ãĤµãĥĭãĤ¿ãĤ¤ãĤºãģĮéĩįè¦ģãģ§ãģĻ"
      ],
      [
        "ĻçļĦåŀĭä»ĺãģ",
        "ĳãĤĴè¿½åĬłãģĹãģŁè¨Ģèªŀ"
      ],
      [
        "ãģ¿åĲĪãĤıãģĽ",
        "ãģ¦ãĥĹãĥŃãĤ°ãĥ©ãĥłãĤĴæ§ĭç¯ī"
      ],
      [
        "ãĥĭãĥ³ãĤ°ãģ¨å¾",
        "Įæĸ¹äºĴæıĽæĢ§ãģ®ç¶ŃæĮģãģĮéĩįè¦ģãģ§ãģĻ"
      ],
      [
        "ãģ®ãĥĳãĤ¿ãĥ¼ãĥ³ãĥŀãĥĥ",
        "ãĥģãĥ³ãĤ°ãģ«ä½¿çĶ¨ãģķãĤĮãĤĭå¼·åĬĽãģªãĥĦãĥ¼ãĥ«"
      ],
      [
        "ãģ«åŁºãģ¥ãģĦãģ¦ä¸Ģè²«æĢ§",
        "ãģ¨åı¯çĶ¨æĢ§ãģ®"
      ],
      [
        "ãģ¨åĨįçı¾çİĩãģ®ãĥĲãĥ©ãĥ³ãĤ¹",
        "ãģĮéĩįè¦ģãģ§ãģĻ"
      ],
      [
        "ãģĦãģ¦ç³»åĪĹãĥĩãĥ¼ãĤ¿ãĤĴåĩ¦çĲĨ",
        "ãģĹãģ¾ãģĻ"
      ],
      [
        "ãĥĪãĥ¬ãĥ¼ãĥīãĤª",
        "ãĥķãĤĴèĢĥæħ®ãģĹãģ¾ãģĻ"
      ],
      [
        "ãĥĪãĥ©ãĥ³ãĤ¹ãĥķãĤ©ãĥ¼ãĥŀãĥ¼ãĤ",
        "¢ãĥ¼ãĤŃãĥĨãĤ¯ãĥģãĥ£ãģ¯èĩªå·±æ³¨æĦıæ©Łæ§ĭãĤĴçĶ¨"
      ],
      [
        "åĪĩãģ«ãĤ¨ãĥ©ãĥ¼ãĤĴæįķæį",
        "īãģĹãģ¾ãģĻ"
      ],
      [
        "ãģĮå¤§å¹ħãģ«ç°¡ç",
        "ķ¥åĮĸãģķãĤĮãģ¾ãģĻ"
      ],
      [
        "ãĥ³ãĥĳãĤ¤ãĥ«æĻ",
        "Ĥãģ«ä¿Ŀè¨¼ãģĹãģ¾ãģĻ"
      ],
      [
        "ãĥŃãĥ¼ãĥīãĥĲãĥ©ãĥ³",
        "ãĤµãĥ¼ãģ¯ãĥĪãĥ©ãĥķãĤ£ãĥĥãĤ¯ãĤĴè¤ĩ"
      ],
      [
        "ä¸¦è¡Įåĩ¦çĲĨãģ§ãģ¯ãĥŁãĥ¥ãĥ¼ãĥĨãĥĥãĤ¯ãĤ¹",
        "ãĤĦãĤ»ãĥŀãĥķãĤ©ãĤĴä½¿ãģ£ãģ¦"
      ],
      [
        "ä¾¡ãģ«ãģ¯éģ©åĲĪçİĩ",
        "ãģ¨åĨįçı¾çİĩãģ®ãĥĲãĥ©ãĥ³ãĤ¹ãģĮéĩįè¦ģãģ§ãģĻ"
      ],
      [
        "ä¾ĭå¤ĸåĩ¦çĲĨãĤĴçĶ¨ãģĦãģ¦éģ©",
        "åĪĩãģ«ãĤ¨ãĥ©ãĥ¼ãĤĴæįķæįīãģĹãģ¾ãģĻ"
      ],
      [
        "ãĥ¬ãĥ¼ãĤ·ãĥ§ãĥ³ãĥĦãĥ¼ãĥ«ãģ¨ãģĹãģ¦åºĥ",
        "ãģıä½¿ãĤıãĤĮãģ¦ãģĦãģ¾ãģĻ"
      ],
      [
        "ãĤªãĥĸãĤ¸ãĤ§ãĤ¯ãĥĪæĮ",
        "ĩåĲĳè¨Ńè¨Īãģ§ãģ¯åįĺä¸Ģè²¬ä»»ãģ®åİŁåīĩãģ«"
      ],
      [
        "ãĤ»ãĤŃãĥ¥ãĥªãĥĨãĤ£å¯¾çŃ",
        "ĸãģ¨ãģĹãģ¦åħ¥åĬĽåĢ¤ãģ®ãĥĲãĥªãĥĩãĥ¼ãĤ·ãĥ§ãĥ³ãģ¨ãĤµãĥĭãĤ¿ãĤ¤ãĤºãģĮéĩįè¦ģãģ§ãģĻ"
      ],
      [
        "æķ°ãģ®ãĤµãĥ¼ãĥĲãĥ¼ãģ«åĪĨæķ£",
        "ãģķãģĽãģ¾ãģĻ"
      ],
      [
        "TypeScriptãģ¯JavaScriptãģ«éĿ",
        "ĻçļĦåŀĭä»ĺãģĳãĤĴè¿½åĬłãģĹãģŁè¨Ģèªŀ"
      ],
      [
        "APIãģ®è¨Ńè¨Īãģ§ãģ¯ãĥĲãĥ¼ãĤ¸ãĥ§",
        "ãĥĭãĥ³ãĤ°ãģ¨å¾Įæĸ¹äºĴæıĽæĢ§ãģ®ç¶ŃæĮģãģĮéĩįè¦ģãģ§ãģĻ"
      ],
      [
        "æĪĲãģĹãģ¦ãĤ³ãĥ¼ãĥīãĥ¬ãĥĵãĥ¥",
        "ãĥ¼ãĤĴä¾Ŀéł¼ãģĹãģ¦ãģıãģłãģķ"
      ],
      [
        "æ©Łæ¢°åŃ¦ç¿Ĵãĥ¢ãĥĩãĥ«ãģ®è©ķ",
        "ä¾¡ãģ«ãģ¯éģ©åĲĪçİĩãģ¨åĨįçı¾çİĩãģ®ãĥĲãĥ©ãĥ³ãĤ¹ãģĮéĩįè¦ģãģ§ãģĻ"
      ],
      [
        "ĩªåĭķçļĦãģ«æ¤ľ",
        "è¨¼ãģ§ãģįãģ¾ãģĻ"
      ],
      [
        "ãĥŀãĤ¤ãĤ¯ãĥŃãĤµãĥ¼ãĥĵãĤ¹ãĤ¢ãĥ¼ãĤŃãĥĨãĤ¯ãĥģãĥ£ãģ§ãģ¯åĲ",
        "ĦãĤµãĥ¼ãĥĵãĤ¹ãģĮçĭ¬ç«ĭãģĹãģ¦ãĥĩãĥĹãĥŃãĤ¤åı¯èĥ½ãģ§ãģĻ"
      ],
      [
        "ãĥĨãĤ¹ãĥĪé§ĨåĭķéĸĭçĻºãģ§ãģ¯æľ",
        "ĢåĪĿãģ«ãĥĨãĤ¹ãĥĪãĤĴæĽ¸ãģĦãģ¦ãģĭãĤ"
      ],
      [
        "GitHubãģ§ãĥĹãĥ«ãĥªãĤ¯ãĤ¨ãĤ¹ãĥĪãĤĴä½ľ",
        "æĪĲãģĹãģ¦ãĤ³ãĥ¼ãĥīãĥ¬ãĥĵãĥ¥ãĥ¼ãĤĴä¾Ŀéł¼ãģĹãģ¦ãģıãģłãģķ"
      ],
      [
        "éĸ¢æķ°åŀĭãĥĹãĥŃãĤ°ãĥ©ãĥŁãĥ³ãĤ°ãģ¯åī",
        "¯ä½ľçĶ¨ãģ®ãģªãģĦç´Ķç²ĭéĸ¢æķ°ãĤĴçµĦ"
      ],
      [
        "ãĤ¨ãĥ©ãĥ¼ãĥıãĥ³ãĥīãĥªãĥ³ãĤ°ãģ«ãģ¯",
        "ä¾ĭå¤ĸåĩ¦çĲĨãĤĴçĶ¨ãģĦãģ¦éģ©åĪĩãģ«ãĤ¨ãĥ©ãĥ¼ãĤĴæįķæįīãģĹãģ¾ãģĻ"
      ],
      [
        "åĪĨæķ£ãĤ·ãĤ¹ãĥĨãĥłãģ§ãģ¯CAPå®ļçĲĨ",
        "ãģ«åŁºãģ¥ãģĦãģ¦ä¸Ģè²«æĢ§ãģ¨åı¯çĶ¨æĢ§ãģ®"
      ],
      [
        "CDãĥĳãĤ¤ãĥĹãĥ©ãĤ¤ãĥ³ãĤĴæ§ĭç¯īãģĻãĤĭãģĵãģ¨ãģ§ãĤ³ãĥ¼ãĥīãģ®åĵģè³ªãĤĴè",
        "ĩªåĭķçļĦãģ«æ¤ľè¨¼ãģ§ãģįãģ¾ãģĻ"
      ],
      [
        "DockerãĤĴä½¿çĶ¨ãģĻãĤĭãģĵãģ¨ãģ§éĸĭçĻºçĴ°å¢ĥãģ®æ§ĭç¯ī",
        "ãģĮå¤§å¹ħãģ«ç°¡çķ¥åĮĸãģķãĤĮãģ¾ãģĻ"
      ],
      [
        "Kubernetesãģ¯ãĤ³ãĥ³ãĥĨãĥĬãĤªãĥ¼ãĤ±ãĤ¹ãĥĪ",
        "ãĥ¬ãĥ¼ãĤ·ãĥ§ãĥ³ãĥĦãĥ¼ãĥ«ãģ¨ãģĹãģ¦åºĥãģıä½¿ãĤıãĤĮãģ¦ãģĦãģ¾ãģĻ"
      ],
      [
        "Pythonãģ®éĿŀåĲĮæľŁåĩ¦çĲĨ",
        "ãģ«ãģ¯asyncioãĥ©ãĤ¤ãĥĸãĥ©ãĥªãĤĴä½¿çĶ¨ãģĹãģ¾ãģĻ"
      ],
      [
        "Reactãģ¯ãĤ³ãĥ³ãĥĿãĥ¼ãĥįãĥ³ãĥĪãĥĻãĥ¼ãĤ¹ãģ®",
        "UIãĥ©ãĤ¤ãĥĸãĥ©ãĥªãģ§ãģĻ"
      ],
      [
        "Rustãģ®æīĢæľīæ¨",
        "©ãĤ·ãĤ¹ãĥĨãĥłãģ¯ãĥ¡ãĥ¢ãĥªå®īåħ¨æĢ§ãĤĴãĤ³"
      ],
      [
        "treeæ§ĭéĢłãĤĴçĶ¨ãģĦãģ¦é«ĺéĢŁãģª",
        "æ¤ľç´¢ãĤĴå®Łçı¾ãģĹãģ¾ãģĻ"
      ],
      [
        "æŃ£è¦ıè¡¨çı¾ãģ¯æĸĩåŃĹåĪĹ",
        "ãģ®ãĥĳãĤ¿ãĥ¼ãĥ³ãĥŀãĥĥãĥģãĥ³ãĤ°ãģ«ä½¿çĶ¨ãģķãĤĮãĤĭå¼·åĬĽãģªãĥĦãĥ¼ãĥ«"
      ],
      [
        "æ·±å±¤åŃ¦ç¿Ĵãĥ¢ãĥĩãĥ«ãģ®åŃ¦ç¿Ĵãģ«ãģ¯å¤§è¦ıæ¨¡ãģªãĥĩãĥ¼ãĤ¿ãĤ»ãĥĥãĥĪãģ¨é«ĺæĢ§èĥ½ãģªGPUãģĮå¿ħ",
        "è¦ģãģ§ãģĻ"
      ],
      [
        "ãģ¿åĲĪãĤıãģĽãģ¦ãĥĹãĥŃãĤ°ãĥ©ãĥłãĤĴæ§ĭç¯ī",
        "ãģĹãģ¾ãģĻ"
      ],
      [
        "ãĥĪãĥ©ãĥ³ãĤ¹ãĥķãĤ©ãĥ¼ãĥŀãĥ¼ãĤ¢ãĥ¼ãĤŃãĥĨãĤ¯ãĥģãĥ£ãģ¯èĩªå·±æ³¨æĦıæ©Łæ§ĭãĤĴçĶ¨",
        "ãģĦãģ¦ç³»åĪĹãĥĩãĥ¼ãĤ¿ãĤĴåĩ¦çĲĨãģĹãģ¾ãģĻ"
      ],
      [
        "ãĥŃãĥ¼ãĥīãĥĲãĥ©ãĥ³ãĤµãĥ¼ãģ¯ãĥĪãĥ©ãĥķãĤ£ãĥĥãĤ¯ãĤĴè¤ĩ",
        "æķ°ãģ®ãĤµãĥ¼ãĥĲãĥ¼ãģ«åĪĨæķ£ãģķãģĽãģ¾ãģĻ"
      ],
      [
        "ä¸¦è¡Įåĩ¦çĲĨãģ§ãģ¯ãĥŁãĥ¥ãĥ¼ãĥĨãĥĥãĤ¯ãĤ¹ãĤĦãĤ»ãĥŀãĥķãĤ©ãĤĴä½¿ãģ£ãģ¦",
        "æİĴä»ĸåĪ¶å¾¡ãĤĴè¡ĮãģĦãģ¾ãģĻ"
      ],
      [
        "ãĤªãĥĸãĤ¸ãĤ§ãĤ¯ãĥĪæĮĩåĲĳè¨Ńè¨Īãģ§ãģ¯åįĺä¸Ģè²¬ä»»ãģ®åİŁåīĩãģ«",
        "å¾ĵãģ£ãģ¦ãĤ¯ãĥ©ãĤ¹ãĤĴåĪĨåī²ãģĹãģ¾ãģĻ"
      ],
      [
        "TypeScriptãģ¯JavaScriptãģ«éĿĻçļĦåŀĭä»ĺãģĳãĤĴè¿½åĬłãģĹãģŁè¨Ģèªŀ",
        "ãģ§ãģĻ"
      ],
      [
        "ãĥĨãĤ¹ãĥĪé§ĨåĭķéĸĭçĻºãģ§ãģ¯æľĢåĪĿãģ«ãĥĨãĤ¹ãĥĪãĤĴæĽ¸ãģĦãģ¦ãģĭãĤ",
        "īå®Łè£ħãĤĴè¡ĮãģĦãģ¾ãģĻ"
      ],
      [
        "GitHubãģ§ãĥĹãĥ«ãĥªãĤ¯ãĤ¨ãĤ¹ãĥĪãĤĴä½ľæĪĲãģĹãģ¦ãĤ³ãĥ¼ãĥīãĥ¬ãĥĵãĥ¥ãĥ¼ãĤĴä¾Ŀéł¼ãģĹãģ¦ãģıãģłãģķ",
        "ãģĦ"
      ],
      [
        "éĸ¢æķ°åŀĭãĥĹãĥŃãĤ°ãĥ©ãĥŁãĥ³ãĤ°ãģ¯åī¯ä½ľçĶ¨ãģ®ãģªãģĦç´Ķç²ĭéĸ¢æķ°ãĤĴçµĦ",
        "ãģ¿åĲĪãĤıãģĽãģ¦ãĥĹãĥŃãĤ°ãĥ©ãĥłãĤĴæ§ĭç¯īãģĹãģ¾ãģĻ"
      ],
      [
        "åĪĨæķ£ãĤ·ãĤ¹ãĥĨãĥłãģ§ãģ¯CAPå®ļçĲĨãģ«åŁºãģ¥ãģĦãģ¦ä¸Ģè²«æĢ§ãģ¨åı¯çĶ¨æĢ§ãģ®",
        "ãĥĪãĥ¬ãĥ¼ãĥīãĤªãĥķãĤĴèĢĥæħ®ãģĹãģ¾ãģĻ"
      ],
      [
        "Rustãģ®æīĢæľīæ¨©ãĤ·ãĤ¹ãĥĨãĥłãģ¯ãĥ¡ãĥ¢ãĥªå®īåħ¨æĢ§ãĤĴãĤ³",
        "ãĥ³ãĥĳãĤ¤ãĥ«æĻĤãģ«ä¿Ŀè¨¼ãģĹãģ¾ãģĻ"
      ],
      [
        "æŃ£è¦ıè¡¨çı¾ãģ¯æĸĩåŃĹåĪĹãģ®ãĥĳãĤ¿ãĥ¼ãĥ³ãĥŀãĥĥãĥģãĥ³ãĤ°ãģ«ä½¿çĶ¨ãģķãĤĮãĤĭå¼·åĬĽãģªãĥĦãĥ¼ãĥ«",
        "ãģ§ãģĻ"
      ],
      [
        "0",
        "9"
      ],
      [
        "1",
        "2"
      ],
      [
        "1",
        "024"
      ],
      [
        "2",
        "8"
      ],
      [
        "2",
        "048"
      ],
      [
        "3",
        "8"
      ],
      [
        "5",
        "6"
      ],
      [
        "9",
        "5"
      ],
      [
        "b",
        "atch"
      ],
      [
        "c",
        "ab"
      ],
      [
        "d",
        "en"
      ],
      [
        "d",
        "im"
      ],
      [
        "l",
        "en"
      ],
      [
        "p",
        "osition"
      ],
      [
        "Ġ",
        "6"
      ],
      [
        "Ġ",
        "7"
      ],
      [
        "Ġ",
        "8"
      ],
      [
        "Ġ",
        "9"
      ],
      [
        "Ġ",
        "64"
      ],
      [
        "Ġ",
        "65536"
      ],
      [
        "Ġ",
        "8192"
      ],
      [
        "se",
        "q"
      ],
      [
        "ch",
        "s"
      ],
      [
        "id",
        "den"
      ],
      [
        "00",
        "001"
      ],
      [
        "Ġe",
        "po"
      ],
      [
        "vo",
        "cab"
      ],
      [
        "Ġ1",
        "0"
      ],
      [
        "Ġ1",
        "024"
      ],
      [
        "Ġ1",
        "28"
      ],
      [
        "Ġma",
        "x"
      ],
      [
        "Ġh",
        "idden"
      ],
      [
        "Ġ2",
        "048"
      ],
      [
        "Ġ2",
        "56"
      ],
      [
        "Ġ100",
        "0"
      ],
      [
        "Ġ100",
        "00"
      ],
      [
        "000",
        "1"
      ],
      [
        "layer",
        "s"
      ],
      [
        "Ġ16",
        "38"
      ],
      [
        "99",
        "9"
      ],
      [
        "Ġ4",
        "09"
      ],
      [
        "Ġ5",
        "12"
      ],
      [
        "Ġepo",
        "chs"
      ],
      [
        "Ġ1638",
        "4"
      ],
      [
        "Ġ409",
        "6"
      ]
    ]
  }
}