{
  "version": "1.0",
  "truncation": null,
  "padding": null,
  "added_tokens": [
    {
      "id": 0,
      "content": "<s>",
      "single_word": false,
      "lstrip": false,
      "rstrip": false,
      "normalized": false,
      "special": true
    },
    {
      "id": 1,
      "content": "</s>",
      "single_word": false,
      "lstrip": false,
      "rstrip": false,
      "normalized": false,
      "special": true
    },
    {
      "id": 2,
      "content": "<pad>",
      "single_word": false,
      "lstrip": false,
      "rstrip": false,
      "normalized": false,
      "special": true
    },
    {
      "id": 3,
      "content": "<unk>",
      "single_word": false,
      "lstrip": false,
      "rstrip": false,
      "normalized": false,
      "special": true
    },
    {
      "id": 4,
      "content": "<fim_prefix>",
      "single_word": false,
      "lstrip": false,
      "rstrip": false,
      "normalized": false,
      "special": true
    },
    {
      "id": 5,
      "content": "<fim_suffix>",
      "single_word": false,
      "lstrip": false,
      "rstrip": false,
      "normalized": false,
      "special": true
    },
    {
      "id": 6,
      "content": "<fim_middle>",
      "single_word": false,
      "lstrip": false,
      "rstrip": false,
      "normalized": false,
      "special": true
    },
    {
      "id": 7,
      "content": "<fim_hole>",
      "single_word": false,
      "lstrip": false,
      "rstrip": false,
      "normalized": false,
      "special": true
    },
    {
      "id": 8,
      "content": "<fim_pad>",
      "single_word": false,
      "lstrip": false,
      "rstrip": false,
      "normalized": false,
      "special": true
    },
    {
      "id": 9,
      "content": "<repo_name>",
      "single_word": false,
      "lstrip": false,
      "rstrip": false,
      "normalized": false,
      "special": true
    },
    {
      "id": 10,
      "content": "<file_sep>",
      "single_word": false,
      "lstrip": false,
      "rstrip": false,
      "normalized": false,
      "special": true
    },
    {
      "id": 11,
      "content": "<file_path>",
      "single_word": false,
      "lstrip": false,
      "rstrip": false,
      "normalized": false,
      "special": true
    },
    {
      "id": 12,
      "content": "<tool_call>",
      "single_word": false,
      "lstrip": false,
      "rstrip": false,
      "normalized": false,
      "special": true
    },
    {
      "id": 13,
      "content": "</tool_call>",
      "single_word": false,
      "lstrip": false,
      "rstrip": false,
      "normalized": false,
      "special": true
    },
    {
      "id": 14,
      "content": "<tool_response>",
      "single_word": false,
      "lstrip": false,
      "rstrip": false,
      "normalized": false,
      "special": true
    },
    {
      "id": 15,
      "content": "</tool_response>",
      "single_word": false,
      "lstrip": false,
      "rstrip": false,
      "normalized": false,
      "special": true
    },
    {
      "id": 16,
      "content": "<scratchpad>",
      "single_word": false,
      "lstrip": false,
      "rstrip": false,
      "normalized": false,
      "special": true
    },
    {
      "id": 17,
      "content": "</scratchpad>",
      "single_word": false,
      "lstrip": false,
      "rstrip": false,
      "normalized": false,
      "special": true
    },
    {
      "id": 18,
      "content": "<|system|>",
      "single_word": false,
      "lstrip": false,
      "rstrip": false,
      "normalized": false,
      "special": true
    },
    {
      "id": 19,
      "content": "<|user|>",
      "single_word": false,
      "lstrip": false,
      "rstrip": false,
      "normalized": false,
      "special": true
    },
    {
      "id": 20,
      "content": "<|assistant|>",
      "single_word": false,
      "lstrip": false,
      "rstrip": false,
      "normalized": false,
      "special": true
    }
  ],
  "normalizer": {
    "type": "NFKC"
  },
  "pre_tokenizer": {
    "type": "ByteLevel",
    "add_prefix_space": false,
    "trim_offsets": true,
    "use_regex": true
  },
  "post_processor": {
    "type": "TemplateProcessing",
    "single": [
      {
        "SpecialToken": {
          "id": "<s>",
          "type_id": 0
        }
      },
      {
        "Sequence": {
          "id": "A",
          "type_id": 0
        }
      },
      {
        "SpecialToken": {
          "id": "</s>",
          "type_id": 0
        }
      }
    ],
    "pair": [
      {
        "SpecialToken": {
          "id": "<s>",
          "type_id": 0
        }
      },
      {
        "Sequence": {
          "id": "A",
          "type_id": 0
        }
      },
      {
        "SpecialToken": {
          "id": "</s>",
          "type_id": 0
        }
      },
      {
        "SpecialToken": {
          "id": "<s>",
          "type_id": 0
        }
      },
      {
        "Sequence": {
          "id": "B",
          "type_id": 0
        }
      },
      {
        "SpecialToken": {
          "id": "</s>",
          "type_id": 0
        }
      }
    ],
    "special_tokens": {
      "</s>": {
        "id": "</s>",
        "ids": [
          1
        ],
        "tokens": [
          "</s>"
        ]
      },
      "<s>": {
        "id": "<s>",
        "ids": [
          0
        ],
        "tokens": [
          "<s>"
        ]
      }
    }
  },
  "decoder": {
    "type": "ByteLevel",
    "add_prefix_space": true,
    "trim_offsets": true,
    "use_regex": true
  },
  "model": {
    "type": "BPE",
    "dropout": null,
    "unk_token": null,
    "continuing_subword_prefix": null,
    "end_of_word_suffix": null,
    "fuse_unk": false,
    "byte_fallback": false,
    "ignore_merges": false,
    "vocab": {
      "<s>": 0,
      "</s>": 1,
      "<pad>": 2,
      "<unk>": 3,
      "<fim_prefix>": 4,
      "<fim_suffix>": 5,
      "<fim_middle>": 6,
      "<fim_hole>": 7,
      "<fim_pad>": 8,
      "<repo_name>": 9,
      "<file_sep>": 10,
      "<file_path>": 11,
      "<tool_call>": 12,
      "</tool_call>": 13,
      "<tool_response>": 14,
      "</tool_response>": 15,
      "<scratchpad>": 16,
      "</scratchpad>": 17,
      "<|system|>": 18,
      "<|user|>": 19,
      "<|assistant|>": 20,
      "!": 21,
      "\"": 22,
      "#": 23,
      "$": 24,
      "%": 25,
      "&": 26,
      "'": 27,
      "(": 28,
      ")": 29,
      "*": 30,
      "+": 31,
      ",": 32,
      "-": 33,
      ".": 34,
      "/": 35,
      "0": 36,
      "1": 37,
      "2": 38,
      "3": 39,
      "4": 40,
      "5": 41,
      "6": 42,
      "7": 43,
      "8": 44,
      "9": 45,
      ":": 46,
      ";": 47,
      "<": 48,
      "=": 49,
      ">": 50,
      "?": 51,
      "@": 52,
      "A": 53,
      "B": 54,
      "C": 55,
      "D": 56,
      "E": 57,
      "F": 58,
      "G": 59,
      "H": 60,
      "I": 61,
      "J": 62,
      "K": 63,
      "L": 64,
      "M": 65,
      "N": 66,
      "O": 67,
      "P": 68,
      "Q": 69,
      "R": 70,
      "S": 71,
      "T": 72,
      "U": 73,
      "V": 74,
      "W": 75,
      "X": 76,
      "Y": 77,
      "Z": 78,
      "[": 79,
      "\\": 80,
      "]": 81,
      "^": 82,
      "_": 83,
      "`": 84,
      "a": 85,
      "b": 86,
      "c": 87,
      "d": 88,
      "e": 89,
      "f": 90,
      "g": 91,
      "h": 92,
      "i": 93,
      "j": 94,
      "k": 95,
      "l": 96,
      "m": 97,
      "n": 98,
      "o": 99,
      "p": 100,
      "q": 101,
      "r": 102,
      "s": 103,
      "t": 104,
      "u": 105,
      "v": 106,
      "w": 107,
      "x": 108,
      "y": 109,
      "z": 110,
      "{": 111,
      "|": 112,
      "}": 113,
      "~": 114,
      "¡": 115,
      "¢": 116,
      "£": 117,
      "¤": 118,
      "¥": 119,
      "¦": 120,
      "§": 121,
      "¨": 122,
      "©": 123,
      "ª": 124,
      "«": 125,
      "¬": 126,
      "®": 127,
      "¯": 128,
      "°": 129,
      "±": 130,
      "²": 131,
      "³": 132,
      "´": 133,
      "µ": 134,
      "¶": 135,
      "·": 136,
      "¸": 137,
      "¹": 138,
      "º": 139,
      "»": 140,
      "¼": 141,
      "½": 142,
      "¾": 143,
      "¿": 144,
      "À": 145,
      "Á": 146,
      "Â": 147,
      "Ã": 148,
      "Ä": 149,
      "Å": 150,
      "Æ": 151,
      "Ç": 152,
      "È": 153,
      "É": 154,
      "Ê": 155,
      "Ë": 156,
      "Ì": 157,
      "Í": 158,
      "Î": 159,
      "Ï": 160,
      "Ð": 161,
      "Ñ": 162,
      "Ò": 163,
      "Ó": 164,
      "Ô": 165,
      "Õ": 166,
      "Ö": 167,
      "×": 168,
      "Ø": 169,
      "Ù": 170,
      "Ú": 171,
      "Û": 172,
      "Ü": 173,
      "Ý": 174,
      "Þ": 175,
      "ß": 176,
      "à": 177,
      "á": 178,
      "â": 179,
      "ã": 180,
      "ä": 181,
      "å": 182,
      "æ": 183,
      "ç": 184,
      "è": 185,
      "é": 186,
      "ê": 187,
      "ë": 188,
      "ì": 189,
      "í": 190,
      "î": 191,
      "ï": 192,
      "ð": 193,
      "ñ": 194,
      "ò": 195,
      "ó": 196,
      "ô": 197,
      "õ": 198,
      "ö": 199,
      "÷": 200,
      "ø": 201,
      "ù": 202,
      "ú": 203,
      "û": 204,
      "ü": 205,
      "ý": 206,
      "þ": 207,
      "ÿ": 208,
      "Ā": 209,
      "ā": 210,
      "Ă": 211,
      "ă": 212,
      "Ą": 213,
      "ą": 214,
      "Ć": 215,
      "ć": 216,
      "Ĉ": 217,
      "ĉ": 218,
      "Ċ": 219,
      "ċ": 220,
      "Č": 221,
      "č": 222,
      "Ď": 223,
      "ď": 224,
      "Đ": 225,
      "đ": 226,
      "Ē": 227,
      "ē": 228,
      "Ĕ": 229,
      "ĕ": 230,
      "Ė": 231,
      "ė": 232,
      "Ę": 233,
      "ę": 234,
      "Ě": 235,
      "ě": 236,
      "Ĝ": 237,
      "ĝ": 238,
      "Ğ": 239,
      "ğ": 240,
      "Ġ": 241,
      "ġ": 242,
      "Ģ": 243,
      "ģ": 244,
      "Ĥ": 245,
      "ĥ": 246,
      "Ħ": 247,
      "ħ": 248,
      "Ĩ": 249,
      "ĩ": 250,
      "Ī": 251,
      "ī": 252,
      "Ĭ": 253,
      "ĭ": 254,
      "Į": 255,
      "į": 256,
      "İ": 257,
      "ı": 258,
      "Ĳ": 259,
      "ĳ": 260,
      "Ĵ": 261,
      "ĵ": 262,
      "Ķ": 263,
      "ķ": 264,
      "ĸ": 265,
      "Ĺ": 266,
      "ĺ": 267,
      "Ļ": 268,
      "ļ": 269,
      "Ľ": 270,
      "ľ": 271,
      "Ŀ": 272,
      "ŀ": 273,
      "Ł": 274,
      "ł": 275,
      "Ń": 276,
      "ãģ": 277,
      "ãĥ": 278,
      "on": 279,
      "en": 280,
      "in": 281,
      "er": 282,
      "ãĤ": 283,
      "ion": 284,
      "le": 285,
      "or": 286,
      "at": 287,
      "Ġs": 288,
      "Ġb": 289,
      "it": 290,
      "he": 291,
      "Ġv": 292,
      "ation": 293,
      "re": 294,
      "mp": 295,
      "Ġc": 296,
      "ent": 297,
      "Ġi": 298,
      "ed": 299,
      "Ġin": 300,
      "al": 301,
      "te": 302,
      "Ġt": 303,
      "an": 304,
      "Ġf": 305,
      "ab": 306,
      "ãĥ¼": 307,
      "il": 308,
      "as": 309,
      "ro": 310,
      "Ġh": 311,
      "ment": 312,
      "Ġm": 313,
      "ar": 314,
      "ith": 315,
      "sion": 316,
      "The": 317,
      "ic": 318,
      "Ġw": 319,
      "Ġre": 320,
      "ãĥ³": 321,
      "Ġbe": 322,
      "Ġwith": 323,
      "ing": 324,
      "ste": 325,
      "ãģ®": 326,
      "per": 327,
      "iz": 328,
      "Ġimp": 329,
      "Ġfor": 330,
      "Ġhas": 331,
      "ersion": 332,
      "Ġversion": 333,
      "Ġbeen": 334,
      "ãĥ¼ãĤ": 335,
      "Ġsy": 336,
      "Ġbu": 337,
      "ãĢ": 338,
      "ãĢĤ": 339,
      "ãģ«": 340,
      "mentation": 341,
      "stem": 342,
      "Ġsystem": 343,
      "Ħãģ": 344,
      "Ġp": 345,
      "Ĺãģ": 346,
      "Ġis": 347,
      "ct": 348,
      "ķãĤ": 349,
      "¾ãģ": 350,
      "Ġco": 351,
      "Ġcomp": 352,
      "Ġe": 353,
      "ding": 354,
      "Pro": 355,
      "lementation": 356,
      "ilding": 357,
      "Ġimplementation": 358,
      "Ġbuilding": 359,
      "Ġsystems": 360,
      "Proper": 361,
      "able": 362,
      "Įãģ": 363,
      "ãģ«ãģ": 364,
      "de": 365,
      "§ãĥ³": 366,
      "ãĥ§ãĥ³": 367,
      "Ġto": 368,
      "ãģĦãģ": 369,
      "Ġo": 370,
      "Ġcon": 371,
      "od": 372,
      "ãĥĲ": 373,
      "ĠĠ": 374,
      "ule": 375,
      "Ġthe": 376,
      "ãģĮ": 377,
      "Įãģ¾ãģ": 378,
      "enc": 379,
      "ut": 380,
      "and": 381,
      "ãģĦãģ¦": 382,
      "li": 383,
      "Ġn": 384,
      "int": 385,
      "ĹãģŁ": 386,
      "ce": 387,
      "ãģķãĤ": 388,
      "odule": 389,
      "ad": 390,
      "¸ãĥ§ãĥ³": 391,
      "ĬãģĦãģ¦": 392,
      "ãĥ¼ãĤ¸ãĥ§ãĥ³": 393,
      "ãģ«ãģĬãģĦãģ¦": 394,
      "ãĥĲãĥ¼ãĤ¸ãĥ§ãĥ³": 395,
      "Įãģ¾ãģĹãģŁ": 396,
      "Ġ1": 397,
      "st": 398,
      "ãģķãĤĮãģ¾ãģĹãģŁ": 399,
      "Ġvar": 400,
      "Ġde": 401,
      "fic": 402,
      "ore": 403,
      "id": 404,
      "ul": 405,
      "end": 406,
      "ization": 407,
      "ur": 408,
      "ãĥ¼ãĥ": 409,
      "ity": 410,
      "abil": 411,
      "ability": 412,
      "put": 413,
      "Ġne": 414,
      "ly": 415,
      "ial": 416,
      "ute": 417,
      "Ġcompute": 418,
      "Ġmodule": 419,
      "Ġse": 420,
      "ter": 421,
      "ap": 422,
      "ort": 423,
      "åĮ": 424,
      "åĮĸ": 425,
      "am": 426,
      "ve": 427,
      "ency": 428,
      "fi": 429,
      "Ġef": 430,
      "po": 431,
      "Ġ=": 432,
      "ure": 433,
      "ãĥª": 434,
      "ch": 435,
      "ĠĠĠ": 436,
      "lo": 437,
      "ue": 438,
      "input": 439,
      "Ġhand": 440,
      "Ġof": 441,
      "Ġa": 442,
      "ãĤ¤": 443,
      "ized": 444,
      "ant": 445,
      "pt": 446,
      "We": 447,
      "Ġmore": 448,
      "Ġneed": 449,
      "Ġhandle": 450,
      "ou": 451,
      "Ġval": 452,
      "Ġu": 453,
      "gr": 454,
      "Ġsc": 455,
      "ain": 456,
      "ction": 457,
      "ge": 458,
      "vic": 459,
      "ervic": 460,
      "ervice": 461,
      "co": 462,
      "endpo": 463,
      "endpoint": 464,
      "ect": 465,
      "ame": 466,
      "onent": 467,
      "Ġcomponent": 468,
      "Ġreli": 469,
      "sm": 470,
      "Ġdep": 471,
      "åĲ": 472,
      "Ġcons": 473,
      "åĮĸãģķãĤĮãģ¾ãģĹãģŁ": 474,
      "age": 475,
      "20": 476,
      "ãģĮæ": 477,
      "un": 478,
      "ful": 479,
      "ãĥĨ": 480,
      "ãĤ¹": 481,
      "ãĤ·": 482,
      "10": 483,
      "qu": 484,
      "16": 485,
      "ble": 486,
      "15": 487,
      "Ġca": 488,
      "ss": 489,
      "Ġcr": 490,
      "el": 491,
      "fa": 492,
      "Ġex": 493,
      "Ġy": 494,
      "ible": 495,
      "Ġfun": 496,
      "ug": 497,
      "Ġinte": 498,
      "Ġintegr": 499,
      "ãĥĥ": 500,
      "åĲĪ": 501,
      "18": 502,
      "19": 503,
      "Ġinter": 504,
      "14": 505,
      "13": 506,
      "17": 507,
      "æĢ": 508,
      "æĢ§": 509,
      "ãĥĪ": 510,
      "Ġpo": 511,
      "ãĥ©": 512,
      "gn": 513,
      "ign": 514,
      "Ġscal": 515,
      "aint": 516,
      "Ġmaint": 517,
      "Ġmaintain": 518,
      "12": 519,
      "ific": 520,
      "Ġext": 521,
      "Ġus": 522,
      "ary": 523,
      "ase": 524,
      "ãģĮå": 525,
      "Ġd": 526,
      "tp": 527,
      "ttp": 528,
      "http": 529,
      "api": 530,
      "//": 531,
      "://": 532,
      "module": 533,
      "rc": 534,
      "service": 535,
      "src": 536,
      "file": 537,
      "com": 538,
      "https": 539,
      "str": 540,
      "Ha": 541,
      "ered": 542,
      "Ġinste": 543,
      "idered": 544,
      "Ġconsidered": 545,
      "Ġyou": 546,
      "Ġusing": 547,
      "Have": 548,
      "Ġinstead": 549,
      "Ġst": 550,
      "Ġenc": 551,
      "nch": 552,
      "ron": 553,
      "nchron": 554,
      "fect": 555,
      "ive": 556,
      "Ġeffect": 557,
      "Ġeffective": 558,
      "Ġpro": 559,
      "cur": 560,
      "ient": 561,
      "ficient": 562,
      "Ġefficient": 563,
      "uth": 564,
      "Ġauth": 565,
      "Ġpar": 566,
      "cure": 567,
      "Ġsecure": 568,
      "action": 569,
      "ance": 570,
      "ver": 571,
      "ism": 572,
      "yment": 573,
      "loyment": 574,
      "Ġdeployment": 575,
      "ãģĻ": 576,
      "łãģ®": 577,
      "im": 578,
      "Ġbuf": 579,
      "ern": 580,
      "Ġover": 581,
      "¯æ": 582,
      "±åĲĪ": 583,
      "µ±åĲĪ": 584,
      "çµ±åĲĪ": 585,
      "ãĥ«": 586,
      "Ġopt": 587,
      "Ġoptim": 588,
      "25": 589,
      "ãģª": 590,
      "24": 591,
      "23": 592,
      "ªį": 593,
      "èªį": 594,
      "åı": 595,
      "ãĥĨãĥ": 596,
      "ated": 597,
      "ãĥĹ": 598,
      "wa": 599,
      "ãĤ¢": 600,
      "Ġand": 601,
      "Ĩį": 602,
      "qui": 603,
      "Ġas": 604,
      "se": 605,
      "26": 606,
      "æ§": 607,
      "éģ": 608,
      "éģ©": 609,
      "ãĤī": 610,
      "è¨": 611,
      "ãģ§": 612,
      "for": 613,
      "res": 614,
      "reful": 615,
      "anage": 616,
      "Ġmanage": 617,
      "Ġrequi": 618,
      "Ġcareful": 619,
      "Ġintegration": 620,
      "Ġmanagement": 621,
      "Ġrequires": 622,
      "Ġcont": 623,
      "¡ç": 624,
      "ĲĨ": 625,
      "pe": 626,
      "Ġimport": 627,
      "30": 628,
      "å®": 629,
      "ä¸": 630,
      "hro": 631,
      "45": 632,
      "ãģ®ãĥ": 633,
      "ot": 634,
      "ãģĹãģ": 635,
      "ry": 636,
      "èŃ": 637,
      "èŃ°": 638,
      "64": 639,
      "load": 640,
      "ran": 641,
      "28": 642,
      "29": 643,
      "imp": 644,
      "27": 645,
      "ãģ«ãģĬãģĦãģ¦ãĥ": 646,
      "ãģ®ãĤ": 647,
      "ãģĮåĨį": 648,
      "ãĥ³ãĥ": 649,
      "alue": 650,
      "uct": 651,
      "cess": 652,
      "ugh": 653,
      "hrough": 654,
      "efic": 655,
      "enefic": 656,
      "Ġbenefic": 657,
      "Ġbeneficial": 658,
      "Ġasy": 659,
      "wer": 660,
      "Ġpower": 661,
      "Ġpowerful": 662,
      "fer": 663,
      "value": 664,
      "ãģ«ãģĬãģĦãģ¦ãĤ": 665,
      "ize": 666,
      "ex": 667,
      "port": 668,
      "38": 669,
      "sible": 670,
      "ensible": 671,
      "Ġextensible": 672,
      "¯ī": 673,
      "ç¯ī": 674,
      "ĭç¯ī": 675,
      "æ§ĭç¯ī": 676,
      "sp": 677,
      "37": 678,
      "39": 679,
      "uable": 680,
      "Ġvaluable": 681,
      "35": 682,
      "face": 683,
      "itic": 684,
      "Ġcritic": 685,
      "Ġcritical": 686,
      "Ġscalable": 687,
      "oper": 688,
      "Ġinteroper": 689,
      "Ġinteroperable": 690,
      "sul": 691,
      "Ġvalue": 692,
      "Ġmaintainable": 693,
      "cial": 694,
      "ucial": 695,
      "Ġcrucial": 696,
      "ital": 697,
      "Ġvital": 698,
      "da": 699,
      "Ġport": 700,
      "Ġportable": 701,
      "mental": 702,
      "Ġfunda": 703,
      "Ġfundamental": 704,
      "Ġreliable": 705,
      "Ġsign": 706,
      "ificant": 707,
      "Ġsignificant": 708,
      "bu": 709,
      "her": 710,
      "Ġro": 711,
      "bust": 712,
      "Ġrobust": 713,
      "¢º": 714,
      "ç¢º": 715,
      "ãĤĴ": 716,
      "ç¢ºèªį": 717,
      "Ġconst": 718,
      "xible": 719,
      "lexible": 720,
      "Ġflexible": 721,
      "Ġimportant": 722,
      "vant": 723,
      "Ġad": 724,
      "ous": 725,
      "ageous": 726,
      "vantageous": 727,
      "Ġadvantageous": 728,
      "36": 729,
      "34": 730,
      "Ġnecess": 731,
      "Ġnecessary": 732,
      "export": 733,
      "ãĥ¼ãĤ¹": 734,
      "åĪ": 735,
      "11": 736,
      "Ġat": 737,
      "fig": 738,
      "ãĤ¹ãĥĨãĥ": 739,
      "Łè": 740,
      "ential": 741,
      "Ġess": 742,
      "Ġessential": 743,
      "map": 744,
      "bug": 745,
      "Ġit": 746,
      "è¿": 747,
      "ãĤ·ãĤ¹ãĥĨãĥ": 748,
      "Ġinterface": 749,
      "form": 750,
      "ĠV": 751,
      "th": 752,
      "Ġfunction": 753,
      "40": 754,
      "struct": 755,
      "ption": 756,
      "48": 757,
      "aml": 758,
      "47": 759,
      "nchrony": 760,
      "Ġasynchrony": 761,
      "Ġl": 762,
      "49": 763,
      "--": 764,
      "AR": 765,
      "ĠVAR": 766,
      "ace": 767,
      "gor": 768,
      "Ġal": 769,
      "ithm": 770,
      "gorithm": 771,
      "Ġalgorithm": 772,
      "Ġname": 773,
      "space": 774,
      "Ġnamespace": 775,
      "Ġencry": 776,
      "Ġencryption": 777,
      "Ġthrough": 778,
      "Ġthroughput": 779,
      "®¡ç": 780,
      "±Ĥ": 781,
      "éĩ": 782,
      "ģãĤī": 783,
      "ħİ": 784,
      "įãģª": 785,
      "ãģ¨": 786,
      "ãĤĮãģ¾ãģ": 787,
      "ãĤģãĤī": 788,
      "ãģ«ãģ¯æ": 789,
      "ãģĮæ±Ĥ": 790,
      "çµ±åĲĪãģ«ãģ¯æ": 791,
      "ĲĨãģĮæ±Ĥ": 792,
      "®¡çĲĨãģĮæ±Ĥ": 793,
      "éĩįãģª": 794,
      "ħİéĩįãģª": 795,
      "ãĤĮãģ¾ãģĻ": 796,
      "ãĤģãĤīãĤĮãģ¾ãģĻ": 797,
      "çµ±åĲĪãģ«ãģ¯æħİéĩįãģª": 798,
      "®¡çĲĨãģĮæ±ĤãĤģãĤīãĤĮãģ¾ãģĻ": 799,
      "rency": 800,
      "Ġconcur": 801,
      "Ġconcurrency": 802,
      "ä»": 803,
      "mpot": 804,
      "Ġide": 805,
      "mpotency": 806,
      "Ġidempotency": 807,
      "ew": 808,
      "che": 809,
      "sign": 810,
      "signed": 811,
      "60": 812,
      "erial": 813,
      "Ġserial": 814,
      "Ġserialization": 815,
      "32": 816,
      "ç®¡çĲĨãģĮæ±ĤãĤģãĤīãĤĮãģ¾ãģĻ": 817,
      "ainer": 818,
      "Ġcache": 819,
      "Ġcontainer": 820,
      "tu": 821,
      "67": 822,
      "dle": 823,
      "kern": 824,
      "Ġkern": 825,
      "orization": 826,
      "Ġmid": 827,
      "Ġauthorization": 828,
      "ware": 829,
      "dleware": 830,
      "Ġkernel": 831,
      "Ġmiddleware": 832,
      "saction": 833,
      "Ġtran": 834,
      "Ġtransaction": 835,
      "65": 836,
      "endency": 837,
      "Ġdependency": 838,
      "ine": 839,
      "Ġload": 840,
      "Ġdat": 841,
      "head": 842,
      "Ġoverhead": 843,
      "apsul": 844,
      "Ġencapsul": 845,
      "Ġencapsulation": 846,
      "Ġbuffer": 847,
      "Ġli": 848,
      "ameter": 849,
      "Ġparameter": 850,
      "ner": 851,
      "Ġvul": 852,
      "nerability": 853,
      "Ġvulnerability": 854,
      "ir": 855,
      "Ġvir": 856,
      "alization": 857,
      "tualization": 858,
      "Ġvirtualization": 859,
      "leli": 860,
      "alleli": 861,
      "Ġparalleli": 862,
      "Ġparallelism": 863,
      "Ġconfig": 864,
      "uration": 865,
      "Ġconfiguration": 866,
      "68": 867,
      "Ġservice": 868,
      "abase": 869,
      "Ġdatabase": 870,
      "69": 871,
      "éĸ": 872,
      "tur": 873,
      "atency": 874,
      "Ġlatency": 875,
      "turn": 876,
      "Ġqu": 877,
      "ery": 878,
      "Ġquery": 879,
      "Ġar": 880,
      "ma": 881,
      "hema": 882,
      "Ġschema": 883,
      "entic": 884,
      "Ġauthentic": 885,
      "Ġauthentication": 886,
      "min": 887,
      "Ġdeter": 888,
      "minism": 889,
      "Ġdeterminism": 890,
      "itect": 891,
      "chitect": 892,
      "Ġarchitect": 893,
      "Ġarchitecture": 894,
      "ken": 895,
      "izer": 896,
      "Ġtoken": 897,
      "Ġtokenizer": 898,
      "Ġreliability": 899,
      "Ġrecur": 900,
      "Ġrecursion": 901,
      "Ġscalability": 902,
      "Ġsynchron": 903,
      "Ġsynchronization": 904,
      "wid": 905,
      "Ġband": 906,
      "width": 907,
      "Ġbandwidth": 908,
      "hore": 909,
      "itance": 910,
      "Ġinher": 911,
      "Ġsemap": 912,
      "Ġinheritance": 913,
      "Ġsemaphore": 914,
      "ssion": 915,
      "Ġsession": 916,
      "Ġoptimization": 917,
      "rame": 918,
      "wor": 919,
      "Ġframe": 920,
      "work": 921,
      "Ġframework": 922,
      "cific": 923,
      "Ġspe": 924,
      "cification": 925,
      "Ġspecification": 926,
      "sit": 927,
      "ory": 928,
      "Ġrepo": 929,
      "sitory": 930,
      "Ġrepository": 931,
      "Ġmaintainability": 932,
      "idation": 933,
      "Ġvalidation": 934,
      "to": 935,
      "Ġdebug": 936,
      "Ġper": 937,
      "formance": 938,
      "Ġperformance": 939,
      "br": 940,
      "Ġlibr": 941,
      "Ġlibrary": 942,
      "col": 943,
      "Ġproto": 944,
      "Ġprotocol": 945,
      "hm": 946,
      "Ġbenc": 947,
      "ark": 948,
      "hmark": 949,
      "Ġbenchmark": 950,
      "Ġab": 951,
      "straction": 952,
      "Ġabstraction": 953,
      "ip": 954,
      "iler": 955,
      "Ġcompiler": 956,
      "Ġpip": 957,
      "eline": 958,
      "Ġpipeline": 959,
      "ãģ®çµ±åĲĪãģ«ãģ¯æħİéĩįãģª": 960,
      "han": 961,
      "Ġiter": 962,
      "iable": 963,
      "Ġvariable": 964,
      "Ġiteration": 965,
      "ail": 966,
      "vail": 967,
      "Ġavail": 968,
      "Ġavailability": 969,
      "ist": 970,
      "Ġhe": 971,
      "urist": 972,
      "Ġheurist": 973,
      "Ġheuristic": 974,
      "hism": 975,
      "mor": 976,
      "phism": 977,
      "lymor": 978,
      "Ġpolymor": 979,
      "Ġpolymorphism": 980,
      "Ġen": 981,
      "Ġendpoint": 982,
      "ãĤ¤ãĥ³": 983,
      "Ġmod": 984,
      "Ple": 985,
      "cu": 986,
      "fore": 987,
      "iew": 988,
      "ocu": 989,
      "view": 990,
      "eding": 991,
      "Ġreview": 992,
      "Ġbefore": 993,
      "ãĥ¼ãĤ¯": 994,
      "ceeding": 995,
      "Ġdocu": 996,
      "Ġproceeding": 997,
      "Please": 998,
      "Ġdocumentation": 999,
      "ãĥķãĤ": 1000,
      "Ġextend": 1001,
      "ãĥªãĥ": 1002,
      "ãĥ¼ãĤ·": 1003,
      "ãĤ·ãĤ¹ãĥĨãĥłãģ®": 1004,
      "Ġsize": 1005,
      "ãĥ¼ãĤ·ãĥ§ãĥ³": 1006,
      "78": 1007,
      "70": 1008,
      "50": 1009,
      "59": 1010,
      "79": 1011,
      "¹å": 1012,
      "Ķ¹å": 1013,
      "ĸĦãģ": 1014,
      "Ķ¹åĸĦãģ": 1015,
      "æĸ": 1016,
      "æĸ°": 1017,
      "58": 1018,
      "dized": 1019,
      "ardized": 1020,
      "andardized": 1021,
      "Ġstandardized": 1022,
      "Ġx": 1023,
      "Ġsimp": 1024,
      "lifi": 1025,
      "Ġsimplifi": 1026,
      "Ġsimplified": 1027,
      "Ġrestruct": 1028,
      "ured": 1029,
      "Ġrestructured": 1030,
      "ored": 1031,
      "Ġrefa": 1032,
      "ctored": 1033,
      "Ġrefactored": 1034,
      "ced": 1035,
      "hanced": 1036,
      "Ġenhanced": 1037,
      "Ġ{": 1038,
      "pgr": 1039,
      "aded": 1040,
      "Ġupgr": 1041,
      "Ġupgraded": 1042,
      "´ł": 1043,
      "Ġefficiently": 1044,
      "Ġoptimized": 1045,
      "Ġeffectively": 1046,
      "Ġintegrated": 1047,
      "ernized": 1048,
      "Ġmodernized": 1049,
      "aule": 1050,
      "haule": 1051,
      "Ġoverhaule": 1052,
      "Ġoverhauled": 1053,
      "ined": 1054,
      "reaml": 1055,
      "Ġstreaml": 1056,
      "Ġstreamlined": 1057,
      "Ġrede": 1058,
      "Ġredesigned": 1059,
      "Ġextended": 1060,
      "gan": 1061,
      "organ": 1062,
      "Ġreorgan": 1063,
      "Ġreorganized": 1064,
      "dated": 1065,
      "oli": 1066,
      "Ġconsoli": 1067,
      "Ġconsolidated": 1068,
      "ãĥ¬": 1069,
      "ved": 1070,
      "roved": 1071,
      "Ġimproved": 1072,
      "Ġsecurely": 1073,
      "ãģĮçµ±åĲĪ": 1074,
      "ably": 1075,
      "Ġreliably": 1076,
      "88": 1077,
      "44": 1078,
      "22": 1079,
      "£ħ": 1080,
      "¬ł": 1081,
      "ĩãģª": 1082,
      "įåı": 1083,
      "ãģ«ä¸": 1084,
      "¯æ¬ł": 1085,
      "éģ©åĪ": 1086,
      "ãģ§ãģĻ": 1087,
      "å®Łè": 1088,
      "æ§ĭç¯īãģ«ä¸": 1089,
      "£ħãģ": 1090,
      "įåı¯æ¬ł": 1091,
      "éģ©åĪĩãģª": 1092,
      "å®Łè£ħãģ": 1093,
      "æ§ĭç¯īãģ«ä¸įåı¯æ¬ł": 1094,
      "æ§ĭç¯īãģ«ä¸įåı¯æ¬łãģ§ãģĻ": 1095,
      "90": 1096,
      "ãĤ·ãĤ¹ãĥĨãĥłãģ®æ§ĭç¯īãģ«ä¸įåı¯æ¬łãģ§ãģĻ": 1097,
      "77": 1098,
      "80": 1099,
      "55": 1100,
      "js": 1101,
      "ãģ®æ": 1102,
      "è¨Ń": 1103,
      "ãĥ¼ãĥī": 1104,
      "ãģ®å®Łè£ħãģ": 1105,
      "ãĥĹãĤ": 1106,
      "Ļæ": 1107,
      "ãĥŃ": 1108,
      "å¼": 1109,
      "99": 1110,
      "33": 1111,
      "rea": 1112,
      "Ģéģ©": 1113,
      "ľĢéģ©": 1114,
      "ãĤ¯": 1115,
      "reak": 1116,
      "ãģ®å®Łè£ħãģ¯": 1117,
      "inue": 1118,
      "¡ĺ": 1119,
      "¢ãģĻ": 1120,
      "¤ãģĦãģ¦": 1121,
      "«ĸ": 1122,
      "¼ļ": 1123,
      "½å": 1124,
      "ä¼ļ": 1125,
      "åħ": 1126,
      "æĹ": 1127,
      "è«ĸ": 1128,
      "é¡ĺ": 1129,
      "ĪæĹ": 1130,
      "Ĭłãģ®": 1131,
      "Ĭé¡ĺ": 1132,
      "ĭä¼ļ": 1133,
      "ãģĬé¡ĺ": 1134,
      "ãĤĭä¼ļ": 1135,
      "ãģ«éĸ": 1136,
      "Ĺãģ¾ãģ": 1137,
      "ãģ«ãģ¤ãģĦãģ¦": 1138,
      "ãģĦãģĹãģ¾ãģ": 1139,
      "ãģķãĤĮãģ": 1140,
      "ãģ§èŃ°": 1141,
      "èŃ°ãģ§èŃ°": 1142,
      "ãĤĴãģĬé¡ĺ": 1143,
      "ç¢ºèªįãĤĴãģĬé¡ĺ": 1144,
      "è¿½å": 1145,
      "¢ãģĻãĤĭä¼ļ": 1146,
      "åħĪæĹ": 1147,
      "è«ĸãģķãĤĮãģ": 1148,
      "Ĭłãģ®ç¢ºèªįãĤĴãģĬé¡ĺ": 1149,
      "ãģ«éĸ¢ãģĻãĤĭä¼ļ": 1150,
      "ãģ«ãģ¤ãģĦãģ¦è¿½å": 1151,
      "ãģĦãģĹãģ¾ãģĻ": 1152,
      "èŃ°ãģ§èŃ°è«ĸãģķãĤĮãģ": 1153,
      "åħĪæĹ¥": 1154,
      "Ĭłãģ®ç¢ºèªįãĤĴãģĬé¡ĺãģĦãģĹãģ¾ãģĻ": 1155,
      "ãģ«éĸ¢ãģĻãĤĭä¼ļèŃ°ãģ§èŃ°è«ĸãģķãĤĮãģ": 1156,
      "ãģ«ãģ¤ãģĦãģ¦è¿½åĬłãģ®ç¢ºèªįãĤĴãģĬé¡ĺãģĦãģĹãģ¾ãģĻ": 1157,
      "66": 1158,
      "75": 1159,
      "89": 1160,
      "ãģ«éĸ¢ãģĻãĤĭä¼ļèŃ°ãģ§èŃ°è«ĸãģķãĤĮãģŁ": 1161,
      "wait": 1162,
      "ile": 1163,
      "ãĤ¸": 1164,
      "å¸": 1165,
      "ãĥŀ": 1166,
      "con": 1167,
      "åı¯": 1168,
      "ãĥ¥": 1169,
      "³ãĥ³ãĥ": 1170,
      "46": 1171,
      "ãĥ¼ãĥķãĤ": 1172,
      "ãĥĹãĥŃ": 1173,
      "ãĥ¼ãĤ¿": 1174,
      "ä¿": 1175,
      "ãĥĥãĤ·": 1176,
      "ãĥ¼ãĥį": 1177,
      "ãĥķãĤ©": 1178,
      "ãĤ¹ãĤ": 1179,
      "ãĤ¤ãĤ": 1180,
      "ä¸¦": 1181,
      "uint": 1182,
      "ĳãĤ¤": 1183,
      "ãĥ£": 1184,
      "Ġ4": 1185,
      "Ġ6": 1186,
      "ãĥī": 1187,
      "Ġ9": 1188,
      "Ġ8": 1189,
      "Ġ10": 1190,
      "ãĥ«ãĤ": 1191,
      "ãĥ¼ãĥŀ": 1192,
      "Ġ5": 1193,
      "Ġ3": 1194,
      "ãĥĲãĥĥ": 1195,
      "Ġ12": 1196,
      "ºãĥ": 1197,
      "ãĤºãĥ": 1198,
      "Ġ2": 1199,
      "Ġ7": 1200,
      "rom": 1201,
      "98": 1202,
      "21": 1203,
      "57": 1204,
      "Ġ11": 1205,
      "43": 1206,
      "Ġreturn": 1207,
      "Ġ19": 1208,
      "json": 1209,
      "85": 1210,
      "Ġ14": 1211,
      "95": 1212,
      "87": 1213,
      "97": 1214,
      "Ġ20": 1215,
      "Ġ16": 1216,
      "31": 1217,
      "Ġ15": 1218,
      "Ġ18": 1219,
      "Ġ17": 1220,
      "Ġ13": 1221,
      "ass": 1222,
      "nc": 1223,
      "42": 1224,
      "lse": 1225,
      "Ġelse": 1226,
      "Ġawait": 1227,
      "ĠA": 1228,
      "hile": 1229,
      "uper": 1230,
      "63": 1231,
      "41": 1232,
      "ĠAM": 1233,
      "§ãģĻ": 1234,
      "´ãĤī": 1235,
      "æĻ": 1236,
      "ç´ł": 1237,
      "ĪãĤĴ": 1238,
      "Įç´ł": 1239,
      "İãĥ¼ãĥ": 1240,
      "ãģŃ": 1241,
      "ãĥİãĥ¼ãĥ": 1242,
      "Ħãģ§ãģĻ": 1243,
      "¾ãģĹãģŁ": 1244,
      "ãĥªãĥª": 1245,
      "ãģĹãģĦ": 1246,
      "ãģĹãģĦãģ§ãģĻ": 1247,
      "ãģĹãģ¾ãģĹãģŁ": 1248,
      "ç¢ºèªįãģĹãģ¾ãģĹãģŁ": 1249,
      "ãĥ¼ãĤ¹ãĥİãĥ¼ãĥ": 1250,
      "Ķ¹åĸĦãģĮç´ł": 1251,
      "æĸ°ãģĹãģĦ": 1252,
      "´ãĤīãģĹãģĦãģ§ãģĻ": 1253,
      "æĻ´ãĤīãģĹãģĦãģ§ãģĻ": 1254,
      "ĪãĤĴç¢ºèªįãģĹãģ¾ãģĹãģŁ": 1255,
      "ãĥªãĥªãĥ¼ãĤ¹ãĥİãĥ¼ãĥ": 1256,
      "Ķ¹åĸĦãģĮç´łæĻ´ãĤīãģĹãģĦãģ§ãģĻ": 1257,
      "ãĥªãĥªãĥ¼ãĤ¹ãĥİãĥ¼ãĥĪãĤĴç¢ºèªįãģĹãģ¾ãģĹãģŁ": 1258,
      "Ķ¹åĸĦãģĮç´łæĻ´ãĤīãģĹãģĦãģ§ãģĻãģŃ": 1259,
      "62": 1260,
      "PM": 1261,
      "ĠPM": 1262,
      "if": 1263,
      "00": 1264,
      "ype": 1265,
      "ãģ®ãĥªãĥªãĥ¼ãĤ¹ãĥİãĥ¼ãĥĪãĤĴç¢ºèªįãģĹãģ¾ãģĹãģŁ": 1266,
      "Ġbreak": 1267,
      "ãģ®æĶ¹åĸĦãģĮç´łæĻ´ãĤīãģĹãģĦãģ§ãģĻãģŃ": 1268,
      "Ġcontinue": 1269,
      "return": 1270,
      "76": 1271,
      "56": 1272,
      "ĪãģķãĤĮãģ¾ãģĹãģŁ": 1273,
      "è¨ĪãģķãĤĮãģ¾ãģĹãģŁ": 1274,
      "ãģĮåĨįè¨Ń": 1275,
      "ãģĮåĨįè¨Ńè¨ĪãģķãĤĮãģ¾ãģĹãģŁ": 1276,
      "¨æ": 1277,
      "·¨æ": 1278,
      "ç·¨æ": 1279,
      "ĪĲ": 1280,
      "ãģĮåĨįç·¨æ": 1281,
      "ĪĲãģķãĤĮãģ¾ãģĹãģŁ": 1282,
      "ãģĮåĨįç·¨æĪĲãģķãĤĮãģ¾ãģĹãģŁ": 1283,
      "ãĤ¨": 1284,
      "°ãĥ¬": 1285,
      "ãģĮãĤ¢": 1286,
      "ãĥĥãĥĹãĤ": 1287,
      "ãĥ¼ãĥīãģķãĤĮãģ¾ãģĹãģŁ": 1288,
      "°ãĥ¬ãĥ¼ãĥīãģķãĤĮãģ¾ãģĹãģŁ": 1289,
      "ãģĮãĤ¢ãĥĥãĥĹãĤ": 1290,
      "ãģĮãĤ¢ãĥĥãĥĹãĤ°ãĥ¬ãĥ¼ãĥīãģķãĤĮãģ¾ãģĹãģŁ": 1291,
      "ķãĤĮãģ¾ãģĹãģŁ": 1292,
      "ãģĮæĶ¹åĸĦãģ": 1293,
      "ãģĮæĶ¹åĸĦãģķãĤĮãģ¾ãģĹãģŁ": 1294,
      "ãģĮçµ±åĲĪåĮĸãģķãĤĮãģ¾ãģĹãģŁ": 1295,
      "74": 1296,
      "·æĸ°": 1297,
      "Ī·æĸ°": 1298,
      "ãģĮåĪ·æĸ°": 1299,
      "ãģĮåĪ·æĸ°ãģķãĤĮãģ¾ãģĹãģŁ": 1300,
      "¨Ļæ": 1301,
      "ºĸ": 1302,
      "ãģĮæ¨Ļæ": 1303,
      "ºĸåĮĸãģķãĤĮãģ¾ãģĹãģŁ": 1304,
      "ãģĮæ¨ĻæºĸåĮĸãģķãĤĮãģ¾ãģĹãģŁ": 1305,
      "Ġfrom": 1306,
      "54": 1307,
      "ĠN": 1308,
      "ãĤ³": 1309,
      "86": 1310,
      "ãĥĻ": 1311,
      "go": 1312,
      "ãģĮåĨįæ§ĭç¯ī": 1313,
      "ãģĮåĨįæ§ĭç¯īãģķãĤĮãģ¾ãģĹãģŁ": 1314,
      "çĲĨ": 1315,
      "ãģĮåĲĪ": 1316,
      "çĲĨåĮĸãģķãĤĮãģ¾ãģĹãģŁ": 1317,
      "ãģĮåĲĪçĲĨåĮĸãģķãĤĮãģ¾ãģĹãģŁ": 1318,
      "ãģĮæľĢéģ©": 1319,
      "ãģĮæľĢéģ©åĮĸãģķãĤĮãģ¾ãģĹãģŁ": 1320,
      "94": 1321,
      "84": 1322,
      "¡å¼": 1323,
      "µãģķãĤĮãģ¾ãģĹãģŁ": 1324,
      "ĭ¡å¼": 1325,
      "ãģĮæĭ¡å¼": 1326,
      "ãģĮæĭ¡å¼µãģķãĤĮãģ¾ãģĹãģŁ": 1327,
      "ãĥĿ": 1328,
      "96": 1329,
      "·åĮĸãģķãĤĮãģ¾ãģĹãģŁ": 1330,
      "¼·åĮĸãģķãĤĮãģ¾ãģĹãģŁ": 1331,
      "ãģĮå¼·åĮĸãģķãĤĮãģ¾ãģĹãģŁ": 1332,
      "£åĮĸãģķãĤĮãģ¾ãģĹãģŁ": 1333,
      "ĳä»": 1334,
      "ãģĮè¿": 1335,
      "ĳä»£åĮĸãģķãĤĮãģ¾ãģĹãģŁ": 1336,
      "ãģĮè¿ĳä»£åĮĸãģķãĤĮãģ¾ãģĹãģŁ": 1337,
      "73": 1338,
      "°¡ç": 1339,
      "ç°¡ç": 1340,
      "ãģĮç°¡ç": 1341,
      "´łåĮĸãģķãĤĮãģ¾ãģĹãģŁ": 1342,
      "ãģĮç°¡ç´łåĮĸãģķãĤĮãģ¾ãģĹãģŁ": 1343,
      "ãģĮçµ±åĲĪãģķãĤĮãģ¾ãģĹãģŁ": 1344,
      "83": 1345,
      "æĢ§ãģ®": 1346,
      "53": 1347,
      "72": 1348,
      "93": 1349,
      "52": 1350,
      "one": 1351,
      "ĠNone": 1352,
      "ĠR": 1353,
      "åħĪæĹ¥ãģ®": 1354,
      "82": 1355,
      "71": 1356,
      "61": 1357,
      "92": 1358,
      "var": 1359,
      "81": 1360,
      "91": 1361,
      "51": 1362,
      "ra": 1363,
      "Ġif": 1364,
      "lass": 1365,
      "Ġwhile": 1366,
      "que": 1367,
      "quest": 1368,
      "')": 1369,
      "ĿãĤ¸": 1370,
      "ãĥĪãĥª": 1371,
      "ãĥªãĥĿãĤ¸": 1372,
      "ãĥªãĥĿãĤ¸ãĥĪãĥª": 1373,
      "->": 1374,
      "ync": 1375,
      "Ġ->": 1376,
      "let": 1377,
      "ata": 1378,
      "atch": 1379,
      "Ġsuper": 1380,
      "async": 1381,
      "Ġnot": 1382,
      "ult": 1383,
      "fault": 1384,
      "ĠRe": 1385,
      "§ãĥ¼ãĤ¹": 1386,
      "¿ãĥ¼ãĥķãĤ": 1387,
      "ãĤ¿ãĥ¼ãĥķãĤ": 1388,
      "ãĤ¤ãĥ³ãĤ¿ãĥ¼ãĥķãĤ": 1389,
      "ãĤ¤ãĥ³ãĤ¿ãĥ¼ãĥķãĤ§ãĥ¼ãĤ¹": 1390,
      "¯å": 1391,
      "¹ħ": 1392,
      "å¹ħ": 1393,
      "ŁŁ": 1394,
      "å¸¯å": 1395,
      "ŁŁå¹ħ": 1396,
      "å¸¯åŁŁå¹ħ": 1397,
      "ãĥĩ": 1398,
      "ãĤºãĥł": 1399,
      "·åĮĸ": 1400,
      "Ĺåı": 1401,
      "ļĹåı": 1402,
      "ļĹåı·åĮĸ": 1403,
      "Ŀãĥ¼ãĥį": 1404,
      "ãĥ³ãĥĪ": 1405,
      "³ãĥ³ãĥĿãĥ¼ãĥį": 1406,
      "³ãĥ³ãĥĿãĥ¼ãĥįãĥ³ãĥĪ": 1407,
      "ãĥĹãĥŃãĤ¤": 1408,
      "ĦĨ": 1409,
      "å¼±": 1410,
      "ĦĨå¼±": 1411,
      "¢ãĤ¸": 1412,
      "ãĥ¼ãĥ«": 1413,
      "ãĥ¥ãĥ¼ãĥ«": 1414,
      "¢ãĤ¸ãĥ¥ãĥ¼ãĥ«": 1415,
      "ãĤ¨ãĥª": 1416,
      "¡ãĥ¼ãĤ¿": 1417,
      "ĳãĥ©": 1418,
      "ãĥ¡ãĥ¼ãĤ¿": 1419,
      "ĳãĥ©ãĥ¡ãĥ¼ãĤ¿": 1420,
      "»ãĥŀ": 1421,
      "»ãĥŀãĥķãĤ©": 1422,
      "©ãĥ": 1423,
      "±ãĥ¼ãĥ": 1424,
      "ĵãĥª": 1425,
      "ãĤ£": 1426,
      "ãĥĨãĤ£": 1427,
      "ãĤ¹ãĤ±ãĥ¼ãĥ": 1428,
      "©ãĥĵãĥª": 1429,
      "ãĤ¹ãĤ±ãĥ¼ãĥ©ãĥĵãĥª": 1430,
      "ãĤ¹ãĤ±ãĥ¼ãĥ©ãĥĵãĥªãĥĨãĤ£": 1431,
      "çĶ": 1432,
      "åı¯çĶ": 1433,
      "åı¯çĶ¨": 1434,
      "range": 1435,
      "åĪĹ": 1436,
      "ä¸¦åĪĹ": 1437,
      "ģãĥŀ": 1438,
      "ãĥ³ãĥģãĥŀ": 1439,
      "ãĥ³ãĥģãĥŀãĥ¼ãĤ¯": 1440,
      "¡é": 1441,
      "ł¼": 1442,
      "ä¿¡é": 1443,
      "ä¿¡éł¼": 1444,
      "ãģ®ãĥĩ": 1445,
      "¶Ļæ": 1446,
      "ç¶Ļæ": 1447,
      "ī¿": 1448,
      "ç¶Ļæī¿": 1449,
      "»ãĥĥãĤ·": 1450,
      "å®ļ": 1451,
      "è¨Ńå®ļ": 1452,
      "»ãĥĥãĤ·ãĥ§ãĥ³": 1453,
      "«ãĥĹãĤ": 1454,
      "»ãĥ«": 1455,
      "«ãĥĹãĤ»ãĥ«": 1456,
      "«ãĥĹãĤ»ãĥ«åĮĸ": 1457,
      "èªįåı¯": 1458,
      "©º": 1459,
      "åī": 1460,
      "ç©º": 1461,
      "įåī": 1462,
      "įç©º": 1463,
      "åĲįåī": 1464,
      "éĸĵ": 1465,
      "įç©ºéĸĵ": 1466,
      "åĲįåīįç©ºéĸĵ": 1467,
      "®æ": 1468,
      "³åĮĸ": 1469,
      "ĥ³åĮĸ": 1470,
      "ä»®æ": 1471,
      "ä»®æĥ³åĮĸ": 1472,
      "Ĩįå¸": 1473,
      "Ĩįå¸°": 1474,
      "¾Ŀ": 1475,
      "ä¾Ŀ": 1476,
      "åŃ": 1477,
      "ä¾ĿåŃ": 1478,
      "ä¾ĿåŃĺ": 1479,
      "åĨįå¸°": 1480,
      "ĬãĤ¤ãĤ": 1481,
      "ãĥĬãĤ¤ãĤ": 1482,
      "ãĥĪãĥ¼ãĤ¯": 1483,
      "ãĥĬãĤ¤ãĤ¶": 1484,
      "ãĥĪãĥ¼ãĤ¯ãĥĬãĤ¤ãĤ¶": 1485,
      "èĦĨå¼±": 1486,
      "¼ãĥ¼ãĤ·ãĥ§ãĥ³": 1487,
      "Ńãĥ£": 1488,
      "ãĥªãĤ¢": 1489,
      "ãĤ·ãĥªãĤ¢": 1490,
      "ãĥ©ãĤ¤ãĤ": 1491,
      "ãĥĥãĤ·ãĥ¥": 1492,
      "Ńãĥ£ãĥĥãĤ·ãĥ¥": 1493,
      "ãĤ·ãĥªãĤ¢ãĥ©ãĤ¤ãĤ": 1494,
      "ãĤ·ãĥªãĤ¢ãĥ©ãĤ¤ãĤ¼ãĥ¼ãĤ·ãĥ§ãĥ³": 1495,
      "Ŀå®": 1496,
      "ãĥ³ãĤ·": 1497,
      "ãĤ¤ãĥĨ": 1498,
      "ä¿Ŀå®": 1499,
      "ãĤ¤ãĥĨãĥ³ãĤ·": 1500,
      "ä¿Ŀå®Ī": 1501,
      "ãĥ³ãĥĨãĥ": 1502,
      "ãĥ³ãĥĨãĥĬ": 1503,
      "ãĥ©ãĤ¤ãĥ³": 1504,
      "ãĥĹãĥ©ãĤ¤ãĥ³": 1505,
      "ĳãĤ¤ãĥĹãĥ©ãĤ¤ãĥ³": 1506,
      "ĸãĥ©": 1507,
      "ãĥĸãĥ©": 1508,
      "ãĤ¤ãĥĸãĥ©": 1509,
      "ãĥ©ãĤ¤ãĥĸãĥ©": 1510,
      "ãĥ©ãĤ¤ãĥĸãĥ©ãĥª": 1511,
      "¤ī": 1512,
      "æķ": 1513,
      "¤īæķ": 1514,
      "¤īæķ°": 1515,
      "³ãĥ³ãĥĳãĤ¤": 1516,
      "ãĥ¼ãĤ¿ãĥĻ": 1517,
      "³ãĥ³ãĥĳãĤ¤ãĥ©": 1518,
      "ãĥ¼ãĤ¿ãĥĻãĥ¼ãĤ¹": 1519,
      "æľ": 1520,
      "Įæľ": 1521,
      "åĲĮæľ": 1522,
      "åĲĮæľŁ": 1523,
      "å¤īæķ°": 1524,
      "ãĥĪãĤ³": 1525,
      "ãĥĹãĥŃãĥĪãĤ³": 1526,
      "ãĥĹãĥŃãĥĪãĤ³ãĥ«": 1527,
      "¦ãĤ": 1528,
      "§ãĤ¢": 1529,
      "Łãĥī": 1530,
      "ãĥ«ãĤ¦ãĤ": 1531,
      "Łãĥīãĥ«ãĤ¦ãĤ": 1532,
      "Łãĥīãĥ«ãĤ¦ãĤ§ãĤ¢": 1533,
      "ģãĥ£": 1534,
      "ŃãĥĨ": 1535,
      "ãĥģãĥ£": 1536,
      "ãĤ°": 1537,
      "ãĥ¼ãĤŃãĥĨ": 1538,
      "ãĤ¢ãĥ¼ãĤŃãĥĨ": 1539,
      "ãĤ¯ãĥģãĥ£": 1540,
      "ãĥĲãĥĥãĤ°": 1541,
      "ãĤ¢ãĥ¼ãĤŃãĥĨãĤ¯ãĥģãĥ£": 1542,
      "ªãĥ¼": 1543,
      "ĳãĥķãĤ©": 1544,
      "ĺãĥĥ": 1545,
      "ãĥ³ãĤ¹": 1546,
      "ãĥĲãĥ¼ãĥ": 1547,
      "ãĥ¼ãĥŀãĥ³ãĤ¹": 1548,
      "ªãĥ¼ãĥĲãĥ¼ãĥ": 1549,
      "ĳãĥķãĤ©ãĥ¼ãĥŀãĥ³ãĤ¹": 1550,
      "ĺãĥĥãĥī": 1551,
      "ªãĥ¼ãĥĲãĥ¼ãĥĺãĥĥãĥī": 1552,
      "Ńãĥ¼ãĥŀ": 1553,
      "ãĤ¹ãĤŃãĥ¼ãĥŀ": 1554,
      "¡Į": 1555,
      "è¡Į": 1556,
      "ķæ§": 1557,
      "ä»ķæ§": 1558,
      "ä¸¦è¡Į": 1559,
      "ä»ķæ§ĺ": 1560,
      "¬ãĥ¼ãĤ·ãĥ§ãĥ³": 1561,
      "Ĺãĥĥ": 1562,
      "ãĥ¼ãĥĹãĥĥ": 1563,
      "ãĤ¤ãĥĨãĥ": 1564,
      "ãĤ¹ãĥ«": 1565,
      "ãĥ¼ãĥĹãĥĥãĥĪ": 1566,
      "ãĤ¤ãĥĨãĥ¬ãĥ¼ãĤ·ãĥ§ãĥ³": 1567,
      "ãĤ¹ãĥ«ãĥ¼ãĥĹãĥĥãĥĪ": 1568,
      "´ãĥª": 1569,
      "ãĤ¢ãĥ«ãĤ": 1570,
      "ãĤ¢ãĥ«ãĤ´ãĥª": 1571,
      "¢ãĥ¼ãĥķãĤ": 1572,
      "ãĥªãĥ¢ãĥ¼ãĥķãĤ": 1573,
      "ãĥªãĥ¢ãĥ¼ãĥķãĤ£": 1574,
      "«ãĥ¼ãĥį": 1575,
      "µãĥ¼ãĥ": 1576,
      "ĵãĤ¹": 1577,
      "ãģ«ãģĬãģĦãģ¦æ": 1578,
      "«ãĥ¼ãĥįãĥ«": 1579,
      "µãĥ¼ãĥĵãĤ¹": 1580,
      "¯ãĥ¼ãĤ¯": 1581,
      "ķãĥ¬": 1582,
      "łãĥ": 1583,
      "ãĥ¼ãĥłãĥ": 1584,
      "ãĥĲãĥĥãĥķãĤ": 1585,
      "ķãĥ¬ãĥ¼ãĥłãĥ": 1586,
      "ķãĥ¬ãĥ¼ãĥłãĥ¯ãĥ¼ãĤ¯": 1587,
      "ľĢéģ©åĮĸ": 1588,
      "īãĥĿ": 1589,
      "ãĥ³ãĥīãĥĿ": 1590,
      "ãĤ¤ãĥ³ãĥĪ": 1591,
      "ãĥ³ãĥīãĥĿãĤ¤ãĥ³ãĥĪ": 1592,
      "ãĥĪãĥ¼ãĤ¯ãĥĬãĤ¤ãĤ¶ãĥ¼": 1593,
      "èªįè¨": 1594,
      "èªįè¨¼": 1595,
      "©Łè": 1596,
      "ĥ½": 1597,
      "©Łèĥ½": 1598,
      "ãģ«ãģĬãģĦãģ¦ãĥĩ": 1599,
      "¶ãĤ¯": 1600,
      "ĩãĥ¼ãĤ·ãĥ§ãĥ³": 1601,
      "ãĤ¶ãĤ¯": 1602,
      "ãĥ³ãĤ¶ãĤ¯": 1603,
      "ãĥĲãĥªãĥ": 1604,
      "ãĤ·ãĥ§ãĥ³": 1605,
      "ãĥĪãĥ©": 1606,
      "ãĥ³ãĤ¶ãĤ¯ãĤ·ãĥ§ãĥ³": 1607,
      "ãĥĲãĥªãĥĩãĥ¼ãĤ·ãĥ§ãĥ³": 1608,
      "ãĥĪãĥ©ãĥ³ãĤ¶ãĤ¯ãĤ·ãĥ§ãĥ³": 1609,
      "ptr": 1610,
      "ãĥĲãĥĥãĥķãĤ¡": 1611,
      "):": 1612,
      "ãĤºãĥłãģ®": 1613,
      "ä¸¦åĪĹæĢ§": 1614,
      "break": 1615,
      "tinue": 1616,
      "Ġpa": 1617,
      "const": 1618,
      "continue": 1619,
      "åı¯çĶ¨æĢ§": 1620,
      "ä¿¡éł¼æĢ§": 1621,
      "ä¾ĿåŃĺæĢ§": 1622,
      "ä¿Ŀå®ĪæĢ§": 1623,
      "ä¸¦è¡ĮæĢ§": 1624,
      "èĦĨå¼±æĢ§": 1625,
      "lf": 1626,
      "Ġself": 1627,
      "class": 1628,
      "try": 1629,
      "Ġdefault": 1630,
      "impl": 1631,
      "ĠT": 1632,
      "all": 1633,
      "bo": 1634,
      "Ġint": 1635,
      "Fal": 1636,
      "ĠFal": 1637,
      "ĠFalse": 1638,
      "em": 1639,
      "Ńãĥ¼ãĥī": 1640,
      "py": 1641,
      "Ġrange": 1642,
      "Ġstr": 1643,
      "Ļãĥ³ãĥģãĥŀãĥ¼ãĤ¯": 1644,
      "¯ãĤ¨ãĥª": 1645,
      "¬ãĤ¤ãĥĨãĥ³ãĤ·": 1646,
      "Ġuint": 1647,
      "ck": 1648,
      "through": 1649,
      "lect": 1650,
      "allthrough": 1651,
      "ckage": 1652,
      "ol": 1653,
      "md": 1654,
      "³ãĥ³ãĥĨãĥĬ": 1655,
      "ts": 1656,
      "yaml": 1657,
      "Ŀãĥªãĥ¢ãĥ¼ãĥķãĤ£": 1658,
      "¨ãĥ³ãĥīãĥĿãĤ¤ãĥ³ãĥĪ": 1659,
      "rs": 1660,
      "loat": 1661,
      "import": 1662,
      "fun": 1663,
      "type": 1664,
      "Ġtype": 1665,
      "Ġstruct": 1666,
      "rue": 1667,
      "ĠTrue": 1668,
      "from": 1669,
      "Ġdef": 1670,
      "Ġasync": 1671,
      "ise": 1672,
      "raise": 1673,
      "iel": 1674,
      "inal": 1675,
      "Ġfinal": 1676,
      "Ġpass": 1677,
      "ield": 1678,
      "Ġfinally": 1679,
      "Ġeli": 1680,
      "Ġelif": 1681,
      "cept": 1682,
      "Ġexcept": 1683,
      "um": 1684,
      "Ġjson": 1685,
      "ub": 1686,
      "()": 1687,
      "size": 1688,
      "dif": 1689,
      "hort": 1690,
      "oid": 1691,
      "ror": 1692,
      "ong": 1693,
      "ouble": 1694,
      "iled": 1695,
      "diff": 1696,
      "'d": 1697,
      "('": 1698,
      "Er": 1699,
      "await": 1700,
      "ailed": 1701,
      "data": 1702,
      "gen": 1703,
      "is": 1704,
      "ler": 1705,
      "op": 1706,
      "pen": 1707,
      "super": 1708,
      "wit": 1709,
      "with": 1710,
      "while": 1711,
      "yn": 1712,
      "yload": 1713,
      "yield": 1714,
      "Ġor": 1715,
      "Ġlet": 1716,
      "Ġgen": 1717,
      "onse": 1718,
      "ate": 1719,
      "atic": 1720,
      "Ġste": 1721,
      "request": 1722,
      "Ġfailed": 1723,
      "Ġresul": 1724,
      "peration": 1725,
      "def": 1726,
      "Ġopen": 1727,
      "Ġoperation": 1728,
      "loop": 1729,
      "Ġhandler": 1730,
      "else": 1731,
      "hrow": 1732,
      "sponse": 1733,
      "here": 1734,
      "rait": 1735,
      "ĠRequest": 1736,
      "ĠResponse": 1737,
      "Ġpayload": 1738,
      "Error": 1739,
      "witch": 1740,
      "Ġstep": 1741,
      "Ġresult": 1742,
      "ãĤ·ãĤ¹ãĥĨãĥł": 1743,
      "ãĤ¢ãĥ«ãĤ´ãĥªãĤºãĥł": 1744,
      "100": 1745,
      "ãģ®çµ±åĲĪãģ«ãģ¯æħİéĩįãģªãĤ": 1746,
      "ãģ¨ãĤ": 1747,
      "out": 1748,
      "ãĤ¢ãĥ«ãĤ´ãĥªãĤºãĥłãģ®": 1749,
      "åħĪæĹ¥ãģ®ãĤ": 1750,
      "bool": 1751,
      "float": 1752,
      "180": 1753,
      "double": 1754,
      "long": 1755,
      "short": 1756,
      "void": 1757,
      "char": 1758,
      "unsigned": 1759,
      "ssize": 1760,
      "uintptr": 1761,
      "ptrdiff": 1762,
      "190": 1763,
      "160": 1764,
      "130": 1765,
      "150": 1766,
      "170": 1767,
      "200": 1768,
      "Ġ>": 1769,
      "140": 1770,
      "ãĥĩãĥĹãĥŃãĤ¤": 1771,
      "230": 1772,
      "260": 1773,
      "ãģ®ãĥŃãĥ¼ãĥī": 1774,
      "éģ©åĪĩãģªãĤ": 1775,
      "item": 1776,
      "Ġprocess": 1777,
      "250": 1778,
      "Ġitem": 1779,
      "ãģ®ãĥ¬ãĤ¤ãĥĨãĥ³ãĤ·": 1780,
      "240": 1781,
      "ãģ«ãģĬãģĦãģ¦ãĤ¤ãĥ³ãĤ¿ãĥ¼ãĥķãĤ§ãĥ¼ãĤ¹": 1782,
      "ãģ«ãģĬãģĦãģ¦ãĤ³ãĥ³ãĥĿãĥ¼ãĥįãĥ³ãĥĪ": 1783,
      "ãĤ¯ãĤ¨ãĥª": 1784,
      "117": 1785,
      "118": 1786,
      "ãģ«ãģĬãģĦãģ¦ãĥªãĥĿãĤ¸ãĥĪãĥª": 1787,
      "114": 1788,
      "ãĥ¢ãĤ¸ãĥ¥ãĥ¼ãĥ«": 1789,
      "output": 1790,
      "113": 1791,
      "ãģ®ãĥĳãĥ©ãĥ¡ãĥ¼ãĤ¿": 1792,
      "110": 1793,
      "ãģ®ãĥ¢ãĤ¸ãĥ¥ãĥ¼ãĥ«": 1794,
      "ãģ®æļĹåı·åĮĸ": 1795,
      "ãģ®å®Łè£ħãģ¯ãĤ": 1796,
      "ãĥĩãĥĲãĥĥãĤ°": 1797,
      "debug": 1798,
      "116": 1799,
      "ãģ«ãģĬãģĦãģ¦æļĹåı·åĮĸ": 1800,
      "force": 1801,
      "ãĤ³ãĥ³ãĥĨãĥĬ": 1802,
      "ãģ®ãĥŁãĥīãĥ«ãĤ¦ãĤ§ãĤ¢": 1803,
      "ãģ«ãģĬãģĦãģ¦ãĥĳãĥ©ãĥ¡ãĥ¼ãĤ¿": 1804,
      "ãģ®ãĥĩãĥĲãĥĥãĤ°": 1805,
      "ãĥĳãĥ©ãĥ¡ãĥ¼ãĤ¿": 1806,
      "ãģ®ãĥĻãĥ³ãĥģãĥŀãĥ¼ãĤ¯": 1807,
      "115": 1808,
      "ãĥĳãĥķãĤ©ãĥ¼ãĥŀãĥ³ãĤ¹": 1809,
      "ãģ«ãģĬãģĦãģ¦ãĥĻãĥ³ãĥģãĥŀãĥ¼ãĤ¯": 1810,
      "ãģ®ãĥĩãĥĹãĥŃãĤ¤": 1811,
      "ãĥŁãĥīãĥ«ãĤ¦ãĤ§ãĤ¢": 1812,
      "ãģ®ãĥķãĥ¬ãĥ¼ãĥłãĥ¯ãĥ¼ãĤ¯": 1813,
      "ãģ«ãģĬãģĦãģ¦ãĥ¢ãĤ¸ãĥ¥ãĥ¼ãĥ«": 1814,
      "ãģ«ãģĬãģĦãģ¦ãĤŃãĥ£ãĥĥãĤ·ãĥ¥": 1815,
      "verbo": 1816,
      "ãģ®ãĥĳãĤ¤ãĥĹãĥ©ãĤ¤ãĥ³": 1817,
      "ãĥĻãĥ³ãĥģãĥŀãĥ¼ãĤ¯": 1818,
      "verbose": 1819,
      "ãģ«ãģĬãģĦãģ¦ãĤ¹ãĤ±ãĥ¼ãĥ©ãĥĵãĥªãĥĨãĤ£": 1820,
      "ãģ®ãĥĩãĥ¼ãĤ¿ãĥĻãĥ¼ãĤ¹": 1821,
      "119": 1822,
      "ãĥĳãĤ¤ãĥĹãĥ©ãĤ¤ãĥ³": 1823,
      "ãģ«ãģĬãģĦãģ¦ãĥŃãĥ¼ãĥī": 1824,
      "ãĥĿãĥªãĥ¢ãĥ¼ãĥķãĤ£": 1825,
      "ãģ®ãĥĳãĥķãĤ©ãĥ¼ãĥŀãĥ³ãĤ¹": 1826,
      "no": 1827,
      "ãģ®ãĥĿãĥªãĥ¢ãĥ¼ãĥķãĤ£": 1828,
      "ãģ®ãĥĿãĥªãĥ¢ãĥ¼ãĥķãĤ£ãĤºãĥł": 1829,
      "ackage": 1830,
      "fallthrough": 1831,
      "package": 1832,
      "Ġgo": 1833,
      "erface": 1834,
      "Ġchan": 1835,
      "Ġfallthrough": 1836,
      "Ġmap": 1837,
      "defer": 1838,
      "interface": 1839,
      "ãģ«ãģĬãģĦãģ¦èªįåı¯": 1840,
      "Ġdefer": 1841,
      "Ġselect": 1842,
      "chan": 1843,
      "Ġfunc": 1844,
      "select": 1845,
      "ãĥĩãĥ¼ãĤ¿ãĥĻãĥ¼ãĤ¹": 1846,
      "Ġpackage": 1847,
      "func": 1848,
      "112": 1849,
      "ãĥ¬ãĤ¤ãĥĨãĥ³ãĤ·": 1850,
      "et": 1851,
      "ãģ«ãģĬãģĦãģ¦ç¶Ļæī¿": 1852,
      "ãģ«ãģĬãģĦãģ¦å¸¯åŁŁå¹ħ": 1853,
      "ãģ«ãģĬãģĦãģ¦ãĤ«ãĥĹãĤ»ãĥ«åĮĸ": 1854,
      "ãģ®æ©Łèĥ½": 1855,
      "ãĥŃãĥ¼ãĥī": 1856,
      "ãĤ¨ãĥ³ãĥīãĥĿãĤ¤ãĥ³ãĥĪ": 1857,
      "ãģ«ãģĬãģĦãģ¦ãĤ¢ãĥ¼ãĤŃãĥĨãĤ¯ãĥģãĥ£": 1858,
      "ãģ«ãģĬãģĦãģ¦ãĤ»ãĥĥãĤ·ãĥ§ãĥ³": 1859,
      "ãģ«ãģĬãģĦãģ¦ãĤ¤ãĥĨãĥ¬ãĥ¼ãĤ·ãĥ§ãĥ³": 1860,
      "ãģ«ãģĬãģĦãģ¦åĨįå¸°": 1861,
      "ãģ«ãģĬãģĦãģ¦ãĥĩãĥĹãĥŃãĤ¤": 1862,
      "es": 1863,
      "yes": 1864,
      "ãģ®ãĤ¯ãĤ¨ãĥª": 1865,
      "ãģ«ãģĬãģĦãģ¦ãĤ·ãĤ¹ãĥĨãĥłãģ®": 1866,
      "ãģ«ãģĬãģĦãģ¦ãĤ»ãĥŀãĥķãĤ©": 1867,
      "ãģ«ãģĬãģĦãģ¦ãĥĩãĥ¼ãĤ¿ãĥĻãĥ¼ãĤ¹": 1868,
      "ãģ«ãģĬãģĦãģ¦åĲĮæľŁ": 1869,
      "ãģ«ãģĬãģĦãģ¦ãĥĳãĤ¤ãĥĹãĥ©ãĤ¤ãĥ³": 1870,
      "ãģ«ãģĬãģĦãģ¦ãĤ¯ãĤ¨ãĥª": 1871,
      "ãģ®æľĢéģ©åĮĸ": 1872,
      "ãģ«éĸ¢ãģĻãĤĭä¼ļèŃ°ãģ§èŃ°è«ĸãģķãĤĮãģŁãĤ": 1873,
      "config": 1874,
      "quiet": 1875,
      "ãģ«ãģĬãģĦãģ¦ãĥķãĥ¬ãĥ¼ãĥłãĥ¯ãĥ¼ãĤ¯": 1876,
      "ãģ«ãģĬãģĦãģ¦ãĥ©ãĤ¤ãĥĸãĥ©ãĥª": 1877,
      "ãģ«ãģĬãģĦãģ¦ãĤ³ãĥ³ãĥĳãĤ¤ãĥ©": 1878,
      "format": 1879,
      "æļĹåı·åĮĸ": 1880,
      "ãģ«ãģĬãģĦãģ¦ãĤ¹ãĥ«ãĥ¼ãĥĹãĥĥãĥĪ": 1881,
      "ãģ®ãĤ³ãĥ³ãĥĿãĥ¼ãĥįãĥ³ãĥĪ": 1882,
      "ãģ«ãģĬãģĦãģ¦å¤īæķ°": 1883,
      "ãģ«ãģĬãģĦãģ¦ãĥĹãĥŃãĥĪãĤ³ãĥ«": 1884,
      "ãģ«ãģĬãģĦãģ¦ä»®æĥ³åĮĸ": 1885,
      "ãģ®ãĤ³ãĥ³ãĥĨãĥĬ": 1886,
      "ãģ«ãģĬãģĦãģ¦æ©Łèĥ½": 1887,
      "ãģ«ãģĬãģĦãģ¦åĲįåīįç©ºéĸĵ": 1888,
      "ãģ®ãĤ»ãĥŀãĥķãĤ©": 1889,
      "ãģ«ãģĬãģĦãģ¦ãĤµãĥ¼ãĥĵãĤ¹": 1890,
      "228": 1891,
      "ãģ«ãģĬãģĦãģ¦ãĤ¨ãĥ³ãĥīãĥĿãĤ¤ãĥ³ãĥĪ": 1892,
      "ãģ«ãģĬãģĦãģ¦ãĥĪãĥ¼ãĤ¯ãĥĬãĤ¤ãĤ¶ãĥ¼": 1893,
      "ãģ«ãģĬãģĦãģ¦ãĤ¢ãĥ«ãĤ´ãĥªãĤºãĥłãģ®": 1894,
      "ãģ®ãĤ³ãĥ³ãĥĳãĤ¤ãĥ©": 1895,
      "ãģ«ãģĬãģĦãģ¦æľĢéģ©åĮĸ": 1896,
      "229": 1897,
      "ãĥķãĥ¬ãĥ¼ãĥłãĥ¯ãĥ¼ãĤ¯": 1898,
      "ãģ«ãģĬãģĦãģ¦èªįè¨¼": 1899,
      "ãģ«ãģĬãģĦãģ¦ãĥĲãĥĥãĥķãĤ¡": 1900,
      "ãģ®ãĤ»ãĥĥãĤ·ãĥ§ãĥ³": 1901,
      "ãģ«ãģĬãģĦãģ¦ãĥĳãĥķãĤ©ãĥ¼ãĥŀãĥ³ãĤ¹": 1902,
      "ãģ«ãģĬãģĦãģ¦ãĥ¬ãĤ¤ãĥĨãĥ³ãĤ·": 1903,
      "ãģ®ãĤµãĥ¼ãĥĵãĤ¹": 1904,
      "227": 1905,
      "ãģ«ãģĬãģĦãģ¦ãĥĲãĥªãĥĩãĥ¼ãĤ·ãĥ§ãĥ³": 1906,
      "ãģ«ãģĬãģĦãģ¦ãĥĿãĥªãĥ¢ãĥ¼ãĥķãĤ£": 1907,
      "ãģ«ãģĬãģĦãģ¦ãĤ«ãĥ¼ãĥįãĥ«": 1908,
      "ãģ«ãģĬãģĦãģ¦ãĥĿãĥªãĥ¢ãĥ¼ãĥķãĤ£ãĤºãĥłãģ®": 1909,
      "ãģ®ä¿Ŀå®ĪæĢ§": 1910,
      "ãģ«ãģĬãģĦãģ¦ãĥŁãĥīãĥ«ãĤ¦ãĤ§ãĤ¢": 1911,
      "ãģ«ãģĬãģĦãģ¦è¨Ńå®ļ": 1912,
      "ãģ«ãģĬãģĦãģ¦ãĤªãĥ¼ãĥĲãĥ¼ãĥĺãĥĥãĥī": 1913,
      "ãģ«ãģĬãģĦãģ¦ãĤ³ãĥ³ãĥĨãĥĬ": 1914,
      "ãģ«ãģĬãģĦãģ¦ãĤ·ãĥªãĤ¢ãĥ©ãĤ¤ãĤ¼ãĥ¼ãĤ·ãĥ§ãĥ³": 1915,
      "ãģ«ãģĬãģĦãģ¦ãĤ¹ãĤŃãĥ¼ãĥŀ": 1916,
      "ãģ«ãģĬãģĦãģ¦ä»ķæ§ĺ": 1917,
      "ãģ®ãĤŃãĥ£ãĥĥãĤ·ãĥ¥": 1918,
      "ãģ®ãĤªãĥ¼ãĥĲãĥ¼ãĥĺãĥĥãĥī": 1919,
      "ãģ®ãĤ«ãĥ¼ãĥįãĥ«": 1920,
      "ãģ«ãģĬãģĦãģ¦ãĥĩãĥĲãĥĥãĤ°": 1921,
      "ãģ®ä¸¦åĪĹæĢ§": 1922,
      "212": 1923,
      "ãģ®èĦĨå¼±æĢ§": 1924,
      "æľĢéģ©åĮĸ": 1925,
      "105": 1926,
      "223": 1927,
      "ãģ«ãģĬãģĦãģ¦ãĥĪãĥ©ãĥ³ãĤ¶ãĤ¯ãĤ·ãĥ§ãĥ³": 1928,
      "226": 1929,
      "ãģ®åĲįåīįç©ºéĸĵ": 1930,
      "ãģ®ãĤ«ãĥĹãĤ»ãĥ«åĮĸ": 1931,
      "120": 1932,
      "225": 1933,
      "ãģ®å¸¯åŁŁå¹ħ": 1934,
      "213": 1935,
      "ãģ®ãĤ¨ãĥ³ãĥīãĥĿãĤ¤ãĥ³ãĥĪ": 1936,
      "214": 1937,
      "215": 1938,
      "ãģ®ç¶Ļæī¿": 1939,
      "ãģ®ãĤ¢ãĥ«ãĤ´ãĥªãĤºãĥł": 1940,
      "216": 1941,
      "Ġtry": 1942,
      "ãģ®ä¿¡éł¼æĢ§": 1943,
      "218": 1944,
      "ãģ®ä»®æĥ³åĮĸ": 1945,
      "ãģ®ãĥªãĥĿãĤ¸ãĥĪãĥª": 1946,
      "220": 1947,
      "Ġclass": 1948,
      "217": 1949,
      "sel": 1950,
      "self": 1951,
      "ãģ®åı¯çĶ¨æĢ§": 1952,
      "Ġenum": 1953,
      "224": 1954,
      "210": 1955,
      "Ġth": 1956,
      "ãģ®è¨Ńå®ļ": 1957,
      "219": 1958,
      "ãģ®èªįåı¯": 1959,
      "ãģ®ãĤ¹ãĤ±ãĥ¼ãĥ©ãĥĵãĥªãĥĨãĤ£": 1960,
      "ãģ®ãĤ¹ãĤŃãĥ¼ãĥŀ": 1961,
      "fn": 1962,
      "ãģ®ä»ķæ§ĺ": 1963,
      "ãģ®ãĤ·ãĥªãĤ¢ãĥ©ãĤ¤ãĤ¼ãĥ¼ãĤ·ãĥ§ãĥ³": 1964,
      "æ©Łèĥ½": 1965,
      "ãģ®ãĤ¹ãĥ«ãĥ¼ãĥĹãĥĥãĥĪ": 1966,
      "ãģ®ãĥĪãĥ¼ãĤ¯ãĥĬãĤ¤ãĤ¶ãĥ¼": 1967,
      "cr": 1968,
      "case": 1969,
      "catch": 1970,
      "dyn": 1971,
      "mod": 1972,
      "mut": 1973,
      "match": 1974,
      "new": 1975,
      "pub": 1976,
      "switch": 1977,
      "tend": 1978,
      "throw": 1979,
      "trait": 1980,
      "use": 1981,
      "where": 1982,
      "Ġloop": 1983,
      "enum": 1984,
      "Ġswitch": 1985,
      "ref": 1986,
      "Ġcase": 1987,
      "Ġcatch": 1988,
      "Ġthrow": 1989,
      "Ġtrait": 1990,
      "Ġfn": 1991,
      "Ġmut": 1992,
      "Ġmatch": 1993,
      "Ġwhere": 1994,
      "Ġref": 1995,
      "Ġimpl": 1996,
      "Ġpub": 1997,
      "default": 1998,
      "static": 1999,
      "Ġnew": 2000,
      "Ġcrate": 2001,
      "Ġexport": 2002,
      "Ġuse": 2003,
      "Ġdyn": 2004,
      "Ġstatic": 2005,
      "extend": 2006,
      "this": 2007,
      "Ġextends": 2008,
      "function": 2009,
      "Ġthis": 2010,
      "crate": 2011,
      "extends": 2012,
      "107": 2013,
      "ãģ®ãĤ¤ãĥ³ãĤ¿ãĥ¼ãĥķãĤ§ãĥ¼ãĤ¹": 2014,
      "ãģ®åĨįå¸°": 2015,
      "ãģ®åĲĮæľŁ": 2016,
      "ãģ®ãĥĹãĥŃãĥĪãĤ³ãĥ«": 2017,
      "ãģ®ãĥĪãĥ©ãĥ³ãĤ¶ãĤ¯ãĤ·ãĥ§ãĥ³": 2018,
      "ãģ®ä¸¦è¡ĮæĢ§": 2019,
      "ãģ®å¤īæķ°": 2020,
      "ãģ®ä¾ĿåŃĺæĢ§": 2021,
      "ãģ®ãĤ·ãĤ¹ãĥĨãĥł": 2022,
      "109": 2023,
      "ãģ®ãĥ©ãĤ¤ãĥĸãĥ©ãĥª": 2024,
      "108": 2025,
      "ãģ®ãĤ¢ãĥ¼ãĤŃãĥĨãĤ¯ãĥģãĥ£": 2026,
      "ãģ®ãĤ¤ãĥĨãĥ¬ãĥ¼ãĤ·ãĥ§ãĥ³": 2027,
      "ãģ®ãĥĲãĥªãĥĩãĥ¼ãĤ·ãĥ§ãĥ³": 2028,
      "ãģ®èªįè¨¼": 2029,
      "ãģ®ãĥĲãĥĥãĥķãĤ¡": 2030,
      "02": 2031,
      "ool": 2032,
      "01": 2033,
      "09": 2034,
      "139": 2035,
      "08": 2036,
      "199": 2037,
      "04": 2038,
      "07": 2039,
      "104": 2040,
      "06": 2041,
      "Ġbool": 2042,
      "106": 2043,
      "148": 2044,
      "ator": 2045,
      "03": 2046,
      "167": 2047,
      "129": 2048,
      "05": 2049,
      "209": 2050,
      "185": 2051,
      "168": 2052,
      "æĸ°ãģĹãģĦãĤ": 2053,
      "208": 2054,
      "259": 2055,
      "189": 2056,
      "178": 2057,
      "127": 2058,
      "128": 2059,
      "Ġfloat": 2060,
      "169": 2061,
      "179": 2062,
      "165": 2063,
      "145": 2064,
      "147": 2065,
      "257": 2066,
      "249": 2067,
      "159": 2068,
      "198": 2069,
      "125": 2070,
      "158": 2071,
      "195": 2072,
      "197": 2073,
      "258": 2074,
      "Iter": 2075,
      "248": 2076,
      "157": 2077,
      "ĠType": 2078,
      "149": 2079,
      "177": 2080,
      "138": 2081,
      "255": 2082,
      "207": 2083,
      "239": 2084,
      "235": 2085,
      "137": 2086,
      "247": 2087,
      "188": 2088,
      "135": 2089,
      "237": 2090,
      "ãĥĿãĥªãĥ¢ãĥ¼ãĥķãĤ£ãĤºãĥł": 2091,
      "245": 2092,
      "175": 2093,
      "205": 2094,
      "ãģ«ãģĬãģĦãģ¦èĦĨå¼±": 2095,
      "238": 2096,
      "ãģ«ãģĬãģĦãģ¦èĦĨå¼±æĢ§ãģ®": 2097,
      "103": 2098,
      "187": 2099,
      "155": 2100,
      "244": 2101,
      "154": 2102,
      "194": 2103,
      "174": 2104,
      "254": 2105,
      "144": 2106,
      "164": 2107,
      "ãģ«ãģĬãģĦãģ¦ä¿Ŀå®Ī": 2108,
      "ãģ«ãģĬãģĦãģ¦ä¿Ŀå®ĪæĢ§ãģ®": 2109,
      "ãģ«ãģĬãģĦãģ¦åı¯çĶ¨": 2110,
      "134": 2111,
      "ãģ«ãģĬãģĦãģ¦åı¯çĶ¨æĢ§ãģ®": 2112,
      "126": 2113,
      "ãģ«ãģĬãģĦãģ¦ä¾ĿåŃĺ": 2114,
      "124": 2115,
      "ãģ«ãģĬãģĦãģ¦ä¾ĿåŃĺæĢ§ãģ®": 2116,
      "146": 2117,
      "ãģ«ãģĬãģĦãģ¦ä¿¡éł¼": 2118,
      "184": 2119,
      "246": 2120,
      "ãģ«ãģĬãģĦãģ¦ä¿¡éł¼æĢ§ãģ®": 2121,
      "234": 2122,
      "156": 2123,
      "ĠC": 2124,
      "256": 2125,
      "327": 2126,
      "236": 2127,
      "176": 2128,
      "ãģ«ãģĬãģĦãģ¦ä¸¦è¡Į": 2129,
      "143": 2130,
      "ãģ«ãģĬãģĦãģ¦ä¸¦è¡ĮæĢ§ãģ®": 2131,
      "206": 2132,
      "166": 2133,
      "133": 2134,
      "136": 2135,
      "186": 2136,
      "196": 2137,
      "ãģ«ãģĬãģĦãģ¦ä¾ĿåŃĺæĢ§": 2138,
      "163": 2139,
      "204": 2140,
      "193": 2141,
      "ãģ«ãģĬãģĦãģ¦ä¿¡éł¼æĢ§": 2142,
      "263": 2143,
      "ãģ«ãģĬãģĦãģ¦ä¸¦åĪĹ": 2144,
      "ãģ«ãģĬãģĦãģ¦ä¸¦åĪĹæĢ§ãģ®": 2145,
      "123": 2146,
      "233": 2147,
      "ãģ«ãģĬãģĦãģ¦åı¯çĶ¨æĢ§": 2148,
      "253": 2149,
      "Ġ0": 2150,
      "ãģ«ãģĬãģĦãģ¦ä¸¦åĪĹæĢ§": 2151,
      "ime": 2152,
      "173": 2153,
      "ĠIter": 2154,
      "183": 2155,
      "243": 2156,
      "ãģ«ãģĬãģĦãģ¦ä¸¦è¡ĮæĢ§": 2157,
      "153": 2158,
      "ãģ«ãģĬãģĦãģ¦ä¿Ŀå®ĪæĢ§": 2159,
      "203": 2160,
      "ãģ«ãģĬãģĦãģ¦èĦĨå¼±æĢ§": 2161,
      "ãĥĿãĥªãĥ¢ãĥ¼ãĥķãĤ£ãĤºãĥłãģ®": 2162,
      "428": 2163,
      "ĠTypeError": 2164,
      "Imp": 2165,
      "har": 2166,
      "nsigned": 2167,
      "rdiff": 2168,
      "trdiff": 2169,
      "lement": 2170,
      "Ġssize": 2171,
      "Ġshort": 2172,
      "Ġvoid": 2173,
      "Ġchar": 2174,
      "edError": 2175,
      "Ġptrdiff": 2176,
      "Ġunsigned": 2177,
      "Ġdouble": 2178,
      "otImp": 2179,
      "Ġlong": 2180,
      "ĠNotImp": 2181,
      "Ġuintptr": 2182,
      "lementedError": 2183,
      "ĠNotImplementedError": 2184,
      "338": 2185,
      "time": 2186,
      "untime": 2187,
      "ĠRuntime": 2188,
      "ĠRuntimeError": 2189,
      "337": 2190,
      "alueError": 2191,
      "ĠValueError": 2192,
      "460": 2193,
      "329": 2194,
      "445": 2195,
      "335": 2196,
      "430": 2197,
      "438": 2198,
      "345": 2199,
      "427": 2200,
      "434": 2201,
      "394": 2202,
      "330": 2203,
      "465": 2204,
      "468": 2205,
      "447": 2206,
      "328": 2207,
      "202": 2208,
      "ping": 2209,
      "448": 2210,
      "467": 2211,
      "[]": 2212,
      "Ġ[]": 2213,
      "152": 2214,
      "369": 2215,
      "allable": 2216,
      "364": 2217,
      "435": 2218,
      "867": 2219,
      "111": 2220,
      "464": 2221,
      "269": 2222,
      "429": 2223,
      "469": 2224,
      "437": 2225,
      "182": 2226,
      "339": 2227,
      "ny": 2228,
      "890": 2229,
      "161": 2230,
      "360": 2231,
      "537": 2232,
      "669": 2233,
      "Gen": 2234,
      "erator": 2235,
      "264": 2236,
      "340": 2237,
      "ãģ®å®Łè£ħãģ¯æ": 2238,
      "Generator": 2239,
      "538": 2240,
      "142": 2241,
      "261": 2242,
      "735": 2243,
      "268": 2244,
      "102": 2245,
      "131": 2246,
      "132": 2247,
      "440": 2248,
      "665": 2249,
      "267": 2250,
      "570": 2251,
      "Map": 2252,
      "181": 2253,
      "266": 2254,
      "Mapping": 2255,
      "449": 2256,
      "Un": 2257,
      "265": 2258,
      "å®Łè£ħãģ¯": 2259,
      "Union": 2260,
      "830": 2261,
      "Se": 2262,
      "ence": 2263,
      "quence": 2264,
      "151": 2265,
      "191": 2266,
      "Sequence": 2267,
      "ple": 2268,
      "252": 2269,
      "361": 2270,
      "569": 2271,
      "745": 2272,
      "101": 2273,
      "540": 2274,
      "162": 2275,
      "192": 2276,
      "251": 2277,
      "241": 2278,
      "280": 2279,
      "390": 2280,
      "559": 2281,
      "940": 2282,
      "362": 2283,
      "363": 2284,
      "334": 2285,
      "758": 2286,
      "870": 2287,
      "171": 2288,
      "289": 2289,
      "396": 2290,
      "397": 2291,
      "748": 2292,
      "yte": 2293,
      "ytes": 2294,
      "579": 2295,
      "667": 2296,
      "730": 2297,
      "837": 2298,
      "201": 2299,
      "392": 2300,
      "221": 2301,
      "527": 2302,
      "849": 2303,
      "orout": 2304,
      "172": 2305,
      "122": 2306,
      "687": 2307,
      "oroutine": 2308,
      "560": 2309,
      "549": 2310,
      "764": 2311,
      "829": 2312,
      "848": 2313,
      "860": 2314,
      "ãĤ«ãĥĹãĤ»ãĥ«åĮĸ": 2315,
      "530": 2316,
      "578": 2317,
      "ãĤ³ãĥ³ãĥĿãĥ¼ãĥįãĥ³ãĥĪ": 2318,
      "141": 2319,
      "262": 2320,
      "450": 2321,
      "367": 2322,
      "322": 2323,
      "547": 2324,
      "738": 2325,
      "838": 2326,
      "835": 2327,
      "840": 2328,
      "121": 2329,
      "395": 2330,
      "333": 2331,
      "550": 2332,
      "629": 2333,
      "760": 2334,
      "869": 2335,
      "969": 2336,
      "232": 2337,
      "321": 2338,
      "650": 2339,
      "222": 2340,
      "529": 2341,
      "630": 2342,
      "948": 2343,
      "ãĤ»ãĥŀãĥķãĤ©": 2344,
      "365": 2345,
      "567": 2346,
      "727": 2347,
      "778": 2348,
      "827": 2349,
      "850": 2350,
      "950": 2351,
      "368": 2352,
      "749": 2353,
      "769": 2354,
      "947": 2355,
      "958": 2356,
      "231": 2357,
      "535": 2358,
      "664": 2359,
      "627": 2360,
      "660": 2361,
      "740": 2362,
      "864": 2363,
      "568": 2364,
      "Var": 2365,
      "ict": 2366,
      "398": 2367,
      "399": 2368,
      "899": 2369,
      "288": 2370,
      "548": 2371,
      "770": 2372,
      "759": 2373,
      "ãĤ»ãĥĥãĤ·ãĥ§ãĥ³": 2374,
      "767": 2375,
      "342": 2376,
      "655": 2377,
      "859": 2378,
      "978": 2379,
      "ĠGenerator": 2380,
      "ãĤªãĥ¼ãĥĲãĥ¼ãĥĺãĥĥãĥī": 2381,
      "284": 2382,
      "349": 2383,
      "ĠCallable": 2384,
      "638": 2385,
      "635": 2386,
      "768": 2387,
      "285": 2388,
      "344": 2389,
      "666": 2390,
      "929": 2391,
      "960": 2392,
      "ãĤ³ãĥ³ãĥĳãĤ¤ãĥ©": 2393,
      "242": 2394,
      "393": 2395,
      "656": 2396,
      "637": 2397,
      "930": 2398,
      "938": 2399,
      "988": 2400,
      "ãĤŃãĥ£ãĥĥãĤ·ãĥ¥": 2401,
      "564": 2402,
      "750": 2403,
      "879": 2404,
      "858": 2405,
      "980": 2406,
      "ãĤµãĥ¼ãĥĵãĤ¹": 2407,
      "287": 2408,
      "878": 2409,
      "937": 2410,
      "ãĤ«ãĥ¼ãĥįãĥ«": 2411,
      "286": 2412,
      "737": 2413,
      "847": 2414,
      "868": 2415,
      "990": 2416,
      "366": 2417,
      "645": 2418,
      "845": 2419,
      "935": 2420,
      "970": 2421,
      "346": 2422,
      "663": 2423,
      "283": 2424,
      "652": 2425,
      "779": 2426,
      "Option": 2427,
      "441": 2428,
      "777": 2429,
      "Optional": 2430,
      "558": 2431,
      "755": 2432,
      "331": 2433,
      "747": 2434,
      "989": 2435,
      "282": 2436,
      "444": 2437,
      "ĠAny": 2438,
      "668": 2439,
      "729": 2440,
      "979": 2441,
      "967": 2442,
      "391": 2443,
      "348": 2444,
      "927": 2445,
      "281": 2446,
      "343": 2447,
      "654": 2448,
      "442": 2449,
      "757": 2450,
      "545": 2451,
      "955": 2452,
      "446": 2453,
      "774": 2454,
      "462": 2455,
      "ĠMapping": 2456,
      "ĠUnion": 2457,
      "347": 2458,
      "653": 2459,
      "590": 2460,
      "964": 2461,
      "945": 2462,
      "968": 2463,
      "341": 2464,
      "ĠIterable": 2465,
      "651": 2466,
      "662": 2467,
      "380": 2468,
      "400": 2469,
      "uple": 2470,
      "ĠSequence": 2471,
      "Ġtuple": 2472,
      "949": 2473,
      "771": 2474,
      "776": 2475,
      "481": 2476,
      "775": 2477,
      "959": 2478,
      "370": 2479,
      "658": 2480,
      "500": 2481,
      "754": 2482,
      "Ġlist": 2483,
      "880": 2484,
      "443": 2485,
      "752": 2486,
      "461": 2487,
      "Ġbytes": 2488,
      "387": 2489,
      "657": 2490,
      "490": 2491,
      "507": 2492,
      "æĶ¹åĸĦãģĮç´łæĻ´ãĤīãģĹãģĦãģ§ãģĻãģŃ": 2493,
      "279": 2494,
      "576": 2495,
      "ĠCoroutine": 2496,
      "290": 2497,
      "405": 2498,
      "756": 2499,
      "463": 2500,
      "855": 2501,
      "ĠOptional": 2502,
      "659": 2503,
      "ãĤ¤ãĥ³ãĤ¿ãĥ¼ãĥķãĤ§ãĥ¼ãĤ¹ç®¡çĲĨãģĮæ±ĤãĤģãĤīãĤĮãģ¾ãģĻ": 2504,
      "388": 2505,
      "589": 2506,
      "800": 2507,
      "661": 2508,
      "270": 2509,
      "386": 2510,
      "480": 2511,
      "709": 2512,
      "Ġdict": 2513,
      "307": 2514,
      "454": 2515,
      "275": 2516,
      "695": 2517,
      "702": 2518,
      "753": 2519,
      "573": 2520,
      "423": 2521,
      "378": 2522,
      "350": 2523,
      "357": 2524,
      "494": 2525,
      "499": 2526,
      "670": 2527,
      "690": 2528,
      "780": 2529,
      "887": 2530,
      "572": 2531,
      "ĠTypeVar": 2532,
      "300": 2533,
      "646": 2534,
      "293": 2535,
      "493": 2536,
      "751": 2537,
      "297": 2538,
      "371": 2539,
      "372": 2540,
      "680": 2541,
      "700": 2542,
      "790": 2543,
      "900": 2544,
      "772": 2545,
      "431": 2546,
      "Ġset": 2547,
      "302": 2548,
      "309": 2549,
      "458": 2550,
      "294": 2551,
      "296": 2552,
      "278": 2553,
      "608": 2554,
      "677": 2555,
      "689": 2556,
      "ãģ®çµ±åĲĪãģ«ãģ¯æħİéĩįãģªãĤ¤ãĥ³ãĤ¿ãĥ¼ãĥķãĤ§ãĥ¼ãĤ¹ç®¡çĲĨãģĮæ±ĤãĤģãĤīãĤĮãģ¾ãģĻ": 2557,
      "885": 2558,
      "»ãĥŀãĥķãĤ©ç®¡çĲĨãģĮæ±ĤãĤģãĤīãĤĮãģ¾ãģĻ": 2559,
      "ãģ®çµ±åĲĪãģ«ãģ¯æħİéĩįãģªãĤ»ãĥŀãĥķãĤ©ç®¡çĲĨãģĮæ±ĤãĤģãĤīãĤĮãģ¾ãģĻ": 2560,
      "ĠIterator": 2561,
      "304": 2562,
      "457": 2563,
      "291": 2564,
      "276": 2565,
      "277": 2566,
      "385": 2567,
      "488": 2568,
      "681": 2569,
      "685": 2570,
      "688": 2571,
      "699": 2572,
      "358": 2573,
      "478": 2574,
      "ãģ¨ãĤ·ãĥªãĤ¢ãĥ©ãĤ¤ãĤ¼ãĥ¼ãĤ·ãĥ§ãĥ³": 2575,
      "603": 2576,
      "593": 2577,
      "596": 2578,
      "794": 2579,
      "588": 2580,
      "809": 2581,
      "571": 2582,
      "308": 2583,
      "648": 2584,
      "672": 2585,
      "594": 2586,
      "773": 2587,
      "305": 2588,
      "459": 2589,
      "299": 2590,
      "377": 2591,
      "359": 2592,
      "487": 2593,
      "609": 2594,
      "671": 2595,
      "683": 2596,
      "705": 2597,
      "797": 2598,
      "806": 2599,
      "557": 2600,
      "897": 2601,
      "640": 2602,
      "649": 2603,
      "295": 2604,
      "298": 2605,
      "382": 2606,
      "373": 2607,
      "356": 2608,
      "409": 2609,
      "489": 2610,
      "675": 2611,
      "789": 2612,
      "è¨Ńå®ļç®¡çĲĨãģĮæ±ĤãĤģãĤīãĤĮãģ¾ãģĻ": 2613,
      "453": 2614,
      "456": 2615,
      "486": 2616,
      "470": 2617,
      "785": 2618,
      "706": 2619,
      "889": 2620,
      "853": 2621,
      "ãĥĩãĥ¼ãĤ¿ãĥĻãĥ¼ãĤ¹ç®¡çĲĨãģĮæ±ĤãĤģãĤīãĤĮãģ¾ãģĻ": 2622,
      "451": 2623,
      "272": 2624,
      "354": 2625,
      "407": 2626,
      "473": 2627,
      "474": 2628,
      "498": 2629,
      "607": 2630,
      "679": 2631,
      "692": 2632,
      "ãģ®çµ±åĲĪãģ«ãģ¯æħİéĩįãģªãĥĩãĥ¼ãĤ¿ãĥĻãĥ¼ãĤ¹ç®¡çĲĨãģĮæ±ĤãĤģãĤīãĤĮãģ¾ãģĻ": 2633,
      "784": 2634,
      "585": 2635,
      "903": 2636,
      "854": 2637,
      "ãģ¨ãĤ«ãĥĹãĤ»ãĥ«åĮĸ": 2638,
      "ãĥĩãĥĹãĥŃãĤ¤ç®¡çĲĨãģĮæ±ĤãĤģãĤīãĤĮãģ¾ãģĻ": 2639,
      "292": 2640,
      "274": 2641,
      "600": 2642,
      "606": 2643,
      "684": 2644,
      "698": 2645,
      "781": 2646,
      "786": 2647,
      "704": 2648,
      "508": 2649,
      "906": 2650,
      "908": 2651,
      "805": 2652,
      "994": 2653,
      "987": 2654,
      "ãĤ¹ãĤŃãĥ¼ãĥŀç®¡çĲĨãģĮæ±ĤãĤģãĤīãĤĮãģ¾ãģĻ": 2655,
      "353": 2656,
      "491": 2657,
      "ãģ¨ãĤ¹ãĤ±ãĥ¼ãĥ©ãĥĵãĥªãĥĨãĤ£": 2658,
      "ãģ¨ãĥĳãĥķãĤ©ãĥ¼ãĥŀãĥ³ãĤ¹": 2659,
      "708": 2660,
      "502": 2661,
      "584": 2662,
      "954": 2663,
      "455": 2664,
      "271": 2665,
      "381": 2666,
      "408": 2667,
      "601": 2668,
      "674": 2669,
      "676": 2670,
      "697": 2671,
      "503": 2672,
      "504": 2673,
      "506": 2674,
      "583": 2675,
      "888": 2676,
      "956": 2677,
      "355": 2678,
      "404": 2679,
      "477": 2680,
      "ãģ¨ãĥªãĥĿãĤ¸ãĥĪãĥª": 2681,
      "605": 2682,
      "691": 2683,
      "783": 2684,
      "591": 2685,
      "598": 2686,
      "599": 2687,
      "886": 2688,
      "553": 2689,
      "992": 2690,
      "895": 2691,
      "856": 2692,
      "972": 2693,
      "973": 2694,
      "452": 2695,
      "376": 2696,
      "484": 2697,
      "471": 2698,
      "472": 2699,
      "ãģ¨ãĤ¤ãĥ³ãĤ¿ãĥ¼ãĥķãĤ§ãĥ¼ãĤ¹": 2700,
      "ãģ¨ãĥĩãĥĲãĥĥãĤ°": 2701,
      "ãģ¨æľĢéģ©åĮĸ": 2702,
      "678": 2703,
      "ãģ®çµ±åĲĪãģ«ãģ¯æħİéĩįãģªãĥĩãĥĹãĥŃãĤ¤ç®¡çĲĨãģĮæ±ĤãĤģãĤīãĤĮãģ¾ãģĻ": 2704,
      "787": 2705,
      "703": 2706,
      "792": 2707,
      "793": 2708,
      "580": 2709,
      "581": 2710,
      "586": 2711,
      "898": 2712,
      "876": 2713,
      "ãĤ·ãĥªãĤ¢ãĥ©ãĤ¤ãĤ¼ãĥ¼ãĤ·ãĥ§ãĥ³ç®¡çĲĨãģĮæ±ĤãĤģãĤīãĤĮãģ¾ãģĻ": 2714,
      "ä»ķæ§ĺç®¡çĲĨãģĮæ±ĤãĤģãĤīãĤĮãģ¾ãģĻ": 2715,
      "ãĤ³ãĥ³ãĥĨãĥĬç®¡çĲĨãģĮæ±ĤãĤģãĤīãĤĮãģ¾ãģĻ": 2716,
      "642": 2717,
      "644": 2718,
      "273": 2719,
      "389": 2720,
      "374": 2721,
      "352": 2722,
      "401": 2723,
      "ãģ¨ãĤ·ãĤ¹ãĥĨãĥłãģ®": 2724,
      "ãģ¨ãĥĪãĥ¼ãĤ¯ãĥĬãĤ¤ãĤ¶ãĥ¼": 2725,
      "ãģ¨ãĤ¯ãĤ¨ãĥª": 2726,
      "682": 2727,
      "592": 2728,
      "587": 2729,
      "884": 2730,
      "905": 2731,
      "574": 2732,
      "851": 2733,
      "952": 2734,
      "874": 2735,
      "974": 2736,
      "ãģ¨ãĤ·ãĤ¹ãĥĨãĥłãģ®çµ±åĲĪãģ«ãģ¯æħİéĩįãģª": 2737,
      "306": 2738,
      "643": 2739,
      "497": 2740,
      "604": 2741,
      "693": 2742,
      "909": 2743,
      "804": 2744,
      "807": 2745,
      "554": 2746,
      "555": 2747,
      "894": 2748,
      "984": 2749,
      "985": 2750,
      "624": 2751,
      "301": 2752,
      "485": 2753,
      "479": 2754,
      "492": 2755,
      "ãģ¨ãĥĩãĥĹãĥŃãĤ¤": 2756,
      "ãģ¨ãĥĻãĥ³ãĥģãĥŀãĥ¼ãĤ¯": 2757,
      "ãģ®çµ±åĲĪãģ«ãģ¯æħİéĩįãģªãĤ¹ãĤŃãĥ¼ãĥŀç®¡çĲĨãģĮæ±ĤãĤģãĤīãĤĮãģ¾ãģĻ": 2758,
      "791": 2759,
      "798": 2760,
      "882": 2761,
      "803": 2762,
      "808": 2763,
      "556": 2764,
      "647": 2765,
      "379": 2766,
      "351": 2767,
      "403": 2768,
      "406": 2769,
      "475": 2770,
      "ãģ¨ãĥ¢ãĤ¸ãĥ¥ãĥ¼ãĥ«": 2771,
      "673": 2772,
      "ãģ®çµ±åĲĪãģ«ãģ¯æħİéĩįãģªè¨Ńå®ļç®¡çĲĨãģĮæ±ĤãĤģãĤīãĤĮãģ¾ãģĻ": 2773,
      "907": 2774,
      "551": 2775,
      "995": 2776,
      "998": 2777,
      "982": 2778,
      "å¸¯åŁŁå¹ħç®¡çĲĨãģĮæ±ĤãĤģãĤīãĤĮãģ¾ãģĻ": 2779,
      "åĲĮæľŁç®¡çĲĨãģĮæ±ĤãĤģãĤīãĤĮãģ¾ãģĻ": 2780,
      "æļĹåı·åĮĸç®¡çĲĨãģĮæ±ĤãĤģãĤīãĤĮãģ¾ãģĻ": 2781,
      "ãĥĿãĥªãĥ¢ãĥ¼ãĥķãĤ£ãĤºãĥłç®¡çĲĨãģĮæ±ĤãĤģãĤīãĤĮãģ¾ãģĻ": 2782,
      "384": 2783,
      "375": 2784,
      "402": 2785,
      "476": 2786,
      "495": 2787,
      "696": 2788,
      "ãģ®çµ±åĲĪãģ«ãģ¯æħİéĩįãģªãĤ·ãĥªãĤ¢ãĥ©ãĤ¤ãĤ¼ãĥ¼ãĤ·ãĥ§ãĥ³ç®¡çĲĨãģĮæ±ĤãĤģãĤīãĤĮãģ¾ãģĻ": 2789,
      "ãģ®çµ±åĲĪãģ«ãģ¯æħİéĩįãģªãĤ³ãĥ³ãĥĨãĥĬç®¡çĲĨãģĮæ±ĤãĤģãĤīãĤĮãģ¾ãģĻ": 2790,
      "ãģ®çµ±åĲĪãģ«ãģ¯æħİéĩįãģªãĥĿãĥªãĥ¢ãĥ¼ãĥķãĤ£ãĤºãĥłç®¡çĲĨãģĮæ±ĤãĤģãĤīãĤĮãģ¾ãģĻ": 2791,
      "707": 2792,
      "509": 2793,
      "799": 2794,
      "881": 2795,
      "993": 2796,
      "996": 2797,
      "997": 2798,
      "986": 2799,
      "852": 2800,
      "871": 2801,
      "961": 2802,
      "»ãĥĥãĤ·ãĥ§ãĥ³ç®¡çĲĨãģĮæ±ĤãĤģãĤīãĤĮãģ¾ãģĻ": 2803,
      "ãĤ¢ãĥ¼ãĤŃãĥĨãĤ¯ãĥģãĥ£ç®¡çĲĨãģĮæ±ĤãĤģãĤīãĤĮãģ¾ãģĻ": 2804,
      "ä¸¦åĪĹæĢ§ç®¡çĲĨãģĮæ±ĤãĤģãĤīãĤĮãģ¾ãģĻ": 2805,
      "ãģ®çµ±åĲĪãģ«ãģ¯æħİéĩįãģªãĤ»ãĥĥãĤ·ãĥ§ãĥ³ç®¡çĲĨãģĮæ±ĤãĤģãĤīãĤĮãģ¾ãģĻ": 2806,
      "496": 2807,
      "602": 2808,
      "701": 2809,
      "597": 2810,
      "883": 2811,
      "552": 2812,
      "891": 2813,
      "971": 2814,
      "976": 2815,
      "ãĥĪãĥ©ãĥ³ãĤ¶ãĤ¯ãĤ·ãĥ§ãĥ³ç®¡çĲĨãģĮæ±ĤãĤģãĤīãĤĮãģ¾ãģĻ": 2816,
      "ãģ¨ãĤ«ãĥ¼ãĥįãĥ«": 2817,
      "ãģ¨ãĤ¤ãĥĨãĥ¬ãĥ¼ãĤ·ãĥ§ãĥ³": 2818,
      "ãģ¨ãĤ³ãĥ³ãĥĨãĥĬ": 2819,
      "694": 2820,
      "ãģ®çµ±åĲĪãģ«ãģ¯æħİéĩįãģªä»ķæ§ĺç®¡çĲĨãģĮæ±ĤãĤģãĤīãĤĮãģ¾ãģĻ": 2821,
      "ãģ®çµ±åĲĪãģ«ãģ¯æħİéĩįãģªæļĹåı·åĮĸç®¡çĲĨãģĮæ±ĤãĤģãĤīãĤĮãģ¾ãģĻ": 2822,
      "788": 2823,
      "505": 2824,
      "999": 2825,
      "896": 2826,
      "953": 2827,
      "561": 2828,
      "ä¾ĿåŃĺæĢ§ç®¡çĲĨãģĮæ±ĤãĤģãĤīãĤĮãģ¾ãģĻ": 2829,
      "ãĥŁãĥīãĥ«ãĤ¦ãĤ§ãĤ¢ç®¡çĲĨãģĮæ±ĤãĤģãĤīãĤĮãģ¾ãģĻ": 2830,
      "ãģ¨ãĥŃãĥ¼ãĥī": 2831,
      "686": 2832,
      "ãģ®çµ±åĲĪãģ«ãģ¯æħİéĩįãģªå¸¯åŁŁå¹ħç®¡çĲĨãģĮæ±ĤãĤģãĤīãĤĮãģ¾ãģĻ": 2833,
      "ãģ®çµ±åĲĪãģ«ãģ¯æħİéĩįãģªåĲĮæľŁç®¡çĲĨãģĮæ±ĤãĤģãĤīãĤĮãģ¾ãģĻ": 2834,
      "ãģ®çµ±åĲĪãģ«ãģ¯æħİéĩįãģªä¸¦åĪĹæĢ§ç®¡çĲĨãģĮæ±ĤãĤģãĤīãĤĮãģ¾ãģĻ": 2835,
      "796": 2836,
      "893": 2837,
      "873": 2838,
      "761": 2839,
      "ãģ¨åĲįåīįç©ºéĸĵ": 2840,
      "ãģ¨ä¿¡éł¼æĢ§": 2841,
      "795": 2842,
      "801": 2843,
      "åĲįåīįç©ºéĸĵç®¡çĲĨãģĮæ±ĤãĤģãĤīãĤĮãģ¾ãģĻ": 2844,
      "å¤īæķ°ç®¡çĲĨãģĮæ±ĤãĤģãĤīãĤĮãģ¾ãģĻ": 2845,
      "èĦĨå¼±æĢ§ç®¡çĲĨãģĮæ±ĤãĤģãĤīãĤĮãģ¾ãģĻ": 2846,
      "ãĤ·ãĤ¹ãĥĨãĥłç®¡çĲĨãģĮæ±ĤãĤģãĤīãĤĮãģ¾ãģĻ": 2847,
      "424": 2848,
      "303": 2849,
      "383": 2850,
      "ãģ¨ãĥ©ãĤ¤ãĥĸãĥ©ãĥª": 2851,
      "ãģ¨ãĤ¢ãĥ«ãĤ´ãĥªãĤºãĥłãģ®": 2852,
      "802": 2853,
      "983": 2854,
      "951": 2855,
      "ãĥĩãĥĲãĥĥãĤ°ç®¡çĲĨãģĮæ±ĤãĤģãĤīãĤĮãģ¾ãģĻ": 2856,
      "ãĥ¬ãĤ¤ãĥĨãĥ³ãĤ·ç®¡çĲĨãģĮæ±ĤãĤģãĤīãĤĮãģ¾ãģĻ": 2857,
      "ãģ¨ãĤ¢ãĥ«ãĤ´ãĥªãĤºãĥłãģ®çµ±åĲĪãģ«ãģ¯æħİéĩįãģª": 2858,
      "¡ç®¡çĲĨãģĮæ±ĤãĤģãĤīãĤĮãģ¾ãģĻ": 2859,
      "641": 2860,
      "482": 2861,
      "483": 2862,
      "ãģ¨ä»®æĥ³åĮĸ": 2863,
      "ãģ¨ãĥĳãĥ©ãĥ¡ãĥ¼ãĤ¿": 2864,
      "ãģ¨ãĥ¬ãĤ¤ãĥĨãĥ³ãĤ·": 2865,
      "ãģ¨æļĹåı·åĮĸ": 2866,
      "ãģ®çµ±åĲĪãģ«ãģ¯æħİéĩįãģªãĤ¢ãĥ¼ãĤŃãĥĨãĤ¯ãĥģãĥ£ç®¡çĲĨãģĮæ±ĤãĤģãĤīãĤĮãģ¾ãģĻ": 2867,
      "501": 2868,
      "902": 2869,
      "904": 2870,
      "ªãĥ¼ãĥĲãĥ¼ãĥĺãĥĥãĥīç®¡çĲĨãģĮæ±ĤãĤģãĤīãĤĮãģ¾ãģĻ": 2871,
      "ãĥĲãĥĥãĥķãĤ¡ç®¡çĲĨãģĮæ±ĤãĤģãĤīãĤĮãģ¾ãģĻ": 2872,
      "ãģ®çµ±åĲĪãģ«ãģ¯æħİéĩįãģªãĤªãĥ¼ãĥĲãĥ¼ãĥĺãĥĥãĥīç®¡çĲĨãģĮæ±ĤãĤģãĤīãĤĮãģ¾ãģĻ": 2873,
      "928": 2874,
      "ãģ¨ãĥĿãĥªãĥ¢ãĥ¼ãĥķãĤ£ãĤºãĥłãģ®": 2875,
      "ãģ®çµ±åĲĪãģ«ãģ¯æħİéĩįãģªãĥĪãĥ©ãĥ³ãĤ¶ãĤ¯ãĤ·ãĥ§ãĥ³ç®¡çĲĨãģĮæ±ĤãĤģãĤīãĤĮãģ¾ãģĻ": 2876,
      "ãģ®çµ±åĲĪãģ«ãģ¯æħİéĩįãģªãĤ·ãĤ¹ãĥĨãĥłç®¡çĲĨãģĮæ±ĤãĤģãĤīãĤĮãģ¾ãģĻ": 2877,
      "782": 2878,
      "ä¸¦è¡ĮæĢ§ç®¡çĲĨãģĮæ±ĤãĤģãĤīãĤĮãģ¾ãģĻ": 2879,
      "ãĥĳãĤ¤ãĥĹãĥ©ãĤ¤ãĥ³ç®¡çĲĨãģĮæ±ĤãĤģãĤīãĤĮãģ¾ãģĻ": 2880,
      "ãģ¨ãĥĿãĥªãĥ¢ãĥ¼ãĥķãĤ£ãĤºãĥłãģ®çµ±åĲĪãģ«ãģ¯æħİéĩįãģª": 2881,
      "819": 2882,
      "ãģ¨ä»ķæ§ĺ": 2883,
      "ãģ¨ãĥĲãĥĥãĥķãĤ¡": 2884,
      "ãģ¨åı¯çĶ¨æĢ§": 2885,
      "ãģ¨èĦĨå¼±æĢ§": 2886,
      "ãģ¨ãĥŁãĥīãĥ«ãĤ¦ãĤ§ãĤ¢": 2887,
      "ãģ¨ãĥķãĥ¬ãĥ¼ãĥłãĥ¯ãĥ¼ãĤ¯": 2888,
      "ãģ®çµ±åĲĪãģ«ãģ¯æħİéĩįãģªä¾ĿåŃĺæĢ§ç®¡çĲĨãģĮæ±ĤãĤģãĤīãĤĮãģ¾ãģĻ": 2889,
      "ãģ®çµ±åĲĪãģ«ãģ¯æħİéĩįãģªãĥŁãĥīãĥ«ãĤ¦ãĤ§ãĤ¢ç®¡çĲĨãģĮæ±ĤãĤģãĤīãĤĮãģ¾ãģĻ": 2890,
      "ãģ®çµ±åĲĪãģ«ãģ¯æħİéĩįãģªå¤īæķ°ç®¡çĲĨãģĮæ±ĤãĤģãĤīãĤĮãģ¾ãģĻ": 2891,
      "595": 2892,
      "582": 2893,
      "991": 2894,
      "872": 2895,
      "ãģ¨ãĤ»ãĥĥãĤ·ãĥ§ãĥ³": 2896,
      "æ©Łèĥ½ç®¡çĲĨãģĮæ±ĤãĤģãĤīãĤĮãģ¾ãģĻ": 2897,
      "910": 2898,
      "ãģ¨ä¾ĿåŃĺæĢ§": 2899,
      "ãģ®çµ±åĲĪãģ«ãģ¯æħİéĩįãģªèĦĨå¼±æĢ§ç®¡çĲĨãģĮæ±ĤãĤģãĤīãĤĮãģ¾ãģĻ": 2900,
      "ãģ®çµ±åĲĪãģ«ãģ¯æħİéĩįãģªãĥ¬ãĤ¤ãĥĨãĥ³ãĤ·ç®¡çĲĨãģĮæ±ĤãĤģãĤīãĤĮãģ¾ãģĻ": 2901,
      "ãĥªãĥĿãĤ¸ãĥĪãĥªç®¡çĲĨãģĮæ±ĤãĤģãĤīãĤĮãģ¾ãģĻ": 2902,
      "ä¿¡éł¼æĢ§ç®¡çĲĨãģĮæ±ĤãĤģãĤīãĤĮãģ¾ãģĻ": 2903,
      "818": 2904,
      "913": 2905,
      "ãģ¨ãĥĳãĤ¤ãĥĹãĥ©ãĤ¤ãĥ³": 2906,
      "ãģ®çµ±åĲĪãģ«ãģ¯æħİéĩįãģªãĥĩãĥĲãĥĥãĤ°ç®¡çĲĨãģĮæ±ĤãĤģãĤīãĤĮãģ¾ãģĻ": 2907,
      "901": 2908,
      "ãĤ¹ãĥ«ãĥ¼ãĥĹãĥĥãĥĪç®¡çĲĨãģĮæ±ĤãĤģãĤīãĤĮãģ¾ãģĻ": 2909,
      "620": 2910,
      "ãģ¨ç¶Ļæī¿": 2911,
      "ãģ¨ãĤ¢ãĥ¼ãĤŃãĥĨãĤ¯ãĥģãĥ£": 2912,
      "ãģ¨ãĤ¹ãĤŃãĥ¼ãĥŀ": 2913,
      "ãģ¨ãĥĲãĥªãĥĩãĥ¼ãĤ·ãĥ§ãĥ³": 2914,
      "ãģ¨ä¸¦åĪĹæĢ§": 2915,
      "ãģ®çµ±åĲĪãģ«ãģ¯æħİéĩįãģªåĲįåīįç©ºéĸĵç®¡çĲĨãģĮæ±ĤãĤģãĤīãĤĮãģ¾ãģĻ": 2916,
      "ãģ®çµ±åĲĪãģ«ãģ¯æħİéĩįãģªãĥªãĥĿãĤ¸ãĥĪãĥªç®¡çĲĨãģĮæ±ĤãĤģãĤīãĤĮãģ¾ãģĻ": 2917,
      "³ãĥ³ãĥĿãĥ¼ãĥįãĥ³ãĥĪç®¡çĲĨãģĮæ±ĤãĤģãĤīãĤĮãģ¾ãģĻ": 2918,
      "ãĥĹãĥŃãĥĪãĤ³ãĥ«ç®¡çĲĨãģĮæ±ĤãĤģãĤīãĤĮãģ¾ãģĻ": 2919,
      "åı¯çĶ¨æĢ§ç®¡çĲĨãģĮæ±ĤãĤģãĤīãĤĮãģ¾ãģĻ": 2920,
      "ãģ®çµ±åĲĪãģ«ãģ¯æħİéĩįãģªãĤ³ãĥ³ãĥĿãĥ¼ãĥįãĥ³ãĥĪç®¡çĲĨãģĮæ±ĤãĤģãĤīãĤĮãģ¾ãģĻ": 2921,
      "ãģ¨ãĤŃãĥ£ãĥĥãĤ·ãĥ¥": 2922,
      "211": 2923,
      "ãģ¨èªįåı¯": 2924,
      "ãģ¨å¤īæķ°": 2925,
      "ãģ¨ä¸¦è¡ĮæĢ§": 2926,
      "ãģ®çµ±åĲĪãģ«ãģ¯æħİéĩįãģªãĥĲãĥĥãĥķãĤ¡ç®¡çĲĨãģĮæ±ĤãĤģãĤīãĤĮãģ¾ãģĻ": 2927,
      "ãģ®çµ±åĲĪãģ«ãģ¯æħİéĩįãģªä¸¦è¡ĮæĢ§ç®¡çĲĨãģĮæ±ĤãĤģãĤīãĤĮãģ¾ãģĻ": 2928,
      "ãģ®çµ±åĲĪãģ«ãģ¯æħİéĩįãģªæ©Łèĥ½ç®¡çĲĨãģĮæ±ĤãĤģãĤīãĤĮãģ¾ãģĻ": 2929,
      "ãģ®çµ±åĲĪãģ«ãģ¯æħİéĩįãģªä¿¡éł¼æĢ§ç®¡çĲĨãģĮæ±ĤãĤģãĤīãĤĮãģ¾ãģĻ": 2930,
      "861": 2931,
      "ç¶Ļæī¿ç®¡çĲĨãģĮæ±ĤãĤģãĤīãĤĮãģ¾ãģĻ": 2932,
      "èªįåı¯ç®¡çĲĨãģĮæ±ĤãĤģãĤīãĤĮãģ¾ãģĻ": 2933,
      "åĨįå¸°ç®¡çĲĨãģĮæ±ĤãĤģãĤīãĤĮãģ¾ãģĻ": 2934,
      "³ãĥ³ãĥĳãĤ¤ãĥ©ç®¡çĲĨãģĮæ±ĤãĤģãĤīãĤĮãģ¾ãģĻ": 2935,
      "ãģ®çµ±åĲĪãģ«ãģ¯æħİéĩįãģªãĤ³ãĥ³ãĥĳãĤ¤ãĥ©ç®¡çĲĨãģĮæ±ĤãĤģãĤīãĤĮãģ¾ãģĻ": 2936,
      "ãģ¨ãĤ»ãĥŀãĥķãĤ©": 2937,
      "ãģ¨ãĤªãĥ¼ãĥĲãĥ¼ãĥĺãĥĥãĥī": 2938,
      "ãĥĳãĥ©ãĥ¡ãĥ¼ãĤ¿ç®¡çĲĨãģĮæ±ĤãĤģãĤīãĤĮãģ¾ãģĻ": 2939,
      "ãģ¨å¸¯åŁŁå¹ħ": 2940,
      "ãģ¨è¨Ńå®ļ": 2941,
      "ãģ¨åĨįå¸°": 2942,
      "ãģ¨åĲĮæľŁ": 2943,
      "ãģ®çµ±åĲĪãģ«ãģ¯æħİéĩįãģªãĥĳãĤ¤ãĥĹãĥ©ãĤ¤ãĥ³ç®¡çĲĨãģĮæ±ĤãĤģãĤīãĤĮãģ¾ãģĻ": 2944,
      "ãĤ¹ãĤ±ãĥ¼ãĥ©ãĥĵãĥªãĥĨãĤ£ç®¡çĲĨãģĮæ±ĤãĤģãĤīãĤĮãģ¾ãģĻ": 2945,
      "436": 2946,
      "825": 2947,
      "ãģ®çµ±åĲĪãģ«ãģ¯æħİéĩįãģªãĥĹãĥŃãĥĪãĤ³ãĥ«ç®¡çĲĨãģĮæ±ĤãĤģãĤīãĤĮãģ¾ãģĻ": 2948,
      "èªįè¨¼ç®¡çĲĨãģĮæ±ĤãĤģãĤīãĤĮãģ¾ãģĻ": 2949,
      "ãĤ¯ãĤ¨ãĥªç®¡çĲĨãģĮæ±ĤãĤģãĤīãĤĮãģ¾ãģĻ": 2950,
      "720": 2951,
      "812": 2952,
      "ãģ¨ãĤ¹ãĥ«ãĥ¼ãĥĹãĥĥãĥĪ": 2953,
      "ãģ¨ãĤ¨ãĥ³ãĥīãĥĿãĤ¤ãĥ³ãĥĪ": 2954,
      "ãģ®çµ±åĲĪãģ«ãģ¯æħİéĩįãģªãĤ¹ãĥ«ãĥ¼ãĥĹãĥĥãĥĪç®¡çĲĨãģĮæ±ĤãĤģãĤīãĤĮãģ¾ãģĻ": 2955,
      "ãģ®çµ±åĲĪãģ«ãģ¯æħİéĩįãģªåı¯çĶ¨æĢ§ç®¡çĲĨãģĮæ±ĤãĤģãĤīãĤĮãģ¾ãģĻ": 2956,
      "ãģ®çµ±åĲĪãģ«ãģ¯æħİéĩįãģªèªįåı¯ç®¡çĲĨãģĮæ±ĤãĤģãĤīãĤĮãģ¾ãģĻ": 2957,
      "ãģ®çµ±åĲĪãģ«ãģ¯æħİéĩįãģªåĨįå¸°ç®¡çĲĨãģĮæ±ĤãĤģãĤīãĤĮãģ¾ãģĻ": 2958,
      "«ãĥĹãĤ»ãĥ«åĮĸç®¡çĲĨãģĮæ±ĤãĤģãĤīãĤĮãģ¾ãģĻ": 2959,
      "ãĥ©ãĤ¤ãĥĸãĥ©ãĥªç®¡çĲĨãģĮæ±ĤãĤģãĤīãĤĮãģ¾ãģĻ": 2960,
      "ãĥĪãĥ¼ãĤ¯ãĥĬãĤ¤ãĤ¶ãĥ¼ç®¡çĲĨãģĮæ±ĤãĤģãĤīãĤĮãģ¾ãģĻ": 2961,
      "ãĥĲãĥªãĥĩãĥ¼ãĤ·ãĥ§ãĥ³ç®¡çĲĨãģĮæ±ĤãĤģãĤīãĤĮãģ¾ãģĻ": 2962,
      "ãģ®çµ±åĲĪãģ«ãģ¯æħİéĩįãģªãĤ«ãĥĹãĤ»ãĥ«åĮĸç®¡çĲĨãģĮæ±ĤãĤģãĤīãĤĮãģ¾ãģĻ": 2963,
      "ãĥŃãĥ¼ãĥīç®¡çĲĨãģĮæ±ĤãĤģãĤīãĤĮãģ¾ãģĻ": 2964,
      "410": 2965,
      "512": 2966,
      "725": 2967,
      "ãģ®çµ±åĲĪãģ«ãģ¯æħİéĩįãģªç¶Ļæī¿ç®¡çĲĨãģĮæ±ĤãĤģãĤīãĤĮãģ¾ãģĻ": 2968,
      "ãģ®çµ±åĲĪãģ«ãģ¯æħİéĩįãģªãĥĳãĥ©ãĥ¡ãĥ¼ãĤ¿ç®¡çĲĨãģĮæ±ĤãĤģãĤīãĤĮãģ¾ãģĻ": 2969,
      "ãģ®çµ±åĲĪãģ«ãģ¯æħİéĩįãģªãĤ¹ãĤ±ãĥ¼ãĥ©ãĥĵãĥªãĥĨãĤ£ç®¡çĲĨãģĮæ±ĤãĤģãĤīãĤĮãģ¾ãģĻ": 2970,
      "ãģ®çµ±åĲĪãģ«ãģ¯æħİéĩįãģªãĥĲãĥªãĥĩãĥ¼ãĤ·ãĥ§ãĥ³ç®¡çĲĨãģĮæ±ĤãĤģãĤīãĤĮãģ¾ãģĻ": 2971,
      "ãģ®çµ±åĲĪãģ«ãģ¯æħİéĩįãģªãĥŃãĥ¼ãĥīç®¡çĲĨãģĮæ±ĤãĤģãĤīãĤĮãģ¾ãģĻ": 2972,
      "981": 2973,
      "ãĤ¤ãĥĨãĥ¬ãĥ¼ãĤ·ãĥ§ãĥ³ç®¡çĲĨãģĮæ±ĤãĤģãĤīãĤĮãģ¾ãģĻ": 2974,
      "ãĥĳãĥķãĤ©ãĥ¼ãĥŀãĥ³ãĤ¹ç®¡çĲĨãģĮæ±ĤãĤģãĤīãĤĮãģ¾ãģĻ": 2975,
      "320": 2976,
      "515": 2977,
      "639": 2978,
      "724": 2979,
      "726": 2980,
      "736": 2981,
      "810": 2982,
      "ãģ®çµ±åĲĪãģ«ãģ¯æħİéĩįãģªèªįè¨¼ç®¡çĲĨãģĮæ±ĤãĤģãĤīãĤĮãģ¾ãģĻ": 2983,
      "ãģ®çµ±åĲĪãģ«ãģ¯æħİéĩįãģªãĥ©ãĤ¤ãĥĸãĥ©ãĥªç®¡çĲĨãģĮæ±ĤãĤģãĤīãĤĮãģ¾ãģĻ": 2984,
      "ä»®æĥ³åĮĸç®¡çĲĨãģĮæ±ĤãĤģãĤīãĤĮãģ¾ãģĻ": 2985,
      "«ãĥ¼ãĥįãĥ«ç®¡çĲĨãģĮæ±ĤãĤģãĤīãĤĮãģ¾ãģĻ": 2986,
      "ä¿Ŀå®ĪæĢ§ç®¡çĲĨãģĮæ±ĤãĤģãĤīãĤĮãģ¾ãģĻ": 2987,
      "ãģ®çµ±åĲĪãģ«ãģ¯æħİéĩįãģªãĤ«ãĥ¼ãĥįãĥ«ç®¡çĲĨãģĮæ±ĤãĤģãĤīãĤĮãģ¾ãģĻ": 2988,
      "523": 2989,
      "618": 2990,
      "718": 2991,
      "824": 2992,
      "915": 2993,
      "ãģ¨ãĥĹãĥŃãĥĪãĤ³ãĥ«": 2994,
      "ãģ¨ä¿Ŀå®ĪæĢ§": 2995,
      "ãģ¨ãĥĩãĥ¼ãĤ¿ãĥĻãĥ¼ãĤ¹": 2996,
      "ãģ¨ãĤ³ãĥ³ãĥĿãĥ¼ãĥįãĥ³ãĥĪ": 2997,
      "ãĥķãĥ¬ãĥ¼ãĥłãĥ¯ãĥ¼ãĤ¯ç®¡çĲĨãģĮæ±ĤãĤģãĤīãĤĮãģ¾ãģĻ": 2998,
      "319": 2999,
      "420": 3000,
      "518": 3001,
      "519": 3002,
      "712": 3003,
      "728": 3004,
      "766": 3005,
      "919": 3006,
      "912": 3007,
      "ãģ¨èªįè¨¼": 3008,
      "ãģ®çµ±åĲĪãģ«ãģ¯æħİéĩįãģªãĤ¯ãĤ¨ãĥªç®¡çĲĨãģĮæ±ĤãĤģãĤīãĤĮãģ¾ãģĻ": 3009,
      "ãģ®çµ±åĲĪãģ«ãģ¯æħİéĩįãģªãĥĪãĥ¼ãĤ¯ãĥĬãĤ¤ãĤ¶ãĥ¼ç®¡çĲĨãģĮæ±ĤãĤģãĤīãĤĮãģ¾ãģĻ": 3010,
      "ãģ¨ãĤ³ãĥ³ãĥĳãĤ¤ãĥ©": 3011,
      "313": 3012,
      "317": 3013,
      "417": 3014,
      "525": 3015,
      "865": 3016,
      "914": 3017,
      "939": 3018,
      "ãģ¨ãĥĪãĥ©ãĥ³ãĤ¶ãĤ¯ãĤ·ãĥ§ãĥ³": 3019,
      "ãģ®çµ±åĲĪãģ«ãģ¯æħİéĩįãģªãĥĳãĥķãĤ©ãĥ¼ãĥŀãĥ³ãĤ¹ç®¡çĲĨãģĮæ±ĤãĤģãĤīãĤĮãģ¾ãģĻ": 3020,
      "892": 3021,
      "ãģ¨ãĤµãĥ¼ãĥĵãĤ¹": 3022,
      "510": 3023,
      "ãģ®çµ±åĲĪãģ«ãģ¯æħİéĩįãģªä¿Ŀå®ĪæĢ§ç®¡çĲĨãģĮæ±ĤãĤģãĤīãĤĮãģ¾ãģĻ": 3024,
      "Ńãĥ£ãĥĥãĤ·ãĥ¥ç®¡çĲĨãģĮæ±ĤãĤģãĤīãĤĮãģ¾ãģĻ": 3025,
      "µãĥ¼ãĥĵãĤ¹ç®¡çĲĨãģĮæ±ĤãĤģãĤīãĤĮãģ¾ãģĻ": 3026,
      "ãģ®çµ±åĲĪãģ«ãģ¯æħİéĩįãģªãĤŃãĥ£ãĥĥãĤ·ãĥ¥ç®¡çĲĨãģĮæ±ĤãĤģãĤīãĤĮãģ¾ãģĻ": 3027,
      "ãģ®çµ±åĲĪãģ«ãģ¯æħİéĩįãģªãĤµãĥ¼ãĥĵãĤ¹ç®¡çĲĨãģĮæ±ĤãĤģãĤīãĤĮãģ¾ãģĻ": 3028,
      "414": 3029,
      "517": 3030,
      "734": 3031,
      "925": 3032,
      "ãģ®çµ±åĲĪãģ«ãģ¯æħİéĩįãģªä»®æĥ³åĮĸç®¡çĲĨãģĮæ±ĤãĤģãĤīãĤĮãģ¾ãģĻ": 3033,
      "ãģ®çµ±åĲĪãģ«ãģ¯æħİéĩįãģªãĥķãĥ¬ãĥ¼ãĥłãĥ¯ãĥ¼ãĤ¯ç®¡çĲĨãģĮæ±ĤãĤģãĤīãĤĮãģ¾ãģĻ": 3034,
      "323": 3035,
      "416": 3036,
      "412": 3037,
      "425": 3038,
      "520": 3039,
      "514": 3040,
      "528": 3041,
      "565": 3042,
      "625": 3043,
      "936": 3044,
      "934": 3045,
      "ãģ®çµ±åĲĪãģ«ãģ¯æħİéĩįãģªãĤ¤ãĥĨãĥ¬ãĥ¼ãĤ·ãĥ§ãĥ³ç®¡çĲĨãģĮæ±ĤãĤģãĤīãĤĮãģ¾ãģĻ": 3046,
      "ãĥ¢ãĤ¸ãĥ¥ãĥ¼ãĥ«ç®¡çĲĨãģĮæ±ĤãĤģãĤīãĤĮãģ¾ãģĻ": 3047,
      "ãĥĻãĥ³ãĥģãĥŀãĥ¼ãĤ¯ç®¡çĲĨãģĮæ±ĤãĤģãĤīãĤĮãģ¾ãģĻ": 3048,
      "ãĤ¨ãĥ³ãĥīãĥĿãĤ¤ãĥ³ãĥĪç®¡çĲĨãģĮæ±ĤãĤģãĤīãĤĮãģ¾ãģĻ": 3049,
      "613": 3050,
      "ãģ®çµ±åĲĪãģ«ãģ¯æħİéĩįãģªãĤ¨ãĥ³ãĥīãĥĿãĤ¤ãĥ³ãĥĪç®¡çĲĨãģĮæ±ĤãĤģãĤīãĤĮãģ¾ãģĻ": 3051,
      "419": 3052,
      "616": 3053,
      "614": 3054,
      "820": 3055,
      "816": 3056,
      "823": 3057,
      "826": 3058,
      "965": 3059,
      "966": 3060,
      "943": 3061,
      "ãģ®çµ±åĲĪãģ«ãģ¯æħİéĩįãģªãĥĻãĥ³ãĥģãĥŀãĥ¼ãĤ¯ç®¡çĲĨãģĮæ±ĤãĤģãĤīãĤĮãģ¾ãģĻ": 3062,
      "315": 3063,
      "312": 3064,
      "577": 3065,
      "575": 3066,
      "615": 3067,
      "713": 3068,
      "765": 3069,
      "875": 3070,
      "łãģ®æ§ĭç¯īãģ«ä¸įåı¯æ¬łãģ§ãģĻ": 3071,
      "ãĤ¹ãĥĨãĥłãģ®æ§ĭç¯īãģ«ä¸įåı¯æ¬łãģ§ãģĻ": 3072,
      "ãģ¨æ©Łèĥ½": 3073,
      "ãģ®çµ±åĲĪãģ«ãģ¯æħİéĩįãģªãĥ¢ãĤ¸ãĥ¥ãĥ¼ãĥ«ç®¡çĲĨãģĮæ±ĤãĤģãĤīãĤĮãģ¾ãģĻ": 3074,
      "ãĥ¼ãĤ·ãĤ¹ãĥĨãĥłãģ®æ§ĭç¯īãģ«ä¸įåı¯æ¬łãģ§ãģĻ": 3075,
      "éģ©åĪĩãģªãĤ·ãĤ¹ãĥĨãĥłãģ®": 3076,
      "éģ©åĪĩãģªãĥªãĥĿãĤ¸ãĥĪãĥª": 3077,
      "éģ©åĪĩãģªãĤ¤ãĥ³ãĤ¿ãĥ¼ãĥķãĤ§ãĥ¼ãĤ¹": 3078,
      "éģ©åĪĩãģªå¸¯åŁŁå¹ħ": 3079,
      "éģ©åĪĩãģªãĤ¹ãĤ±ãĥ¼ãĥ©ãĥĵãĥªãĥĨãĤ£": 3080,
      "éģ©åĪĩãģªç¶Ļæī¿": 3081,
      "éģ©åĪĩãģªè¨Ńå®ļ": 3082,
      "éģ©åĪĩãģªèªįåı¯": 3083,
      "éģ©åĪĩãģªåĲįåīįç©ºéĸĵ": 3084,
      "éģ©åĪĩãģªä»®æĥ³åĮĸ": 3085,
      "éģ©åĪĩãģªåĨįå¸°": 3086,
      "éģ©åĪĩãģªãĤ·ãĥªãĤ¢ãĥ©ãĤ¤ãĤ¼ãĥ¼ãĤ·ãĥ§ãĥ³": 3087,
      "éģ©åĪĩãģªãĥ©ãĤ¤ãĥĸãĥ©ãĥª": 3088,
      "éģ©åĪĩãģªåĲĮæľŁ": 3089,
      "éģ©åĪĩãģªå¤īæķ°": 3090,
      "éģ©åĪĩãģªãĥĹãĥŃãĥĪãĤ³ãĥ«": 3091,
      "éģ©åĪĩãģªãĤ¢ãĥ¼ãĤŃãĥĨãĤ¯ãĥģãĥ£": 3092,
      "éģ©åĪĩãģªãĤ¹ãĤŃãĥ¼ãĥŀ": 3093,
      "éģ©åĪĩãģªä»ķæ§ĺ": 3094,
      "éģ©åĪĩãģªãĤ¤ãĥĨãĥ¬ãĥ¼ãĤ·ãĥ§ãĥ³": 3095,
      "éģ©åĪĩãģªãĤ¹ãĥ«ãĥ¼ãĥĹãĥĥãĥĪ": 3096,
      "éģ©åĪĩãģªãĥĪãĥ¼ãĤ¯ãĥĬãĤ¤ãĤ¶ãĥ¼": 3097,
      "éģ©åĪĩãģªèªįè¨¼": 3098,
      "éģ©åĪĩãģªãĥĲãĥªãĥĩãĥ¼ãĤ·ãĥ§ãĥ³": 3099,
      "éģ©åĪĩãģªãĥĪãĥ©ãĥ³ãĤ¶ãĤ¯ãĤ·ãĥ§ãĥ³": 3100,
      "éģ©åĪĩãģªãĥĲãĥĥãĥķãĤ¡": 3101,
      "éģ©åĪĩãģªä¸¦åĪĹæĢ§": 3102,
      "éģ©åĪĩãģªåı¯çĶ¨æĢ§": 3103,
      "éģ©åĪĩãģªä¿¡éł¼æĢ§": 3104,
      "éģ©åĪĩãģªä¾ĿåŃĺæĢ§": 3105,
      "éģ©åĪĩãģªä¿Ŀå®ĪæĢ§": 3106,
      "éģ©åĪĩãģªä¸¦è¡ĮæĢ§": 3107,
      "éģ©åĪĩãģªèĦĨå¼±æĢ§": 3108,
      "éģ©åĪĩãģªãĤ¢ãĥ«ãĤ´ãĥªãĤºãĥłãģ®": 3109,
      "éģ©åĪĩãģªãĥĩãĥĹãĥŃãĤ¤": 3110,
      "éģ©åĪĩãģªãĤ¯ãĤ¨ãĥª": 3111,
      "éģ©åĪĩãģªãĥ¢ãĤ¸ãĥ¥ãĥ¼ãĥ«": 3112,
      "éģ©åĪĩãģªãĥĩãĥĲãĥĥãĤ°": 3113,
      "éģ©åĪĩãģªãĤ³ãĥ³ãĥĨãĥĬ": 3114,
      "éģ©åĪĩãģªãĥĳãĥ©ãĥ¡ãĥ¼ãĤ¿": 3115,
      "éģ©åĪĩãģªãĥĳãĥķãĤ©ãĥ¼ãĥŀãĥ³ãĤ¹": 3116,
      "éģ©åĪĩãģªãĥŁãĥīãĥ«ãĤ¦ãĤ§ãĤ¢": 3117,
      "éģ©åĪĩãģªãĥĻãĥ³ãĥģãĥŀãĥ¼ãĤ¯": 3118,
      "éģ©åĪĩãģªãĥĳãĤ¤ãĥĹãĥ©ãĤ¤ãĥ³": 3119,
      "éģ©åĪĩãģªãĥĩãĥ¼ãĤ¿ãĥĻãĥ¼ãĤ¹": 3120,
      "éģ©åĪĩãģªãĥ¬ãĤ¤ãĥĨãĥ³ãĤ·": 3121,
      "éģ©åĪĩãģªãĥŃãĥ¼ãĥī": 3122,
      "éģ©åĪĩãģªãĤ¨ãĥ³ãĥīãĥĿãĤ¤ãĥ³ãĥĪ": 3123,
      "éģ©åĪĩãģªæļĹåı·åĮĸ": 3124,
      "éģ©åĪĩãģªãĥķãĥ¬ãĥ¼ãĥłãĥ¯ãĥ¼ãĤ¯": 3125,
      "éģ©åĪĩãģªæľĢéģ©åĮĸ": 3126,
      "éģ©åĪĩãģªæ©Łèĥ½": 3127,
      "éģ©åĪĩãģªãĥĿãĥªãĥ¢ãĥ¼ãĥķãĤ£ãĤºãĥłãģ®": 3128,
      "ãĥªãĥĿãĤ¸ãĥĪãĥªãĤ·ãĤ¹ãĥĨãĥłãģ®æ§ĭç¯īãģ«ä¸įåı¯æ¬łãģ§ãģĻ": 3129,
      "ãĤ¤ãĥ³ãĤ¿ãĥ¼ãĥķãĤ§ãĥ¼ãĤ¹ãĤ·ãĤ¹ãĥĨãĥłãģ®æ§ĭç¯īãģ«ä¸įåı¯æ¬łãģ§ãģĻ": 3130,
      "å¸¯åŁŁå¹ħãĤ·ãĤ¹ãĥĨãĥłãģ®æ§ĭç¯īãģ«ä¸įåı¯æ¬łãģ§ãģĻ": 3131,
      "ļĹåı·åĮĸãĤ·ãĤ¹ãĥĨãĥłãģ®æ§ĭç¯īãģ«ä¸įåı¯æ¬łãģ§ãģĻ": 3132,
      "ãĤ¹ãĤ±ãĥ¼ãĥ©ãĥĵãĥªãĥĨãĤ£ãĤ·ãĤ¹ãĥĨãĥłãģ®æ§ĭç¯īãģ«ä¸įåı¯æ¬łãģ§ãģĻ": 3133,
      "ç¶Ļæī¿ãĤ·ãĤ¹ãĥĨãĥłãģ®æ§ĭç¯īãģ«ä¸įåı¯æ¬łãģ§ãģĻ": 3134,
      "è¨Ńå®ļãĤ·ãĤ¹ãĥĨãĥłãģ®æ§ĭç¯īãģ«ä¸įåı¯æ¬łãģ§ãģĻ": 3135,
      "èªįåı¯ãĤ·ãĤ¹ãĥĨãĥłãģ®æ§ĭç¯īãģ«ä¸įåı¯æ¬łãģ§ãģĻ": 3136,
      "åĲįåīįç©ºéĸĵãĤ·ãĤ¹ãĥĨãĥłãģ®æ§ĭç¯īãģ«ä¸įåı¯æ¬łãģ§ãģĻ": 3137,
      "ä»®æĥ³åĮĸãĤ·ãĤ¹ãĥĨãĥłãģ®æ§ĭç¯īãģ«ä¸įåı¯æ¬łãģ§ãģĻ": 3138,
      "ãĥĪãĥ¼ãĤ¯ãĥĬãĤ¤ãĤ¶ãĥ¼ãĤ·ãĤ¹ãĥĨãĥłãģ®æ§ĭç¯īãģ«ä¸įåı¯æ¬łãģ§ãģĻ": 3139,
      "ãĤ·ãĥªãĤ¢ãĥ©ãĤ¤ãĤ¼ãĥ¼ãĤ·ãĥ§ãĥ³ãĤ·ãĤ¹ãĥĨãĥłãģ®æ§ĭç¯īãģ«ä¸įåı¯æ¬łãģ§ãģĻ": 3140,
      "ãĥ©ãĤ¤ãĥĸãĥ©ãĥªãĤ·ãĤ¹ãĥĨãĥłãģ®æ§ĭç¯īãģ«ä¸įåı¯æ¬łãģ§ãģĻ": 3141,
      "åĲĮæľŁãĤ·ãĤ¹ãĥĨãĥłãģ®æ§ĭç¯īãģ«ä¸įåı¯æ¬łãģ§ãģĻ": 3142,
      "ãĥĹãĥŃãĥĪãĤ³ãĥ«ãĤ·ãĤ¹ãĥĨãĥłãģ®æ§ĭç¯īãģ«ä¸įåı¯æ¬łãģ§ãģĻ": 3143,
      "ãĤ¢ãĥ¼ãĤŃãĥĨãĤ¯ãĥģãĥ£ãĤ·ãĤ¹ãĥĨãĥłãģ®æ§ĭç¯īãģ«ä¸įåı¯æ¬łãģ§ãģĻ": 3144,
      "ãĤ¹ãĤŃãĥ¼ãĥŀãĤ·ãĤ¹ãĥĨãĥłãģ®æ§ĭç¯īãģ«ä¸įåı¯æ¬łãģ§ãģĻ": 3145,
      "ä»ķæ§ĺãĤ·ãĤ¹ãĥĨãĥłãģ®æ§ĭç¯īãģ«ä¸įåı¯æ¬łãģ§ãģĻ": 3146,
      "ãĤ¤ãĥĨãĥ¬ãĥ¼ãĤ·ãĥ§ãĥ³ãĤ·ãĤ¹ãĥĨãĥłãģ®æ§ĭç¯īãģ«ä¸įåı¯æ¬łãģ§ãģĻ": 3147,
      "ãĤ¹ãĥ«ãĥ¼ãĥĹãĥĥãĥĪãĤ·ãĤ¹ãĥĨãĥłãģ®æ§ĭç¯īãģ«ä¸įåı¯æ¬łãģ§ãģĻ": 3148,
      "ľĢéģ©åĮĸãĤ·ãĤ¹ãĥĨãĥłãģ®æ§ĭç¯īãģ«ä¸įåı¯æ¬łãģ§ãģĻ": 3149,
      "èªįè¨¼ãĤ·ãĤ¹ãĥĨãĥłãģ®æ§ĭç¯īãģ«ä¸įåı¯æ¬łãģ§ãģĻ": 3150,
      "©Łèĥ½ãĤ·ãĤ¹ãĥĨãĥłãģ®æ§ĭç¯īãģ«ä¸įåı¯æ¬łãģ§ãģĻ": 3151,
      "ãĥĲãĥªãĥĩãĥ¼ãĤ·ãĥ§ãĥ³ãĤ·ãĤ¹ãĥĨãĥłãģ®æ§ĭç¯īãģ«ä¸įåı¯æ¬łãģ§ãģĻ": 3152,
      "ãĥĪãĥ©ãĥ³ãĤ¶ãĤ¯ãĤ·ãĥ§ãĥ³ãĤ·ãĤ¹ãĥĨãĥłãģ®æ§ĭç¯īãģ«ä¸įåı¯æ¬łãģ§ãģĻ": 3153,
      "ãĥĲãĥĥãĥķãĤ¡ãĤ·ãĤ¹ãĥĨãĥłãģ®æ§ĭç¯īãģ«ä¸įåı¯æ¬łãģ§ãģĻ": 3154,
      "ä¸¦åĪĹæĢ§ãĤ·ãĤ¹ãĥĨãĥłãģ®æ§ĭç¯īãģ«ä¸įåı¯æ¬łãģ§ãģĻ": 3155,
      "åı¯çĶ¨æĢ§ãĤ·ãĤ¹ãĥĨãĥłãģ®æ§ĭç¯īãģ«ä¸įåı¯æ¬łãģ§ãģĻ": 3156,
      "ä¿¡éł¼æĢ§ãĤ·ãĤ¹ãĥĨãĥłãģ®æ§ĭç¯īãģ«ä¸įåı¯æ¬łãģ§ãģĻ": 3157,
      "ä¾ĿåŃĺæĢ§ãĤ·ãĤ¹ãĥĨãĥłãģ®æ§ĭç¯īãģ«ä¸įåı¯æ¬łãģ§ãģĻ": 3158,
      "ä¿Ŀå®ĪæĢ§ãĤ·ãĤ¹ãĥĨãĥłãģ®æ§ĭç¯īãģ«ä¸įåı¯æ¬łãģ§ãģĻ": 3159,
      "ä¸¦è¡ĮæĢ§ãĤ·ãĤ¹ãĥĨãĥłãģ®æ§ĭç¯īãģ«ä¸įåı¯æ¬łãģ§ãģĻ": 3160,
      "èĦĨå¼±æĢ§ãĤ·ãĤ¹ãĥĨãĥłãģ®æ§ĭç¯īãģ«ä¸įåı¯æ¬łãģ§ãģĻ": 3161,
      "ãĤ·ãĤ¹ãĥĨãĥłãĤ·ãĤ¹ãĥĨãĥłãģ®æ§ĭç¯īãģ«ä¸įåı¯æ¬łãģ§ãģĻ": 3162,
      "ãĤ¢ãĥ«ãĤ´ãĥªãĤºãĥłç®¡çĲĨãģĮæ±ĤãĤģãĤīãĤĮãģ¾ãģĻ": 3163,
      "ãĤ¢ãĥ«ãĤ´ãĥªãĤºãĥłãĤ·ãĤ¹ãĥĨãĥłãģ®æ§ĭç¯īãģ«ä¸įåı¯æ¬łãģ§ãģĻ": 3164,
      "ãĥĩãĥĹãĥŃãĤ¤ãĤ·ãĤ¹ãĥĨãĥłãģ®æ§ĭç¯īãģ«ä¸įåı¯æ¬łãģ§ãģĻ": 3165,
      "éģ©åĪĩãģªãĤ³ãĥ³ãĥĿãĥ¼ãĥįãĥ³ãĥĪ": 3166,
      "éģ©åĪĩãģªãĤ»ãĥŀãĥķãĤ©": 3167,
      "éģ©åĪĩãģªãĤ»ãĥĥãĤ·ãĥ§ãĥ³": 3168,
      "éģ©åĪĩãģªãĤ«ãĥĹãĤ»ãĥ«åĮĸ": 3169,
      "éģ©åĪĩãģªãĤŃãĥ£ãĥĥãĤ·ãĥ¥": 3170,
      "éģ©åĪĩãģªãĤ³ãĥ³ãĥĳãĤ¤ãĥ©": 3171,
      "éģ©åĪĩãģªãĤªãĥ¼ãĥĲãĥ¼ãĥĺãĥĥãĥī": 3172,
      "éģ©åĪĩãģªãĤ«ãĥ¼ãĥįãĥ«": 3173,
      "éģ©åĪĩãģªãĤµãĥ¼ãĥĵãĤ¹": 3174,
      "ãĤ¯ãĤ¨ãĥªãĤ·ãĤ¹ãĥĨãĥłãģ®æ§ĭç¯īãģ«ä¸įåı¯æ¬łãģ§ãģĻ": 3175,
      "ãĥ¢ãĤ¸ãĥ¥ãĥ¼ãĥ«ãĤ·ãĤ¹ãĥĨãĥłãģ®æ§ĭç¯īãģ«ä¸įåı¯æ¬łãģ§ãģĻ": 3176,
      "ãĥĩãĥĲãĥĥãĤ°ãĤ·ãĤ¹ãĥĨãĥłãģ®æ§ĭç¯īãģ«ä¸įåı¯æ¬łãģ§ãģĻ": 3177,
      "ãĤ³ãĥ³ãĥĨãĥĬãĤ·ãĤ¹ãĥĨãĥłãģ®æ§ĭç¯īãģ«ä¸įåı¯æ¬łãģ§ãģĻ": 3178,
      "ãĥĳãĥ©ãĥ¡ãĥ¼ãĤ¿ãĤ·ãĤ¹ãĥĨãĥłãģ®æ§ĭç¯īãģ«ä¸įåı¯æ¬łãģ§ãģĻ": 3179,
      "ãĥĳãĥķãĤ©ãĥ¼ãĥŀãĥ³ãĤ¹ãĤ·ãĤ¹ãĥĨãĥłãģ®æ§ĭç¯īãģ«ä¸įåı¯æ¬łãģ§ãģĻ": 3180,
      "ãĥŁãĥīãĥ«ãĤ¦ãĤ§ãĤ¢ãĤ·ãĤ¹ãĥĨãĥłãģ®æ§ĭç¯īãģ«ä¸įåı¯æ¬łãģ§ãģĻ": 3181,
      "ãĥĻãĥ³ãĥģãĥŀãĥ¼ãĤ¯ãĤ·ãĤ¹ãĥĨãĥłãģ®æ§ĭç¯īãģ«ä¸įåı¯æ¬łãģ§ãģĻ": 3182,
      "ãĥĳãĤ¤ãĥĹãĥ©ãĤ¤ãĥ³ãĤ·ãĤ¹ãĥĨãĥłãģ®æ§ĭç¯īãģ«ä¸įåı¯æ¬łãģ§ãģĻ": 3183,
      "ãĥĩãĥ¼ãĤ¿ãĥĻãĥ¼ãĤ¹ãĤ·ãĤ¹ãĥĨãĥłãģ®æ§ĭç¯īãģ«ä¸įåı¯æ¬łãģ§ãģĻ": 3184,
      "ãĥ¬ãĤ¤ãĥĨãĥ³ãĤ·ãĤ·ãĤ¹ãĥĨãĥłãģ®æ§ĭç¯īãģ«ä¸įåı¯æ¬łãģ§ãģĻ": 3185,
      "ãĥŃãĥ¼ãĥīãĤ·ãĤ¹ãĥĨãĥłãģ®æ§ĭç¯īãģ«ä¸įåı¯æ¬łãģ§ãģĻ": 3186,
      "ãĤ¨ãĥ³ãĥīãĥĿãĤ¤ãĥ³ãĥĪãĤ·ãĤ¹ãĥĨãĥłãģ®æ§ĭç¯īãģ«ä¸įåı¯æ¬łãģ§ãģĻ": 3187,
      "ãĥķãĥ¬ãĥ¼ãĥłãĥ¯ãĥ¼ãĤ¯ãĤ·ãĤ¹ãĥĨãĥłãģ®æ§ĭç¯īãģ«ä¸įåı¯æ¬łãģ§ãģĻ": 3188,
      "ãĥĿãĥªãĥ¢ãĥ¼ãĥķãĤ£ãĤºãĥłãĤ·ãĤ¹ãĥĨãĥłãģ®æ§ĭç¯īãģ«ä¸įåı¯æ¬łãģ§ãģĻ": 3189,
      "318": 3190,
      "324": 3191,
      "617": 3192,
      "716": 3193,
      "717": 3194,
      "828": 3195,
      "923": 3196,
      "426": 3197,
      "516": 3198,
      "536": 3199,
      "621": 3200,
      "814": 3201,
      "839": 3202,
      "977": 3203,
      "ãģ®å®Łè£ħãģ¯ãĤ·ãĤ¹ãĥĨãĥłãĤ·ãĤ¹ãĥĨãĥłãģ®æ§ĭç¯īãģ«ä¸įåı¯æ¬łãģ§ãģĻ": 3204,
      "ãģ®å®Łè£ħãģ¯ãĤ¢ãĥ«ãĤ´ãĥªãĤºãĥłãĤ·ãĤ¹ãĥĨãĥłãģ®æ§ĭç¯īãģ«ä¸įåı¯æ¬łãģ§ãģĻ": 3205,
      "ãģ®å®Łè£ħãģ¯ãĥĿãĥªãĥ¢ãĥ¼ãĥķãĤ£ãĤºãĥłãĤ·ãĤ¹ãĥĨãĥłãģ®æ§ĭç¯īãģ«ä¸įåı¯æ¬łãģ§ãģĻ": 3206,
      "åħĪæĹ¥ãģ®ãĤ«ãĥĹãĤ»ãĥ«åĮĸ": 3207,
      "326": 3208,
      "433": 3209,
      "526": 3210,
      "546": 3211,
      "612": 3212,
      "634": 3213,
      "710": 3214,
      "719": 3215,
      "723": 3216,
      "744": 3217,
      "815": 3218,
      "813": 3219,
      "920": 3220,
      "918": 3221,
      "917": 3222,
      "975": 3223,
      "ãģ®å®Łè£ħãģ¯åĨįå¸°": 3224,
      "ãģ®å®Łè£ħãģ¯å¤īæķ°": 3225,
      "ãģ®å®Łè£ħãģ¯ãĥªãĥĿãĤ¸ãĥĪãĥªãĤ·ãĤ¹ãĥĨãĥłãģ®æ§ĭç¯īãģ«ä¸įåı¯æ¬łãģ§ãģĻ": 3226,
      "ãģ®å®Łè£ħãģ¯ãĤ¤ãĥ³ãĤ¿ãĥ¼ãĥķãĤ§ãĥ¼ãĤ¹ãĤ·ãĤ¹ãĥĨãĥłãģ®æ§ĭç¯īãģ«ä¸įåı¯æ¬łãģ§ãģĻ": 3227,
      "ãģ®å®Łè£ħãģ¯å¸¯åŁŁå¹ħãĤ·ãĤ¹ãĥĨãĥłãģ®æ§ĭç¯īãģ«ä¸įåı¯æ¬łãģ§ãģĻ": 3228,
      "ãģ®å®Łè£ħãģ¯ãĤ¹ãĤ±ãĥ¼ãĥ©ãĥĵãĥªãĥĨãĤ£ãĤ·ãĤ¹ãĥĨãĥłãģ®æ§ĭç¯īãģ«ä¸įåı¯æ¬łãģ§ãģĻ": 3229,
      "ãģ®å®Łè£ħãģ¯ç¶Ļæī¿ãĤ·ãĤ¹ãĥĨãĥłãģ®æ§ĭç¯īãģ«ä¸įåı¯æ¬łãģ§ãģĻ": 3230,
      "ãģ®å®Łè£ħãģ¯è¨Ńå®ļãĤ·ãĤ¹ãĥĨãĥłãģ®æ§ĭç¯īãģ«ä¸įåı¯æ¬łãģ§ãģĻ": 3231,
      "ãģ®å®Łè£ħãģ¯èªįåı¯ãĤ·ãĤ¹ãĥĨãĥłãģ®æ§ĭç¯īãģ«ä¸įåı¯æ¬łãģ§ãģĻ": 3232,
      "ãģ®å®Łè£ħãģ¯åĲįåīįç©ºéĸĵãĤ·ãĤ¹ãĥĨãĥłãģ®æ§ĭç¯īãģ«ä¸įåı¯æ¬łãģ§ãģĻ": 3233,
      "ãģ®å®Łè£ħãģ¯ä»®æĥ³åĮĸãĤ·ãĤ¹ãĥĨãĥłãģ®æ§ĭç¯īãģ«ä¸įåı¯æ¬łãģ§ãģĻ": 3234,
      "ãģ®å®Łè£ħãģ¯ãĥĪãĥ¼ãĤ¯ãĥĬãĤ¤ãĤ¶ãĥ¼ãĤ·ãĤ¹ãĥĨãĥłãģ®æ§ĭç¯īãģ«ä¸įåı¯æ¬łãģ§ãģĻ": 3235,
      "ãģ®å®Łè£ħãģ¯ãĤ·ãĥªãĤ¢ãĥ©ãĤ¤ãĤ¼ãĥ¼ãĤ·ãĥ§ãĥ³ãĤ·ãĤ¹ãĥĨãĥłãģ®æ§ĭç¯īãģ«ä¸įåı¯æ¬łãģ§ãģĻ": 3236,
      "ãģ®å®Łè£ħãģ¯ãĥ©ãĤ¤ãĥĸãĥ©ãĥªãĤ·ãĤ¹ãĥĨãĥłãģ®æ§ĭç¯īãģ«ä¸įåı¯æ¬łãģ§ãģĻ": 3237,
      "ãģ®å®Łè£ħãģ¯åĲĮæľŁãĤ·ãĤ¹ãĥĨãĥłãģ®æ§ĭç¯īãģ«ä¸įåı¯æ¬łãģ§ãģĻ": 3238,
      "ãģ®å®Łè£ħãģ¯ãĥĹãĥŃãĥĪãĤ³ãĥ«ãĤ·ãĤ¹ãĥĨãĥłãģ®æ§ĭç¯īãģ«ä¸įåı¯æ¬łãģ§ãģĻ": 3239,
      "ãģ®å®Łè£ħãģ¯ãĤ¢ãĥ¼ãĤŃãĥĨãĤ¯ãĥģãĥ£ãĤ·ãĤ¹ãĥĨãĥłãģ®æ§ĭç¯īãģ«ä¸įåı¯æ¬łãģ§ãģĻ": 3240,
      "ãģ®å®Łè£ħãģ¯ãĤ¹ãĤŃãĥ¼ãĥŀãĤ·ãĤ¹ãĥĨãĥłãģ®æ§ĭç¯īãģ«ä¸įåı¯æ¬łãģ§ãģĻ": 3241,
      "ãģ®å®Łè£ħãģ¯ä»ķæ§ĺãĤ·ãĤ¹ãĥĨãĥłãģ®æ§ĭç¯īãģ«ä¸įåı¯æ¬łãģ§ãģĻ": 3242,
      "ãģ®å®Łè£ħãģ¯ãĤ¤ãĥĨãĥ¬ãĥ¼ãĤ·ãĥ§ãĥ³ãĤ·ãĤ¹ãĥĨãĥłãģ®æ§ĭç¯īãģ«ä¸įåı¯æ¬łãģ§ãģĻ": 3243,
      "ãģ®å®Łè£ħãģ¯ãĤ¹ãĥ«ãĥ¼ãĥĹãĥĥãĥĪãĤ·ãĤ¹ãĥĨãĥłãģ®æ§ĭç¯īãģ«ä¸įåı¯æ¬łãģ§ãģĻ": 3244,
      "ãģ®å®Łè£ħãģ¯èªįè¨¼ãĤ·ãĤ¹ãĥĨãĥłãģ®æ§ĭç¯īãģ«ä¸įåı¯æ¬łãģ§ãģĻ": 3245,
      "ãģ®å®Łè£ħãģ¯ãĥĲãĥªãĥĩãĥ¼ãĤ·ãĥ§ãĥ³ãĤ·ãĤ¹ãĥĨãĥłãģ®æ§ĭç¯īãģ«ä¸įåı¯æ¬łãģ§ãģĻ": 3246,
      "ãģ®å®Łè£ħãģ¯ãĥĪãĥ©ãĥ³ãĤ¶ãĤ¯ãĤ·ãĥ§ãĥ³ãĤ·ãĤ¹ãĥĨãĥłãģ®æ§ĭç¯īãģ«ä¸įåı¯æ¬łãģ§ãģĻ": 3247,
      "ãģ®å®Łè£ħãģ¯ãĥĲãĥĥãĥķãĤ¡ãĤ·ãĤ¹ãĥĨãĥłãģ®æ§ĭç¯īãģ«ä¸įåı¯æ¬łãģ§ãģĻ": 3248,
      "ãģ®å®Łè£ħãģ¯ä¸¦åĪĹæĢ§ãĤ·ãĤ¹ãĥĨãĥłãģ®æ§ĭç¯īãģ«ä¸įåı¯æ¬łãģ§ãģĻ": 3249,
      "ãģ®å®Łè£ħãģ¯åı¯çĶ¨æĢ§ãĤ·ãĤ¹ãĥĨãĥłãģ®æ§ĭç¯īãģ«ä¸įåı¯æ¬łãģ§ãģĻ": 3250,
      "ãģ®å®Łè£ħãģ¯ä¿¡éł¼æĢ§ãĤ·ãĤ¹ãĥĨãĥłãģ®æ§ĭç¯īãģ«ä¸įåı¯æ¬łãģ§ãģĻ": 3251,
      "ãģ®å®Łè£ħãģ¯ä¾ĿåŃĺæĢ§ãĤ·ãĤ¹ãĥĨãĥłãģ®æ§ĭç¯īãģ«ä¸įåı¯æ¬łãģ§ãģĻ": 3252,
      "ãģ®å®Łè£ħãģ¯ä¿Ŀå®ĪæĢ§ãĤ·ãĤ¹ãĥĨãĥłãģ®æ§ĭç¯īãģ«ä¸įåı¯æ¬łãģ§ãģĻ": 3253,
      "ãģ®å®Łè£ħãģ¯ä¸¦è¡ĮæĢ§ãĤ·ãĤ¹ãĥĨãĥłãģ®æ§ĭç¯īãģ«ä¸įåı¯æ¬łãģ§ãģĻ": 3254,
      "ãģ®å®Łè£ħãģ¯èĦĨå¼±æĢ§ãĤ·ãĤ¹ãĥĨãĥłãģ®æ§ĭç¯īãģ«ä¸įåı¯æ¬łãģ§ãģĻ": 3255,
      "ãģ®å®Łè£ħãģ¯ãĥĩãĥĹãĥŃãĤ¤ãĤ·ãĤ¹ãĥĨãĥłãģ®æ§ĭç¯īãģ«ä¸įåı¯æ¬łãģ§ãģĻ": 3256,
      "ãģ®å®Łè£ħãģ¯ãĤ¯ãĤ¨ãĥªãĤ·ãĤ¹ãĥĨãĥłãģ®æ§ĭç¯īãģ«ä¸įåı¯æ¬łãģ§ãģĻ": 3257,
      "ãģ®å®Łè£ħãģ¯ãĥ¢ãĤ¸ãĥ¥ãĥ¼ãĥ«ãĤ·ãĤ¹ãĥĨãĥłãģ®æ§ĭç¯īãģ«ä¸įåı¯æ¬łãģ§ãģĻ": 3258,
      "ãģ®å®Łè£ħãģ¯ãĥĩãĥĲãĥĥãĤ°ãĤ·ãĤ¹ãĥĨãĥłãģ®æ§ĭç¯īãģ«ä¸įåı¯æ¬łãģ§ãģĻ": 3259,
      "ãģ®å®Łè£ħãģ¯ãĤ³ãĥ³ãĥĨãĥĬãĤ·ãĤ¹ãĥĨãĥłãģ®æ§ĭç¯īãģ«ä¸įåı¯æ¬łãģ§ãģĻ": 3260,
      "ãģ®å®Łè£ħãģ¯ãĥĳãĥ©ãĥ¡ãĥ¼ãĤ¿ãĤ·ãĤ¹ãĥĨãĥłãģ®æ§ĭç¯īãģ«ä¸įåı¯æ¬łãģ§ãģĻ": 3261,
      "ãģ®å®Łè£ħãģ¯ãĥĳãĥķãĤ©ãĥ¼ãĥŀãĥ³ãĤ¹ãĤ·ãĤ¹ãĥĨãĥłãģ®æ§ĭç¯īãģ«ä¸įåı¯æ¬łãģ§ãģĻ": 3262,
      "ãģ®å®Łè£ħãģ¯ãĥŁãĥīãĥ«ãĤ¦ãĤ§ãĤ¢ãĤ·ãĤ¹ãĥĨãĥłãģ®æ§ĭç¯īãģ«ä¸įåı¯æ¬łãģ§ãģĻ": 3263,
      "ãģ®å®Łè£ħãģ¯ãĥĻãĥ³ãĥģãĥŀãĥ¼ãĤ¯ãĤ·ãĤ¹ãĥĨãĥłãģ®æ§ĭç¯īãģ«ä¸įåı¯æ¬łãģ§ãģĻ": 3264,
      "ãģ®å®Łè£ħãģ¯ãĥĳãĤ¤ãĥĹãĥ©ãĤ¤ãĥ³ãĤ·ãĤ¹ãĥĨãĥłãģ®æ§ĭç¯īãģ«ä¸įåı¯æ¬łãģ§ãģĻ": 3265,
      "ãģ®å®Łè£ħãģ¯ãĥĩãĥ¼ãĤ¿ãĥĻãĥ¼ãĤ¹ãĤ·ãĤ¹ãĥĨãĥłãģ®æ§ĭç¯īãģ«ä¸įåı¯æ¬łãģ§ãģĻ": 3266,
      "ãģ®å®Łè£ħãģ¯ãĥ¬ãĤ¤ãĥĨãĥ³ãĤ·ãĤ·ãĤ¹ãĥĨãĥłãģ®æ§ĭç¯īãģ«ä¸įåı¯æ¬łãģ§ãģĻ": 3267,
      "ãģ®å®Łè£ħãģ¯ãĥŃãĥ¼ãĥīãĤ·ãĤ¹ãĥĨãĥłãģ®æ§ĭç¯īãģ«ä¸įåı¯æ¬łãģ§ãģĻ": 3268,
      "ãģ®å®Łè£ħãģ¯ãĤ¨ãĥ³ãĥīãĥĿãĤ¤ãĥ³ãĥĪãĤ·ãĤ¹ãĥĨãĥłãģ®æ§ĭç¯īãģ«ä¸įåı¯æ¬łãģ§ãģĻ": 3269,
      "ãģ®å®Łè£ħãģ¯ãĥķãĥ¬ãĥ¼ãĥłãĥ¯ãĥ¼ãĤ¯ãĤ·ãĤ¹ãĥĨãĥłãģ®æ§ĭç¯īãģ«ä¸įåı¯æ¬łãģ§ãģĻ": 3270,
      "ãģ«éĸ¢ãģĻãĤĭä¼ļèŃ°ãģ§èŃ°è«ĸãģķãĤĮãģŁãĤ·ãĥªãĤ¢ãĥ©ãĤ¤ãĤ¼ãĥ¼ãĤ·ãĥ§ãĥ³": 3271,
      "ãģ«éĸ¢ãģĻãĤĭä¼ļèŃ°ãģ§èŃ°è«ĸãģķãĤĮãģŁä¿¡éł¼æĢ§": 3272,
      "ãģ«éĸ¢ãģĻãĤĭä¼ļèŃ°ãģ§èŃ°è«ĸãģķãĤĮãģŁãĥĩãĥĹãĥŃãĤ¤": 3273,
      "ãģ«éĸ¢ãģĻãĤĭä¼ļèŃ°ãģ§èŃ°è«ĸãģķãĤĮãģŁãĤ¯ãĤ¨ãĥª": 3274,
      "åħĪæĹ¥ãģ®èĦĨå¼±æĢ§": 3275,
      "³ãĥ³ãĥĿãĥ¼ãĥįãĥ³ãĥĪãĤ·ãĤ¹ãĥĨãĥłãģ®æ§ĭç¯īãģ«ä¸įåı¯æ¬łãģ§ãģĻ": 3276,
      "»ãĥŀãĥķãĤ©ãĤ·ãĤ¹ãĥĨãĥłãģ®æ§ĭç¯īãģ«ä¸įåı¯æ¬łãģ§ãģĻ": 3277,
      "»ãĥĥãĤ·ãĥ§ãĥ³ãĤ·ãĤ¹ãĥĨãĥłãģ®æ§ĭç¯īãģ«ä¸įåı¯æ¬łãģ§ãģĻ": 3278,
      "«ãĥĹãĤ»ãĥ«åĮĸãĤ·ãĤ¹ãĥĨãĥłãģ®æ§ĭç¯īãģ«ä¸įåı¯æ¬łãģ§ãģĻ": 3279,
      "Ńãĥ£ãĥĥãĤ·ãĥ¥ãĤ·ãĤ¹ãĥĨãĥłãģ®æ§ĭç¯īãģ«ä¸įåı¯æ¬łãģ§ãģĻ": 3280,
      "³ãĥ³ãĥĳãĤ¤ãĥ©ãĤ·ãĤ¹ãĥĨãĥłãģ®æ§ĭç¯īãģ«ä¸įåı¯æ¬łãģ§ãģĻ": 3281,
      "ªãĥ¼ãĥĲãĥ¼ãĥĺãĥĥãĥīãĤ·ãĤ¹ãĥĨãĥłãģ®æ§ĭç¯īãģ«ä¸įåı¯æ¬łãģ§ãģĻ": 3282,
      "«ãĥ¼ãĥįãĥ«ãĤ·ãĤ¹ãĥĨãĥłãģ®æ§ĭç¯īãģ«ä¸įåı¯æ¬łãģ§ãģĻ": 3283,
      "µãĥ¼ãĥĵãĤ¹ãĤ·ãĤ¹ãĥĨãĥłãģ®æ§ĭç¯īãģ«ä¸įåı¯æ¬łãģ§ãģĻ": 3284,
      "ãģ®å®Łè£ħãģ¯ãĤ³ãĥ³ãĥĿãĥ¼ãĥįãĥ³ãĥĪãĤ·ãĤ¹ãĥĨãĥłãģ®æ§ĭç¯īãģ«ä¸įåı¯æ¬łãģ§ãģĻ": 3285,
      "ãģ®å®Łè£ħãģ¯ãĤ»ãĥŀãĥķãĤ©ãĤ·ãĤ¹ãĥĨãĥłãģ®æ§ĭç¯īãģ«ä¸įåı¯æ¬łãģ§ãģĻ": 3286,
      "ãģ®å®Łè£ħãģ¯ãĤ»ãĥĥãĤ·ãĥ§ãĥ³ãĤ·ãĤ¹ãĥĨãĥłãģ®æ§ĭç¯īãģ«ä¸įåı¯æ¬łãģ§ãģĻ": 3287,
      "ãģ®å®Łè£ħãģ¯ãĤ«ãĥĹãĤ»ãĥ«åĮĸãĤ·ãĤ¹ãĥĨãĥłãģ®æ§ĭç¯īãģ«ä¸įåı¯æ¬łãģ§ãģĻ": 3288,
      "ãģ®å®Łè£ħãģ¯ãĤŃãĥ£ãĥĥãĤ·ãĥ¥ãĤ·ãĤ¹ãĥĨãĥłãģ®æ§ĭç¯īãģ«ä¸įåı¯æ¬łãģ§ãģĻ": 3289,
      "ãģ®å®Łè£ħãģ¯ãĤ³ãĥ³ãĥĳãĤ¤ãĥ©ãĤ·ãĤ¹ãĥĨãĥłãģ®æ§ĭç¯īãģ«ä¸įåı¯æ¬łãģ§ãģĻ": 3290,
      "ãģ®å®Łè£ħãģ¯ãĤªãĥ¼ãĥĲãĥ¼ãĥĺãĥĥãĥīãĤ·ãĤ¹ãĥĨãĥłãģ®æ§ĭç¯īãģ«ä¸įåı¯æ¬łãģ§ãģĻ": 3291,
      "ãģ®å®Łè£ħãģ¯ãĤ«ãĥ¼ãĥįãĥ«ãĤ·ãĤ¹ãĥĨãĥłãģ®æ§ĭç¯īãģ«ä¸įåı¯æ¬łãģ§ãģĻ": 3292,
      "ãģ®å®Łè£ħãģ¯ãĤµãĥ¼ãĥĵãĤ¹ãĤ·ãĤ¹ãĥĨãĥłãģ®æ§ĭç¯īãģ«ä¸įåı¯æ¬łãģ§ãģĻ": 3293,
      "ãģ®å®Łè£ħãģ¯æļĹåı·åĮĸãĤ·ãĤ¹ãĥĨãĥłãģ®æ§ĭç¯īãģ«ä¸įåı¯æ¬łãģ§ãģĻ": 3294,
      "ãģ®å®Łè£ħãģ¯æľĢéģ©åĮĸãĤ·ãĤ¹ãĥĨãĥłãģ®æ§ĭç¯īãģ«ä¸įåı¯æ¬łãģ§ãģĻ": 3295,
      "ãģ®å®Łè£ħãģ¯æ©Łèĥ½ãĤ·ãĤ¹ãĥĨãĥłãģ®æ§ĭç¯īãģ«ä¸įåı¯æ¬łãģ§ãģĻ": 3296,
      "ãģ®å®Łè£ħãģ¯åĨįå¸°ãĤ·ãĤ¹ãĥĨãĥłãģ®æ§ĭç¯īãģ«ä¸įåı¯æ¬łãģ§ãģĻ": 3297,
      "ãģ®å®Łè£ħãģ¯å¤īæķ°ãĤ·ãĤ¹ãĥĨãĥłãģ®æ§ĭç¯īãģ«ä¸įåı¯æ¬łãģ§ãģĻ": 3298,
      "ãģ«éĸ¢ãģĻãĤĭä¼ļèŃ°ãģ§èŃ°è«ĸãģķãĤĮãģŁãĤ·ãĥªãĤ¢ãĥ©ãĤ¤ãĤ¼ãĥ¼ãĤ·ãĥ§ãĥ³ãģ«ãģ¤ãģĦãģ¦è¿½åĬłãģ®ç¢ºèªįãĤĴãģĬé¡ĺãģĦãģĹãģ¾ãģĻ": 3299,
      "ãģ«éĸ¢ãģĻãĤĭä¼ļèŃ°ãģ§èŃ°è«ĸãģķãĤĮãģŁä¿¡éł¼æĢ§ãģ«ãģ¤ãģĦãģ¦è¿½åĬłãģ®ç¢ºèªįãĤĴãģĬé¡ĺãģĦãģĹãģ¾ãģĻ": 3300,
      "ãģ«éĸ¢ãģĻãĤĭä¼ļèŃ°ãģ§èŃ°è«ĸãģķãĤĮãģŁãĥĩãĥĹãĥŃãĤ¤ãģ«ãģ¤ãģĦãģ¦è¿½åĬłãģ®ç¢ºèªįãĤĴãģĬé¡ĺãģĦãģĹãģ¾ãģĻ": 3301,
      "ãģ«éĸ¢ãģĻãĤĭä¼ļèŃ°ãģ§èŃ°è«ĸãģķãĤĮãģŁãĤ¯ãĤ¨ãĥªãģ«ãģ¤ãģĦãģ¦è¿½åĬłãģ®ç¢ºèªįãĤĴãģĬé¡ĺãģĦãģĹãģ¾ãģĻ": 3302,
      "415": 3303,
      "418": 3304,
      "817": 3305,
      "933": 3306,
      "ãģ«éĸ¢ãģĻãĤĭä¼ļèŃ°ãģ§èŃ°è«ĸãģķãĤĮãģŁè¨Ńå®ļ": 3307,
      "ãģ«éĸ¢ãģĻãĤĭä¼ļèŃ°ãģ§èŃ°è«ĸãģķãĤĮãģŁåĲįåīįç©ºéĸĵ": 3308,
      "ãģ«éĸ¢ãģĻãĤĭä¼ļèŃ°ãģ§èŃ°è«ĸãģķãĤĮãģŁãĤ¹ãĤŃãĥ¼ãĥŀ": 3309,
      "ãģ«éĸ¢ãģĻãĤĭä¼ļèŃ°ãģ§èŃ°è«ĸãģķãĤĮãģŁèªįè¨¼": 3310,
      "åħĪæĹ¥ãģ®åĲĮæľŁ": 3311,
      "åħĪæĹ¥ãģ®å¤īæķ°": 3312,
      "ªãĥ¼ãĥĲãĥ¼ãĥĺãĥĥãĥīãģ«ãģ¤ãģĦãģ¦è¿½åĬłãģ®ç¢ºèªįãĤĴãģĬé¡ĺãģĦãģĹãģ¾ãģĻ": 3313,
      "ãģ«éĸ¢ãģĻãĤĭä¼ļèŃ°ãģ§èŃ°è«ĸãģķãĤĮãģŁãĤªãĥ¼ãĥĲãĥ¼ãĥĺãĥĥãĥīãģ«ãģ¤ãģĦãģ¦è¿½åĬłãģ®ç¢ºèªįãĤĴãģĬé¡ĺãģĦãģĹãģ¾ãģĻ": 3314,
      "æľĢéģ©åĮĸç®¡çĲĨãģĮæ±ĤãĤģãĤīãĤĮãģ¾ãģĻ": 3315,
      "ãģ«éĸ¢ãģĻãĤĭä¼ļèŃ°ãģ§èŃ°è«ĸãģķãĤĮãģŁè¨Ńå®ļãģ«ãģ¤ãģĦãģ¦è¿½åĬłãģ®ç¢ºèªįãĤĴãģĬé¡ĺãģĦãģĹãģ¾ãģĻ": 3316,
      "ãģ«éĸ¢ãģĻãĤĭä¼ļèŃ°ãģ§èŃ°è«ĸãģķãĤĮãģŁåĲįåīįç©ºéĸĵãģ«ãģ¤ãģĦãģ¦è¿½åĬłãģ®ç¢ºèªįãĤĴãģĬé¡ĺãģĦãģĹãģ¾ãģĻ": 3317,
      "ãģ«éĸ¢ãģĻãĤĭä¼ļèŃ°ãģ§èŃ°è«ĸãģķãĤĮãģŁãĤ¹ãĤŃãĥ¼ãĥŀãģ«ãģ¤ãģĦãģ¦è¿½åĬłãģ®ç¢ºèªįãĤĴãģĬé¡ĺãģĦãģĹãģ¾ãģĻ": 3318,
      "ãģ«éĸ¢ãģĻãĤĭä¼ļèŃ°ãģ§èŃ°è«ĸãģķãĤĮãģŁèªįè¨¼ãģ«ãģ¤ãģĦãģ¦è¿½åĬłãģ®ç¢ºèªįãĤĴãģĬé¡ĺãģĦãģĹãģ¾ãģĻ": 3319,
      "336": 3320,
      "411": 3321,
      "543": 3322,
      "541": 3323,
      "ãģ®çµ±åĲĪãģ«ãģ¯æħİéĩįãģªãĤ¢ãĥ«ãĤ´ãĥªãĤºãĥłç®¡çĲĨãģĮæ±ĤãĤģãĤīãĤĮãģ¾ãģĻ": 3324,
      "ãģ®çµ±åĲĪãģ«ãģ¯æħİéĩįãģªæľĢéģ©åĮĸç®¡çĲĨãģĮæ±ĤãĤģãĤīãĤĮãģ¾ãģĻ": 3325,
      "åħĪæĹ¥ãģ®ãĥĩãĥĹãĥŃãĤ¤": 3326,
      "åħĪæĹ¥ãģ®æľĢéģ©åĮĸ": 3327,
      "ãģ«éĸ¢ãģĻãĤĭä¼ļèŃ°ãģ§èŃ°è«ĸãģķãĤĮãģŁä¸¦åĪĹæĢ§": 3328,
      "ãģ«éĸ¢ãģĻãĤĭä¼ļèŃ°ãģ§èŃ°è«ĸãģķãĤĮãģŁãĥĳãĥ©ãĥ¡ãĥ¼ãĤ¿": 3329,
      "ãģ«éĸ¢ãģĻãĤĭä¼ļèŃ°ãģ§èŃ°è«ĸãģķãĤĮãģŁãĥ¬ãĤ¤ãĥĨãĥ³ãĤ·": 3330,
      "åħĪæĹ¥ãģ®ãĥ©ãĤ¤ãĥĸãĥ©ãĥª": 3331,
      "»ãĥĥãĤ·ãĥ§ãĥ³ãģ«ãģ¤ãģĦãģ¦è¿½åĬłãģ®ç¢ºèªįãĤĴãģĬé¡ĺãģĦãģĹãģ¾ãģĻ": 3332,
      "«ãĥĹãĤ»ãĥ«åĮĸãģ«ãģ¤ãģĦãģ¦è¿½åĬłãģ®ç¢ºèªįãĤĴãģĬé¡ĺãģĦãģĹãģ¾ãģĻ": 3333,
      "åħĪæĹ¥ãģ®ãĤªãĥ¼ãĥĲãĥ¼ãĥĺãĥĥãĥī": 3334,
      "ãģ«éĸ¢ãģĻãĤĭä¼ļèŃ°ãģ§èŃ°è«ĸãģķãĤĮãģŁãĤ»ãĥĥãĤ·ãĥ§ãĥ³ãģ«ãģ¤ãģĦãģ¦è¿½åĬłãģ®ç¢ºèªįãĤĴãģĬé¡ĺãģĦãģĹãģ¾ãģĻ": 3335,
      "ãģ«éĸ¢ãģĻãĤĭä¼ļèŃ°ãģ§èŃ°è«ĸãģķãĤĮãģŁãĤ«ãĥĹãĤ»ãĥ«åĮĸãģ«ãģ¤ãģĦãģ¦è¿½åĬłãģ®ç¢ºèªįãĤĴãģĬé¡ĺãģĦãģĹãģ¾ãģĻ": 3336,
      "éģ©åĪĩãģªãĤ·ãĤ¹ãĥĨãĥłãģ®å®Łè£ħãģ¯": 3337,
      "éģ©åĪĩãģªãĤ¢ãĥ«ãĤ´ãĥªãĤºãĥłãģ®å®Łè£ħãģ¯": 3338,
      "éģ©åĪĩãģªãĥĿãĥªãĥ¢ãĥ¼ãĥķãĤ£ãĤºãĥłãģ®å®Łè£ħãģ¯": 3339,
      "ãģ«éĸ¢ãģĻãĤĭä¼ļèŃ°ãģ§èŃ°è«ĸãģķãĤĮãģŁä¸¦åĪĹæĢ§ãģ«ãģ¤ãģĦãģ¦è¿½åĬłãģ®ç¢ºèªįãĤĴãģĬé¡ĺãģĦãģĹãģ¾ãģĻ": 3340,
      "ãģ«éĸ¢ãģĻãĤĭä¼ļèŃ°ãģ§èŃ°è«ĸãģķãĤĮãģŁãĥĳãĥ©ãĥ¡ãĥ¼ãĤ¿ãģ«ãģ¤ãģĦãģ¦è¿½åĬłãģ®ç¢ºèªįãĤĴãģĬé¡ĺãģĦãģĹãģ¾ãģĻ": 3341,
      "ãģ«éĸ¢ãģĻãĤĭä¼ļèŃ°ãģ§èŃ°è«ĸãģķãĤĮãģŁãĥ¬ãĤ¤ãĥĨãĥ³ãĤ·ãģ«ãģ¤ãģĦãģ¦è¿½åĬłãģ®ç¢ºèªįãĤĴãģĬé¡ĺãģĦãģĹãģ¾ãģĻ": 3342,
      "325": 3343,
      "513": 3344,
      "857": 3345,
      "1000": 3346,
      "æĢ§ãģ«ãģ¤ãģĦãģ¦è¿½åĬłãģ®ç¢ºèªįãĤĴãģĬé¡ĺãģĦãģĹãģ¾ãģĻ": 3347,
      "ŁèĦĨå¼±": 3348,
      "åħĪæĹ¥ãģ®ãĥĳãĥ©ãĥ¡ãĥ¼ãĤ¿": 3349,
      "åħĪæĹ¥ãģ®ãĥ¢ãĤ¸ãĥ¥ãĥ¼ãĥ«": 3350,
      "åħĪæĹ¥ãģ®ãĥķãĥ¬ãĥ¼ãĥłãĥ¯ãĥ¼ãĤ¯": 3351,
      "ãģ«éĸ¢ãģĻãĤĭä¼ļèŃ°ãģ§èŃ°è«ĸãģķãĤĮãģŁèĦĨå¼±": 3352,
      "ãģ«éĸ¢ãģĻãĤĭä¼ļèŃ°ãģ§èŃ°è«ĸãģķãĤĮãģŁãĤ¹ãĤ±ãĥ¼ãĥ©ãĥĵãĥªãĥĨãĤ£": 3353,
      "ãģ«éĸ¢ãģĻãĤĭä¼ļèŃ°ãģ§èŃ°è«ĸãģķãĤĮãģŁèªįåı¯": 3354,
      "ãģ«éĸ¢ãģĻãĤĭä¼ļèŃ°ãģ§èŃ°è«ĸãģķãĤĮãģŁãĥ©ãĤ¤ãĥĸãĥ©ãĥª": 3355,
      "ãģ«éĸ¢ãģĻãĤĭä¼ļèŃ°ãģ§èŃ°è«ĸãģķãĤĮãģŁãĥĪãĥ¼ãĤ¯ãĥĬãĤ¤ãĤ¶ãĥ¼": 3356,
      "ãģ«éĸ¢ãģĻãĤĭä¼ļèŃ°ãģ§èŃ°è«ĸãģķãĤĮãģŁä¿Ŀå®ĪæĢ§": 3357,
      "ãģ«éĸ¢ãģĻãĤĭä¼ļèŃ°ãģ§èŃ°è«ĸãģķãĤĮãģŁä¸¦è¡ĮæĢ§": 3358,
      "ãģ«éĸ¢ãģĻãĤĭä¼ļèŃ°ãģ§èŃ°è«ĸãģķãĤĮãģŁãĤ³ãĥ³ãĥĨãĥĬ": 3359,
      "ãģ«éĸ¢ãģĻãĤĭä¼ļèŃ°ãģ§èŃ°è«ĸãģķãĤĮãģŁãĥĳãĥķãĤ©ãĥ¼ãĥŀãĥ³ãĤ¹": 3360,
      "ãģ«éĸ¢ãģĻãĤĭä¼ļèŃ°ãģ§èŃ°è«ĸãģķãĤĮãģŁæļĹåı·åĮĸ": 3361,
      "åħĪæĹ¥ãģ®èªįåı¯": 3362,
      "åħĪæĹ¥ãģ®åĨįå¸°": 3363,
      "åħĪæĹ¥ãģ®ãĥĹãĥŃãĥĪãĤ³ãĥ«": 3364,
      "åħĪæĹ¥ãģ®ä¾ĿåŃĺæĢ§": 3365,
      "åħĪæĹ¥ãģ®ãĤ¢ãĥ«ãĤ´ãĥªãĤºãĥł": 3366,
      "åħĪæĹ¥ãģ®ãĤ³ãĥ³ãĥĿãĥ¼ãĥįãĥ³ãĥĪ": 3367,
      "åħĪæĹ¥ãģ®ãĤ«ãĥ¼ãĥįãĥ«": 3368,
      "ãģ«éĸ¢ãģĻãĤĭä¼ļèŃ°ãģ§èŃ°è«ĸãģķãĤĮãģŁèĦĨå¼±æĢ§ãģ«ãģ¤ãģĦãģ¦è¿½åĬłãģ®ç¢ºèªįãĤĴãģĬé¡ĺãģĦãģĹãģ¾ãģĻ": 3369,
      "ãģ«éĸ¢ãģĻãĤĭä¼ļèŃ°ãģ§èŃ°è«ĸãģķãĤĮãģŁãĤ¹ãĤ±ãĥ¼ãĥ©ãĥĵãĥªãĥĨãĤ£ãģ«ãģ¤ãģĦãģ¦è¿½åĬłãģ®ç¢ºèªįãĤĴãģĬé¡ĺãģĦãģĹãģ¾ãģĻ": 3370,
      "ãģ«éĸ¢ãģĻãĤĭä¼ļèŃ°ãģ§èŃ°è«ĸãģķãĤĮãģŁèªįåı¯ãģ«ãģ¤ãģĦãģ¦è¿½åĬłãģ®ç¢ºèªįãĤĴãģĬé¡ĺãģĦãģĹãģ¾ãģĻ": 3371,
      "ãģ«éĸ¢ãģĻãĤĭä¼ļèŃ°ãģ§èŃ°è«ĸãģķãĤĮãģŁãĥ©ãĤ¤ãĥĸãĥ©ãĥªãģ«ãģ¤ãģĦãģ¦è¿½åĬłãģ®ç¢ºèªįãĤĴãģĬé¡ĺãģĦãģĹãģ¾ãģĻ": 3372,
      "ãģ«éĸ¢ãģĻãĤĭä¼ļèŃ°ãģ§èŃ°è«ĸãģķãĤĮãģŁãĥĪãĥ¼ãĤ¯ãĥĬãĤ¤ãĤ¶ãĥ¼ãģ«ãģ¤ãģĦãģ¦è¿½åĬłãģ®ç¢ºèªįãĤĴãģĬé¡ĺãģĦãģĹãģ¾ãģĻ": 3373,
      "ãģ«éĸ¢ãģĻãĤĭä¼ļèŃ°ãģ§èŃ°è«ĸãģķãĤĮãģŁä¿Ŀå®ĪæĢ§ãģ«ãģ¤ãģĦãģ¦è¿½åĬłãģ®ç¢ºèªįãĤĴãģĬé¡ĺãģĦãģĹãģ¾ãģĻ": 3374,
      "ãģ«éĸ¢ãģĻãĤĭä¼ļèŃ°ãģ§èŃ°è«ĸãģķãĤĮãģŁä¸¦è¡ĮæĢ§ãģ«ãģ¤ãģĦãģ¦è¿½åĬłãģ®ç¢ºèªįãĤĴãģĬé¡ĺãģĦãģĹãģ¾ãģĻ": 3375,
      "ãģ«éĸ¢ãģĻãĤĭä¼ļèŃ°ãģ§èŃ°è«ĸãģķãĤĮãģŁãĤ³ãĥ³ãĥĨãĥĬãģ«ãģ¤ãģĦãģ¦è¿½åĬłãģ®ç¢ºèªįãĤĴãģĬé¡ĺãģĦãģĹãģ¾ãģĻ": 3376,
      "ãģ«éĸ¢ãģĻãĤĭä¼ļèŃ°ãģ§èŃ°è«ĸãģķãĤĮãģŁãĥĳãĥķãĤ©ãĥ¼ãĥŀãĥ³ãĤ¹ãģ«ãģ¤ãģĦãģ¦è¿½åĬłãģ®ç¢ºèªįãĤĴãģĬé¡ĺãģĦãģĹãģ¾ãģĻ": 3377,
      "ãģ«éĸ¢ãģĻãĤĭä¼ļèŃ°ãģ§èŃ°è«ĸãģķãĤĮãģŁæļĹåı·åĮĸãģ«ãģ¤ãģĦãģ¦è¿½åĬłãģ®ç¢ºèªįãĤĴãģĬé¡ĺãģĦãģĹãģ¾ãģĻ": 3378,
      "310": 3379,
      "413": 3380,
      "439": 3381,
      "534": 3382,
      "522": 3383,
      "636": 3384,
      "622": 3385,
      "746": 3386,
      "836": 3387,
      "åħĪæĹ¥ãģ®ãĥŃãĥ¼ãĥī": 3388,
      "åħĪæĹ¥ãģ®ãĥĳãĤ¤ãĥĹãĥ©ãĤ¤ãĥ³": 3389,
      "åħĪæĹ¥ãģ®ãĥĩãĥ¼ãĤ¿ãĥĻãĥ¼ãĤ¹": 3390,
      "ãģ«éĸ¢ãģĻãĤĭä¼ļèŃ°ãģ§èŃ°è«ĸãģķãĤĮãģŁå¸¯åŁŁå¹ħ": 3391,
      "ãģ«éĸ¢ãģĻãĤĭä¼ļèŃ°ãģ§èŃ°è«ĸãģķãĤĮãģŁä»®æĥ³åĮĸ": 3392,
      "ãģ«éĸ¢ãģĻãĤĭä¼ļèŃ°ãģ§èŃ°è«ĸãģķãĤĮãģŁåı¯çĶ¨æĢ§": 3393,
      "ãģ«éĸ¢ãģĻãĤĭä¼ļèŃ°ãģ§èŃ°è«ĸãģķãĤĮãģŁãĤ¢ãĥ«ãĤ´ãĥªãĤºãĥł": 3394,
      "ãģ«éĸ¢ãģĻãĤĭä¼ļèŃ°ãģ§èŃ°è«ĸãģķãĤĮãģŁãĥŁãĥīãĥ«ãĤ¦ãĤ§ãĤ¢": 3395,
      "ãģ«éĸ¢ãģĻãĤĭä¼ļèŃ°ãģ§èŃ°è«ĸãģķãĤĮãģŁãĥŃãĥ¼ãĥī": 3396,
      "ãģ«éĸ¢ãģĻãĤĭä¼ļèŃ°ãģ§èŃ°è«ĸãģķãĤĮãģŁæľĢéģ©åĮĸ": 3397,
      "åħĪæĹ¥ãģ®ãĥªãĥĿãĤ¸ãĥĪãĥª": 3398,
      "åħĪæĹ¥ãģ®å¸¯åŁŁå¹ħ": 3399,
      "åħĪæĹ¥ãģ®ä»®æĥ³åĮĸ": 3400,
      "åħĪæĹ¥ãģ®ãĤ·ãĥªãĤ¢ãĥ©ãĤ¤ãĤ¼ãĥ¼ãĤ·ãĥ§ãĥ³": 3401,
      "åħĪæĹ¥ãģ®ãĥĲãĥĥãĥķãĤ¡": 3402,
      "åħĪæĹ¥ãģ®åı¯çĶ¨æĢ§": 3403,
      "åħĪæĹ¥ãģ®ä¿¡éł¼æĢ§": 3404,
      "³ãĥ³ãĥĿãĥ¼ãĥįãĥ³ãĥĪãģ«ãģ¤ãģĦãģ¦è¿½åĬłãģ®ç¢ºèªįãĤĴãģĬé¡ĺãģĦãģĹãģ¾ãģĻ": 3405,
      "åħĪæĹ¥ãģ®ãĤ³ãĥ³ãĥĳãĤ¤ãĥ©": 3406,
      "åħĪæĹ¥ãģ®ãĤ¯ãĤ¨ãĥª": 3407,
      "åħĪæĹ¥ãģ®ãĤ³ãĥ³ãĥĨãĥĬ": 3408,
      "ãģ«éĸ¢ãģĻãĤĭä¼ļèŃ°ãģ§èŃ°è«ĸãģķãĤĮãģŁãĤ³ãĥ³ãĥĿãĥ¼ãĥįãĥ³ãĥĪãģ«ãģ¤ãģĦãģ¦è¿½åĬłãģ®ç¢ºèªįãĤĴãģĬé¡ĺãģĦãģĹãģ¾ãģĻ": 3409,
      "ãģ«éĸ¢ãģĻãĤĭä¼ļèŃ°ãģ§èŃ°è«ĸãģķãĤĮãģŁå¸¯åŁŁå¹ħãģ«ãģ¤ãģĦãģ¦è¿½åĬłãģ®ç¢ºèªįãĤĴãģĬé¡ĺãģĦãģĹãģ¾ãģĻ": 3410,
      "ãģ«éĸ¢ãģĻãĤĭä¼ļèŃ°ãģ§èŃ°è«ĸãģķãĤĮãģŁä»®æĥ³åĮĸãģ«ãģ¤ãģĦãģ¦è¿½åĬłãģ®ç¢ºèªįãĤĴãģĬé¡ĺãģĦãģĹãģ¾ãģĻ": 3411,
      "ãģ«éĸ¢ãģĻãĤĭä¼ļèŃ°ãģ§èŃ°è«ĸãģķãĤĮãģŁåı¯çĶ¨æĢ§ãģ«ãģ¤ãģĦãģ¦è¿½åĬłãģ®ç¢ºèªįãĤĴãģĬé¡ĺãģĦãģĹãģ¾ãģĻ": 3412,
      "ãģ«éĸ¢ãģĻãĤĭä¼ļèŃ°ãģ§èŃ°è«ĸãģķãĤĮãģŁãĤ¢ãĥ«ãĤ´ãĥªãĤºãĥłãģ«ãģ¤ãģĦãģ¦è¿½åĬłãģ®ç¢ºèªįãĤĴãģĬé¡ĺãģĦãģĹãģ¾ãģĻ": 3413,
      "ãģ«éĸ¢ãģĻãĤĭä¼ļèŃ°ãģ§èŃ°è«ĸãģķãĤĮãģŁãĥŁãĥīãĥ«ãĤ¦ãĤ§ãĤ¢ãģ«ãģ¤ãģĦãģ¦è¿½åĬłãģ®ç¢ºèªįãĤĴãģĬé¡ĺãģĦãģĹãģ¾ãģĻ": 3414,
      "ãģ«éĸ¢ãģĻãĤĭä¼ļèŃ°ãģ§èŃ°è«ĸãģķãĤĮãģŁãĥŃãĥ¼ãĥīãģ«ãģ¤ãģĦãģ¦è¿½åĬłãģ®ç¢ºèªįãĤĴãģĬé¡ĺãģĦãģĹãģ¾ãģĻ": 3415,
      "ãģ«éĸ¢ãģĻãĤĭä¼ļèŃ°ãģ§èŃ°è«ĸãģķãĤĮãģŁæľĢéģ©åĮĸãģ«ãģ¤ãģĦãģ¦è¿½åĬłãģ®ç¢ºèªįãĤĴãģĬé¡ĺãģĦãģĹãģ¾ãģĻ": 3416,
      "316": 3417,
      "619": 3418,
      "626": 3419,
      "714": 3420,
      "743": 3421,
      "834": 3422,
      "833": 3423,
      "åħĪæĹ¥ãģ®ãĥĻãĥ³ãĥģãĥŀãĥ¼ãĤ¯": 3424,
      "åħĪæĹ¥ãģ®ãĥĿãĥªãĥ¢ãĥ¼ãĥķãĤ£ãĤºãĥł": 3425,
      "ãģ«éĸ¢ãģĻãĤĭä¼ļèŃ°ãģ§èŃ°è«ĸãģķãĤĮãģŁç¶Ļæī¿": 3426,
      "ãģ«éĸ¢ãģĻãĤĭä¼ļèŃ°ãģ§èŃ°è«ĸãģķãĤĮãģŁãĤ¤ãĥĨãĥ¬ãĥ¼ãĤ·ãĥ§ãĥ³": 3427,
      "åħĪæĹ¥ãģ®ãĤ¤ãĥ³ãĤ¿ãĥ¼ãĥķãĤ§ãĥ¼ãĤ¹": 3428,
      "åħĪæĹ¥ãģ®è¨Ńå®ļ": 3429,
      "åħĪæĹ¥ãģ®ãĥĲãĥªãĥĩãĥ¼ãĤ·ãĥ§ãĥ³": 3430,
      "»ãĥŀãĥķãĤ©ãģ«ãģ¤ãģĦãģ¦è¿½åĬłãģ®ç¢ºèªįãĤĴãģĬé¡ĺãģĦãģĹãģ¾ãģĻ": 3431,
      "«ãĥ¼ãĥįãĥ«ãģ«ãģ¤ãģĦãģ¦è¿½åĬłãģ®ç¢ºèªįãĤĴãģĬé¡ĺãģĦãģĹãģ¾ãģĻ": 3432,
      "µãĥ¼ãĥĵãĤ¹ãģ«ãģ¤ãģĦãģ¦è¿½åĬłãģ®ç¢ºèªįãĤĴãģĬé¡ĺãģĦãģĹãģ¾ãģĻ": 3433,
      "åħĪæĹ¥ãģ®ãĤ»ãĥŀãĥķãĤ©": 3434,
      "åħĪæĹ¥ãģ®ãĤŃãĥ£ãĥĥãĤ·ãĥ¥": 3435,
      "åħĪæĹ¥ãģ®ãĤ¨ãĥ³ãĥīãĥĿãĤ¤ãĥ³ãĥĪ": 3436,
      "ãģ«éĸ¢ãģĻãĤĭä¼ļèŃ°ãģ§èŃ°è«ĸãģķãĤĮãģŁãĤ»ãĥŀãĥķãĤ©ãģ«ãģ¤ãģĦãģ¦è¿½åĬłãģ®ç¢ºèªįãĤĴãģĬé¡ĺãģĦãģĹãģ¾ãģĻ": 3437,
      "ãģ«éĸ¢ãģĻãĤĭä¼ļèŃ°ãģ§èŃ°è«ĸãģķãĤĮãģŁãĤ«ãĥ¼ãĥįãĥ«ãģ«ãģ¤ãģĦãģ¦è¿½åĬłãģ®ç¢ºèªįãĤĴãģĬé¡ĺãģĦãģĹãģ¾ãģĻ": 3438,
      "ãģ«éĸ¢ãģĻãĤĭä¼ļèŃ°ãģ§èŃ°è«ĸãģķãĤĮãģŁãĤµãĥ¼ãĥĵãĤ¹ãģ«ãģ¤ãģĦãģ¦è¿½åĬłãģ®ç¢ºèªįãĤĴãģĬé¡ĺãģĦãģĹãģ¾ãģĻ": 3439,
      "ãģ«éĸ¢ãģĻãĤĭä¼ļèŃ°ãģ§èŃ°è«ĸãģķãĤĮãģŁç¶Ļæī¿ãģ«ãģ¤ãģĦãģ¦è¿½åĬłãģ®ç¢ºèªįãĤĴãģĬé¡ĺãģĦãģĹãģ¾ãģĻ": 3440,
      "ãģ«éĸ¢ãģĻãĤĭä¼ļèŃ°ãģ§èŃ°è«ĸãģķãĤĮãģŁãĤ¤ãĥĨãĥ¬ãĥ¼ãĤ·ãĥ§ãĥ³ãģ«ãģ¤ãģĦãģ¦è¿½åĬłãģ®ç¢ºèªįãĤĴãģĬé¡ĺãģĦãģĹãģ¾ãģĻ": 3441,
      "524": 3442,
      "539": 3443,
      "533": 3444,
      "531": 3445,
      "610": 3446,
      "633": 3447,
      "715": 3448,
      "739": 3449,
      "821": 3450,
      "863": 3451,
      "944": 3452,
      "åħĪæĹ¥ãģ®æļĹåı·åĮĸ": 3453,
      "ãģ«éĸ¢ãģĻãĤĭä¼ļèŃ°ãģ§èŃ°è«ĸãģķãĤĮãģŁãĥªãĥĿãĤ¸ãĥĪãĥª": 3454,
      "ãģ«éĸ¢ãģĻãĤĭä¼ļèŃ°ãģ§èŃ°è«ĸãģķãĤĮãģŁãĥĪãĥ©ãĥ³ãĤ¶ãĤ¯ãĤ·ãĥ§ãĥ³": 3455,
      "ãģ«éĸ¢ãģĻãĤĭä¼ļèŃ°ãģ§èŃ°è«ĸãģķãĤĮãģŁãĥĲãĥĥãĥķãĤ¡": 3456,
      "ãģ«éĸ¢ãģĻãĤĭä¼ļèŃ°ãģ§èŃ°è«ĸãģķãĤĮãģŁãĤ·ãĤ¹ãĥĨãĥł": 3457,
      "ãģ«éĸ¢ãģĻãĤĭä¼ļèŃ°ãģ§èŃ°è«ĸãģķãĤĮãģŁãĤ¨ãĥ³ãĥīãĥĿãĤ¤ãĥ³ãĥĪ": 3458,
      "åħĪæĹ¥ãģ®ãĤ¹ãĤ±ãĥ¼ãĥ©ãĥĵãĥªãĥĨãĤ£": 3459,
      "åħĪæĹ¥ãģ®ç¶Ļæī¿": 3460,
      "åħĪæĹ¥ãģ®ãĥĪãĥ¼ãĤ¯ãĥĬãĤ¤ãĤ¶ãĥ¼": 3461,
      "åħĪæĹ¥ãģ®ä¸¦åĪĹæĢ§": 3462,
      "åħĪæĹ¥ãģ®ä¸¦è¡ĮæĢ§": 3463,
      "Ńãĥ£ãĥĥãĤ·ãĥ¥ãģ«ãģ¤ãģĦãģ¦è¿½åĬłãģ®ç¢ºèªįãĤĴãģĬé¡ĺãģĦãģĹãģ¾ãģĻ": 3464,
      "åħĪæĹ¥ãģ®ãĤ»ãĥĥãĤ·ãĥ§ãĥ³": 3465,
      "åħĪæĹ¥ãģ®ãĤµãĥ¼ãĥĵãĤ¹": 3466,
      "ãģ«éĸ¢ãģĻãĤĭä¼ļèŃ°ãģ§èŃ°è«ĸãģķãĤĮãģŁãĤŃãĥ£ãĥĥãĤ·ãĥ¥ãģ«ãģ¤ãģĦãģ¦è¿½åĬłãģ®ç¢ºèªįãĤĴãģĬé¡ĺãģĦãģĹãģ¾ãģĻ": 3467,
      "ãģ«éĸ¢ãģĻãĤĭä¼ļèŃ°ãģ§èŃ°è«ĸãģķãĤĮãģŁãĥªãĥĿãĤ¸ãĥĪãĥªãģ«ãģ¤ãģĦãģ¦è¿½åĬłãģ®ç¢ºèªįãĤĴãģĬé¡ĺãģĦãģĹãģ¾ãģĻ": 3468,
      "ãģ«éĸ¢ãģĻãĤĭä¼ļèŃ°ãģ§èŃ°è«ĸãģķãĤĮãģŁãĥĪãĥ©ãĥ³ãĤ¶ãĤ¯ãĤ·ãĥ§ãĥ³ãģ«ãģ¤ãģĦãģ¦è¿½åĬłãģ®ç¢ºèªįãĤĴãģĬé¡ĺãģĦãģĹãģ¾ãģĻ": 3469,
      "ãģ«éĸ¢ãģĻãĤĭä¼ļèŃ°ãģ§èŃ°è«ĸãģķãĤĮãģŁãĥĲãĥĥãĥķãĤ¡ãģ«ãģ¤ãģĦãģ¦è¿½åĬłãģ®ç¢ºèªįãĤĴãģĬé¡ĺãģĦãģĹãģ¾ãģĻ": 3470,
      "ãģ«éĸ¢ãģĻãĤĭä¼ļèŃ°ãģ§èŃ°è«ĸãģķãĤĮãģŁãĤ·ãĤ¹ãĥĨãĥłãģ«ãģ¤ãģĦãģ¦è¿½åĬłãģ®ç¢ºèªįãĤĴãģĬé¡ĺãģĦãģĹãģ¾ãģĻ": 3471,
      "ãģ«éĸ¢ãģĻãĤĭä¼ļèŃ°ãģ§èŃ°è«ĸãģķãĤĮãģŁãĤ¨ãĥ³ãĥīãĥĿãĤ¤ãĥ³ãĥĪãģ«ãģ¤ãģĦãģ¦è¿½åĬłãģ®ç¢ºèªįãĤĴãģĬé¡ĺãģĦãģĹãģ¾ãģĻ": 3472,
      "542": 3473,
      "623": 3474,
      "846": 3475,
      "862": 3476,
      "926": 3477,
      "åħĪæĹ¥ãģ®ãĥŁãĥīãĥ«ãĤ¦ãĤ§ãĤ¢": 3478,
      "ãģ«éĸ¢ãģĻãĤĭä¼ļèŃ°ãģ§èŃ°è«ĸãģķãĤĮãģŁãĤ¢ãĥ¼ãĤŃãĥĨãĤ¯ãĥģãĥ£": 3479,
      "ãģ«éĸ¢ãģĻãĤĭä¼ļèŃ°ãģ§èŃ°è«ĸãģķãĤĮãģŁä»ķæ§ĺ": 3480,
      "ãģ«éĸ¢ãģĻãĤĭä¼ļèŃ°ãģ§èŃ°è«ĸãģķãĤĮãģŁãĥĲãĥªãĥĩãĥ¼ãĤ·ãĥ§ãĥ³": 3481,
      "ãģ«éĸ¢ãģĻãĤĭä¼ļèŃ°ãģ§èŃ°è«ĸãģķãĤĮãģŁãĥķãĥ¬ãĥ¼ãĥłãĥ¯ãĥ¼ãĤ¯": 3482,
      "åħĪæĹ¥ãģ®ãĤ¢ãĥ¼ãĤŃãĥĨãĤ¯ãĥģãĥ£": 3483,
      "åħĪæĹ¥ãģ®ãĤ¤ãĥĨãĥ¬ãĥ¼ãĤ·ãĥ§ãĥ³": 3484,
      "åħĪæĹ¥ãģ®ãĤ¹ãĥ«ãĥ¼ãĥĹãĥĥãĥĪ": 3485,
      "åħĪæĹ¥ãģ®ä¿Ŀå®ĪæĢ§": 3486,
      "ãģ«éĸ¢ãģĻãĤĭä¼ļèŃ°ãģ§èŃ°è«ĸãģķãĤĮãģŁãĤ¢ãĥ¼ãĤŃãĥĨãĤ¯ãĥģãĥ£ãģ«ãģ¤ãģĦãģ¦è¿½åĬłãģ®ç¢ºèªįãĤĴãģĬé¡ĺãģĦãģĹãģ¾ãģĻ": 3487,
      "ãģ«éĸ¢ãģĻãĤĭä¼ļèŃ°ãģ§èŃ°è«ĸãģķãĤĮãģŁä»ķæ§ĺãģ«ãģ¤ãģĦãģ¦è¿½åĬłãģ®ç¢ºèªįãĤĴãģĬé¡ĺãģĦãģĹãģ¾ãģĻ": 3488,
      "ãģ«éĸ¢ãģĻãĤĭä¼ļèŃ°ãģ§èŃ°è«ĸãģķãĤĮãģŁãĥĲãĥªãĥĩãĥ¼ãĤ·ãĥ§ãĥ³ãģ«ãģ¤ãģĦãģ¦è¿½åĬłãģ®ç¢ºèªįãĤĴãģĬé¡ĺãģĦãģĹãģ¾ãģĻ": 3489,
      "ãģ«éĸ¢ãģĻãĤĭä¼ļèŃ°ãģ§èŃ°è«ĸãģķãĤĮãģŁãĥķãĥ¬ãĥ¼ãĥłãĥ¯ãĥ¼ãĤ¯ãģ«ãģ¤ãģĦãģ¦è¿½åĬłãģ®ç¢ºèªįãĤĴãģĬé¡ĺãģĦãģĹãģ¾ãģĻ": 3490,
      "422": 3491,
      "511": 3492,
      "628": 3493,
      "811": 3494,
      "844": 3495,
      "916": 3496,
      "924": 3497,
      "962": 3498,
      "åħĪæĹ¥ãģ®ãĥĩãĥĲãĥĥãĤ°": 3499,
      "åħĪæĹ¥ãģ®æ©Łèĥ½": 3500,
      "ãģ«éĸ¢ãģĻãĤĭä¼ļèŃ°ãģ§èŃ°è«ĸãģķãĤĮãģŁãĤ¤ãĥ³ãĤ¿ãĥ¼ãĥķãĤ§ãĥ¼ãĤ¹": 3501,
      "ãģ«éĸ¢ãģĻãĤĭä¼ļèŃ°ãģ§èŃ°è«ĸãģķãĤĮãģŁåĨįå¸°": 3502,
      "ãģ«éĸ¢ãģĻãĤĭä¼ļèŃ°ãģ§èŃ°è«ĸãģķãĤĮãģŁå¤īæķ°": 3503,
      "ãģ«éĸ¢ãģĻãĤĭä¼ļèŃ°ãģ§èŃ°è«ĸãģķãĤĮãģŁãĤ¹ãĥ«ãĥ¼ãĥĹãĥĥãĥĪ": 3504,
      "ãģ«éĸ¢ãģĻãĤĭä¼ļèŃ°ãģ§èŃ°è«ĸãģķãĤĮãģŁä¾ĿåŃĺæĢ§": 3505,
      "ãģ«éĸ¢ãģĻãĤĭä¼ļèŃ°ãģ§èŃ°è«ĸãģķãĤĮãģŁãĥĩãĥĲãĥĥãĤ°": 3506,
      "ãģ«éĸ¢ãģĻãĤĭä¼ļèŃ°ãģ§èŃ°è«ĸãģķãĤĮãģŁãĥĻãĥ³ãĥģãĥŀãĥ¼ãĤ¯": 3507,
      "åħĪæĹ¥ãģ®åĲįåīįç©ºéĸĵ": 3508,
      "åħĪæĹ¥ãģ®ä»ķæ§ĺ": 3509,
      "åħĪæĹ¥ãģ®ãĤ·ãĤ¹ãĥĨãĥł": 3510,
      "³ãĥ³ãĥĳãĤ¤ãĥ©ãģ«ãģ¤ãģĦãģ¦è¿½åĬłãģ®ç¢ºèªįãĤĴãģĬé¡ĺãģĦãģĹãģ¾ãģĻ": 3511,
      "ãģ«éĸ¢ãģĻãĤĭä¼ļèŃ°ãģ§èŃ°è«ĸãģķãĤĮãģŁãĤ³ãĥ³ãĥĳãĤ¤ãĥ©ãģ«ãģ¤ãģĦãģ¦è¿½åĬłãģ®ç¢ºèªįãĤĴãģĬé¡ĺãģĦãģĹãģ¾ãģĻ": 3512,
      "Iterator": 3513,
      "ãģ«éĸ¢ãģĻãĤĭä¼ļèŃ°ãģ§èŃ°è«ĸãģķãĤĮãģŁãĤ¤ãĥ³ãĤ¿ãĥ¼ãĥķãĤ§ãĥ¼ãĤ¹ãģ«ãģ¤ãģĦãģ¦è¿½åĬłãģ®ç¢ºèªįãĤĴãģĬé¡ĺãģĦãģĹãģ¾ãģĻ": 3514,
      "ãģ«éĸ¢ãģĻãĤĭä¼ļèŃ°ãģ§èŃ°è«ĸãģķãĤĮãģŁåĨįå¸°ãģ«ãģ¤ãģĦãģ¦è¿½åĬłãģ®ç¢ºèªįãĤĴãģĬé¡ĺãģĦãģĹãģ¾ãģĻ": 3515,
      "ãģ«éĸ¢ãģĻãĤĭä¼ļèŃ°ãģ§èŃ°è«ĸãģķãĤĮãģŁå¤īæķ°ãģ«ãģ¤ãģĦãģ¦è¿½åĬłãģ®ç¢ºèªįãĤĴãģĬé¡ĺãģĦãģĹãģ¾ãģĻ": 3516,
      "ãģ«éĸ¢ãģĻãĤĭä¼ļèŃ°ãģ§èŃ°è«ĸãģķãĤĮãģŁãĤ¹ãĥ«ãĥ¼ãĥĹãĥĥãĥĪãģ«ãģ¤ãģĦãģ¦è¿½åĬłãģ®ç¢ºèªįãĤĴãģĬé¡ĺãģĦãģĹãģ¾ãģĻ": 3517,
      "ãģ«éĸ¢ãģĻãĤĭä¼ļèŃ°ãģ§èŃ°è«ĸãģķãĤĮãģŁä¾ĿåŃĺæĢ§ãģ«ãģ¤ãģĦãģ¦è¿½åĬłãģ®ç¢ºèªįãĤĴãģĬé¡ĺãģĦãģĹãģ¾ãģĻ": 3518,
      "ãģ«éĸ¢ãģĻãĤĭä¼ļèŃ°ãģ§èŃ°è«ĸãģķãĤĮãģŁãĥĩãĥĲãĥĥãĤ°ãģ«ãģ¤ãģĦãģ¦è¿½åĬłãģ®ç¢ºèªįãĤĴãģĬé¡ĺãģĦãģĹãģ¾ãģĻ": 3519,
      "ãģ«éĸ¢ãģĻãĤĭä¼ļèŃ°ãģ§èŃ°è«ĸãģķãĤĮãģŁãĥĻãĥ³ãĥģãĥŀãĥ¼ãĤ¯ãģ«ãģ¤ãģĦãģ¦è¿½åĬłãģ®ç¢ºèªįãĤĴãģĬé¡ĺãģĦãģĹãģ¾ãģĻ": 3520,
      "314": 3521,
      "566": 3522,
      "877": 3523,
      "åħĪæĹ¥ãģ®ãĥ¬ãĤ¤ãĥĨãĥ³ãĤ·": 3524,
      "ãģ«éĸ¢ãģĻãĤĭä¼ļèŃ°ãģ§èŃ°è«ĸãģķãĤĮãģŁãĥĹãĥŃãĥĪãĤ³ãĥ«": 3525,
      "ãģ«éĸ¢ãģĻãĤĭä¼ļèŃ°ãģ§èŃ°è«ĸãģķãĤĮãģŁãĥĳãĤ¤ãĥĹãĥ©ãĤ¤ãĥ³": 3526,
      "ä»®æĥ³åĮĸãģ®æĶ¹åĸĦãģĮç´łæĻ´ãĤīãģĹãģĦãģ§ãģĻãģŃ": 3527,
      "ãģ«éĸ¢ãģĻãĤĭä¼ļèŃ°ãģ§èŃ°è«ĸãģķãĤĮãģŁãĥĹãĥŃãĥĪãĤ³ãĥ«ãģ«ãģ¤ãģĦãģ¦è¿½åĬłãģ®ç¢ºèªįãĤĴãģĬé¡ĺãģĦãģĹãģ¾ãģĻ": 3528,
      "ãģ«éĸ¢ãģĻãĤĭä¼ļèŃ°ãģ§èŃ°è«ĸãģķãĤĮãģŁãĥĳãĤ¤ãĥĹãĥ©ãĤ¤ãĥ³ãģ«ãģ¤ãģĦãģ¦è¿½åĬłãģ®ç¢ºèªįãĤĴãģĬé¡ĺãģĦãģĹãģ¾ãģĻ": 3529,
      "763": 3530,
      "762": 3531,
      "822": 3532,
      "åħĪæĹ¥ãģ®ãĥĳãĥķãĤ©ãĥ¼ãĥŀãĥ³ãĤ¹": 3533,
      "ãģ«éĸ¢ãģĻãĤĭä¼ļèŃ°ãģ§èŃ°è«ĸãģķãĤĮãģŁãĥĩãĥ¼ãĤ¿ãĥĻãĥ¼ãĤ¹": 3534,
      "ãģ«éĸ¢ãģĻãĤĭä¼ļèŃ°ãģ§èŃ°è«ĸãģķãĤĮãģŁãĥĿãĥªãĥ¢ãĥ¼ãĥķãĤ£ãĤºãĥł": 3535,
      "åħĪæĹ¥ãģ®ãĤ¹ãĤŃãĥ¼ãĥŀ": 3536,
      "åħĪæĹ¥ãģ®èªįè¨¼": 3537,
      "åħĪæĹ¥ãģ®ãĥĪãĥ©ãĥ³ãĤ¶ãĤ¯ãĤ·ãĥ§ãĥ³": 3538,
      "ãģ®ãĤ³ãĥ³ãĥĿãĥ¼ãĥįãĥ³ãĥĪãģĮãĤ¢ãĥĥãĥĹãĤ°ãĥ¬ãĥ¼ãĥīãģķãĤĮãģ¾ãģĹãģŁ": 3539,
      "ãģ«éĸ¢ãģĻãĤĭä¼ļèŃ°ãģ§èŃ°è«ĸãģķãĤĮãģŁãĥĩãĥ¼ãĤ¿ãĥĻãĥ¼ãĤ¹ãģ«ãģ¤ãģĦãģ¦è¿½åĬłãģ®ç¢ºèªįãĤĴãģĬé¡ĺãģĦãģĹãģ¾ãģĻ": 3540,
      "ãģ«éĸ¢ãģĻãĤĭä¼ļèŃ°ãģ§èŃ°è«ĸãģķãĤĮãģŁãĥĿãĥªãĥ¢ãĥ¼ãĥķãĤ£ãĤºãĥłãģ«ãģ¤ãģĦãģ¦è¿½åĬłãģ®ç¢ºèªįãĤĴãģĬé¡ĺãģĦãģĹãģ¾ãģĻ": 3541,
      "544": 3542,
      "632": 3543,
      "732": 3544,
      "741": 3545,
      "963": 3546,
      "ãģ«éĸ¢ãģĻãĤĭä¼ļèŃ°ãģ§èŃ°è«ĸãģķãĤĮãģŁåĲĮæľŁ": 3547,
      "ãģ«éĸ¢ãģĻãĤĭä¼ļèŃ°ãģ§èŃ°è«ĸãģķãĤĮãģŁãĥ¢ãĤ¸ãĥ¥ãĥ¼ãĥ«": 3548,
      "ãģ«éĸ¢ãģĻãĤĭä¼ļèŃ°ãģ§èŃ°è«ĸãģķãĤĮãģŁåĲĮæľŁãģ«ãģ¤ãģĦãģ¦è¿½åĬłãģ®ç¢ºèªįãĤĴãģĬé¡ĺãģĦãģĹãģ¾ãģĻ": 3549,
      "ãģ«éĸ¢ãģĻãĤĭä¼ļèŃ°ãģ§èŃ°è«ĸãģķãĤĮãģŁãĥ¢ãĤ¸ãĥ¥ãĥ¼ãĥ«ãģ«ãģ¤ãģĦãģ¦è¿½åĬłãģ®ç¢ºèªįãĤĴãģĬé¡ĺãģĦãģĹãģ¾ãģĻ": 3550,
      "1180": 3551,
      "432": 3552,
      "711": 3553,
      "832": 3554,
      "843": 3555,
      "set": 3556,
      "ãģ®ä¸¦åĪĹæĢ§ãģĮåĨįç·¨æĪĲãģķãĤĮãģ¾ãģĹãģŁ": 3557,
      "ãģ®åı¯çĶ¨æĢ§ãģĮæĶ¹åĸĦãģķãĤĮãģ¾ãģĹãģŁ": 3558,
      "733": 3559,
      "831": 3560,
      "842": 3561,
      "841": 3562,
      "911": 3563,
      "922": 3564,
      "931": 3565,
      "Coroutine": 3566,
      "ãģ«éĸ¢ãģĻãĤĭä¼ļèŃ°ãģ§èŃ°è«ĸãģķãĤĮãģŁæ©Łèĥ½": 3567,
      "ãģ®ãĥĳãĥ©ãĥ¡ãĥ¼ãĤ¿ãģĮåĨįè¨Ńè¨ĪãģķãĤĮãģ¾ãģĹãģŁ": 3568,
      "ãģ®ãĤ»ãĥŀãĥķãĤ©ãģĮæľĢéģ©åĮĸãģķãĤĮãģ¾ãģĹãģŁ": 3569,
      "ãģ«éĸ¢ãģĻãĤĭä¼ļèŃ°ãģ§èŃ°è«ĸãģķãĤĮãģŁæ©Łèĥ½ãģ«ãģ¤ãģĦãģ¦è¿½åĬłãģ®ç¢ºèªįãĤĴãģĬé¡ĺãģĦãģĹãģ¾ãģĻ": 3570,
      "1190": 3571,
      "1160": 3572,
      "332": 3573,
      "bytes": 3574,
      "tuple": 3575,
      "æĸ°ãģĹãģĦè¨Ńå®ļ": 3576,
      "æĸ°ãģĹãģĦè¨Ńå®ļãģ®ãĥªãĥªãĥ¼ãĤ¹ãĥİãĥ¼ãĥĪãĤĴç¢ºèªįãģĹãģ¾ãģĹãģŁ": 3577,
      "1150": 3578,
      "1170": 3579,
      "311": 3580,
      "721": 3581,
      "866": 3582,
      "941": 3583,
      "Any": 3584,
      "ãĤ·ãĤ¹ãĥĨãĥłãģ®æĶ¹åĸĦãģĮç´łæĻ´ãĤīãģĹãģĦãģ§ãģĻãģŃ": 3585,
      "æĸ°ãģĹãģĦãĥªãĥĿãĤ¸ãĥĪãĥª": 3586,
      "æĸ°ãģĹãģĦå¸¯åŁŁå¹ħ": 3587,
      "æĸ°ãģĹãģĦèªįè¨¼": 3588,
      "ãĥĩãĥĹãĥŃãĤ¤ãģ®æĶ¹åĸĦãģĮç´łæĻ´ãĤīãģĹãģĦãģ§ãģĻãģŃ": 3589,
      "ãĤ¯ãĤ¨ãĥªãģ®æĶ¹åĸĦãģĮç´łæĻ´ãĤīãģĹãģĦãģ§ãģĻãģŃ": 3590,
      "ãģ®ãĤ¯ãĤ¨ãĥªãģĮåĨįè¨Ńè¨ĪãģķãĤĮãģ¾ãģĹãģŁ": 3591,
      "ãģ®ãĤµãĥ¼ãĥĵãĤ¹ãģĮåĪ·æĸ°ãģķãĤĮãģ¾ãģĹãģŁ": 3592,
      "æĸ°ãģĹãģĦãĥªãĥĿãĤ¸ãĥĪãĥªãģ®ãĥªãĥªãĥ¼ãĤ¹ãĥİãĥ¼ãĥĪãĤĴç¢ºèªįãģĹãģ¾ãģĹãģŁ": 3593,
      "æĸ°ãģĹãģĦå¸¯åŁŁå¹ħãģ®ãĥªãĥªãĥ¼ãĤ¹ãĥİãĥ¼ãĥĪãĤĴç¢ºèªįãģĹãģ¾ãģĹãģŁ": 3594,
      "æĸ°ãģĹãģĦèªįè¨¼ãģ®ãĥªãĥªãĥ¼ãĤ¹ãĥİãĥ¼ãĥĪãĤĴç¢ºèªįãģĹãģ¾ãģĹãģŁ": 3595,
      "1140": 3596,
      "563": 3597,
      "921": 3598,
      "list": 3599,
      "æĸ°ãģĹãģĦãĥĩãĥĹãĥŃãĤ¤": 3600,
      "æĸ°ãģĹãģĦãĥ¢ãĤ¸ãĥ¥ãĥ¼ãĥ«": 3601,
      "ãĥĪãĥ¼ãĤ¯ãĥĬãĤ¤ãĤ¶ãĥ¼ãģ®æĶ¹åĸĦãģĮç´łæĻ´ãĤīãģĹãģĦãģ§ãģĻãģŃ": 3602,
      "ãģ®ãĥ¢ãĤ¸ãĥ¥ãĥ¼ãĥ«ãģĮåĲĪçĲĨåĮĸãģķãĤĮãģ¾ãģĹãģŁ": 3603,
      "ãģ®æļĹåı·åĮĸãģĮåĲĪçĲĨåĮĸãģķãĤĮãģ¾ãģĹãģŁ": 3604,
      "ãģ®ãĥĩãĥĲãĥĥãĤ°ãģĮãĤ¢ãĥĥãĥĹãĤ°ãĥ¬ãĥ¼ãĥīãģķãĤĮãģ¾ãģĹãģŁ": 3605,
      "ãģ®ãĥĻãĥ³ãĥģãĥŀãĥ¼ãĤ¯ãģĮåĨįç·¨æĪĲãģķãĤĮãģ¾ãģĹãģŁ": 3606,
      "ãģ®ãĥĩãĥ¼ãĤ¿ãĥĻãĥ¼ãĤ¹ãģĮåĪ·æĸ°ãģķãĤĮãģ¾ãģĹãģŁ": 3607,
      "ãģ®ãĥĳãĥķãĤ©ãĥ¼ãĥŀãĥ³ãĤ¹ãģĮå¼·åĮĸãģķãĤĮãģ¾ãģĹãģŁ": 3608,
      "æļĹåı·åĮĸãģ®æĶ¹åĸĦãģĮç´łæĻ´ãĤīãģĹãģĦãģ§ãģĻãģŃ": 3609,
      "ãģ®ä¿Ŀå®ĪæĢ§ãģĮåĨįè¨Ńè¨ĪãģķãĤĮãģ¾ãģĹãģŁ": 3610,
      "æĸ°ãģĹãģĦãĥĩãĥĹãĥŃãĤ¤ãģ®ãĥªãĥªãĥ¼ãĤ¹ãĥİãĥ¼ãĥĪãĤĴç¢ºèªįãģĹãģ¾ãģĹãģŁ": 3611,
      "æĸ°ãģĹãģĦãĥ¢ãĤ¸ãĥ¥ãĥ¼ãĥ«ãģ®ãĥªãĥªãĥ¼ãĤ¹ãĥİãĥ¼ãĥĪãĤĴç¢ºèªįãģĹãģ¾ãģĹãģŁ": 3612,
      "1100": 3613,
      "2180": 3614,
      "466": 3615,
      "421": 3616,
      "562": 3617,
      "631": 3618,
      "742": 3619,
      "932": 3620,
      "Type": 3621,
      "1500": 3622,
      "1700": 3623,
      "æĸ°ãģĹãģĦãĤ¹ãĤ±ãĥ¼ãĥ©ãĥĵãĥªãĥĨãĤ£": 3624,
      "ãģ®ãĥŃãĥ¼ãĥīãģĮåĨįè¨Ńè¨ĪãģķãĤĮãģ¾ãģĹãģŁ": 3625,
      "ãģ®ãĥŃãĥ¼ãĥīãģĮçµ±åĲĪåĮĸãģķãĤĮãģ¾ãģĹãģŁ": 3626,
      "ãģ®ãĥĻãĥ³ãĥģãĥŀãĥ¼ãĤ¯ãģĮåĨįæ§ĭç¯īãģķãĤĮãģ¾ãģĹãģŁ": 3627,
      "ãģ®ãĥĩãĥĹãĥŃãĤ¤ãģĮåĨįç·¨æĪĲãģķãĤĮãģ¾ãģĹãģŁ": 3628,
      "ãģ®ãĥķãĥ¬ãĥ¼ãĥłãĥ¯ãĥ¼ãĤ¯ãģĮæľĢéģ©åĮĸãģķãĤĮãģ¾ãģĹãģŁ": 3629,
      "ãģ®æ©Łèĥ½ãģĮç°¡ç´łåĮĸãģķãĤĮãģ¾ãģĹãģŁ": 3630,
      "ãģ®ãĤ³ãĥ³ãĥĨãĥĬãģĮå¼·åĮĸãģķãĤĮãģ¾ãģĹãģŁ": 3631,
      "ãģ®ãĤ³ãĥ³ãĥĳãĤ¤ãĥ©ãģĮçµ±åĲĪåĮĸãģķãĤĮãģ¾ãģĹãģŁ": 3632,
      "ãģ®ãĤ«ãĥ¼ãĥįãĥ«ãģĮåĨįç·¨æĪĲãģķãĤĮãģ¾ãģĹãģŁ": 3633,
      "ãģ®èĦĨå¼±æĢ§ãģĮæĶ¹åĸĦãģķãĤĮãģ¾ãģĹãģŁ": 3634,
      "ãģ®èĦĨå¼±æĢ§ãģĮæľĢéģ©åĮĸãģķãĤĮãģ¾ãģĹãģŁ": 3635,
      "ãģ®ç¶Ļæī¿ãģĮåĨįè¨Ńè¨ĪãģķãĤĮãģ¾ãģĹãģŁ": 3636,
      "ãģ®ãĥĪãĥ¼ãĤ¯ãĥĬãĤ¤ãĤ¶ãĥ¼ãģĮãĤ¢ãĥĥãĥĹãĤ°ãĥ¬ãĥ¼ãĥīãģķãĤĮãģ¾ãģĹãģŁ": 3637,
      "TypeVar": 3638,
      "æĸ°ãģĹãģĦãĤ¹ãĤ±ãĥ¼ãĥ©ãĥĵãĥªãĥĨãĤ£ãģ®ãĥªãĥªãĥ¼ãĤ¹ãĥİãĥ¼ãĥĪãĤĴç¢ºèªįãģĹãģ¾ãģĹãģŁ": 3639,
      "1200": 3640,
      "957": 3641,
      "__": 3642,
      "dict": 3643,
      "æĸ°ãģĹãģĦãĤ¤ãĥ³ãĤ¿ãĥ¼ãĥķãĤ§ãĥ¼ãĤ¹": 3644,
      "æĸ°ãģĹãģĦèªįåı¯": 3645,
      "æĸ°ãģĹãģĦä¸¦åĪĹæĢ§": 3646,
      "æĸ°ãģĹãģĦãĤ¯ãĤ¨ãĥª": 3647,
      "ãĤ¹ãĤ±ãĥ¼ãĥ©ãĥĵãĥªãĥĨãĤ£ãģ®æĶ¹åĸĦãģĮç´łæĻ´ãĤīãģĹãģĦãģ§ãģĻãģŃ": 3648,
      "«ãĥĹãĤ»ãĥ«åĮĸãģ®ãĥªãĥªãĥ¼ãĤ¹ãĥİãĥ¼ãĥĪãĤĴç¢ºèªįãģĹãģ¾ãģĹãģŁ": 3649,
      "ä¾ĿåŃĺæĢ§ãģ®æĶ¹åĸĦãģĮç´łæĻ´ãĤīãģĹãģĦãģ§ãģĻãģŃ": 3650,
      "ãģ®ãĥ¬ãĤ¤ãĥĨãĥ³ãĤ·ãģĮåĨįæ§ĭç¯īãģķãĤĮãģ¾ãģĹãģŁ": 3651,
      "ãģ®ãĥĳãĥķãĤ©ãĥ¼ãĥŀãĥ³ãĤ¹ãģĮåĲĪçĲĨåĮĸãģķãĤĮãģ¾ãģĹãģŁ": 3652,
      "ãģ®ãĥĿãĥªãĥ¢ãĥ¼ãĥķãĤ£ãĤºãĥłãģĮåĲĪçĲĨåĮĸãģķãĤĮãģ¾ãģĹãģŁ": 3653,
      "ãģ®ä¸¦åĪĹæĢ§ãģĮçµ±åĲĪåĮĸãģķãĤĮãģ¾ãģĹãģŁ": 3654,
      "æĸ°ãģĹãģĦãĤ«ãĥĹãĤ»ãĥ«åĮĸãģ®ãĥªãĥªãĥ¼ãĤ¹ãĥİãĥ¼ãĥĪãĤĴç¢ºèªįãģĹãģ¾ãģĹãģŁ": 3655,
      "æĸ°ãģĹãģĦãĤ¤ãĥ³ãĤ¿ãĥ¼ãĥķãĤ§ãĥ¼ãĤ¹ãģ®ãĥªãĥªãĥ¼ãĤ¹ãĥİãĥ¼ãĥĪãĤĴç¢ºèªįãģĹãģ¾ãģĹãģŁ": 3656,
      "æĸ°ãģĹãģĦèªįåı¯ãģ®ãĥªãĥªãĥ¼ãĤ¹ãĥİãĥ¼ãĥĪãĤĴç¢ºèªįãģĹãģ¾ãģĹãģŁ": 3657,
      "æĸ°ãģĹãģĦä¸¦åĪĹæĢ§ãģ®ãĥªãĥªãĥ¼ãĤ¹ãĥİãĥ¼ãĥĪãĤĴç¢ºèªįãģĹãģ¾ãģĹãģŁ": 3658,
      "æĸ°ãģĹãģĦãĤ¯ãĤ¨ãĥªãģ®ãĥªãĥªãĥ¼ãĤ¹ãĥİãĥ¼ãĥĪãĤĴç¢ºèªįãģĹãģ¾ãģĹãģŁ": 3659,
      "2200": 3660,
      "611": 3661,
      "731": 3662,
      "942": 3663,
      "Callable": 3664,
      "2500": 3665,
      "2400": 3666,
      "æĸ°ãģĹãģĦãĤ·ãĥªãĤ¢ãĥ©ãĤ¤ãĤ¼ãĥ¼ãĤ·ãĥ§ãĥ³": 3667,
      "æĸ°ãģĹãģĦãĥĪãĥ¼ãĤ¯ãĥĬãĤ¤ãĤ¶ãĥ¼": 3668,
      "æĸ°ãģĹãģĦãĥĲãĥĥãĥķãĤ¡": 3669,
      "æĸ°ãģĹãģĦèĦĨå¼±æĢ§": 3670,
      "æĸ°ãģĹãģĦãĥĳãĥķãĤ©ãĥ¼ãĥŀãĥ³ãĤ¹": 3671,
      "ãĤ¤ãĥ³ãĤ¿ãĥ¼ãĥķãĤ§ãĥ¼ãĤ¹ãģ®æĶ¹åĸĦãģĮç´łæĻ´ãĤīãģĹãģĦãģ§ãģĻãģŃ": 3672,
      "ãĥ©ãĤ¤ãĥĸãĥ©ãĥªãģ®æĶ¹åĸĦãģĮç´łæĻ´ãĤīãģĹãģĦãģ§ãģĻãģŃ": 3673,
      "ãĤ¹ãĤŃãĥ¼ãĥŀãģ®æĶ¹åĸĦãģĮç´łæĻ´ãĤīãģĹãģĦãģ§ãģĻãģŃ": 3674,
      "ä»ķæ§ĺãģ®æĶ¹åĸĦãģĮç´łæĻ´ãĤīãģĹãģĦãģ§ãģĻãģŃ": 3675,
      "èĦĨå¼±æĢ§ãģ®æĶ¹åĸĦãģĮç´łæĻ´ãĤīãģĹãģĦãģ§ãģĻãģŃ": 3676,
      "ãģ®ãĥŃãĥ¼ãĥīãģĮç°¡ç´łåĮĸãģķãĤĮãģ¾ãģĹãģŁ": 3677,
      "ãģ®ãĥ¬ãĤ¤ãĥĨãĥ³ãĤ·ãģĮæĶ¹åĸĦãģķãĤĮãģ¾ãģĹãģŁ": 3678,
      "ãģ®ãĥ¢ãĤ¸ãĥ¥ãĥ¼ãĥ«ãģĮåĪ·æĸ°ãģķãĤĮãģ¾ãģĹãģŁ": 3679,
      "ãģ®ãĥŁãĥīãĥ«ãĤ¦ãĤ§ãĤ¢ãģĮæ¨ĻæºĸåĮĸãģķãĤĮãģ¾ãģĹãģŁ": 3680,
      "ãĥĻãĥ³ãĥģãĥŀãĥ¼ãĤ¯ãģ®æĶ¹åĸĦãģĮç´łæĻ´ãĤīãģĹãģĦãģ§ãģĻãģŃ": 3681,
      "ãģ®ãĤ¯ãĤ¨ãĥªãģĮæĭ¡å¼µãģķãĤĮãģ¾ãģĹãģŁ": 3682,
      "ãģ®ãĤŃãĥ£ãĥĥãĤ·ãĥ¥ãģĮçµ±åĲĪåĮĸãģķãĤĮãģ¾ãģĹãģŁ": 3683,
      "æľĢéģ©åĮĸãģ®æĶ¹åĸĦãģĮç´łæĻ´ãĤīãģĹãģĦãģ§ãģĻãģŃ": 3684,
      "ãģ®ä»®æĥ³åĮĸãģĮæĶ¹åĸĦãģķãĤĮãģ¾ãģĹãģŁ": 3685,
      "ãģ®ä»ķæ§ĺãģĮãĤ¢ãĥĥãĥĹãĤ°ãĥ¬ãĥ¼ãĥīãģķãĤĮãģ¾ãģĹãģŁ": 3686,
      "ãĤŃãĥ£ãĥĥãĤ·ãĥ¥ãģ®æĶ¹åĸĦãģĮç´łæĻ´ãĤīãģĹãģĦãģ§ãģĻãģŃ": 3687,
      "æĸ°ãģĹãģĦãĤ·ãĥªãĤ¢ãĥ©ãĤ¤ãĤ¼ãĥ¼ãĤ·ãĥ§ãĥ³ãģ®ãĥªãĥªãĥ¼ãĤ¹ãĥİãĥ¼ãĥĪãĤĴç¢ºèªįãģĹãģ¾ãģĹãģŁ": 3688,
      "æĸ°ãģĹãģĦãĥĪãĥ¼ãĤ¯ãĥĬãĤ¤ãĤ¶ãĥ¼ãģ®ãĥªãĥªãĥ¼ãĤ¹ãĥİãĥ¼ãĥĪãĤĴç¢ºèªįãģĹãģ¾ãģĹãģŁ": 3689,
      "æĸ°ãģĹãģĦãĥĲãĥĥãĥķãĤ¡ãģ®ãĥªãĥªãĥ¼ãĤ¹ãĥİãĥ¼ãĥĪãĤĴç¢ºèªįãģĹãģ¾ãģĹãģŁ": 3690,
      "æĸ°ãģĹãģĦèĦĨå¼±æĢ§ãģ®ãĥªãĥªãĥ¼ãĤ¹ãĥİãĥ¼ãĥĪãĤĴç¢ºèªįãģĹãģ¾ãģĹãģŁ": 3691,
      "æĸ°ãģĹãģĦãĥĳãĥķãĤ©ãĥ¼ãĥŀãĥ³ãĤ¹ãģ®ãĥªãĥªãĥ¼ãĤ¹ãĥİãĥ¼ãĥĪãĤĴç¢ºèªįãģĹãģ¾ãģĹãģŁ": 3692,
      "2230": 3693,
      "532": 3694,
      "722": 3695,
      "æĸ°ãģĹãģĦåĨįå¸°": 3696,
      "æĸ°ãģĹãģĦãĤ¤ãĥĨãĥ¬ãĥ¼ãĤ·ãĥ§ãĥ³": 3697,
      "æĸ°ãģĹãģĦä¿¡éł¼æĢ§": 3698,
      "æĸ°ãģĹãģĦä¿Ŀå®ĪæĢ§": 3699,
      "æĸ°ãģĹãģĦä¸¦è¡ĮæĢ§": 3700,
      "æĸ°ãģĹãģĦãĥĳãĤ¤ãĥĹãĥ©ãĤ¤ãĥ³": 3701,
      "æĸ°ãģĹãģĦæļĹåı·åĮĸ": 3702,
      "ªãĥ¼ãĥĲãĥ¼ãĥĺãĥĥãĥīãģ®ãĥªãĥªãĥ¼ãĤ¹ãĥİãĥ¼ãĥĪãĤĴç¢ºèªįãģĹãģ¾ãģĹãģŁ": 3703,
      "ä¸¦åĪĹæĢ§ãģ®æĶ¹åĸĦãģĮç´łæĻ´ãĤīãģĹãģĦãģ§ãģĻãģŃ": 3704,
      "ä¸¦è¡ĮæĢ§ãģ®æĶ¹åĸĦãģĮç´łæĻ´ãĤīãģĹãģĦãģ§ãģĻãģŃ": 3705,
      "ãģ®ãĥŃãĥ¼ãĥīãģĮå¼·åĮĸãģķãĤĮãģ¾ãģĹãģŁ": 3706,
      "ãģ®ãĥŁãĥīãĥ«ãĤ¦ãĤ§ãĤ¢ãģĮåĨįæ§ĭç¯īãģķãĤĮãģ¾ãģĹãģŁ": 3707,
      "ãģ®ãĥķãĥ¬ãĥ¼ãĥłãĥ¯ãĥ¼ãĤ¯ãģĮçµ±åĲĪåĮĸãģķãĤĮãģ¾ãģĹãģŁ": 3708,
      "ãĥĳãĤ¤ãĥĹãĥ©ãĤ¤ãĥ³ãģ®æĶ¹åĸĦãģĮç´łæĻ´ãĤīãģĹãģĦãģ§ãģĻãģŃ": 3709,
      "ãģ®ãĥĳãĥķãĤ©ãĥ¼ãĥŀãĥ³ãĤ¹ãģĮæĭ¡å¼µãģķãĤĮãģ¾ãģĹãģŁ": 3710,
      "ãģ®ãĥĿãĥªãĥ¢ãĥ¼ãĥķãĤ£ãĤºãĥłãģĮãĤ¢ãĥĥãĥĹãĤ°ãĥ¬ãĥ¼ãĥīãģķãĤĮãģ¾ãģĹãģŁ": 3711,
      "ãģ®ãĥĿãĥªãĥ¢ãĥ¼ãĥķãĤ£ãĤºãĥłãģĮåĪ·æĸ°ãģķãĤĮãģ¾ãģĹãģŁ": 3712,
      "ãĥŃãĥ¼ãĥīãģ®æĶ¹åĸĦãģĮç´łæĻ´ãĤīãģĹãģĦãģ§ãģĻãģŃ": 3713,
      "ãģ®ãĤ³ãĥ³ãĥĨãĥĬãģĮåĨįè¨Ńè¨ĪãģķãĤĮãģ¾ãģĹãģŁ": 3714,
      "ãģ®ãĤ»ãĥŀãĥķãĤ©ãģĮè¿ĳä»£åĮĸãģķãĤĮãģ¾ãģĹãģŁ": 3715,
      "ãģ®ä¿Ŀå®ĪæĢ§ãģĮæĭ¡å¼µãģķãĤĮãģ¾ãģĹãģŁ": 3716,
      "ãģ®ãĤ«ãĥ¼ãĥįãĥ«ãģĮçµ±åĲĪãģķãĤĮãģ¾ãģĹãģŁ": 3717,
      "ãģ®ä¿¡éł¼æĢ§ãģĮãĤ¢ãĥĥãĥĹãĤ°ãĥ¬ãĥ¼ãĥīãģķãĤĮãģ¾ãģĹãģŁ": 3718,
      "ãģ®ãĤ¹ãĤŃãĥ¼ãĥŀãģĮåĪ·æĸ°ãģķãĤĮãģ¾ãģĹãģŁ": 3719,
      "ãģ®ä»ķæ§ĺãģĮåĪ·æĸ°ãģķãĤĮãģ¾ãģĹãģŁ": 3720,
      "ãģ®ãĤ¹ãĥ«ãĥ¼ãĥĹãĥĥãĥĪãģĮç°¡ç´łåĮĸãģķãĤĮãģ¾ãģĹãģŁ": 3721,
      "æĸ°ãģĹãģĦãĤªãĥ¼ãĥĲãĥ¼ãĥĺãĥĥãĥīãģ®ãĥªãĥªãĥ¼ãĤ¹ãĥİãĥ¼ãĥĪãĤĴç¢ºèªįãģĹãģ¾ãģĹãģŁ": 3722,
      "æĸ°ãģĹãģĦåĨįå¸°ãģ®ãĥªãĥªãĥ¼ãĤ¹ãĥİãĥ¼ãĥĪãĤĴç¢ºèªįãģĹãģ¾ãģĹãģŁ": 3723,
      "æĸ°ãģĹãģĦãĤ¤ãĥĨãĥ¬ãĥ¼ãĤ·ãĥ§ãĥ³ãģ®ãĥªãĥªãĥ¼ãĤ¹ãĥİãĥ¼ãĥĪãĤĴç¢ºèªįãģĹãģ¾ãģĹãģŁ": 3724,
      "æĸ°ãģĹãģĦä¿¡éł¼æĢ§ãģ®ãĥªãĥªãĥ¼ãĤ¹ãĥİãĥ¼ãĥĪãĤĴç¢ºèªįãģĹãģ¾ãģĹãģŁ": 3725,
      "æĸ°ãģĹãģĦä¿Ŀå®ĪæĢ§ãģ®ãĥªãĥªãĥ¼ãĤ¹ãĥİãĥ¼ãĥĪãĤĴç¢ºèªįãģĹãģ¾ãģĹãģŁ": 3726,
      "æĸ°ãģĹãģĦä¸¦è¡ĮæĢ§ãģ®ãĥªãĥªãĥ¼ãĤ¹ãĥİãĥ¼ãĥĪãĤĴç¢ºèªįãģĹãģ¾ãģĹãģŁ": 3727,
      "æĸ°ãģĹãģĦãĥĳãĤ¤ãĥĹãĥ©ãĤ¤ãĥ³ãģ®ãĥªãĥªãĥ¼ãĤ¹ãĥİãĥ¼ãĥĪãĤĴç¢ºèªįãģĹãģ¾ãģĹãģŁ": 3728,
      "æĸ°ãģĹãģĦæļĹåı·åĮĸãģ®ãĥªãĥªãĥ¼ãĤ¹ãĥİãĥ¼ãĥĪãĤĴç¢ºèªįãģĹãģ¾ãģĹãģŁ": 3729,
      "2190": 3730,
      "2240": 3731,
      "1800": 3732,
      "1900": 3733,
      "2600": 3734,
      "æĸ°ãģĹãģĦãĥ©ãĤ¤ãĥĸãĥ©ãĥª": 3735,
      "æĸ°ãģĹãģĦåĲĮæľŁ": 3736,
      "æĸ°ãģĹãģĦãĥĹãĥŃãĥĪãĤ³ãĥ«": 3737,
      "æĸ°ãģĹãģĦãĤ³ãĥ³ãĥĨãĥĬ": 3738,
      "æĸ°ãģĹãģĦãĥ¬ãĤ¤ãĥĨãĥ³ãĤ·": 3739,
      "æĸ°ãģĹãģĦãĤ¨ãĥ³ãĥīãĥĿãĤ¤ãĥ³ãĥĪ": 3740,
      "»ãĥŀãĥķãĤ©ãģ®ãĥªãĥªãĥ¼ãĤ¹ãĥİãĥ¼ãĥĪãĤĴç¢ºèªįãģĹãģ¾ãģĹãģŁ": 3741,
      "Ńãĥ£ãĥĥãĤ·ãĥ¥ãģ®ãĥªãĥªãĥ¼ãĤ¹ãĥİãĥ¼ãĥĪãĤĴç¢ºèªįãģĹãģ¾ãģĹãģŁ": 3742,
      "ãĤ¤ãĥĨãĥ¬ãĥ¼ãĤ·ãĥ§ãĥ³ãģ®æĶ¹åĸĦãģĮç´łæĻ´ãĤīãģĹãģĦãģ§ãģĻãģŃ": 3743,
      "ãģ®ãĥŃãĥ¼ãĥīãģĮãĤ¢ãĥĥãĥĹãĤ°ãĥ¬ãĥ¼ãĥīãģķãĤĮãģ¾ãģĹãģŁ": 3744,
      "ãģ®ãĥ¢ãĤ¸ãĥ¥ãĥ¼ãĥ«ãģĮç°¡ç´łåĮĸãģķãĤĮãģ¾ãģĹãģŁ": 3745,
      "ãģ®æļĹåı·åĮĸãģĮæ¨ĻæºĸåĮĸãģķãĤĮãģ¾ãģĹãģŁ": 3746,
      "ãĥĩãĥĲãĥĥãĤ°ãģ®æĶ¹åĸĦãģĮç´łæĻ´ãĤīãģĹãģĦãģ§ãģĻãģŃ": 3747,
      "ãģ®ãĥĻãĥ³ãĥģãĥŀãĥ¼ãĤ¯ãģĮåĲĪçĲĨåĮĸãģķãĤĮãģ¾ãģĹãģŁ": 3748,
      "ãģ®ãĥĩãĥĹãĥŃãĤ¤ãģĮãĤ¢ãĥĥãĥĹãĤ°ãĥ¬ãĥ¼ãĥīãģķãĤĮãģ¾ãģĹãģŁ": 3749,
      "ãģ®ãĥĩãĥ¼ãĤ¿ãĥĻãĥ¼ãĤ¹ãģĮæ¨ĻæºĸåĮĸãģķãĤĮãģ¾ãģĹãģŁ": 3750,
      "ãģ®æľĢéģ©åĮĸãģĮè¿ĳä»£åĮĸãģķãĤĮãģ¾ãģĹãģŁ": 3751,
      "ãģ®ãĤ³ãĥ³ãĥĨãĥĬãģĮçµ±åĲĪåĮĸãģķãĤĮãģ¾ãģĹãģŁ": 3752,
      "ãģ®ãĤ»ãĥŀãĥķãĤ©ãģĮãĤ¢ãĥĥãĥĹãĤ°ãĥ¬ãĥ¼ãĥīãģķãĤĮãģ¾ãģĹãģŁ": 3753,
      "ãģ®ãĤ³ãĥ³ãĥĳãĤ¤ãĥ©ãģĮåĨįæ§ĭç¯īãģķãĤĮãģ¾ãģĹãģŁ": 3754,
      "ãģ®ãĤµãĥ¼ãĥĵãĤ¹ãģĮæľĢéģ©åĮĸãģķãĤĮãģ¾ãģĹãģŁ": 3755,
      "ãģ®ãĤµãĥ¼ãĥĵãĤ¹ãģĮè¿ĳä»£åĮĸãģķãĤĮãģ¾ãģĹãģŁ": 3756,
      "ãģ®ä¿Ŀå®ĪæĢ§ãģĮåĲĪçĲĨåĮĸãģķãĤĮãģ¾ãģĹãģŁ": 3757,
      "ãģ®ãĤŃãĥ£ãĥĥãĤ·ãĥ¥ãģĮåĨįè¨Ńè¨ĪãģķãĤĮãģ¾ãģĹãģŁ": 3758,
      "ãģ®èĦĨå¼±æĢ§ãģĮåĨįè¨Ńè¨ĪãģķãĤĮãģ¾ãģĹãģŁ": 3759,
      "ãģ®ãĤ¨ãĥ³ãĥīãĥĿãĤ¤ãĥ³ãĥĪãģĮåĨįç·¨æĪĲãģķãĤĮãģ¾ãģĹãģŁ": 3760,
      "ãģ®ç¶Ļæī¿ãģĮçµ±åĲĪãģķãĤĮãģ¾ãģĹãģŁ": 3761,
      "ãģ®èªįåı¯ãģĮçµ±åĲĪåĮĸãģķãĤĮãģ¾ãģĹãģŁ": 3762,
      "ãģ®ãĤ¤ãĥ³ãĤ¿ãĥ¼ãĥķãĤ§ãĥ¼ãĤ¹ãģĮåĨįç·¨æĪĲãģķãĤĮãģ¾ãģĹãģŁ": 3763,
      "ãģ®ãĥĹãĥŃãĥĪãĤ³ãĥ«ãģĮåĨįç·¨æĪĲãģķãĤĮãģ¾ãģĹãģŁ": 3764,
      "æĸ°ãģĹãģĦãĤ»ãĥŀãĥķãĤ©ãģ®ãĥªãĥªãĥ¼ãĤ¹ãĥİãĥ¼ãĥĪãĤĴç¢ºèªįãģĹãģ¾ãģĹãģŁ": 3765,
      "æĸ°ãģĹãģĦãĤŃãĥ£ãĥĥãĤ·ãĥ¥ãģ®ãĥªãĥªãĥ¼ãĤ¹ãĥİãĥ¼ãĥĪãĤĴç¢ºèªįãģĹãģ¾ãģĹãģŁ": 3766,
      "ãĤ»ãĥĥãĤ·ãĥ§ãĥ³ãģ®æĶ¹åĸĦãģĮç´łæĻ´ãĤīãģĹãģĦãģ§ãģĻãģŃ": 3767,
      "æĸ°ãģĹãģĦãĥ©ãĤ¤ãĥĸãĥ©ãĥªãģ®ãĥªãĥªãĥ¼ãĤ¹ãĥİãĥ¼ãĥĪãĤĴç¢ºèªįãģĹãģ¾ãģĹãģŁ": 3768,
      "æĸ°ãģĹãģĦåĲĮæľŁãģ®ãĥªãĥªãĥ¼ãĤ¹ãĥİãĥ¼ãĥĪãĤĴç¢ºèªįãģĹãģ¾ãģĹãģŁ": 3769,
      "æĸ°ãģĹãģĦãĥĹãĥŃãĥĪãĤ³ãĥ«ãģ®ãĥªãĥªãĥ¼ãĤ¹ãĥİãĥ¼ãĥĪãĤĴç¢ºèªįãģĹãģ¾ãģĹãģŁ": 3770,
      "æĸ°ãģĹãģĦãĤ³ãĥ³ãĥĨãĥĬãģ®ãĥªãĥªãĥ¼ãĤ¹ãĥİãĥ¼ãĥĪãĤĴç¢ºèªįãģĹãģ¾ãģĹãģŁ": 3771,
      "æĸ°ãģĹãģĦãĥ¬ãĤ¤ãĥĨãĥ³ãĤ·ãģ®ãĥªãĥªãĥ¼ãĤ¹ãĥİãĥ¼ãĥĪãĤĴç¢ºèªįãģĹãģ¾ãģĹãģŁ": 3772,
      "æĸ°ãģĹãģĦãĤ¨ãĥ³ãĥīãĥĿãĤ¤ãĥ³ãĥĪãģ®ãĥªãĥªãĥ¼ãĤ¹ãĥİãĥ¼ãĥĪãĤĴç¢ºèªįãģĹãģ¾ãģĹãģŁ": 3773,
      "1130": 3774,
      "2100": 3775,
      "946": 3776,
      "1400": 3777,
      "æĸ°ãģĹãģĦãĥŃãĥ¼ãĥī": 3778,
      "»ãĥĥãĤ·ãĥ§ãĥ³ãģ®ãĥªãĥªãĥ¼ãĤ¹ãĥİãĥ¼ãĥĪãĤĴç¢ºèªįãģĹãģ¾ãģĹãģŁ": 3779,
      "åĲįåīįç©ºéĸĵãģ®æĶ¹åĸĦãģĮç´łæĻ´ãĤīãģĹãģĦãģ§ãģĻãģŃ": 3780,
      "å¤īæķ°ãģ®æĶ¹åĸĦãģĮç´łæĻ´ãĤīãģĹãģĦãģ§ãģĻãģŃ": 3781,
      "ãĤ¢ãĥ¼ãĤŃãĥĨãĤ¯ãĥģãĥ£ãģ®æĶ¹åĸĦãģĮç´łæĻ´ãĤīãģĹãģĦãģ§ãģĻãģŃ": 3782,
      "ãĥĲãĥªãĥĩãĥ¼ãĤ·ãĥ§ãĥ³ãģ®æĶ¹åĸĦãģĮç´łæĻ´ãĤīãģĹãģĦãģ§ãģĻãģŃ": 3783,
      "ãģ®ãĥ¬ãĤ¤ãĥĨãĥ³ãĤ·ãģĮãĤ¢ãĥĥãĥĹãĤ°ãĥ¬ãĥ¼ãĥīãģķãĤĮãģ¾ãģĹãģŁ": 3784,
      "ãģ®ãĥ¬ãĤ¤ãĥĨãĥ³ãĤ·ãģĮè¿ĳä»£åĮĸãģķãĤĮãģ¾ãģĹãģŁ": 3785,
      "ãģ®ãĥĳãĥ©ãĥ¡ãĥ¼ãĤ¿ãģĮåĨįç·¨æĪĲãģķãĤĮãģ¾ãģĹãģŁ": 3786,
      "ãģ®ãĥĳãĥ©ãĥ¡ãĥ¼ãĤ¿ãģĮåĪ·æĸ°ãģķãĤĮãģ¾ãģĹãģŁ": 3787,
      "ãģ®ãĥĳãĥ©ãĥ¡ãĥ¼ãĤ¿ãģĮæ¨ĻæºĸåĮĸãģķãĤĮãģ¾ãģĹãģŁ": 3788,
      "ãģ®ãĥĳãĥ©ãĥ¡ãĥ¼ãĤ¿ãģĮè¿ĳä»£åĮĸãģķãĤĮãģ¾ãģĹãģŁ": 3789,
      "ãģ®ãĥŁãĥīãĥ«ãĤ¦ãĤ§ãĤ¢ãģĮæĶ¹åĸĦãģķãĤĮãģ¾ãģĹãģŁ": 3790,
      "ãģ®ãĥŁãĥīãĥ«ãĤ¦ãĤ§ãĤ¢ãģĮè¿ĳä»£åĮĸãģķãĤĮãģ¾ãģĹãģŁ": 3791,
      "ãĥĳãĥ©ãĥ¡ãĥ¼ãĤ¿ãģ®æĶ¹åĸĦãģĮç´łæĻ´ãĤīãģĹãģĦãģ§ãģĻãģŃ": 3792,
      "ãģ®ãĥĩãĥĹãĥŃãĤ¤ãģĮçµ±åĲĪåĮĸãģķãĤĮãģ¾ãģĹãģŁ": 3793,
      "ãģ®ãĥĩãĥĹãĥŃãĤ¤ãģĮåĲĪçĲĨåĮĸãģķãĤĮãģ¾ãģĹãģŁ": 3794,
      "ãģ®ãĥķãĥ¬ãĥ¼ãĥłãĥ¯ãĥ¼ãĤ¯ãģĮåĲĪçĲĨåĮĸãģķãĤĮãģ¾ãģĹãģŁ": 3795,
      "ãģ®ãĥĳãĤ¤ãĥĹãĥ©ãĤ¤ãĥ³ãģĮå¼·åĮĸãģķãĤĮãģ¾ãģĹãģŁ": 3796,
      "ãĥĩãĥ¼ãĤ¿ãĥĻãĥ¼ãĤ¹ãģ®æĶ¹åĸĦãģĮç´łæĻ´ãĤīãģĹãģĦãģ§ãģĻãģŃ": 3797,
      "ãģ®æ©Łèĥ½ãģĮæľĢéģ©åĮĸãģķãĤĮãģ¾ãģĹãģŁ": 3798,
      "ãģ®æľĢéģ©åĮĸãģĮæľĢéģ©åĮĸãģķãĤĮãģ¾ãģĹãģŁ": 3799,
      "ãģ®ãĤ³ãĥ³ãĥĨãĥĬãģĮåĲĪçĲĨåĮĸãģķãĤĮãģ¾ãģĹãģŁ": 3800,
      "ãģ®ãĤ³ãĥ³ãĥĳãĤ¤ãĥ©ãģĮæĶ¹åĸĦãģķãĤĮãģ¾ãģĹãģŁ": 3801,
      "ãģ®ãĤ»ãĥĥãĤ·ãĥ§ãĥ³ãģĮç°¡ç´łåĮĸãģķãĤĮãģ¾ãģĹãģŁ": 3802,
      "ãģ®ãĤµãĥ¼ãĥĵãĤ¹ãģĮæĶ¹åĸĦãģķãĤĮãģ¾ãģĹãģŁ": 3803,
      "ãģ®ä¿Ŀå®ĪæĢ§ãģĮè¿ĳä»£åĮĸãģķãĤĮãģ¾ãģĹãģŁ": 3804,
      "ãģ®ãĤŃãĥ£ãĥĥãĤ·ãĥ¥ãģĮå¼·åĮĸãģķãĤĮãģ¾ãģĹãģŁ": 3805,
      "ãģ®ãĤªãĥ¼ãĥĲãĥ¼ãĥĺãĥĥãĥīãģĮåĨįæ§ĭç¯īãģķãĤĮãģ¾ãģĹãģŁ": 3806,
      "ãģ®åĲįåīįç©ºéĸĵãģĮåĨįç·¨æĪĲãģķãĤĮãģ¾ãģĹãģŁ": 3807,
      "ãģ®ãĤ«ãĥĹãĤ»ãĥ«åĮĸãģĮåĪ·æĸ°ãģķãĤĮãģ¾ãģĹãģŁ": 3808,
      "ãģ®ãĤ«ãĥĹãĤ»ãĥ«åĮĸãģĮå¼·åĮĸãģķãĤĮãģ¾ãģĹãģŁ": 3809,
      "ãģ®ãĤ¢ãĥ«ãĤ´ãĥªãĤºãĥłãģĮåĨįè¨Ńè¨ĪãģķãĤĮãģ¾ãģĹãģŁ": 3810,
      "ãģ®ãĤ¢ãĥ«ãĤ´ãĥªãĤºãĥłãģĮåĨįç·¨æĪĲãģķãĤĮãģ¾ãģĹãģŁ": 3811,
      "ãģ®ä»®æĥ³åĮĸãģĮåĨįæ§ĭç¯īãģķãĤĮãģ¾ãģĹãģŁ": 3812,
      "ãģ®åı¯çĶ¨æĢ§ãģĮåĨįè¨Ńè¨ĪãģķãĤĮãģ¾ãģĹãģŁ": 3813,
      "ãģ®èªįåı¯ãģĮåĲĪçĲĨåĮĸãģķãĤĮãģ¾ãģĹãģŁ": 3814,
      "ãģ®ãĤ¹ãĤŃãĥ¼ãĥŀãģĮçµ±åĲĪãģķãĤĮãģ¾ãģĹãģŁ": 3815,
      "ãģ®ãĤ·ãĥªãĤ¢ãĥ©ãĤ¤ãĤ¼ãĥ¼ãĤ·ãĥ§ãĥ³ãģĮåĨįè¨Ńè¨ĪãģķãĤĮãģ¾ãģĹãģŁ": 3816,
      "ãģ®ãĤ·ãĥªãĤ¢ãĥ©ãĤ¤ãĤ¼ãĥ¼ãĤ·ãĥ§ãĥ³ãģĮãĤ¢ãĥĥãĥĹãĤ°ãĥ¬ãĥ¼ãĥīãģķãĤĮãģ¾ãģĹãģŁ": 3817,
      "ãģ®å¤īæķ°ãģĮæ¨ĻæºĸåĮĸãģķãĤĮãģ¾ãģĹãģŁ": 3818,
      "ãģ®ä¾ĿåŃĺæĢ§ãģĮæ¨ĻæºĸåĮĸãģķãĤĮãģ¾ãģĹãģŁ": 3819,
      "ãģ®ãĤ¢ãĥ¼ãĤŃãĥĨãĤ¯ãĥģãĥ£ãģĮåĪ·æĸ°ãģķãĤĮãģ¾ãģĹãģŁ": 3820,
      "ãģ®ãĤ¢ãĥ¼ãĤŃãĥĨãĤ¯ãĥģãĥ£ãģĮçµ±åĲĪãģķãĤĮãģ¾ãģĹãģŁ": 3821,
      "æĸ°ãģĹãģĦãĤ»ãĥĥãĤ·ãĥ§ãĥ³ãģ®ãĥªãĥªãĥ¼ãĤ¹ãĥİãĥ¼ãĥĪãĤĴç¢ºèªįãģĹãģ¾ãģĹãģŁ": 3822,
      "ãĥĿãĥªãĥ¢ãĥ¼ãĥķãĤ£ãĤºãĥłãģ®æĶ¹åĸĦãģĮç´łæĻ´ãĤīãģĹãģĦãģ§ãģĻãģŃ": 3823,
      "æĸ°ãģĹãģĦãĥŃãĥ¼ãĥīãģ®ãĥªãĥªãĥ¼ãĤ¹ãĥİãĥ¼ãĥĪãĤĴç¢ºèªįãģĹãģ¾ãģĹãģŁ": 3824,
      "2170": 3825,
      "æĸ°ãģĹãģĦä»®æĥ³åĮĸ": 3826,
      "æĸ°ãģĹãģĦãĤ¢ãĥ«ãĤ´ãĥªãĤºãĥłãģ®": 3827,
      "³ãĥ³ãĥĿãĥ¼ãĥįãĥ³ãĥĪãģ®ãĥªãĥªãĥ¼ãĤ¹ãĥİãĥ¼ãĥĪãĤĴç¢ºèªįãģĹãģ¾ãģĹãģŁ": 3828,
      "åĨįå¸°ãģ®æĶ¹åĸĦãģĮç´łæĻ´ãĤīãģĹãģĦãģ§ãģĻãģŃ": 3829,
      "³ãĥ³ãĥĳãĤ¤ãĥ©ãģ®ãĥªãĥªãĥ¼ãĤ¹ãĥİãĥ¼ãĥĪãĤĴç¢ºèªįãģĹãģ¾ãģĹãģŁ": 3830,
      "ãĥĹãĥŃãĥĪãĤ³ãĥ«ãģ®æĶ¹åĸĦãģĮç´łæĻ´ãĤīãģĹãģĦãģ§ãģĻãģŃ": 3831,
      "ãĤ¹ãĥ«ãĥ¼ãĥĹãĥĥãĥĪãģ®æĶ¹åĸĦãģĮç´łæĻ´ãĤīãģĹãģĦãģ§ãģĻãģŃ": 3832,
      "ä¿¡éł¼æĢ§ãģ®æĶ¹åĸĦãģĮç´łæĻ´ãĤīãģĹãģĦãģ§ãģĻãģŃ": 3833,
      "ãĤ¢ãĥ«ãĤ´ãĥªãĤºãĥłãģ®æĶ¹åĸĦãģĮç´łæĻ´ãĤīãģĹãģĦãģ§ãģĻãģŃ": 3834,
      "ãĥ¢ãĤ¸ãĥ¥ãĥ¼ãĥ«ãģ®æĶ¹åĸĦãģĮç´łæĻ´ãĤīãģĹãģĦãģ§ãģĻãģŃ": 3835,
      "ãģ®ãĥĳãĥ©ãĥ¡ãĥ¼ãĤ¿ãģĮãĤ¢ãĥĥãĥĹãĤ°ãĥ¬ãĥ¼ãĥīãģķãĤĮãģ¾ãģĹãģŁ": 3836,
      "ãģ®ãĥ¢ãĤ¸ãĥ¥ãĥ¼ãĥ«ãģĮæľĢéģ©åĮĸãģķãĤĮãģ¾ãģĹãģŁ": 3837,
      "ãģ®æļĹåı·åĮĸãģĮå¼·åĮĸãģķãĤĮãģ¾ãģĹãģŁ": 3838,
      "ãĤ³ãĥ³ãĥĨãĥĬãģ®æĶ¹åĸĦãģĮç´łæĻ´ãĤīãģĹãģĦãģ§ãģĻãģŃ": 3839,
      "ãģ®ãĥŁãĥīãĥ«ãĤ¦ãĤ§ãĤ¢ãģĮåĨįè¨Ńè¨ĪãģķãĤĮãģ¾ãģĹãģŁ": 3840,
      "ãģ®ãĥŁãĥīãĥ«ãĤ¦ãĤ§ãĤ¢ãģĮç°¡ç´łåĮĸãģķãĤĮãģ¾ãģĹãģŁ": 3841,
      "ãģ®ãĥĩãĥĲãĥĥãĤ°ãģĮæĶ¹åĸĦãģķãĤĮãģ¾ãģĹãģŁ": 3842,
      "ãģ®ãĥĩãĥĲãĥĥãĤ°ãģĮç°¡ç´łåĮĸãģķãĤĮãģ¾ãģĹãģŁ": 3843,
      "ãģ®ãĥĩãĥĲãĥĥãĤ°ãģĮçµ±åĲĪãģķãĤĮãģ¾ãģĹãģŁ": 3844,
      "ãģ®ãĥĩãĥĹãĥŃãĤ¤ãģĮç°¡ç´łåĮĸãģķãĤĮãģ¾ãģĹãģŁ": 3845,
      "ãģ®ãĥķãĥ¬ãĥ¼ãĥłãĥ¯ãĥ¼ãĤ¯ãģĮæĶ¹åĸĦãģķãĤĮãģ¾ãģĹãģŁ": 3846,
      "ãģ®ãĥĳãĥķãĤ©ãĥ¼ãĥŀãĥ³ãĤ¹ãģĮåĨįç·¨æĪĲãģķãĤĮãģ¾ãģĹãģŁ": 3847,
      "ãģ®æ©Łèĥ½ãģĮåĲĪçĲĨåĮĸãģķãĤĮãģ¾ãģĹãģŁ": 3848,
      "ãĤ¨ãĥ³ãĥīãĥĿãĤ¤ãĥ³ãĥĪãģ®æĶ¹åĸĦãģĮç´łæĻ´ãĤīãģĹãģĦãģ§ãģĻãģŃ": 3849,
      "ãģ®ãĤ¯ãĤ¨ãĥªãģĮåĨįç·¨æĪĲãģķãĤĮãģ¾ãģĹãģŁ": 3850,
      "ãģ®ãĤ¯ãĤ¨ãĥªãģĮåĪ·æĸ°ãģķãĤĮãģ¾ãģĹãģŁ": 3851,
      "ãģ®ãĤ¯ãĤ¨ãĥªãģĮæ¨ĻæºĸåĮĸãģķãĤĮãģ¾ãģĹãģŁ": 3852,
      "ãģ®æľĢéģ©åĮĸãģĮçµ±åĲĪåĮĸãģķãĤĮãģ¾ãģĹãģŁ": 3853,
      "ãģ®ãĤ³ãĥ³ãĥĿãĥ¼ãĥįãĥ³ãĥĪãģĮçµ±åĲĪãģķãĤĮãģ¾ãģĹãģŁ": 3854,
      "ãģ®ãĤ³ãĥ³ãĥĨãĥĬãģĮè¿ĳä»£åĮĸãģķãĤĮãģ¾ãģĹãģŁ": 3855,
      "ãģ®ãĤ»ãĥŀãĥķãĤ©ãģĮåĪ·æĸ°ãģķãĤĮãģ¾ãģĹãģŁ": 3856,
      "ãģ®ãĤ³ãĥ³ãĥĳãĤ¤ãĥ©ãģĮæľĢéģ©åĮĸãģķãĤĮãģ¾ãģĹãģŁ": 3857,
      "ãģ®ãĤ»ãĥĥãĤ·ãĥ§ãĥ³ãģĮåĨįè¨Ńè¨ĪãģķãĤĮãģ¾ãģĹãģŁ": 3858,
      "ãģ®ãĤ»ãĥĥãĤ·ãĥ§ãĥ³ãģĮæĶ¹åĸĦãģķãĤĮãģ¾ãģĹãģŁ": 3859,
      "ãģ®ãĤ»ãĥĥãĤ·ãĥ§ãĥ³ãģĮåĪ·æĸ°ãģķãĤĮãģ¾ãģĹãģŁ": 3860,
      "ãģ®ãĤ»ãĥĥãĤ·ãĥ§ãĥ³ãģĮåĲĪçĲĨåĮĸãģķãĤĮãģ¾ãģĹãģŁ": 3861,
      "ãģ®ãĤµãĥ¼ãĥĵãĤ¹ãģĮæĭ¡å¼µãģķãĤĮãģ¾ãģĹãģŁ": 3862,
      "ãģ®ãĤªãĥ¼ãĥĲãĥ¼ãĥĺãĥĥãĥīãģĮæĶ¹åĸĦãģķãĤĮãģ¾ãģĹãģŁ": 3863,
      "ãģ®ä¸¦åĪĹæĢ§ãģĮæ¨ĻæºĸåĮĸãģķãĤĮãģ¾ãģĹãģŁ": 3864,
      "ãģ®åĲįåīįç©ºéĸĵãģĮåĨįæ§ĭç¯īãģķãĤĮãģ¾ãģĹãģŁ": 3865,
      "ãģ®ãĤ¨ãĥ³ãĥīãĥĿãĤ¤ãĥ³ãĥĪãģĮæ¨ĻæºĸåĮĸãģķãĤĮãģ¾ãģĹãģŁ": 3866,
      "ãģ®ä»®æĥ³åĮĸãģĮåĨįè¨Ńè¨ĪãģķãĤĮãģ¾ãģĹãģŁ": 3867,
      "ãģ®ãĥĪãĥ¼ãĤ¯ãĥĬãĤ¤ãĤ¶ãĥ¼ãģĮåĪ·æĸ°ãģķãĤĮãģ¾ãģĹãģŁ": 3868,
      "ãģ®ãĥĪãĥ©ãĥ³ãĤ¶ãĤ¯ãĤ·ãĥ§ãĥ³ãģĮæľĢéģ©åĮĸãģķãĤĮãģ¾ãģĹãģŁ": 3869,
      "ãģ®ä¸¦è¡ĮæĢ§ãģĮæĭ¡å¼µãģķãĤĮãģ¾ãģĹãģŁ": 3870,
      "ãģ®ãĥĲãĥªãĥĩãĥ¼ãĤ·ãĥ§ãĥ³ãģĮåĨįç·¨æĪĲãģķãĤĮãģ¾ãģĹãģŁ": 3871,
      "æĸ°ãģĹãģĦãĤ³ãĥ³ãĥĿãĥ¼ãĥįãĥ³ãĥĪãģ®ãĥªãĥªãĥ¼ãĤ¹ãĥİãĥ¼ãĥĪãĤĴç¢ºèªįãģĹãģ¾ãģĹãģŁ": 3872,
      "æĸ°ãģĹãģĦãĤ³ãĥ³ãĥĳãĤ¤ãĥ©ãģ®ãĥªãĥªãĥ¼ãĤ¹ãĥİãĥ¼ãĥĪãĤĴç¢ºèªįãģĹãģ¾ãģĹãģŁ": 3873,
      "ãĤ³ãĥ³ãĥĿãĥ¼ãĥįãĥ³ãĥĪãģ®æĶ¹åĸĦãģĮç´łæĻ´ãĤīãģĹãģĦãģ§ãģĻãģŃ": 3874,
      "ãĤ³ãĥ³ãĥĳãĤ¤ãĥ©ãģ®æĶ¹åĸĦãģĮç´łæĻ´ãĤīãģĹãģĦãģ§ãģĻãģŃ": 3875,
      "æĸ°ãģĹãģĦä»®æĥ³åĮĸãģ®ãĥªãĥªãĥ¼ãĤ¹ãĥİãĥ¼ãĥĪãĤĴç¢ºèªįãģĹãģ¾ãģĹãģŁ": 3876,
      "æĸ°ãģĹãģĦãĤ¢ãĥ«ãĤ´ãĥªãĤºãĥłãģ®ãĥªãĥªãĥ¼ãĤ¹ãĥİãĥ¼ãĥĪãĤĴç¢ºèªįãģĹãģ¾ãģĹãģŁ": 3877,
      "2160": 3878,
      "2260": 3879,
      "io": 3880,
      "1600": 3881,
      "æĸ°ãģĹãģĦãĤ¢ãĥ¼ãĤŃãĥĨãĤ¯ãĥģãĥ£": 3882,
      "æĸ°ãģĹãģĦåı¯çĶ¨æĢ§": 3883,
      "æĸ°ãģĹãģĦãĥĩãĥĲãĥĥãĤ°": 3884,
      "ãĥªãĥĿãĤ¸ãĥĪãĥªãģ®æĶ¹åĸĦãģĮç´łæĻ´ãĤīãģĹãģĦãģ§ãģĻãģŃ": 3885,
      "èªįåı¯ãģ®æĶ¹åĸĦãģĮç´łæĻ´ãĤīãģĹãģĦãģ§ãģĻãģŃ": 3886,
      "ãĤ·ãĥªãĤ¢ãĥ©ãĤ¤ãĤ¼ãĥ¼ãĤ·ãĥ§ãĥ³ãģ®æĶ¹åĸĦãģĮç´łæĻ´ãĤīãģĹãģĦãģ§ãģĻãģŃ": 3887,
      "ãĥĪãĥ©ãĥ³ãĤ¶ãĤ¯ãĤ·ãĥ§ãĥ³ãģ®æĶ¹åĸĦãģĮç´łæĻ´ãĤīãģĹãģĦãģ§ãģĻãģŃ": 3888,
      "ãģ®ãĥŃãĥ¼ãĥīãģĮçµ±åĲĪãģķãĤĮãģ¾ãģĹãģŁ": 3889,
      "ãģ®ãĥ¬ãĤ¤ãĥĨãĥ³ãĤ·ãģĮåĨįè¨Ńè¨ĪãģķãĤĮãģ¾ãģĹãģŁ": 3890,
      "ãģ®ãĥ¬ãĤ¤ãĥĨãĥ³ãĤ·ãģĮåĪ·æĸ°ãģķãĤĮãģ¾ãģĹãģŁ": 3891,
      "ãģ®ãĥĳãĥ©ãĥ¡ãĥ¼ãĤ¿ãģĮçµ±åĲĪåĮĸãģķãĤĮãģ¾ãģĹãģŁ": 3892,
      "ãģ®ãĥ¢ãĤ¸ãĥ¥ãĥ¼ãĥ«ãģĮæ¨ĻæºĸåĮĸãģķãĤĮãģ¾ãģĹãģŁ": 3893,
      "ãģ®æļĹåı·åĮĸãģĮæĭ¡å¼µãģķãĤĮãģ¾ãģĹãģŁ": 3894,
      "ãģ®ãĥĩãĥĲãĥĥãĤ°ãģĮåĨįç·¨æĪĲãģķãĤĮãģ¾ãģĹãģŁ": 3895,
      "ãģ®ãĥĻãĥ³ãĥģãĥŀãĥ¼ãĤ¯ãģĮå¼·åĮĸãģķãĤĮãģ¾ãģĹãģŁ": 3896,
      "ãĥĳãĥķãĤ©ãĥ¼ãĥŀãĥ³ãĤ¹ãģ®æĶ¹åĸĦãģĮç´łæĻ´ãĤīãģĹãģĦãģ§ãģĻãģŃ": 3897,
      "ãģ®ãĥĩãĥĹãĥŃãĤ¤ãģĮæľĢéģ©åĮĸãģķãĤĮãģ¾ãģĹãģŁ": 3898,
      "ãĥŁãĥīãĥ«ãĤ¦ãĤ§ãĤ¢ãģ®æĶ¹åĸĦãģĮç´łæĻ´ãĤīãģĹãģĦãģ§ãģĻãģŃ": 3899,
      "ãģ®ãĥķãĥ¬ãĥ¼ãĥłãĥ¯ãĥ¼ãĤ¯ãģĮãĤ¢ãĥĥãĥĹãĤ°ãĥ¬ãĥ¼ãĥīãģķãĤĮãģ¾ãģĹãģŁ": 3900,
      "ãģ®ãĥĳãĤ¤ãĥĹãĥ©ãĤ¤ãĥ³ãģĮãĤ¢ãĥĥãĥĹãĤ°ãĥ¬ãĥ¼ãĥīãģķãĤĮãģ¾ãģĹãģŁ": 3901,
      "ãģ®ãĥĳãĤ¤ãĥĹãĥ©ãĤ¤ãĥ³ãģĮæľĢéģ©åĮĸãģķãĤĮãģ¾ãģĹãģŁ": 3902,
      "ãģ®ãĥĩãĥ¼ãĤ¿ãĥĻãĥ¼ãĤ¹ãģĮåĨįè¨Ńè¨ĪãģķãĤĮãģ¾ãģĹãģŁ": 3903,
      "ãģ®ãĥĿãĥªãĥ¢ãĥ¼ãĥķãĤ£ãĤºãĥłãģĮçµ±åĲĪãģķãĤĮãģ¾ãģĹãģŁ": 3904,
      "ãģ®æ©Łèĥ½ãģĮåĨįç·¨æĪĲãģķãĤĮãģ¾ãģĹãģŁ": 3905,
      "ãģ®ãĤ¯ãĤ¨ãĥªãģĮçµ±åĲĪåĮĸãģķãĤĮãģ¾ãģĹãģŁ": 3906,
      "ãģ®ãĤ³ãĥ³ãĥĿãĥ¼ãĥįãĥ³ãĥĪãģĮåĪ·æĸ°ãģķãĤĮãģ¾ãģĹãģŁ": 3907,
      "ãģ®ãĤ³ãĥ³ãĥĿãĥ¼ãĥįãĥ³ãĥĪãģĮæ¨ĻæºĸåĮĸãģķãĤĮãģ¾ãģĹãģŁ": 3908,
      "ãģ®ãĤ³ãĥ³ãĥĿãĥ¼ãĥįãĥ³ãĥĪãģĮåĨįæ§ĭç¯īãģķãĤĮãģ¾ãģĹãģŁ": 3909,
      "ãģ®ãĤ³ãĥ³ãĥĨãĥĬãģĮæĭ¡å¼µãģķãĤĮãģ¾ãģĹãģŁ": 3910,
      "ãģ®ãĤ»ãĥŀãĥķãĤ©ãģĮæĶ¹åĸĦãģķãĤĮãģ¾ãģĹãģŁ": 3911,
      "ãģ®ãĤ»ãĥĥãĤ·ãĥ§ãĥ³ãģĮæ¨ĻæºĸåĮĸãģķãĤĮãģ¾ãģĹãģŁ": 3912,
      "ãģ®ä¿Ŀå®ĪæĢ§ãģĮæĶ¹åĸĦãģķãĤĮãģ¾ãģĹãģŁ": 3913,
      "ãģ®ãĤ«ãĥ¼ãĥįãĥ«ãģĮè¿ĳä»£åĮĸãģķãĤĮãģ¾ãģĹãģŁ": 3914,
      "ãģ®ãĤ«ãĥ¼ãĥįãĥ«ãģĮç°¡ç´łåĮĸãģķãĤĮãģ¾ãģĹãģŁ": 3915,
      "ãģ®åĲįåīįç©ºéĸĵãģĮçµ±åĲĪåĮĸãģķãĤĮãģ¾ãģĹãģŁ": 3916,
      "ãģ®ãĤ«ãĥĹãĤ»ãĥ«åĮĸãģĮæĶ¹åĸĦãģķãĤĮãģ¾ãģĹãģŁ": 3917,
      "ãģ®ä¿¡éł¼æĢ§ãģĮåĪ·æĸ°ãģķãĤĮãģ¾ãģĹãģŁ": 3918,
      "ãģ®ä¿¡éł¼æĢ§ãģĮåĨįæ§ĭç¯īãģķãĤĮãģ¾ãģĹãģŁ": 3919,
      "ãģ®ä»®æĥ³åĮĸãģĮåĨįç·¨æĪĲãģķãĤĮãģ¾ãģĹãģŁ": 3920,
      "ãģ®ãĤ¹ãĤ±ãĥ¼ãĥ©ãĥĵãĥªãĥĨãĤ£ãģĮçµ±åĲĪãģķãĤĮãģ¾ãģĹãģŁ": 3921,
      "ãģ®ä»ķæ§ĺãģĮåĨįè¨Ńè¨ĪãģķãĤĮãģ¾ãģĹãģŁ": 3922,
      "ãģ®ä¸¦è¡ĮæĢ§ãģĮè¿ĳä»£åĮĸãģķãĤĮãģ¾ãģĹãģŁ": 3923,
      "ãģ®å¤īæķ°ãģĮåĨįè¨Ńè¨ĪãģķãĤĮãģ¾ãģĹãģŁ": 3924,
      "ãģ®å¤īæķ°ãģĮçµ±åĲĪåĮĸãģķãĤĮãģ¾ãģĹãģŁ": 3925,
      "ãģ®ãĤ·ãĤ¹ãĥĨãĥłãģĮåĨįæ§ĭç¯īãģķãĤĮãģ¾ãģĹãģŁ": 3926,
      "ãģ®ãĥĲãĥªãĥĩãĥ¼ãĤ·ãĥ§ãĥ³ãģĮæĭ¡å¼µãģķãĤĮãģ¾ãģĹãģŁ": 3927,
      "ãģ®èªįè¨¼ãģĮçµ±åĲĪåĮĸãģķãĤĮãģ¾ãģĹãģŁ": 3928,
      "ãĤ»ãĥŀãĥķãĤ©ãģ®æĶ¹åĸĦãģĮç´łæĻ´ãĤīãģĹãģĦãģ§ãģĻãģŃ": 3929,
      "ãĤ«ãĥ¼ãĥįãĥ«ãģ®æĶ¹åĸĦãģĮç´łæĻ´ãĤīãģĹãģĦãģ§ãģĻãģŃ": 3930,
      "æĸ°ãģĹãģĦãĤ¢ãĥ¼ãĤŃãĥĨãĤ¯ãĥģãĥ£ãģ®ãĥªãĥªãĥ¼ãĤ¹ãĥİãĥ¼ãĥĪãĤĴç¢ºèªįãģĹãģ¾ãģĹãģŁ": 3931,
      "æĸ°ãģĹãģĦåı¯çĶ¨æĢ§ãģ®ãĥªãĥªãĥ¼ãĤ¹ãĥİãĥ¼ãĥĪãĤĴç¢ºèªįãģĹãģ¾ãģĹãģŁ": 3932,
      "æĸ°ãģĹãģĦãĥĩãĥĲãĥĥãĤ°ãģ®ãĥªãĥªãĥ¼ãĤ¹ãĥİãĥ¼ãĥĪãĤĴç¢ºèªįãģĹãģ¾ãģĹãģŁ": 3933,
      "2140": 3934,
      "1300": 3935,
      "ãĤ·ãĤ¹ãĥĨãĥłãģ®ãĥªãĥªãĥ¼ãĤ¹ãĥİãĥ¼ãĥĪãĤĴç¢ºèªįãģĹãģ¾ãģĹãģŁ": 3936,
      "æĸ°ãģĹãģĦå¤īæķ°": 3937,
      "æĸ°ãģĹãģĦãĤ¹ãĥ«ãĥ¼ãĥĹãĥĥãĥĪ": 3938,
      "æĸ°ãģĹãģĦãĥĪãĥ©ãĥ³ãĤ¶ãĤ¯ãĤ·ãĥ§ãĥ³": 3939,
      "æĸ°ãģĹãģĦãĥĩãĥ¼ãĤ¿ãĥĻãĥ¼ãĤ¹": 3940,
      "æĸ°ãģĹãģĦãĥķãĥ¬ãĥ¼ãĥłãĥ¯ãĥ¼ãĤ¯": 3941,
      "æĸ°ãģĹãģĦæľĢéģ©åĮĸ": 3942,
      "æĸ°ãģĹãģĦæ©Łèĥ½": 3943,
      "æĸ°ãģĹãģĦãĤ·ãĤ¹ãĥĨãĥłãģ®ãĥªãĥªãĥ¼ãĤ¹ãĥİãĥ¼ãĥĪãĤĴç¢ºèªįãģĹãģ¾ãģĹãģŁ": 3944,
      "å¸¯åŁŁå¹ħãģ®æĶ¹åĸĦãģĮç´łæĻ´ãĤīãģĹãģĦãģ§ãģĻãģŃ": 3945,
      "è¨Ńå®ļãģ®æĶ¹åĸĦãģĮç´łæĻ´ãĤīãģĹãģĦãģ§ãģĻãģŃ": 3946,
      "«ãĥ¼ãĥįãĥ«ãģ®ãĥªãĥªãĥ¼ãĤ¹ãĥİãĥ¼ãĥĪãĤĴç¢ºèªįãģĹãģ¾ãģĹãģŁ": 3947,
      "åı¯çĶ¨æĢ§ãģ®æĶ¹åĸĦãģĮç´łæĻ´ãĤīãģĹãģĦãģ§ãģĻãģŃ": 3948,
      "ãģ®ãĥŃãĥ¼ãĥīãģĮæ¨ĻæºĸåĮĸãģķãĤĮãģ¾ãģĹãģŁ": 3949,
      "ãģ®ãĥŃãĥ¼ãĥīãģĮåĲĪçĲĨåĮĸãģķãĤĮãģ¾ãģĹãģŁ": 3950,
      "ãģ®ãĥ¬ãĤ¤ãĥĨãĥ³ãĤ·ãģĮçµ±åĲĪåĮĸãģķãĤĮãģ¾ãģĹãģŁ": 3951,
      "ãģ®ãĥ¬ãĤ¤ãĥĨãĥ³ãĤ·ãģĮæ¨ĻæºĸåĮĸãģķãĤĮãģ¾ãģĹãģŁ": 3952,
      "ãģ®ãĥ¬ãĤ¤ãĥĨãĥ³ãĤ·ãģĮç°¡ç´łåĮĸãģķãĤĮãģ¾ãģĹãģŁ": 3953,
      "ãģ®ãĥ¢ãĤ¸ãĥ¥ãĥ¼ãĥ«ãģĮå¼·åĮĸãģķãĤĮãģ¾ãģĹãģŁ": 3954,
      "ãģ®æļĹåı·åĮĸãģĮæĶ¹åĸĦãģķãĤĮãģ¾ãģĹãģŁ": 3955,
      "ãģ®æļĹåı·åĮĸãģĮè¿ĳä»£åĮĸãģķãĤĮãģ¾ãģĹãģŁ": 3956,
      "ãģ®æļĹåı·åĮĸãģĮçµ±åĲĪãģķãĤĮãģ¾ãģĹãģŁ": 3957,
      "ãģ®ãĥŁãĥīãĥ«ãĤ¦ãĤ§ãĤ¢ãģĮåĪ·æĸ°ãģķãĤĮãģ¾ãģĹãģŁ": 3958,
      "ãģ®ãĥĩãĥĲãĥĥãĤ°ãģĮçµ±åĲĪåĮĸãģķãĤĮãģ¾ãģĹãģŁ": 3959,
      "ãģ®ãĥĻãĥ³ãĥģãĥŀãĥ¼ãĤ¯ãģĮæĶ¹åĸĦãģķãĤĮãģ¾ãģĹãģŁ": 3960,
      "ãģ®ãĥĳãĤ¤ãĥĹãĥ©ãĤ¤ãĥ³ãģĮåĨįè¨Ńè¨ĪãģķãĤĮãģ¾ãģĹãģŁ": 3961,
      "ãģ®ãĥĳãĤ¤ãĥĹãĥ©ãĤ¤ãĥ³ãģĮåĨįç·¨æĪĲãģķãĤĮãģ¾ãģĹãģŁ": 3962,
      "ãģ®ãĥĳãĤ¤ãĥĹãĥ©ãĤ¤ãĥ³ãģĮåĲĪçĲĨåĮĸãģķãĤĮãģ¾ãģĹãģŁ": 3963,
      "ãģ®ãĥĳãĤ¤ãĥĹãĥ©ãĤ¤ãĥ³ãģĮè¿ĳä»£åĮĸãģķãĤĮãģ¾ãģĹãģŁ": 3964,
      "ãģ®ãĥĩãĥ¼ãĤ¿ãĥĻãĥ¼ãĤ¹ãģĮæĶ¹åĸĦãģķãĤĮãģ¾ãģĹãģŁ": 3965,
      "ãģ®ãĥĿãĥªãĥ¢ãĥ¼ãĥķãĤ£ãĤºãĥłãģĮçµ±åĲĪåĮĸãģķãĤĮãģ¾ãģĹãģŁ": 3966,
      "ãĥ¬ãĤ¤ãĥĨãĥ³ãĤ·ãģ®æĶ¹åĸĦãģĮç´łæĻ´ãĤīãģĹãģĦãģ§ãģĻãģŃ": 3967,
      "ãģ®ãĤ¯ãĤ¨ãĥªãģĮåĲĪçĲĨåĮĸãģķãĤĮãģ¾ãģĹãģŁ": 3968,
      "ãģ®æľĢéģ©åĮĸãģĮåĲĪçĲĨåĮĸãģķãĤĮãģ¾ãģĹãģŁ": 3969,
      "ãģ®æľĢéģ©åĮĸãģĮå¼·åĮĸãģķãĤĮãģ¾ãģĹãģŁ": 3970,
      "ãģ®ãĤ³ãĥ³ãĥĿãĥ¼ãĥįãĥ³ãĥĪãģĮæĭ¡å¼µãģķãĤĮãģ¾ãģĹãģŁ": 3971,
      "ãģ®ãĤ³ãĥ³ãĥĿãĥ¼ãĥįãĥ³ãĥĪãģĮå¼·åĮĸãģķãĤĮãģ¾ãģĹãģŁ": 3972,
      "ãģ®ãĤ»ãĥŀãĥķãĤ©ãģĮçµ±åĲĪåĮĸãģķãĤĮãģ¾ãģĹãģŁ": 3973,
      "ãģ®ãĤ»ãĥŀãĥķãĤ©ãģĮæ¨ĻæºĸåĮĸãģķãĤĮãģ¾ãģĹãģŁ": 3974,
      "ãģ®ãĤ³ãĥ³ãĥĳãĤ¤ãĥ©ãģĮãĤ¢ãĥĥãĥĹãĤ°ãĥ¬ãĥ¼ãĥīãģķãĤĮãģ¾ãģĹãģŁ": 3975,
      "ãģ®ãĤ³ãĥ³ãĥĳãĤ¤ãĥ©ãģĮåĲĪçĲĨåĮĸãģķãĤĮãģ¾ãģĹãģŁ": 3976,
      "ãģ®ãĤ³ãĥ³ãĥĳãĤ¤ãĥ©ãģĮçµ±åĲĪãģķãĤĮãģ¾ãģĹãģŁ": 3977,
      "ãĥķãĥ¬ãĥ¼ãĥłãĥ¯ãĥ¼ãĤ¯ãģ®æĶ¹åĸĦãģĮç´łæĻ´ãĤīãģĹãģĦãģ§ãģĻãģŃ": 3978,
      "ãģ®ãĤ»ãĥĥãĤ·ãĥ§ãĥ³ãģĮæľĢéģ©åĮĸãģķãĤĮãģ¾ãģĹãģŁ": 3979,
      "ãģ®ä¿Ŀå®ĪæĢ§ãģĮåĪ·æĸ°ãģķãĤĮãģ¾ãģĹãģŁ": 3980,
      "ãģ®ãĤŃãĥ£ãĥĥãĤ·ãĥ¥ãģĮåĲĪçĲĨåĮĸãģķãĤĮãģ¾ãģĹãģŁ": 3981,
      "ãģ®ãĤªãĥ¼ãĥĲãĥ¼ãĥĺãĥĥãĥīãģĮå¼·åĮĸãģķãĤĮãģ¾ãģĹãģŁ": 3982,
      "ãģ®ãĤªãĥ¼ãĥĲãĥ¼ãĥĺãĥĥãĥīãģĮç°¡ç´łåĮĸãģķãĤĮãģ¾ãģĹãģŁ": 3983,
      "ãģ®ãĤ«ãĥ¼ãĥįãĥ«ãģĮçµ±åĲĪåĮĸãģķãĤĮãģ¾ãģĹãģŁ": 3984,
      "ãģ®ãĤ«ãĥ¼ãĥįãĥ«ãģĮåĪ·æĸ°ãģķãĤĮãģ¾ãģĹãģŁ": 3985,
      "ãģ®ãĤ«ãĥ¼ãĥįãĥ«ãģĮæľĢéģ©åĮĸãģķãĤĮãģ¾ãģĹãģŁ": 3986,
      "ãģ®èĦĨå¼±æĢ§ãģĮåĨįæ§ĭç¯īãģķãĤĮãģ¾ãģĹãģŁ": 3987,
      "ãģ®åĲįåīįç©ºéĸĵãģĮå¼·åĮĸãģķãĤĮãģ¾ãģĹãģŁ": 3988,
      "ãģ®åĲįåīįç©ºéĸĵãģĮçµ±åĲĪãģķãĤĮãģ¾ãģĹãģŁ": 3989,
      "ãģ®ãĤ«ãĥĹãĤ»ãĥ«åĮĸãģĮãĤ¢ãĥĥãĥĹãĤ°ãĥ¬ãĥ¼ãĥīãģķãĤĮãģ¾ãģĹãģŁ": 3990,
      "ãģ®å¸¯åŁŁå¹ħãģĮæ¨ĻæºĸåĮĸãģķãĤĮãģ¾ãģĹãģŁ": 3991,
      "ãģ®ç¶Ļæī¿ãģĮæĶ¹åĸĦãģķãĤĮãģ¾ãģĹãģŁ": 3992,
      "ãģ®ãĤ¢ãĥ«ãĤ´ãĥªãĤºãĥłãģĮæ¨ĻæºĸåĮĸãģķãĤĮãģ¾ãģĹãģŁ": 3993,
      "ãģ®åı¯çĶ¨æĢ§ãģĮå¼·åĮĸãģķãĤĮãģ¾ãģĹãģŁ": 3994,
      "ãģ®è¨Ńå®ļãģĮåĲĪçĲĨåĮĸãģķãĤĮãģ¾ãģĹãģŁ": 3995,
      "ãģ®è¨Ńå®ļãģĮæľĢéģ©åĮĸãģķãĤĮãģ¾ãģĹãģŁ": 3996,
      "ãģ®è¨Ńå®ļãģĮè¿ĳä»£åĮĸãģķãĤĮãģ¾ãģĹãģŁ": 3997,
      "ãģ®èªįåı¯ãģĮæ¨ĻæºĸåĮĸãģķãĤĮãģ¾ãģĹãģŁ": 3998,
      "ãģ®åĲĮæľŁãģĮæĭ¡å¼µãģķãĤĮãģ¾ãģĹãģŁ": 3999,
      "ãģ®ãĥĪãĥ©ãĥ³ãĤ¶ãĤ¯ãĤ·ãĥ§ãĥ³ãģĮçµ±åĲĪãģķãĤĮãģ¾ãģĹãģŁ": 4000,
      "ãģ®ä¸¦è¡ĮæĢ§ãģĮåĲĪçĲĨåĮĸãģķãĤĮãģ¾ãģĹãģŁ": 4001,
      "ãģ®ãĤ·ãĤ¹ãĥĨãĥłãģĮåĨįç·¨æĪĲãģķãĤĮãģ¾ãģĹãģŁ": 4002,
      "ãģ®ãĥ©ãĤ¤ãĥĸãĥ©ãĥªãģĮè¿ĳä»£åĮĸãģķãĤĮãģ¾ãģĹãģŁ": 4003,
      "ãģ®èªįè¨¼ãģĮåĨįç·¨æĪĲãģķãĤĮãģ¾ãģĹãģŁ": 4004,
      "æĸ°ãģĹãģĦãĤ«ãĥ¼ãĥįãĥ«ãģ®ãĥªãĥªãĥ¼ãĤ¹ãĥİãĥ¼ãĥĪãĤĴç¢ºèªįãģĹãģ¾ãģĹãģŁ": 4005,
      "ãĤ«ãĥĹãĤ»ãĥ«åĮĸãģ®æĶ¹åĸĦãģĮç´łæĻ´ãĤīãģĹãģĦãģ§ãģĻãģŃ": 4006,
      "ãĤµãĥ¼ãĥĵãĤ¹ãģ®æĶ¹åĸĦãģĮç´łæĻ´ãĤīãģĹãģĦãģ§ãģĻãģŃ": 4007,
      "æĸ°ãģĹãģĦå¤īæķ°ãģ®ãĥªãĥªãĥ¼ãĤ¹ãĥİãĥ¼ãĥĪãĤĴç¢ºèªįãģĹãģ¾ãģĹãģŁ": 4008,
      "æĸ°ãģĹãģĦãĤ¹ãĥ«ãĥ¼ãĥĹãĥĥãĥĪãģ®ãĥªãĥªãĥ¼ãĤ¹ãĥİãĥ¼ãĥĪãĤĴç¢ºèªįãģĹãģ¾ãģĹãģŁ": 4009,
      "æĸ°ãģĹãģĦãĥĪãĥ©ãĥ³ãĤ¶ãĤ¯ãĤ·ãĥ§ãĥ³ãģ®ãĥªãĥªãĥ¼ãĤ¹ãĥİãĥ¼ãĥĪãĤĴç¢ºèªįãģĹãģ¾ãģĹãģŁ": 4010,
      "æĸ°ãģĹãģĦãĥĩãĥ¼ãĤ¿ãĥĻãĥ¼ãĤ¹ãģ®ãĥªãĥªãĥ¼ãĤ¹ãĥİãĥ¼ãĥĪãĤĴç¢ºèªįãģĹãģ¾ãģĹãģŁ": 4011,
      "æĸ°ãģĹãģĦãĥķãĥ¬ãĥ¼ãĥłãĥ¯ãĥ¼ãĤ¯ãģ®ãĥªãĥªãĥ¼ãĤ¹ãĥİãĥ¼ãĥĪãĤĴç¢ºèªįãģĹãģ¾ãģĹãģŁ": 4012,
      "æĸ°ãģĹãģĦæľĢéģ©åĮĸãģ®ãĥªãĥªãĥ¼ãĤ¹ãĥİãĥ¼ãĥĪãĤĴç¢ºèªįãģĹãģ¾ãģĹãģŁ": 4013,
      "æĸ°ãģĹãģĦæ©Łèĥ½ãģ®ãĥªãĥªãĥ¼ãĤ¹ãĥİãĥ¼ãĥĪãĤĴç¢ºèªįãģĹãģ¾ãģĹãģŁ": 4014,
      "2150": 4015,
      "2250": 4016,
      "hli": 4017,
      "2300": 4018,
      "æĸ°ãģĹãģĦãĤ¹ãĤŃãĥ¼ãĥŀ": 4019,
      "æĸ°ãģĹãģĦãĥĳãĥ©ãĥ¡ãĥ¼ãĤ¿": 4020,
      "æĸ°ãģĹãģĦãĥŁãĥīãĥ«ãĤ¦ãĤ§ãĤ¢": 4021,
      "æĸ°ãģĹãģĦãĥĿãĥªãĥ¢ãĥ¼ãĥķãĤ£ãĤºãĥłãģ®": 4022,
      "ç¶Ļæī¿ãģ®æĶ¹åĸĦãģĮç´łæĻ´ãĤīãģĹãģĦãģ§ãģĻãģŃ": 4023,
      "åĲĮæľŁãģ®æĶ¹åĸĦãģĮç´łæĻ´ãĤīãģĹãģĦãģ§ãģĻãģŃ": 4024,
      "ãĥĲãĥĥãĥķãĤ¡ãģ®æĶ¹åĸĦãģĮç´łæĻ´ãĤīãģĹãģĦãģ§ãģĻãģŃ": 4025,
      "ãģ®ãĥŃãĥ¼ãĥīãģĮæľĢéģ©åĮĸãģķãĤĮãģ¾ãģĹãģŁ": 4026,
      "ãģ®ãĥŃãĥ¼ãĥīãģĮæĭ¡å¼µãģķãĤĮãģ¾ãģĹãģŁ": 4027,
      "ãģ®ãĥŃãĥ¼ãĥīãģĮè¿ĳä»£åĮĸãģķãĤĮãģ¾ãģĹãģŁ": 4028,
      "ãģ®ãĥ¬ãĤ¤ãĥĨãĥ³ãĤ·ãģĮåĲĪçĲĨåĮĸãģķãĤĮãģ¾ãģĹãģŁ": 4029,
      "ãģ®ãĥ¢ãĤ¸ãĥ¥ãĥ¼ãĥ«ãģĮåĨįç·¨æĪĲãģķãĤĮãģ¾ãģĹãģŁ": 4030,
      "ãģ®æļĹåı·åĮĸãģĮçµ±åĲĪåĮĸãģķãĤĮãģ¾ãģĹãģŁ": 4031,
      "ãģ®ãĥĩãĥĲãĥĥãĤ°ãģĮæľĢéģ©åĮĸãģķãĤĮãģ¾ãģĹãģŁ": 4032,
      "ãģ®ãĥĻãĥ³ãĥģãĥŀãĥ¼ãĤ¯ãģĮåĨįè¨Ńè¨ĪãģķãĤĮãģ¾ãģĹãģŁ": 4033,
      "ãģ®ãĥķãĥ¬ãĥ¼ãĥłãĥ¯ãĥ¼ãĤ¯ãģĮåĨįæ§ĭç¯īãģķãĤĮãģ¾ãģĹãģŁ": 4034,
      "ãģ®ãĥķãĥ¬ãĥ¼ãĥłãĥ¯ãĥ¼ãĤ¯ãģĮè¿ĳä»£åĮĸãģķãĤĮãģ¾ãģĹãģŁ": 4035,
      "ãģ®ãĥĩãĥ¼ãĤ¿ãĥĻãĥ¼ãĤ¹ãģĮãĤ¢ãĥĥãĥĹãĤ°ãĥ¬ãĥ¼ãĥīãģķãĤĮãģ¾ãģĹãģŁ": 4036,
      "ãģ®ãĥĩãĥ¼ãĤ¿ãĥĻãĥ¼ãĤ¹ãģĮæľĢéģ©åĮĸãģķãĤĮãģ¾ãģĹãģŁ": 4037,
      "ãģ®ãĥĳãĥķãĤ©ãĥ¼ãĥŀãĥ³ãĤ¹ãģĮç°¡ç´łåĮĸãģķãĤĮãģ¾ãģĹãģŁ": 4038,
      "ãģ®æ©Łèĥ½ãģĮåĨįè¨Ńè¨ĪãģķãĤĮãģ¾ãģĹãģŁ": 4039,
      "ãģ®æ©Łèĥ½ãģĮãĤ¢ãĥĥãĥĹãĤ°ãĥ¬ãĥ¼ãĥīãģķãĤĮãģ¾ãģĹãģŁ": 4040,
      "ãģ®ãĤ¯ãĤ¨ãĥªãģĮåĨįæ§ĭç¯īãģķãĤĮãģ¾ãģĹãģŁ": 4041,
      "ãģ®ãĤ³ãĥ³ãĥĿãĥ¼ãĥįãĥ³ãĥĪãģĮæĶ¹åĸĦãģķãĤĮãģ¾ãģĹãģŁ": 4042,
      "ãģ®ãĤ³ãĥ³ãĥĨãĥĬãģĮæ¨ĻæºĸåĮĸãģķãĤĮãģ¾ãģĹãģŁ": 4043,
      "ãģ®ãĤ»ãĥŀãĥķãĤ©ãģĮçµ±åĲĪãģķãĤĮãģ¾ãģĹãģŁ": 4044,
      "ãģ®ãĤ³ãĥ³ãĥĳãĤ¤ãĥ©ãģĮåĨįè¨Ńè¨ĪãģķãĤĮãģ¾ãģĹãģŁ": 4045,
      "ãģ®ãĤ»ãĥĥãĤ·ãĥ§ãĥ³ãģĮè¿ĳä»£åĮĸãģķãĤĮãģ¾ãģĹãģŁ": 4046,
      "ãģ®ä¿Ŀå®ĪæĢ§ãģĮå¼·åĮĸãģķãĤĮãģ¾ãģĹãģŁ": 4047,
      "ãģ®ãĤªãĥ¼ãĥĲãĥ¼ãĥĺãĥĥãĥīãģĮåĪ·æĸ°ãģķãĤĮãģ¾ãģĹãģŁ": 4048,
      "ãģ®ä¸¦åĪĹæĢ§ãģĮåĨįè¨Ńè¨ĪãģķãĤĮãģ¾ãģĹãģŁ": 4049,
      "ãģ®ä¸¦åĪĹæĢ§ãģĮè¿ĳä»£åĮĸãģķãĤĮãģ¾ãģĹãģŁ": 4050,
      "ãģ®èĦĨå¼±æĢ§ãģĮæ¨ĻæºĸåĮĸãģķãĤĮãģ¾ãģĹãģŁ": 4051,
      "ãģ®åĲįåīįç©ºéĸĵãģĮåĨįè¨Ńè¨ĪãģķãĤĮãģ¾ãģĹãģŁ": 4052,
      "ãģ®ãĤ«ãĥĹãĤ»ãĥ«åĮĸãģĮçµ±åĲĪåĮĸãģķãĤĮãģ¾ãģĹãģŁ": 4053,
      "ãģ®ãĤ«ãĥĹãĤ»ãĥ«åĮĸãģĮè¿ĳä»£åĮĸãģķãĤĮãģ¾ãģĹãģŁ": 4054,
      "ãģ®å¸¯åŁŁå¹ħãģĮå¼·åĮĸãģķãĤĮãģ¾ãģĹãģŁ": 4055,
      "ãģ®å¸¯åŁŁå¹ħãģĮçµ±åĲĪãģķãĤĮãģ¾ãģĹãģŁ": 4056,
      "ãģ®ãĤ¨ãĥ³ãĥīãĥĿãĤ¤ãĥ³ãĥĪãģĮãĤ¢ãĥĥãĥĹãĤ°ãĥ¬ãĥ¼ãĥīãģķãĤĮãģ¾ãģĹãģŁ": 4057,
      "ãģ®ç¶Ļæī¿ãģĮãĤ¢ãĥĥãĥĹãĤ°ãĥ¬ãĥ¼ãĥīãģķãĤĮãģ¾ãģĹãģŁ": 4058,
      "ãģ®ãĤ¢ãĥ«ãĤ´ãĥªãĤºãĥłãģĮç°¡ç´łåĮĸãģķãĤĮãģ¾ãģĹãģŁ": 4059,
      "ãģ®ä¿¡éł¼æĢ§ãģĮçµ±åĲĪãģķãĤĮãģ¾ãģĹãģŁ": 4060,
      "ãģ®ä»®æĥ³åĮĸãģĮçµ±åĲĪãģķãĤĮãģ¾ãģĹãģŁ": 4061,
      "ãģ®ãĥªãĥĿãĤ¸ãĥĪãĥªãģĮåĨįè¨Ńè¨ĪãģķãĤĮãģ¾ãģĹãģŁ": 4062,
      "ãģ®è¨Ńå®ļãģĮçµ±åĲĪãģķãĤĮãģ¾ãģĹãģŁ": 4063,
      "ãģ®èªįåı¯ãģĮæĶ¹åĸĦãģķãĤĮãģ¾ãģĹãģŁ": 4064,
      "ãģ®èªįåı¯ãģĮåĪ·æĸ°ãģķãĤĮãģ¾ãģĹãģŁ": 4065,
      "ãģ®èªįåı¯ãģĮæĭ¡å¼µãģķãĤĮãģ¾ãģĹãģŁ": 4066,
      "ãģ®ãĤ¹ãĤ±ãĥ¼ãĥ©ãĥĵãĥªãĥĨãĤ£ãģĮæ¨ĻæºĸåĮĸãģķãĤĮãģ¾ãģĹãģŁ": 4067,
      "ãģ®ä»ķæ§ĺãģĮçµ±åĲĪåĮĸãģķãĤĮãģ¾ãģĹãģŁ": 4068,
      "ãģ®ãĤ·ãĥªãĤ¢ãĥ©ãĤ¤ãĤ¼ãĥ¼ãĤ·ãĥ§ãĥ³ãģĮå¼·åĮĸãģķãĤĮãģ¾ãģĹãģŁ": 4069,
      "æ©Łèĥ½ãģ®æĶ¹åĸĦãģĮç´łæĻ´ãĤīãģĹãģĦãģ§ãģĻãģŃ": 4070,
      "ãģ®ãĤ¹ãĥ«ãĥ¼ãĥĹãĥĥãĥĪãģĮæ¨ĻæºĸåĮĸãģķãĤĮãģ¾ãģĹãģŁ": 4071,
      "ãģ®ãĤ¹ãĥ«ãĥ¼ãĥĹãĥĥãĥĪãģĮæľĢéģ©åĮĸãģķãĤĮãģ¾ãģĹãģŁ": 4072,
      "ãģ®åĲĮæľŁãģĮåĪ·æĸ°ãģķãĤĮãģ¾ãģĹãģŁ": 4073,
      "ãģ®åĲĮæľŁãģĮæľĢéģ©åĮĸãģķãĤĮãģ¾ãģĹãģŁ": 4074,
      "ãģ®ãĥĹãĥŃãĥĪãĤ³ãĥ«ãģĮãĤ¢ãĥĥãĥĹãĤ°ãĥ¬ãĥ¼ãĥīãģķãĤĮãģ¾ãģĹãģŁ": 4075,
      "ãģ®ãĥĹãĥŃãĥĪãĤ³ãĥ«ãģĮçµ±åĲĪåĮĸãģķãĤĮãģ¾ãģĹãģŁ": 4076,
      "ãģ®ãĥĹãĥŃãĥĪãĤ³ãĥ«ãģĮæ¨ĻæºĸåĮĸãģķãĤĮãģ¾ãģĹãģŁ": 4077,
      "ãģ®ãĥĪãĥ©ãĥ³ãĤ¶ãĤ¯ãĤ·ãĥ§ãĥ³ãģĮçµ±åĲĪåĮĸãģķãĤĮãģ¾ãģĹãģŁ": 4078,
      "ãģ®å¤īæķ°ãģĮæĶ¹åĸĦãģķãĤĮãģ¾ãģĹãģŁ": 4079,
      "ãģ®ä¾ĿåŃĺæĢ§ãģĮåĨįè¨Ńè¨ĪãģķãĤĮãģ¾ãģĹãģŁ": 4080,
      "ãģ®ãĥ©ãĤ¤ãĥĸãĥ©ãĥªãģĮãĤ¢ãĥĥãĥĹãĤ°ãĥ¬ãĥ¼ãĥīãģķãĤĮãģ¾ãģĹãģŁ": 4081,
      "ãģ®ãĥĲãĥªãĥĩãĥ¼ãĤ·ãĥ§ãĥ³ãģĮåĨįæ§ĭç¯īãģķãĤĮãģ¾ãģĹãģŁ": 4082,
      "ãģ®ãĥĲãĥĥãĥķãĤ¡ãģĮè¿ĳä»£åĮĸãģķãĤĮãģ¾ãģĹãģŁ": 4083,
      "Iterable": 4084,
      "ãĤªãĥ¼ãĥĲãĥ¼ãĥĺãĥĥãĥīãģ®æĶ¹åĸĦãģĮç´łæĻ´ãĤīãģĹãģĦãģ§ãģĻãģŃ": 4085,
      "hlib": 4086,
      "æĸ°ãģĹãģĦãĤ¹ãĤŃãĥ¼ãĥŀãģ®ãĥªãĥªãĥ¼ãĤ¹ãĥİãĥ¼ãĥĪãĤĴç¢ºèªįãģĹãģ¾ãģĹãģŁ": 4087,
      "æĸ°ãģĹãģĦãĥĳãĥ©ãĥ¡ãĥ¼ãĤ¿ãģ®ãĥªãĥªãĥ¼ãĤ¹ãĥİãĥ¼ãĥĪãĤĴç¢ºèªįãģĹãģ¾ãģĹãģŁ": 4088,
      "æĸ°ãģĹãģĦãĥŁãĥīãĥ«ãĤ¦ãĤ§ãĤ¢ãģ®ãĥªãĥªãĥ¼ãĤ¹ãĥİãĥ¼ãĥĪãĤĴç¢ºèªįãģĹãģ¾ãģĹãģŁ": 4089,
      "æĸ°ãģĹãģĦãĥĿãĥªãĥ¢ãĥ¼ãĥķãĤ£ãĤºãĥłãģ®ãĥªãĥªãĥ¼ãĤ¹ãĥİãĥ¼ãĥĪãĤĴç¢ºèªįãģĹãģ¾ãģĹãģŁ": 4090,
      "2130": 4091,
      "521": 4092,
      "æĸ°ãģĹãģĦç¶Ļæī¿": 4093,
      "æĸ°ãģĹãģĦãĥĲãĥªãĥĩãĥ¼ãĤ·ãĥ§ãĥ³": 4094,
      "ãģ®ãĥ¬ãĤ¤ãĥĨãĥ³ãĤ·ãģĮæĭ¡å¼µãģķãĤĮãģ¾ãģĹãģŁ": 4095,
      "ãģ®ãĥ¬ãĤ¤ãĥĨãĥ³ãĤ·ãģĮçµ±åĲĪãģķãĤĮãģ¾ãģĹãģŁ": 4096,
      "ãģ®ãĥĳãĥ©ãĥ¡ãĥ¼ãĤ¿ãģĮæľĢéģ©åĮĸãģķãĤĮãģ¾ãģĹãģŁ": 4097,
      "ãģ®ãĥ¢ãĤ¸ãĥ¥ãĥ¼ãĥ«ãģĮæĭ¡å¼µãģķãĤĮãģ¾ãģĹãģŁ": 4098,
      "ãģ®ãĥŁãĥīãĥ«ãĤ¦ãĤ§ãĤ¢ãģĮå¼·åĮĸãģķãĤĮãģ¾ãģĹãģŁ": 4099,
      "ãģ®ãĥĩãĥĲãĥĥãĤ°ãģĮæ¨ĻæºĸåĮĸãģķãĤĮãģ¾ãģĹãģŁ": 4100,
      "ãģ®ãĥĻãĥ³ãĥģãĥŀãĥ¼ãĤ¯ãģĮæĭ¡å¼µãģķãĤĮãģ¾ãģĹãģŁ": 4101,
      "ãģ®ãĥĻãĥ³ãĥģãĥŀãĥ¼ãĤ¯ãģĮè¿ĳä»£åĮĸãģķãĤĮãģ¾ãģĹãģŁ": 4102,
      "ãģ®ãĥĳãĤ¤ãĥĹãĥ©ãĤ¤ãĥ³ãģĮæĶ¹åĸĦãģķãĤĮãģ¾ãģĹãģŁ": 4103,
      "ãģ®ãĥĳãĥķãĤ©ãĥ¼ãĥŀãĥ³ãĤ¹ãģĮåĨįè¨Ńè¨ĪãģķãĤĮãģ¾ãģĹãģŁ": 4104,
      "ãģ®ãĥĳãĥķãĤ©ãĥ¼ãĥŀãĥ³ãĤ¹ãģĮæĶ¹åĸĦãģķãĤĮãģ¾ãģĹãģŁ": 4105,
      "ãģ®ãĥĿãĥªãĥ¢ãĥ¼ãĥķãĤ£ãĤºãĥłãģĮåĨįè¨Ńè¨ĪãģķãĤĮãģ¾ãģĹãģŁ": 4106,
      "ãģ®ãĥĿãĥªãĥ¢ãĥ¼ãĥķãĤ£ãĤºãĥłãģĮåĨįæ§ĭç¯īãģķãĤĮãģ¾ãģĹãģŁ": 4107,
      "ãģ®ãĥĿãĥªãĥ¢ãĥ¼ãĥķãĤ£ãĤºãĥłãģĮæĭ¡å¼µãģķãĤĮãģ¾ãģĹãģŁ": 4108,
      "ãģ®ãĥĿãĥªãĥ¢ãĥ¼ãĥķãĤ£ãĤºãĥłãģĮå¼·åĮĸãģķãĤĮãģ¾ãģĹãģŁ": 4109,
      "ãģ®æ©Łèĥ½ãģĮæĶ¹åĸĦãģķãĤĮãģ¾ãģĹãģŁ": 4110,
      "ãģ®ãĤ¯ãĤ¨ãĥªãģĮå¼·åĮĸãģķãĤĮãģ¾ãģĹãģŁ": 4111,
      "ãģ®æľĢéģ©åĮĸãģĮåĨįç·¨æĪĲãģķãĤĮãģ¾ãģĹãģŁ": 4112,
      "ãģ®ãĤ³ãĥ³ãĥĿãĥ¼ãĥįãĥ³ãĥĪãģĮåĲĪçĲĨåĮĸãģķãĤĮãģ¾ãģĹãģŁ": 4113,
      "ãģ®ãĤ³ãĥ³ãĥĿãĥ¼ãĥįãĥ³ãĥĪãģĮè¿ĳä»£åĮĸãģķãĤĮãģ¾ãģĹãģŁ": 4114,
      "ãģ®ãĤ³ãĥ³ãĥĨãĥĬãģĮæĶ¹åĸĦãģķãĤĮãģ¾ãģĹãģŁ": 4115,
      "ãģ®ãĤ»ãĥŀãĥķãĤ©ãģĮåĲĪçĲĨåĮĸãģķãĤĮãģ¾ãģĹãģŁ": 4116,
      "ãģ®ãĤµãĥ¼ãĥĵãĤ¹ãģĮæ¨ĻæºĸåĮĸãģķãĤĮãģ¾ãģĹãģŁ": 4117,
      "ãģ®ãĤµãĥ¼ãĥĵãĤ¹ãģĮå¼·åĮĸãģķãĤĮãģ¾ãģĹãģŁ": 4118,
      "ãģ®ä¿Ŀå®ĪæĢ§ãģĮçµ±åĲĪåĮĸãģķãĤĮãģ¾ãģĹãģŁ": 4119,
      "ãģ®ä¿Ŀå®ĪæĢ§ãģĮæ¨ĻæºĸåĮĸãģķãĤĮãģ¾ãģĹãģŁ": 4120,
      "ãģ®ä¿Ŀå®ĪæĢ§ãģĮçµ±åĲĪãģķãĤĮãģ¾ãģĹãģŁ": 4121,
      "ãģ®ãĤŃãĥ£ãĥĥãĤ·ãĥ¥ãģĮåĨįç·¨æĪĲãģķãĤĮãģ¾ãģĹãģŁ": 4122,
      "ãģ®ãĤŃãĥ£ãĥĥãĤ·ãĥ¥ãģĮæĶ¹åĸĦãģķãĤĮãģ¾ãģĹãģŁ": 4123,
      "ãģ®ãĤŃãĥ£ãĥĥãĤ·ãĥ¥ãģĮåĪ·æĸ°ãģķãĤĮãģ¾ãģĹãģŁ": 4124,
      "ãģ®ãĤªãĥ¼ãĥĲãĥ¼ãĥĺãĥĥãĥīãģĮçµ±åĲĪãģķãĤĮãģ¾ãģĹãģŁ": 4125,
      "ãģ®ä¸¦åĪĹæĢ§ãģĮæĶ¹åĸĦãģķãĤĮãģ¾ãģĹãģŁ": 4126,
      "ãģ®èĦĨå¼±æĢ§ãģĮãĤ¢ãĥĥãĥĹãĤ°ãĥ¬ãĥ¼ãĥīãģķãĤĮãģ¾ãģĹãģŁ": 4127,
      "ãģ®èĦĨå¼±æĢ§ãģĮç°¡ç´łåĮĸãģķãĤĮãģ¾ãģĹãģŁ": 4128,
      "ãģ®åĲįåīįç©ºéĸĵãģĮç°¡ç´łåĮĸãģķãĤĮãģ¾ãģĹãģŁ": 4129,
      "ãģ®ãĤ«ãĥĹãĤ»ãĥ«åĮĸãģĮåĲĪçĲĨåĮĸãģķãĤĮãģ¾ãģĹãģŁ": 4130,
      "ãģ®å¸¯åŁŁå¹ħãģĮåĨįç·¨æĪĲãģķãĤĮãģ¾ãģĹãģŁ": 4131,
      "ãģ®ãĤ¨ãĥ³ãĥīãĥĿãĤ¤ãĥ³ãĥĪãģĮè¿ĳä»£åĮĸãģķãĤĮãģ¾ãģĹãģŁ": 4132,
      "ãģ®ãĤ¨ãĥ³ãĥīãĥĿãĤ¤ãĥ³ãĥĪãģĮç°¡ç´łåĮĸãģķãĤĮãģ¾ãģĹãģŁ": 4133,
      "ãģ®ä¿¡éł¼æĢ§ãģĮåĨįç·¨æĪĲãģķãĤĮãģ¾ãģĹãģŁ": 4134,
      "ãģ®ãĥªãĥĿãĤ¸ãĥĪãĥªãģĮæ¨ĻæºĸåĮĸãģķãĤĮãģ¾ãģĹãģŁ": 4135,
      "ãģ®ãĥªãĥĿãĤ¸ãĥĪãĥªãģĮæľĢéģ©åĮĸãģķãĤĮãģ¾ãģĹãģŁ": 4136,
      "ãģ®ãĥªãĥĿãĤ¸ãĥĪãĥªãģĮæĭ¡å¼µãģķãĤĮãģ¾ãģĹãģŁ": 4137,
      "ãģ®åı¯çĶ¨æĢ§ãģĮãĤ¢ãĥĥãĥĹãĤ°ãĥ¬ãĥ¼ãĥīãģķãĤĮãģ¾ãģĹãģŁ": 4138,
      "ãģ®è¨Ńå®ļãģĮåĨįæ§ĭç¯īãģķãĤĮãģ¾ãģĹãģŁ": 4139,
      "ãģ®ãĤ¹ãĤ±ãĥ¼ãĥ©ãĥĵãĥªãĥĨãĤ£ãģĮå¼·åĮĸãģķãĤĮãģ¾ãģĹãģŁ": 4140,
      "ãģ®ä»ķæ§ĺãģĮæĭ¡å¼µãģķãĤĮãģ¾ãģĹãģŁ": 4141,
      "ãģ®ãĤ·ãĥªãĤ¢ãĥ©ãĤ¤ãĤ¼ãĥ¼ãĤ·ãĥ§ãĥ³ãģĮåĨįç·¨æĪĲãģķãĤĮãģ¾ãģĹãģŁ": 4142,
      "ãģ®ãĤ·ãĥªãĤ¢ãĥ©ãĤ¤ãĤ¼ãĥ¼ãĤ·ãĥ§ãĥ³ãģĮåĨįæ§ĭç¯īãģķãĤĮãģ¾ãģĹãģŁ": 4143,
      "ãģ®ãĤ¹ãĥ«ãĥ¼ãĥĹãĥĥãĥĪãģĮåĨįæ§ĭç¯īãģķãĤĮãģ¾ãģĹãģŁ": 4144,
      "ãģ®ãĤ¹ãĥ«ãĥ¼ãĥĹãĥĥãĥĪãģĮæĭ¡å¼µãģķãĤĮãģ¾ãģĹãģŁ": 4145,
      "ãģ®ãĤ¤ãĥ³ãĤ¿ãĥ¼ãĥķãĤ§ãĥ¼ãĤ¹ãģĮåĨįæ§ĭç¯īãģķãĤĮãģ¾ãģĹãģŁ": 4146,
      "ãģ®åĨįå¸°ãģĮçµ±åĲĪåĮĸãģķãĤĮãģ¾ãģĹãģŁ": 4147,
      "ãģ®åĨįå¸°ãģĮåĪ·æĸ°ãģķãĤĮãģ¾ãģĹãģŁ": 4148,
      "ãģ®åĨįå¸°ãģĮæľĢéģ©åĮĸãģķãĤĮãģ¾ãģĹãģŁ": 4149,
      "ãģ®åĨįå¸°ãģĮç°¡ç´łåĮĸãģķãĤĮãģ¾ãģĹãģŁ": 4150,
      "ãģ®ãĥĹãĥŃãĥĪãĤ³ãĥ«ãģĮçµ±åĲĪãģķãĤĮãģ¾ãģĹãģŁ": 4151,
      "ãģ®ä¸¦è¡ĮæĢ§ãģĮåĨįç·¨æĪĲãģķãĤĮãģ¾ãģĹãģŁ": 4152,
      "ãģ®å¤īæķ°ãģĮãĤ¢ãĥĥãĥĹãĤ°ãĥ¬ãĥ¼ãĥīãģķãĤĮãģ¾ãģĹãģŁ": 4153,
      "ãģ®ä¾ĿåŃĺæĢ§ãģĮåĨįç·¨æĪĲãģķãĤĮãģ¾ãģĹãģŁ": 4154,
      "ãģ®ä¾ĿåŃĺæĢ§ãģĮæĶ¹åĸĦãģķãĤĮãģ¾ãģĹãģŁ": 4155,
      "ãģ®ä¾ĿåŃĺæĢ§ãģĮç°¡ç´łåĮĸãģķãĤĮãģ¾ãģĹãģŁ": 4156,
      "ãģ®ãĥĲãĥªãĥĩãĥ¼ãĤ·ãĥ§ãĥ³ãģĮåĪ·æĸ°ãģķãĤĮãģ¾ãģĹãģŁ": 4157,
      "æĸ°ãģĹãģĦç¶Ļæī¿ãģ®ãĥªãĥªãĥ¼ãĤ¹ãĥİãĥ¼ãĥĪãĤĴç¢ºèªįãģĹãģ¾ãģĹãģŁ": 4158,
      "æĸ°ãģĹãģĦãĥĲãĥªãĥĩãĥ¼ãĤ·ãĥ§ãĥ³ãģ®ãĥªãĥªãĥ¼ãĤ¹ãĥİãĥ¼ãĥĪãĤĴç¢ºèªįãģĹãģ¾ãģĹãģŁ": 4159,
      "las": 4160,
      "2000": 4161,
      "æĸ°ãģĹãģĦä»ķæ§ĺ": 4162,
      "æĸ°ãģĹãģĦä¾ĿåŃĺæĢ§": 4163,
      "æĸ°ãģĹãģĦãĥĻãĥ³ãĥģãĥŀãĥ¼ãĤ¯": 4164,
      "µãĥ¼ãĥĵãĤ¹ãģ®ãĥªãĥªãĥ¼ãĤ¹ãĥİãĥ¼ãĥĪãĤĴç¢ºèªįãģĹãģ¾ãģĹãģŁ": 4165,
      "èªįè¨¼ãģ®æĶ¹åĸĦãģĮç´łæĻ´ãĤīãģĹãģĦãģ§ãģĻãģŃ": 4166,
      "ãģ®ãĥŃãĥ¼ãĥīãģĮåĨįç·¨æĪĲãģķãĤĮãģ¾ãģĹãģŁ": 4167,
      "ãģ®ãĥĳãĥ©ãĥ¡ãĥ¼ãĤ¿ãģĮåĲĪçĲĨåĮĸãģķãĤĮãģ¾ãģĹãģŁ": 4168,
      "ãģ®ãĥ¢ãĤ¸ãĥ¥ãĥ¼ãĥ«ãģĮåĨįè¨Ńè¨ĪãģķãĤĮãģ¾ãģĹãģŁ": 4169,
      "ãģ®ãĥŁãĥīãĥ«ãĤ¦ãĤ§ãĤ¢ãģĮåĨįç·¨æĪĲãģķãĤĮãģ¾ãģĹãģŁ": 4170,
      "ãģ®ãĥĩãĥĹãĥŃãĤ¤ãģĮæĶ¹åĸĦãģķãĤĮãģ¾ãģĹãģŁ": 4171,
      "ãģ®ãĥĩãĥĹãĥŃãĤ¤ãģĮåĪ·æĸ°ãģķãĤĮãģ¾ãģĹãģŁ": 4172,
      "ãģ®ãĥķãĥ¬ãĥ¼ãĥłãĥ¯ãĥ¼ãĤ¯ãģĮåĨįç·¨æĪĲãģķãĤĮãģ¾ãģĹãģŁ": 4173,
      "ãģ®ãĥĳãĤ¤ãĥĹãĥ©ãĤ¤ãĥ³ãģĮåĪ·æĸ°ãģķãĤĮãģ¾ãģĹãģŁ": 4174,
      "ãģ®ãĥĳãĤ¤ãĥĹãĥ©ãĤ¤ãĥ³ãģĮæ¨ĻæºĸåĮĸãģķãĤĮãģ¾ãģĹãģŁ": 4175,
      "ãģ®ãĥĩãĥ¼ãĤ¿ãĥĻãĥ¼ãĤ¹ãģĮåĲĪçĲĨåĮĸãģķãĤĮãģ¾ãģĹãģŁ": 4176,
      "ãģ®ãĥĩãĥ¼ãĤ¿ãĥĻãĥ¼ãĤ¹ãģĮç°¡ç´łåĮĸãģķãĤĮãģ¾ãģĹãģŁ": 4177,
      "ãģ®æ©Łèĥ½ãģĮåĨįæ§ĭç¯īãģķãĤĮãģ¾ãģĹãģŁ": 4178,
      "ãģ®ãĤ¯ãĤ¨ãĥªãģĮæľĢéģ©åĮĸãģķãĤĮãģ¾ãģĹãģŁ": 4179,
      "ãģ®ãĤ¯ãĤ¨ãĥªãģĮçµ±åĲĪãģķãĤĮãģ¾ãģĹãģŁ": 4180,
      "ãģ®ãĤ³ãĥ³ãĥĿãĥ¼ãĥįãĥ³ãĥĪãģĮåĨįç·¨æĪĲãģķãĤĮãģ¾ãģĹãģŁ": 4181,
      "ãģ®ãĤ³ãĥ³ãĥĨãĥĬãģĮãĤ¢ãĥĥãĥĹãĤ°ãĥ¬ãĥ¼ãĥīãģķãĤĮãģ¾ãģĹãģŁ": 4182,
      "ãģ®ãĤ³ãĥ³ãĥĳãĤ¤ãĥ©ãģĮè¿ĳä»£åĮĸãģķãĤĮãģ¾ãģĹãģŁ": 4183,
      "ãģ®ãĤ»ãĥĥãĤ·ãĥ§ãĥ³ãģĮåĨįç·¨æĪĲãģķãĤĮãģ¾ãģĹãģŁ": 4184,
      "ãģ®ãĤ»ãĥĥãĤ·ãĥ§ãĥ³ãģĮãĤ¢ãĥĥãĥĹãĤ°ãĥ¬ãĥ¼ãĥīãģķãĤĮãģ¾ãģĹãģŁ": 4185,
      "ãģ®ãĤµãĥ¼ãĥĵãĤ¹ãģĮç°¡ç´łåĮĸãģķãĤĮãģ¾ãģĹãģŁ": 4186,
      "ãģ®ãĤµãĥ¼ãĥĵãĤ¹ãģĮçµ±åĲĪãģķãĤĮãģ¾ãģĹãģŁ": 4187,
      "ãģ®ãĤŃãĥ£ãĥĥãĤ·ãĥ¥ãģĮãĤ¢ãĥĥãĥĹãĤ°ãĥ¬ãĥ¼ãĥīãģķãĤĮãģ¾ãģĹãģŁ": 4188,
      "ãģ®ãĤŃãĥ£ãĥĥãĤ·ãĥ¥ãģĮæ¨ĻæºĸåĮĸãģķãĤĮãģ¾ãģĹãģŁ": 4189,
      "ãģ®ãĤŃãĥ£ãĥĥãĤ·ãĥ¥ãģĮç°¡ç´łåĮĸãģķãĤĮãģ¾ãģĹãģŁ": 4190,
      "ãģ®ãĤªãĥ¼ãĥĲãĥ¼ãĥĺãĥĥãĥīãģĮåĨįè¨Ńè¨ĪãģķãĤĮãģ¾ãģĹãģŁ": 4191,
      "ãģ®ãĤªãĥ¼ãĥĲãĥ¼ãĥĺãĥĥãĥīãģĮåĲĪçĲĨåĮĸãģķãĤĮãģ¾ãģĹãģŁ": 4192,
      "ãģ®ãĤªãĥ¼ãĥĲãĥ¼ãĥĺãĥĥãĥīãģĮæĭ¡å¼µãģķãĤĮãģ¾ãģĹãģŁ": 4193,
      "ãģ®ãĤ«ãĥ¼ãĥįãĥ«ãģĮåĨįè¨Ńè¨ĪãģķãĤĮãģ¾ãģĹãģŁ": 4194,
      "ãģ®ãĤ«ãĥ¼ãĥįãĥ«ãģĮãĤ¢ãĥĥãĥĹãĤ°ãĥ¬ãĥ¼ãĥīãģķãĤĮãģ¾ãģĹãģŁ": 4195,
      "ãģ®ä¸¦åĪĹæĢ§ãģĮãĤ¢ãĥĥãĥĹãĤ°ãĥ¬ãĥ¼ãĥīãģķãĤĮãģ¾ãģĹãģŁ": 4196,
      "ãģ®ä¸¦åĪĹæĢ§ãģĮå¼·åĮĸãģķãĤĮãģ¾ãģĹãģŁ": 4197,
      "ãģ®ä¸¦åĪĹæĢ§ãģĮçµ±åĲĪãģķãĤĮãģ¾ãģĹãģŁ": 4198,
      "ãģ®èĦĨå¼±æĢ§ãģĮåĪ·æĸ°ãģķãĤĮãģ¾ãģĹãģŁ": 4199,
      "ãģ®å¸¯åŁŁå¹ħãģĮæĶ¹åĸĦãģķãĤĮãģ¾ãģĹãģŁ": 4200,
      "ãģ®å¸¯åŁŁå¹ħãģĮåĨįæ§ĭç¯īãģķãĤĮãģ¾ãģĹãģŁ": 4201,
      "ãģ®å¸¯åŁŁå¹ħãģĮç°¡ç´łåĮĸãģķãĤĮãģ¾ãģĹãģŁ": 4202,
      "ãģ®ãĤ¨ãĥ³ãĥīãĥĿãĤ¤ãĥ³ãĥĪãģĮçµ±åĲĪåĮĸãģķãĤĮãģ¾ãģĹãģŁ": 4203,
      "ãģ®ãĤ¨ãĥ³ãĥīãĥĿãĤ¤ãĥ³ãĥĪãģĮåĨįæ§ĭç¯īãģķãĤĮãģ¾ãģĹãģŁ": 4204,
      "ãģ®ç¶Ļæī¿ãģĮåĲĪçĲĨåĮĸãģķãĤĮãģ¾ãģĹãģŁ": 4205,
      "ãģ®ãĤ¢ãĥ«ãĤ´ãĥªãĤºãĥłãģĮåĲĪçĲĨåĮĸãģķãĤĮãģ¾ãģĹãģŁ": 4206,
      "ãģ®ä»®æĥ³åĮĸãģĮæĭ¡å¼µãģķãĤĮãģ¾ãģĹãģŁ": 4207,
      "ãģ®ãĥªãĥĿãĤ¸ãĥĪãĥªãģĮå¼·åĮĸãģķãĤĮãģ¾ãģĹãģŁ": 4208,
      "ãģ®åı¯çĶ¨æĢ§ãģĮæ¨ĻæºĸåĮĸãģķãĤĮãģ¾ãģĹãģŁ": 4209,
      "ãģ®åı¯çĶ¨æĢ§ãģĮæĭ¡å¼µãģķãĤĮãģ¾ãģĹãģŁ": 4210,
      "ãģ®è¨Ńå®ļãģĮæ¨ĻæºĸåĮĸãģķãĤĮãģ¾ãģĹãģŁ": 4211,
      "ãģ®ãĤ¹ãĤ±ãĥ¼ãĥ©ãĥĵãĥªãĥĨãĤ£ãģĮåĨįæ§ĭç¯īãģķãĤĮãģ¾ãģĹãģŁ": 4212,
      "ãģ®ãĤ¹ãĤŃãĥ¼ãĥŀãģĮåĨįç·¨æĪĲãģķãĤĮãģ¾ãģĹãģŁ": 4213,
      "ãģ®ãĤ¹ãĤŃãĥ¼ãĥŀãģĮãĤ¢ãĥĥãĥĹãĤ°ãĥ¬ãĥ¼ãĥīãģķãĤĮãģ¾ãģĹãģŁ": 4214,
      "ãģ®ãĤ¹ãĤŃãĥ¼ãĥŀãģĮåĨįæ§ĭç¯īãģķãĤĮãģ¾ãģĹãģŁ": 4215,
      "ãģ®ä»ķæ§ĺãģĮå¼·åĮĸãģķãĤĮãģ¾ãģĹãģŁ": 4216,
      "ãģ®ãĤ·ãĥªãĤ¢ãĥ©ãĤ¤ãĤ¼ãĥ¼ãĤ·ãĥ§ãĥ³ãģĮæľĢéģ©åĮĸãģķãĤĮãģ¾ãģĹãģŁ": 4217,
      "ãģ®ãĥĪãĥ¼ãĤ¯ãĥĬãĤ¤ãĤ¶ãĥ¼ãģĮæ¨ĻæºĸåĮĸãģķãĤĮãģ¾ãģĹãģŁ": 4218,
      "ãģ®ãĥĪãĥ¼ãĤ¯ãĥĬãĤ¤ãĤ¶ãĥ¼ãģĮè¿ĳä»£åĮĸãģķãĤĮãģ¾ãģĹãģŁ": 4219,
      "ãģ®ãĤ¤ãĥ³ãĤ¿ãĥ¼ãĥķãĤ§ãĥ¼ãĤ¹ãģĮçµ±åĲĪåĮĸãģķãĤĮãģ¾ãģĹãģŁ": 4220,
      "ãģ®ãĤ¤ãĥ³ãĤ¿ãĥ¼ãĥķãĤ§ãĥ¼ãĤ¹ãģĮåĪ·æĸ°ãģķãĤĮãģ¾ãģĹãģŁ": 4221,
      "ãģ®åĲĮæľŁãģĮåĨįè¨Ńè¨ĪãģķãĤĮãģ¾ãģĹãģŁ": 4222,
      "ãģ®åĲĮæľŁãģĮè¿ĳä»£åĮĸãģķãĤĮãģ¾ãģĹãģŁ": 4223,
      "ãģ®ãĥĪãĥ©ãĥ³ãĤ¶ãĤ¯ãĤ·ãĥ§ãĥ³ãģĮåĨįç·¨æĪĲãģķãĤĮãģ¾ãģĹãģŁ": 4224,
      "ãģ®ãĥĪãĥ©ãĥ³ãĤ¶ãĤ¯ãĤ·ãĥ§ãĥ³ãģĮåĲĪçĲĨåĮĸãģķãĤĮãģ¾ãģĹãģŁ": 4225,
      "ãģ®ä¾ĿåŃĺæĢ§ãģĮæľĢéģ©åĮĸãģķãĤĮãģ¾ãģĹãģŁ": 4226,
      "ãģ®ãĥ©ãĤ¤ãĥĸãĥ©ãĥªãģĮåĨįæ§ĭç¯īãģķãĤĮãģ¾ãģĹãģŁ": 4227,
      "ãģ®ãĥĲãĥªãĥĩãĥ¼ãĤ·ãĥ§ãĥ³ãģĮåĨįè¨Ńè¨ĪãģķãĤĮãģ¾ãģĹãģŁ": 4228,
      "æĸ°ãģĹãģĦãĤµãĥ¼ãĥĵãĤ¹ãģ®ãĥªãĥªãĥ¼ãĤ¹ãĥİãĥ¼ãĥĪãĤĴç¢ºèªįãģĹãģ¾ãģĹãģŁ": 4229,
      "æĸ°ãģĹãģĦä»ķæ§ĺãģ®ãĥªãĥªãĥ¼ãĤ¹ãĥİãĥ¼ãĥĪãĤĴç¢ºèªįãģĹãģ¾ãģĹãģŁ": 4230,
      "æĸ°ãģĹãģĦä¾ĿåŃĺæĢ§ãģ®ãĥªãĥªãĥ¼ãĤ¹ãĥİãĥ¼ãĥĪãĤĴç¢ºèªįãģĹãģ¾ãģĹãģŁ": 4231,
      "æĸ°ãģĹãģĦãĥĻãĥ³ãĥģãĥŀãĥ¼ãĤ¯ãģ®ãĥªãĥªãĥ¼ãĤ¹ãĥİãĥ¼ãĥĪãĤĴç¢ºèªįãģĹãģ¾ãģĹãģŁ": 4232,
      "Ġ24": 4233,
      "ãģ®ãĥ¬ãĤ¤ãĥĨãĥ³ãĤ·ãģĮå¼·åĮĸãģķãĤĮãģ¾ãģĹãģŁ": 4234,
      "ãģ®ãĥ¢ãĤ¸ãĥ¥ãĥ¼ãĥ«ãģĮåĨįæ§ĭç¯īãģķãĤĮãģ¾ãģĹãģŁ": 4235,
      "ãģ®æļĹåı·åĮĸãģĮæľĢéģ©åĮĸãģķãĤĮãģ¾ãģĹãģŁ": 4236,
      "ãģ®æļĹåı·åĮĸãģĮç°¡ç´łåĮĸãģķãĤĮãģ¾ãģĹãģŁ": 4237,
      "ãģ®ãĥĩãĥĲãĥĥãĤ°ãģĮåĪ·æĸ°ãģķãĤĮãģ¾ãģĹãģŁ": 4238,
      "ãģ®ãĥĩãĥĹãĥŃãĤ¤ãģĮæ¨ĻæºĸåĮĸãģķãĤĮãģ¾ãģĹãģŁ": 4239,
      "ãģ®ãĥķãĥ¬ãĥ¼ãĥłãĥ¯ãĥ¼ãĤ¯ãģĮæ¨ĻæºĸåĮĸãģķãĤĮãģ¾ãģĹãģŁ": 4240,
      "ãģ®ãĥķãĥ¬ãĥ¼ãĥłãĥ¯ãĥ¼ãĤ¯ãģĮç°¡ç´łåĮĸãģķãĤĮãģ¾ãģĹãģŁ": 4241,
      "ãģ®ãĥĩãĥ¼ãĤ¿ãĥĻãĥ¼ãĤ¹ãģĮçµ±åĲĪåĮĸãģķãĤĮãģ¾ãģĹãģŁ": 4242,
      "ãģ®ãĥĩãĥ¼ãĤ¿ãĥĻãĥ¼ãĤ¹ãģĮçµ±åĲĪãģķãĤĮãģ¾ãģĹãģŁ": 4243,
      "ãģ®ãĥĳãĥķãĤ©ãĥ¼ãĥŀãĥ³ãĤ¹ãģĮçµ±åĲĪåĮĸãģķãĤĮãģ¾ãģĹãģŁ": 4244,
      "ãģ®ãĤ¯ãĤ¨ãĥªãģĮæĶ¹åĸĦãģķãĤĮãģ¾ãģĹãģŁ": 4245,
      "ãģ®ãĤ¯ãĤ¨ãĥªãģĮè¿ĳä»£åĮĸãģķãĤĮãģ¾ãģĹãģŁ": 4246,
      "ãģ®ãĤ¯ãĤ¨ãĥªãģĮç°¡ç´łåĮĸãģķãĤĮãģ¾ãģĹãģŁ": 4247,
      "ãģ®ãĤ³ãĥ³ãĥĿãĥ¼ãĥįãĥ³ãĥĪãģĮæľĢéģ©åĮĸãģķãĤĮãģ¾ãģĹãģŁ": 4248,
      "ãģ®ãĤ³ãĥ³ãĥĨãĥĬãģĮåĨįç·¨æĪĲãģķãĤĮãģ¾ãģĹãģŁ": 4249,
      "ãģ®ãĤ³ãĥ³ãĥĨãĥĬãģĮåĨįæ§ĭç¯īãģķãĤĮãģ¾ãģĹãģŁ": 4250,
      "ãģ®ãĤ³ãĥ³ãĥĳãĤ¤ãĥ©ãģĮåĨįç·¨æĪĲãģķãĤĮãģ¾ãģĹãģŁ": 4251,
      "ãģ®ãĤ»ãĥĥãĤ·ãĥ§ãĥ³ãģĮçµ±åĲĪãģķãĤĮãģ¾ãģĹãģŁ": 4252,
      "ãģ®ãĤµãĥ¼ãĥĵãĤ¹ãģĮåĨįè¨Ńè¨ĪãģķãĤĮãģ¾ãģĹãģŁ": 4253,
      "ãģ®ãĤŃãĥ£ãĥĥãĤ·ãĥ¥ãģĮæĭ¡å¼µãģķãĤĮãģ¾ãģĹãģŁ": 4254,
      "ãģ®ãĤªãĥ¼ãĥĲãĥ¼ãĥĺãĥĥãĥīãģĮåĨįç·¨æĪĲãģķãĤĮãģ¾ãģĹãģŁ": 4255,
      "ãģ®èĦĨå¼±æĢ§ãģĮçµ±åĲĪåĮĸãģķãĤĮãģ¾ãģĹãģŁ": 4256,
      "ãģ®åĲįåīįç©ºéĸĵãģĮæ¨ĻæºĸåĮĸãģķãĤĮãģ¾ãģĹãģŁ": 4257,
      "ãģ®ãĤ«ãĥĹãĤ»ãĥ«åĮĸãģĮæľĢéģ©åĮĸãģķãĤĮãģ¾ãģĹãģŁ": 4258,
      "ãģ®å¸¯åŁŁå¹ħãģĮãĤ¢ãĥĥãĥĹãĤ°ãĥ¬ãĥ¼ãĥīãģķãĤĮãģ¾ãģĹãģŁ": 4259,
      "ãģ®å¸¯åŁŁå¹ħãģĮçµ±åĲĪåĮĸãģķãĤĮãģ¾ãģĹãģŁ": 4260,
      "ãģ®å¸¯åŁŁå¹ħãģĮåĪ·æĸ°ãģķãĤĮãģ¾ãģĹãģŁ": 4261,
      "ãģ®å¸¯åŁŁå¹ħãģĮæĭ¡å¼µãģķãĤĮãģ¾ãģĹãģŁ": 4262,
      "ãģ®å¸¯åŁŁå¹ħãģĮè¿ĳä»£åĮĸãģķãĤĮãģ¾ãģĹãģŁ": 4263,
      "ãģ®ãĤ¨ãĥ³ãĥīãĥĿãĤ¤ãĥ³ãĥĪãģĮåĨįè¨Ńè¨ĪãģķãĤĮãģ¾ãģĹãģŁ": 4264,
      "ãģ®ãĤ¨ãĥ³ãĥīãĥĿãĤ¤ãĥ³ãĥĪãģĮåĲĪçĲĨåĮĸãģķãĤĮãģ¾ãģĹãģŁ": 4265,
      "ãģ®ç¶Ļæī¿ãģĮçµ±åĲĪåĮĸãģķãĤĮãģ¾ãģĹãģŁ": 4266,
      "ãģ®ãĤ¢ãĥ«ãĤ´ãĥªãĤºãĥłãģĮæľĢéģ©åĮĸãģķãĤĮãģ¾ãģĹãģŁ": 4267,
      "ãģ®ãĤ¢ãĥ«ãĤ´ãĥªãĤºãĥłãģĮå¼·åĮĸãģķãĤĮãģ¾ãģĹãģŁ": 4268,
      "ãģ®ä¿¡éł¼æĢ§ãģĮæľĢéģ©åĮĸãģķãĤĮãģ¾ãģĹãģŁ": 4269,
      "ãģ®ä»®æĥ³åĮĸãģĮç°¡ç´łåĮĸãģķãĤĮãģ¾ãģĹãģŁ": 4270,
      "ãģ®ãĥªãĥĿãĤ¸ãĥĪãĥªãģĮçµ±åĲĪåĮĸãģķãĤĮãģ¾ãģĹãģŁ": 4271,
      "ãģ®ãĥªãĥĿãĤ¸ãĥĪãĥªãģĮåĪ·æĸ°ãģķãĤĮãģ¾ãģĹãģŁ": 4272,
      "ãģ®ãĥªãĥĿãĤ¸ãĥĪãĥªãģĮåĲĪçĲĨåĮĸãģķãĤĮãģ¾ãģĹãģŁ": 4273,
      "ãģ®åı¯çĶ¨æĢ§ãģĮåĪ·æĸ°ãģķãĤĮãģ¾ãģĹãģŁ": 4274,
      "ãģ®è¨Ńå®ļãģĮãĤ¢ãĥĥãĥĹãĤ°ãĥ¬ãĥ¼ãĥīãģķãĤĮãģ¾ãģĹãģŁ": 4275,
      "ãģ®è¨Ńå®ļãģĮçµ±åĲĪåĮĸãģķãĤĮãģ¾ãģĹãģŁ": 4276,
      "ãģ®è¨Ńå®ļãģĮåĪ·æĸ°ãģķãĤĮãģ¾ãģĹãģŁ": 4277,
      "ãģ®èªįåı¯ãģĮãĤ¢ãĥĥãĥĹãĤ°ãĥ¬ãĥ¼ãĥīãģķãĤĮãģ¾ãģĹãģŁ": 4278,
      "ãģ®ãĤ¹ãĤ±ãĥ¼ãĥ©ãĥĵãĥªãĥĨãĤ£ãģĮæĭ¡å¼µãģķãĤĮãģ¾ãģĹãģŁ": 4279,
      "ãģ®ãĤ¹ãĤ±ãĥ¼ãĥ©ãĥĵãĥªãĥĨãĤ£ãģĮè¿ĳä»£åĮĸãģķãĤĮãģ¾ãģĹãģŁ": 4280,
      "ãģ®ãĤ¹ãĤŃãĥ¼ãĥŀãģĮæ¨ĻæºĸåĮĸãģķãĤĮãģ¾ãģĹãģŁ": 4281,
      "ãģ®ãĤ¹ãĤŃãĥ¼ãĥŀãģĮè¿ĳä»£åĮĸãģķãĤĮãģ¾ãģĹãģŁ": 4282,
      "ãģ®ä»ķæ§ĺãģĮåĨįç·¨æĪĲãģķãĤĮãģ¾ãģĹãģŁ": 4283,
      "ãģ®ãĤ¹ãĥ«ãĥ¼ãĥĹãĥĥãĥĪãģĮåĨįè¨Ńè¨ĪãģķãĤĮãģ¾ãģĹãģŁ": 4284,
      "ãģ®ãĥĪãĥ¼ãĤ¯ãĥĬãĤ¤ãĤ¶ãĥ¼ãģĮåĨįç·¨æĪĲãģķãĤĮãģ¾ãģĹãģŁ": 4285,
      "ãģ®ãĤ¤ãĥ³ãĤ¿ãĥ¼ãĥķãĤ§ãĥ¼ãĤ¹ãģĮæĶ¹åĸĦãģķãĤĮãģ¾ãģĹãģŁ": 4286,
      "ãģ®åĨįå¸°ãģĮåĨįè¨Ńè¨ĪãģķãĤĮãģ¾ãģĹãģŁ": 4287,
      "ãģ®åĲĮæľŁãģĮåĲĪçĲĨåĮĸãģķãĤĮãģ¾ãģĹãģŁ": 4288,
      "ãģ®ãĥĪãĥ©ãĥ³ãĤ¶ãĤ¯ãĤ·ãĥ§ãĥ³ãģĮå¼·åĮĸãģķãĤĮãģ¾ãģĹãģŁ": 4289,
      "ãģ®ä¸¦è¡ĮæĢ§ãģĮæ¨ĻæºĸåĮĸãģķãĤĮãģ¾ãģĹãģŁ": 4290,
      "ãģ®å¤īæķ°ãģĮåĨįç·¨æĪĲãģķãĤĮãģ¾ãģĹãģŁ": 4291,
      "ãģ®å¤īæķ°ãģĮå¼·åĮĸãģķãĤĮãģ¾ãģĹãģŁ": 4292,
      "ãģ®ãĤ·ãĤ¹ãĥĨãĥłãģĮåĪ·æĸ°ãģķãĤĮãģ¾ãģĹãģŁ": 4293,
      "ãģ®ãĤ·ãĤ¹ãĥĨãĥłãģĮè¿ĳä»£åĮĸãģķãĤĮãģ¾ãģĹãģŁ": 4294,
      "ãģ®ãĤ¢ãĥ¼ãĤŃãĥĨãĤ¯ãĥģãĥ£ãģĮæĭ¡å¼µãģķãĤĮãģ¾ãģĹãģŁ": 4295,
      "ãģ®èªįè¨¼ãģĮåĨįæ§ĭç¯īãģķãĤĮãģ¾ãģĹãģŁ": 4296,
      "ãģ®èªįè¨¼ãģĮåĲĪçĲĨåĮĸãģķãĤĮãģ¾ãģĹãģŁ": 4297,
      "ãģ®ãĥĲãĥĥãĥķãĤ¡ãģĮæĶ¹åĸĦãģķãĤĮãģ¾ãģĹãģŁ": 4298,
      "ä¿Ŀå®ĪæĢ§ãģ®æĶ¹åĸĦãģĮç´łæĻ´ãĤīãģĹãģĦãģ§ãģĻãģŃ": 4299,
      "ãģ®ãĥ¢ãĤ¸ãĥ¥ãĥ¼ãĥ«ãģĮçµ±åĲĪãģķãĤĮãģ¾ãģĹãģŁ": 4300,
      "ãģ®æļĹåı·åĮĸãģĮåĨįç·¨æĪĲãģķãĤĮãģ¾ãģĹãģŁ": 4301,
      "ãģ®æļĹåı·åĮĸãģĮåĪ·æĸ°ãģķãĤĮãģ¾ãģĹãģŁ": 4302,
      "ãģ®æļĹåı·åĮĸãģĮåĨįæ§ĭç¯īãģķãĤĮãģ¾ãģĹãģŁ": 4303,
      "ãģ®ãĥŁãĥīãĥ«ãĤ¦ãĤ§ãĤ¢ãģĮæĭ¡å¼µãģķãĤĮãģ¾ãģĹãģŁ": 4304,
      "ãģ®ãĥĩãĥĲãĥĥãĤ°ãģĮåĨįæ§ĭç¯īãģķãĤĮãģ¾ãģĹãģŁ": 4305,
      "ãģ®ãĥĩãĥĲãĥĥãĤ°ãģĮåĲĪçĲĨåĮĸãģķãĤĮãģ¾ãģĹãģŁ": 4306,
      "ãģ®ãĥĻãĥ³ãĥģãĥŀãĥ¼ãĤ¯ãģĮæ¨ĻæºĸåĮĸãģķãĤĮãģ¾ãģĹãģŁ": 4307,
      "ãģ®ãĥĻãĥ³ãĥģãĥŀãĥ¼ãĤ¯ãģĮç°¡ç´łåĮĸãģķãĤĮãģ¾ãģĹãģŁ": 4308,
      "ãģ®ãĥĩãĥĹãĥŃãĤ¤ãģĮåĨįæ§ĭç¯īãģķãĤĮãģ¾ãģĹãģŁ": 4309,
      "ãģ®ãĥĩãĥĹãĥŃãĤ¤ãģĮæĭ¡å¼µãģķãĤĮãģ¾ãģĹãģŁ": 4310,
      "ãģ®ãĥĩãĥĹãĥŃãĤ¤ãģĮè¿ĳä»£åĮĸãģķãĤĮãģ¾ãģĹãģŁ": 4311,
      "ãģ®ãĥĳãĤ¤ãĥĹãĥ©ãĤ¤ãĥ³ãģĮæĭ¡å¼µãģķãĤĮãģ¾ãģĹãģŁ": 4312,
      "ãģ®ãĥĳãĤ¤ãĥĹãĥ©ãĤ¤ãĥ³ãģĮç°¡ç´łåĮĸãģķãĤĮãģ¾ãģĹãģŁ": 4313,
      "ãģ®æ©Łèĥ½ãģĮå¼·åĮĸãģķãĤĮãģ¾ãģĹãģŁ": 4314,
      "ãģ®æľĢéģ©åĮĸãģĮç°¡ç´łåĮĸãģķãĤĮãģ¾ãģĹãģŁ": 4315,
      "ãģ®ãĤ³ãĥ³ãĥĳãĤ¤ãĥ©ãģĮæĭ¡å¼µãģķãĤĮãģ¾ãģĹãģŁ": 4316,
      "ãģ®ãĤµãĥ¼ãĥĵãĤ¹ãģĮãĤ¢ãĥĥãĥĹãĤ°ãĥ¬ãĥ¼ãĥīãģķãĤĮãģ¾ãģĹãģŁ": 4317,
      "ãģ®ãĤŃãĥ£ãĥĥãĤ·ãĥ¥ãģĮåĨįæ§ĭç¯īãģķãĤĮãģ¾ãģĹãģŁ": 4318,
      "ãģ®ãĤªãĥ¼ãĥĲãĥ¼ãĥĺãĥĥãĥīãģĮçµ±åĲĪåĮĸãģķãĤĮãģ¾ãģĹãģŁ": 4319,
      "ãģ®ãĤªãĥ¼ãĥĲãĥ¼ãĥĺãĥĥãĥīãģĮæľĢéģ©åĮĸãģķãĤĮãģ¾ãģĹãģŁ": 4320,
      "ãģ®èĦĨå¼±æĢ§ãģĮå¼·åĮĸãģķãĤĮãģ¾ãģĹãģŁ": 4321,
      "ãģ®ãĤ«ãĥĹãĤ»ãĥ«åĮĸãģĮçµ±åĲĪãģķãĤĮãģ¾ãģĹãģŁ": 4322,
      "ãģ®ç¶Ļæī¿ãģĮåĨįç·¨æĪĲãģķãĤĮãģ¾ãģĹãģŁ": 4323,
      "ãģ®ç¶Ļæī¿ãģĮåĪ·æĸ°ãģķãĤĮãģ¾ãģĹãģŁ": 4324,
      "ãģ®ç¶Ļæī¿ãģĮç°¡ç´łåĮĸãģķãĤĮãģ¾ãģĹãģŁ": 4325,
      "ãģ®ãĤ¢ãĥ«ãĤ´ãĥªãĤºãĥłãģĮçµ±åĲĪãģķãĤĮãģ¾ãģĹãģŁ": 4326,
      "ãģ®ä¿¡éł¼æĢ§ãģĮåĨįè¨Ńè¨ĪãģķãĤĮãģ¾ãģĹãģŁ": 4327,
      "ãģ®ä¿¡éł¼æĢ§ãģĮåĲĪçĲĨåĮĸãģķãĤĮãģ¾ãģĹãģŁ": 4328,
      "ãģ®ä¿¡éł¼æĢ§ãģĮæĭ¡å¼µãģķãĤĮãģ¾ãģĹãģŁ": 4329,
      "ãģ®ãĥªãĥĿãĤ¸ãĥĪãĥªãģĮåĨįç·¨æĪĲãģķãĤĮãģ¾ãģĹãģŁ": 4330,
      "ãģ®ãĥªãĥĿãĤ¸ãĥĪãĥªãģĮãĤ¢ãĥĥãĥĹãĤ°ãĥ¬ãĥ¼ãĥīãģķãĤĮãģ¾ãģĹãģŁ": 4331,
      "ãģ®ãĥªãĥĿãĤ¸ãĥĪãĥªãģĮæĶ¹åĸĦãģķãĤĮãģ¾ãģĹãģŁ": 4332,
      "ãģ®ãĤ¹ãĤŃãĥ¼ãĥŀãģĮçµ±åĲĪåĮĸãģķãĤĮãģ¾ãģĹãģŁ": 4333,
      "ãģ®ä»ķæ§ĺãģĮåĲĪçĲĨåĮĸãģķãĤĮãģ¾ãģĹãģŁ": 4334,
      "ãģ®ãĤ¤ãĥ³ãĤ¿ãĥ¼ãĥķãĤ§ãĥ¼ãĤ¹ãģĮåĨįè¨Ńè¨ĪãģķãĤĮãģ¾ãģĹãģŁ": 4335,
      "ãģ®ãĤ¤ãĥ³ãĤ¿ãĥ¼ãĥķãĤ§ãĥ¼ãĤ¹ãģĮçµ±åĲĪãģķãĤĮãģ¾ãģĹãģŁ": 4336,
      "ãģ®ãĤ·ãĤ¹ãĥĨãĥłãģĮæľĢéģ©åĮĸãģķãĤĮãģ¾ãģĹãģŁ": 4337,
      "ãģ®ãĥ©ãĤ¤ãĥĸãĥ©ãĥªãģĮç°¡ç´łåĮĸãģķãĤĮãģ¾ãģĹãģŁ": 4338,
      "ãģ®ãĤ¢ãĥ¼ãĤŃãĥĨãĤ¯ãĥģãĥ£ãģĮçµ±åĲĪåĮĸãģķãĤĮãģ¾ãģĹãģŁ": 4339,
      "ãģ®ãĤ¤ãĥĨãĥ¬ãĥ¼ãĤ·ãĥ§ãĥ³ãģĮçµ±åĲĪåĮĸãģķãĤĮãģ¾ãģĹãģŁ": 4340,
      "ãģ®ãĤ¤ãĥĨãĥ¬ãĥ¼ãĤ·ãĥ§ãĥ³ãģĮå¼·åĮĸãģķãĤĮãģ¾ãģĹãģŁ": 4341,
      "ãģ®ãĥĲãĥªãĥĩãĥ¼ãĤ·ãĥ§ãĥ³ãģĮè¿ĳä»£åĮĸãģķãĤĮãģ¾ãģĹãģŁ": 4342,
      "ãģ®èªįè¨¼ãģĮãĤ¢ãĥĥãĥĹãĤ°ãĥ¬ãĥ¼ãĥīãģķãĤĮãģ¾ãģĹãģŁ": 4343,
      "ãģ®èªįè¨¼ãģĮæ¨ĻæºĸåĮĸãģķãĤĮãģ¾ãģĹãģŁ": 4344,
      "ãģ®ãĥĲãĥĥãĥķãĤ¡ãģĮæĭ¡å¼µãģķãĤĮãģ¾ãģĹãģŁ": 4345,
      "Ġraise": 4346,
      "ãģ®ãĥŃãĥ¼ãĥīãģĮæĶ¹åĸĦãģķãĤĮãģ¾ãģĹãģŁ": 4347,
      "ãģ®ãĥ¬ãĤ¤ãĥĨãĥ³ãĤ·ãģĮåĨįç·¨æĪĲãģķãĤĮãģ¾ãģĹãģŁ": 4348,
      "ãģ®ãĥ¬ãĤ¤ãĥĨãĥ³ãĤ·ãģĮæľĢéģ©åĮĸãģķãĤĮãģ¾ãģĹãģŁ": 4349,
      "ãģ®ãĥĳãĥ©ãĥ¡ãĥ¼ãĤ¿ãģĮæĶ¹åĸĦãģķãĤĮãģ¾ãģĹãģŁ": 4350,
      "ãģ®ãĥŁãĥīãĥ«ãĤ¦ãĤ§ãĤ¢ãģĮãĤ¢ãĥĥãĥĹãĤ°ãĥ¬ãĥ¼ãĥīãģķãĤĮãģ¾ãģĹãģŁ": 4351,
      "ãģ®ãĥĩãĥĲãĥĥãĤ°ãģĮåĨįè¨Ńè¨ĪãģķãĤĮãģ¾ãģĹãģŁ": 4352,
      "ãģ®ãĥĩãĥĲãĥĥãĤ°ãģĮå¼·åĮĸãģķãĤĮãģ¾ãģĹãģŁ": 4353,
      "ãģ®ãĥĻãĥ³ãĥģãĥŀãĥ¼ãĤ¯ãģĮãĤ¢ãĥĥãĥĹãĤ°ãĥ¬ãĥ¼ãĥīãģķãĤĮãģ¾ãģĹãģŁ": 4354,
      "ãģ®ãĥķãĥ¬ãĥ¼ãĥłãĥ¯ãĥ¼ãĤ¯ãģĮå¼·åĮĸãģķãĤĮãģ¾ãģĹãģŁ": 4355,
      "ãģ®ãĥĩãĥ¼ãĤ¿ãĥĻãĥ¼ãĤ¹ãģĮåĨįç·¨æĪĲãģķãĤĮãģ¾ãģĹãģŁ": 4356,
      "ãģ®ãĥĩãĥ¼ãĤ¿ãĥĻãĥ¼ãĤ¹ãģĮåĨįæ§ĭç¯īãģķãĤĮãģ¾ãģĹãģŁ": 4357,
      "ãģ®ãĥĳãĥķãĤ©ãĥ¼ãĥŀãĥ³ãĤ¹ãģĮãĤ¢ãĥĥãĥĹãĤ°ãĥ¬ãĥ¼ãĥīãģķãĤĮãģ¾ãģĹãģŁ": 4358,
      "ãģ®ãĥĳãĥķãĤ©ãĥ¼ãĥŀãĥ³ãĤ¹ãģĮæ¨ĻæºĸåĮĸãģķãĤĮãģ¾ãģĹãģŁ": 4359,
      "ãģ®ãĥĿãĥªãĥ¢ãĥ¼ãĥķãĤ£ãĤºãĥłãģĮæ¨ĻæºĸåĮĸãģķãĤĮãģ¾ãģĹãģŁ": 4360,
      "ãģ®ãĥĿãĥªãĥ¢ãĥ¼ãĥķãĤ£ãĤºãĥłãģĮæľĢéģ©åĮĸãģķãĤĮãģ¾ãģĹãģŁ": 4361,
      "ãģ®æ©Łèĥ½ãģĮçµ±åĲĪåĮĸãģķãĤĮãģ¾ãģĹãģŁ": 4362,
      "ãģ®æľĢéģ©åĮĸãģĮåĪ·æĸ°ãģķãĤĮãģ¾ãģĹãģŁ": 4363,
      "ãģ®æľĢéģ©åĮĸãģĮæ¨ĻæºĸåĮĸãģķãĤĮãģ¾ãģĹãģŁ": 4364,
      "ãģ®ãĤ³ãĥ³ãĥĿãĥ¼ãĥįãĥ³ãĥĪãģĮçµ±åĲĪåĮĸãģķãĤĮãģ¾ãģĹãģŁ": 4365,
      "ãģ®ãĤ³ãĥ³ãĥĨãĥĬãģĮåĪ·æĸ°ãģķãĤĮãģ¾ãģĹãģŁ": 4366,
      "ãģ®ãĤ³ãĥ³ãĥĨãĥĬãģĮæľĢéģ©åĮĸãģķãĤĮãģ¾ãģĹãģŁ": 4367,
      "ãģ®ãĤ³ãĥ³ãĥĨãĥĬãģĮç°¡ç´łåĮĸãģķãĤĮãģ¾ãģĹãģŁ": 4368,
      "ãģ®ãĤ»ãĥŀãĥķãĤ©ãģĮåĨįè¨Ńè¨ĪãģķãĤĮãģ¾ãģĹãģŁ": 4369,
      "ãģ®ãĤ»ãĥŀãĥķãĤ©ãģĮåĨįæ§ĭç¯īãģķãĤĮãģ¾ãģĹãģŁ": 4370,
      "ãģ®ãĤ»ãĥŀãĥķãĤ©ãģĮç°¡ç´łåĮĸãģķãĤĮãģ¾ãģĹãģŁ": 4371,
      "ãģ®ãĤ³ãĥ³ãĥĳãĤ¤ãĥ©ãģĮåĪ·æĸ°ãģķãĤĮãģ¾ãģĹãģŁ": 4372,
      "ãģ®ãĤ³ãĥ³ãĥĳãĤ¤ãĥ©ãģĮå¼·åĮĸãģķãĤĮãģ¾ãģĹãģŁ": 4373,
      "ãģ®ãĤ»ãĥĥãĤ·ãĥ§ãĥ³ãģĮçµ±åĲĪåĮĸãģķãĤĮãģ¾ãģĹãģŁ": 4374,
      "ãģ®ãĤ»ãĥĥãĤ·ãĥ§ãĥ³ãģĮæĭ¡å¼µãģķãĤĮãģ¾ãģĹãģŁ": 4375,
      "ãģ®ä¿Ŀå®ĪæĢ§ãģĮåĨįç·¨æĪĲãģķãĤĮãģ¾ãģĹãģŁ": 4376,
      "ãģ®ãĤŃãĥ£ãĥĥãĤ·ãĥ¥ãģĮæľĢéģ©åĮĸãģķãĤĮãģ¾ãģĹãģŁ": 4377,
      "ãģ®ãĤ«ãĥ¼ãĥįãĥ«ãģĮåĨįæ§ĭç¯īãģķãĤĮãģ¾ãģĹãģŁ": 4378,
      "ãģ®åĲįåīįç©ºéĸĵãģĮåĪ·æĸ°ãģķãĤĮãģ¾ãģĹãģŁ": 4379,
      "ãģ®ãĤ«ãĥĹãĤ»ãĥ«åĮĸãģĮæ¨ĻæºĸåĮĸãģķãĤĮãģ¾ãģĹãģŁ": 4380,
      "ãģ®ãĤ«ãĥĹãĤ»ãĥ«åĮĸãģĮæĭ¡å¼µãģķãĤĮãģ¾ãģĹãģŁ": 4381,
      "ãģ®ãĤ¨ãĥ³ãĥīãĥĿãĤ¤ãĥ³ãĥĪãģĮæĭ¡å¼µãģķãĤĮãģ¾ãģĹãģŁ": 4382,
      "ãģ®ãĤ¨ãĥ³ãĥīãĥĿãĤ¤ãĥ³ãĥĪãģĮå¼·åĮĸãģķãĤĮãģ¾ãģĹãģŁ": 4383,
      "ãģ®ç¶Ļæī¿ãģĮå¼·åĮĸãģķãĤĮãģ¾ãģĹãģŁ": 4384,
      "ãģ®ãĤ¢ãĥ«ãĤ´ãĥªãĤºãĥłãģĮçµ±åĲĪåĮĸãģķãĤĮãģ¾ãģĹãģŁ": 4385,
      "ãģ®ãĤ¢ãĥ«ãĤ´ãĥªãĤºãĥłãģĮåĪ·æĸ°ãģķãĤĮãģ¾ãģĹãģŁ": 4386,
      "ãģ®ãĥªãĥĿãĤ¸ãĥĪãĥªãģĮç°¡ç´łåĮĸãģķãĤĮãģ¾ãģĹãģŁ": 4387,
      "ãģ®åı¯çĶ¨æĢ§ãģĮç°¡ç´łåĮĸãģķãĤĮãģ¾ãģĹãģŁ": 4388,
      "ãģ®ãĤ¹ãĤ±ãĥ¼ãĥ©ãĥĵãĥªãĥĨãĤ£ãģĮç°¡ç´łåĮĸãģķãĤĮãģ¾ãģĹãģŁ": 4389,
      "ãģ®ãĤ¹ãĤŃãĥ¼ãĥŀãģĮåĲĪçĲĨåĮĸãģķãĤĮãģ¾ãģĹãģŁ": 4390,
      "ãģ®ãĤ·ãĥªãĤ¢ãĥ©ãĤ¤ãĤ¼ãĥ¼ãĤ·ãĥ§ãĥ³ãģĮæĶ¹åĸĦãģķãĤĮãģ¾ãģĹãģŁ": 4391,
      "ãģ®ãĤ¹ãĥ«ãĥ¼ãĥĹãĥĥãĥĪãģĮãĤ¢ãĥĥãĥĹãĤ°ãĥ¬ãĥ¼ãĥīãģķãĤĮãģ¾ãģĹãģŁ": 4392,
      "ãģ®ãĤ¹ãĥ«ãĥ¼ãĥĹãĥĥãĥĪãģĮæĶ¹åĸĦãģķãĤĮãģ¾ãģĹãģŁ": 4393,
      "ãģ®ãĥĪãĥ¼ãĤ¯ãĥĬãĤ¤ãĤ¶ãĥ¼ãģĮæľĢéģ©åĮĸãģķãĤĮãģ¾ãģĹãģŁ": 4394,
      "ãģ®ãĥĪãĥ¼ãĤ¯ãĥĬãĤ¤ãĤ¶ãĥ¼ãģĮç°¡ç´łåĮĸãģķãĤĮãģ¾ãģĹãģŁ": 4395,
      "ãģ®ãĤ¤ãĥ³ãĤ¿ãĥ¼ãĥķãĤ§ãĥ¼ãĤ¹ãģĮæľĢéģ©åĮĸãģķãĤĮãģ¾ãģĹãģŁ": 4396,
      "ãģ®ãĤ¤ãĥ³ãĤ¿ãĥ¼ãĥķãĤ§ãĥ¼ãĤ¹ãģĮæĭ¡å¼µãģķãĤĮãģ¾ãģĹãģŁ": 4397,
      "ãģ®åĨįå¸°ãģĮæ¨ĻæºĸåĮĸãģķãĤĮãģ¾ãģĹãģŁ": 4398,
      "ãģ®åĨįå¸°ãģĮåĨįæ§ĭç¯īãģķãĤĮãģ¾ãģĹãģŁ": 4399,
      "ãģ®åĨįå¸°ãģĮæĭ¡å¼µãģķãĤĮãģ¾ãģĹãģŁ": 4400,
      "ãģ®åĨįå¸°ãģĮè¿ĳä»£åĮĸãģķãĤĮãģ¾ãģĹãģŁ": 4401,
      "ãģ®ãĥĹãĥŃãĥĪãĤ³ãĥ«ãģĮå¼·åĮĸãģķãĤĮãģ¾ãģĹãģŁ": 4402,
      "ãģ®ä¸¦è¡ĮæĢ§ãģĮæĶ¹åĸĦãģķãĤĮãģ¾ãģĹãģŁ": 4403,
      "ãģ®ãĤ·ãĤ¹ãĥĨãĥłãģĮçµ±åĲĪåĮĸãģķãĤĮãģ¾ãģĹãģŁ": 4404,
      "ãģ®ãĥ©ãĤ¤ãĥĸãĥ©ãĥªãģĮæ¨ĻæºĸåĮĸãģķãĤĮãģ¾ãģĹãģŁ": 4405,
      "ãģ®ãĥ©ãĤ¤ãĥĸãĥ©ãĥªãģĮæĭ¡å¼µãģķãĤĮãģ¾ãģĹãģŁ": 4406,
      "ãģ®ãĥ©ãĤ¤ãĥĸãĥ©ãĥªãģĮå¼·åĮĸãģķãĤĮãģ¾ãģĹãģŁ": 4407,
      "ãģ®ãĤ¢ãĥ¼ãĤŃãĥĨãĤ¯ãĥģãĥ£ãģĮåĲĪçĲĨåĮĸãģķãĤĮãģ¾ãģĹãģŁ": 4408,
      "ãģ®ãĤ¤ãĥĨãĥ¬ãĥ¼ãĤ·ãĥ§ãĥ³ãģĮåĪ·æĸ°ãģķãĤĮãģ¾ãģĹãģŁ": 4409,
      "ãģ®ãĤ¤ãĥĨãĥ¬ãĥ¼ãĤ·ãĥ§ãĥ³ãģĮæľĢéģ©åĮĸãģķãĤĮãģ¾ãģĹãģŁ": 4410,
      "ãģ®ãĥĲãĥªãĥĩãĥ¼ãĤ·ãĥ§ãĥ³ãģĮæĶ¹åĸĦãģķãĤĮãģ¾ãģĹãģŁ": 4411,
      "ãģ®èªįè¨¼ãģĮæĭ¡å¼µãģķãĤĮãģ¾ãģĹãģŁ": 4412,
      "ãģ®ãĥĲãĥĥãĥķãĤ¡ãģĮå¼·åĮĸãģķãĤĮãģ¾ãģĹãģŁ": 4413,
      "Ġyield": 4414,
      "æĸ°ãģĹãģĦåĲįåīįç©ºéĸĵ": 4415,
      "ãģ®ãĥŃãĥ¼ãĥīãģĮåĨįæ§ĭç¯īãģķãĤĮãģ¾ãģĹãģŁ": 4416,
      "ãģ®ãĥĳãĥ©ãĥ¡ãĥ¼ãĤ¿ãģĮåĨįæ§ĭç¯īãģķãĤĮãģ¾ãģĹãģŁ": 4417,
      "ãģ®ãĥĳãĥ©ãĥ¡ãĥ¼ãĤ¿ãģĮç°¡ç´łåĮĸãģķãĤĮãģ¾ãģĹãģŁ": 4418,
      "ãģ®ãĥ¢ãĤ¸ãĥ¥ãĥ¼ãĥ«ãģĮæĶ¹åĸĦãģķãĤĮãģ¾ãģĹãģŁ": 4419,
      "ãģ®ãĥ¢ãĤ¸ãĥ¥ãĥ¼ãĥ«ãģĮçµ±åĲĪåĮĸãģķãĤĮãģ¾ãģĹãģŁ": 4420,
      "ãģ®æļĹåı·åĮĸãģĮãĤ¢ãĥĥãĥĹãĤ°ãĥ¬ãĥ¼ãĥīãģķãĤĮãģ¾ãģĹãģŁ": 4421,
      "ãģ®ãĥŁãĥīãĥ«ãĤ¦ãĤ§ãĤ¢ãģĮçµ±åĲĪåĮĸãģķãĤĮãģ¾ãģĹãģŁ": 4422,
      "ãģ®ãĥĩãĥĲãĥĥãĤ°ãģĮè¿ĳä»£åĮĸãģķãĤĮãģ¾ãģĹãģŁ": 4423,
      "ãģ®ãĥĻãĥ³ãĥģãĥŀãĥ¼ãĤ¯ãģĮçµ±åĲĪåĮĸãģķãĤĮãģ¾ãģĹãģŁ": 4424,
      "ãģ®ãĥĻãĥ³ãĥģãĥŀãĥ¼ãĤ¯ãģĮåĪ·æĸ°ãģķãĤĮãģ¾ãģĹãģŁ": 4425,
      "ãģ®ãĥĳãĤ¤ãĥĹãĥ©ãĤ¤ãĥ³ãģĮåĨįæ§ĭç¯īãģķãĤĮãģ¾ãģĹãģŁ": 4426,
      "ãģ®ãĥĩãĥ¼ãĤ¿ãĥĻãĥ¼ãĤ¹ãģĮè¿ĳä»£åĮĸãģķãĤĮãģ¾ãģĹãģŁ": 4427,
      "ãģ®ãĥĳãĥķãĤ©ãĥ¼ãĥŀãĥ³ãĤ¹ãģĮåĨįæ§ĭç¯īãģķãĤĮãģ¾ãģĹãģŁ": 4428,
      "ãģ®ãĥĳãĥķãĤ©ãĥ¼ãĥŀãĥ³ãĤ¹ãģĮæľĢéģ©åĮĸãģķãĤĮãģ¾ãģĹãģŁ": 4429,
      "ãģ®æ©Łèĥ½ãģĮæ¨ĻæºĸåĮĸãģķãĤĮãģ¾ãģĹãģŁ": 4430,
      "ãģ®æľĢéģ©åĮĸãģĮãĤ¢ãĥĥãĥĹãĤ°ãĥ¬ãĥ¼ãĥīãģķãĤĮãģ¾ãģĹãģŁ": 4431,
      "ãģ®ãĤ³ãĥ³ãĥĳãĤ¤ãĥ©ãģĮç°¡ç´łåĮĸãģķãĤĮãģ¾ãģĹãģŁ": 4432,
      "ãģ®ãĤµãĥ¼ãĥĵãĤ¹ãģĮåĨįæ§ĭç¯īãģķãĤĮãģ¾ãģĹãģŁ": 4433,
      "ãģ®ä¿Ŀå®ĪæĢ§ãģĮåĨįæ§ĭç¯īãģķãĤĮãģ¾ãģĹãģŁ": 4434,
      "ãģ®ãĤªãĥ¼ãĥĲãĥ¼ãĥĺãĥĥãĥīãģĮãĤ¢ãĥĥãĥĹãĤ°ãĥ¬ãĥ¼ãĥīãģķãĤĮãģ¾ãģĹãģŁ": 4435,
      "ãģ®ãĤªãĥ¼ãĥĲãĥ¼ãĥĺãĥĥãĥīãģĮæ¨ĻæºĸåĮĸãģķãĤĮãģ¾ãģĹãģŁ": 4436,
      "ãģ®ãĤ«ãĥ¼ãĥįãĥ«ãģĮæĶ¹åĸĦãģķãĤĮãģ¾ãģĹãģŁ": 4437,
      "ãģ®ä¸¦åĪĹæĢ§ãģĮåĨįæ§ĭç¯īãģķãĤĮãģ¾ãģĹãģŁ": 4438,
      "ãģ®ä¸¦åĪĹæĢ§ãģĮç°¡ç´łåĮĸãģķãĤĮãģ¾ãģĹãģŁ": 4439,
      "ãģ®èĦĨå¼±æĢ§ãģĮåĲĪçĲĨåĮĸãģķãĤĮãģ¾ãģĹãģŁ": 4440,
      "ãģ®åĲįåīįç©ºéĸĵãģĮæĶ¹åĸĦãģķãĤĮãģ¾ãģĹãģŁ": 4441,
      "ãģ®ç¶Ļæī¿ãģĮæĭ¡å¼µãģķãĤĮãģ¾ãģĹãģŁ": 4442,
      "ãģ®ãĤ¢ãĥ«ãĤ´ãĥªãĤºãĥłãģĮãĤ¢ãĥĥãĥĹãĤ°ãĥ¬ãĥ¼ãĥīãģķãĤĮãģ¾ãģĹãģŁ": 4443,
      "ãģ®ãĤ¢ãĥ«ãĤ´ãĥªãĤºãĥłãģĮåĨįæ§ĭç¯īãģķãĤĮãģ¾ãģĹãģŁ": 4444,
      "ãģ®ãĤ¢ãĥ«ãĤ´ãĥªãĤºãĥłãģĮæĭ¡å¼µãģķãĤĮãģ¾ãģĹãģŁ": 4445,
      "ãģ®ä¿¡éł¼æĢ§ãģĮæĶ¹åĸĦãģķãĤĮãģ¾ãģĹãģŁ": 4446,
      "ãģ®ä¿¡éł¼æĢ§ãģĮçµ±åĲĪåĮĸãģķãĤĮãģ¾ãģĹãģŁ": 4447,
      "ãģ®ä»®æĥ³åĮĸãģĮå¼·åĮĸãģķãĤĮãģ¾ãģĹãģŁ": 4448,
      "ãģ®ä»®æĥ³åĮĸãģĮè¿ĳä»£åĮĸãģķãĤĮãģ¾ãģĹãģŁ": 4449,
      "ãģ®ãĥªãĥĿãĤ¸ãĥĪãĥªãģĮçµ±åĲĪãģķãĤĮãģ¾ãģĹãģŁ": 4450,
      "ãģ®åı¯çĶ¨æĢ§ãģĮåĨįç·¨æĪĲãģķãĤĮãģ¾ãģĹãģŁ": 4451,
      "ãģ®åı¯çĶ¨æĢ§ãģĮåĨįæ§ĭç¯īãģķãĤĮãģ¾ãģĹãģŁ": 4452,
      "ãģ®è¨Ńå®ļãģĮåĨįè¨Ńè¨ĪãģķãĤĮãģ¾ãģĹãģŁ": 4453,
      "ãģ®ãĤ¹ãĤ±ãĥ¼ãĥ©ãĥĵãĥªãĥĨãĤ£ãģĮåĨįè¨Ńè¨ĪãģķãĤĮãģ¾ãģĹãģŁ": 4454,
      "ãģ®ãĤ¹ãĤ±ãĥ¼ãĥ©ãĥĵãĥªãĥĨãĤ£ãģĮãĤ¢ãĥĥãĥĹãĤ°ãĥ¬ãĥ¼ãĥīãģķãĤĮãģ¾ãģĹãģŁ": 4455,
      "ãģ®ãĤ¹ãĤ±ãĥ¼ãĥ©ãĥĵãĥªãĥĨãĤ£ãģĮæĶ¹åĸĦãģķãĤĮãģ¾ãģĹãģŁ": 4456,
      "ãģ®ãĤ¹ãĤ±ãĥ¼ãĥ©ãĥĵãĥªãĥĨãĤ£ãģĮåĲĪçĲĨåĮĸãģķãĤĮãģ¾ãģĹãģŁ": 4457,
      "ãģ®ãĤ¹ãĤŃãĥ¼ãĥŀãģĮæĭ¡å¼µãģķãĤĮãģ¾ãģĹãģŁ": 4458,
      "ãģ®ãĤ·ãĥªãĤ¢ãĥ©ãĤ¤ãĤ¼ãĥ¼ãĤ·ãĥ§ãĥ³ãģĮçµ±åĲĪåĮĸãģķãĤĮãģ¾ãģĹãģŁ": 4459,
      "ãģ®ãĤ·ãĥªãĤ¢ãĥ©ãĤ¤ãĤ¼ãĥ¼ãĤ·ãĥ§ãĥ³ãģĮæ¨ĻæºĸåĮĸãģķãĤĮãģ¾ãģĹãģŁ": 4460,
      "ãģ®ãĤ¹ãĥ«ãĥ¼ãĥĹãĥĥãĥĪãģĮåĲĪçĲĨåĮĸãģķãĤĮãģ¾ãģĹãģŁ": 4461,
      "ãģ®ãĤ¹ãĥ«ãĥ¼ãĥĹãĥĥãĥĪãģĮå¼·åĮĸãģķãĤĮãģ¾ãģĹãģŁ": 4462,
      "ãģ®ãĥĪãĥ¼ãĤ¯ãĥĬãĤ¤ãĤ¶ãĥ¼ãģĮåĨįè¨Ńè¨ĪãģķãĤĮãģ¾ãģĹãģŁ": 4463,
      "ãģ®ãĥĪãĥ¼ãĤ¯ãĥĬãĤ¤ãĤ¶ãĥ¼ãģĮåĲĪçĲĨåĮĸãģķãĤĮãģ¾ãģĹãģŁ": 4464,
      "ãģ®åĨįå¸°ãģĮçµ±åĲĪãģķãĤĮãģ¾ãģĹãģŁ": 4465,
      "ãģ®åĲĮæľŁãģĮãĤ¢ãĥĥãĥĹãĤ°ãĥ¬ãĥ¼ãĥīãģķãĤĮãģ¾ãģĹãģŁ": 4466,
      "ãģ®åĲĮæľŁãģĮå¼·åĮĸãģķãĤĮãģ¾ãģĹãģŁ": 4467,
      "ãģ®ãĥĹãĥŃãĥĪãĤ³ãĥ«ãģĮæĭ¡å¼µãģķãĤĮãģ¾ãģĹãģŁ": 4468,
      "ãģ®ãĥĹãĥŃãĥĪãĤ³ãĥ«ãģĮè¿ĳä»£åĮĸãģķãĤĮãģ¾ãģĹãģŁ": 4469,
      "ãģ®ãĥĪãĥ©ãĥ³ãĤ¶ãĤ¯ãĤ·ãĥ§ãĥ³ãģĮãĤ¢ãĥĥãĥĹãĤ°ãĥ¬ãĥ¼ãĥīãģķãĤĮãģ¾ãģĹãģŁ": 4470,
      "ãģ®ãĥĪãĥ©ãĥ³ãĤ¶ãĤ¯ãĤ·ãĥ§ãĥ³ãģĮæĶ¹åĸĦãģķãĤĮãģ¾ãģĹãģŁ": 4471,
      "ãģ®ä¸¦è¡ĮæĢ§ãģĮãĤ¢ãĥĥãĥĹãĤ°ãĥ¬ãĥ¼ãĥīãģķãĤĮãģ¾ãģĹãģŁ": 4472,
      "ãģ®ãĤ·ãĤ¹ãĥĨãĥłãģĮåĨįè¨Ńè¨ĪãģķãĤĮãģ¾ãģĹãģŁ": 4473,
      "ãģ®ãĤ·ãĤ¹ãĥĨãĥłãģĮæĶ¹åĸĦãģķãĤĮãģ¾ãģĹãģŁ": 4474,
      "ãģ®ãĥ©ãĤ¤ãĥĸãĥ©ãĥªãģĮçµ±åĲĪãģķãĤĮãģ¾ãģĹãģŁ": 4475,
      "ãģ®ãĤ¤ãĥĨãĥ¬ãĥ¼ãĤ·ãĥ§ãĥ³ãģĮåĨįè¨Ńè¨ĪãģķãĤĮãģ¾ãģĹãģŁ": 4476,
      "ãģ®ãĤ¤ãĥĨãĥ¬ãĥ¼ãĤ·ãĥ§ãĥ³ãģĮåĨįæ§ĭç¯īãģķãĤĮãģ¾ãģĹãģŁ": 4477,
      "ãģ®ãĥĲãĥªãĥĩãĥ¼ãĤ·ãĥ§ãĥ³ãģĮæľĢéģ©åĮĸãģķãĤĮãģ¾ãģĹãģŁ": 4478,
      "ãģ®ãĥĲãĥªãĥĩãĥ¼ãĤ·ãĥ§ãĥ³ãģĮå¼·åĮĸãģķãĤĮãģ¾ãģĹãģŁ": 4479,
      "ãģ®ãĥĲãĥĥãĥķãĤ¡ãģĮåĨįç·¨æĪĲãģķãĤĮãģ¾ãģĹãģŁ": 4480,
      "ãģ®ãĥĲãĥĥãĥķãĤ¡ãģĮãĤ¢ãĥĥãĥĹãĤ°ãĥ¬ãĥ¼ãĥīãģķãĤĮãģ¾ãģĹãģŁ": 4481,
      "ãģ®ãĥĲãĥĥãĥķãĤ¡ãģĮçµ±åĲĪåĮĸãģķãĤĮãģ¾ãģĹãģŁ": 4482,
      "æĸ°ãģĹãģĦåĲįåīįç©ºéĸĵãģ®ãĥªãĥªãĥ¼ãĤ¹ãĥİãĥ¼ãĥĪãĤĴç¢ºèªįãģĹãģ¾ãģĹãģŁ": 4483,
      "ãģ®ãĥĳãĥ©ãĥ¡ãĥ¼ãĤ¿ãģĮå¼·åĮĸãģķãĤĮãģ¾ãģĹãģŁ": 4484,
      "ãģ®ãĥ¢ãĤ¸ãĥ¥ãĥ¼ãĥ«ãģĮãĤ¢ãĥĥãĥĹãĤ°ãĥ¬ãĥ¼ãĥīãģķãĤĮãģ¾ãģĹãģŁ": 4485,
      "ãģ®ãĥŁãĥīãĥ«ãĤ¦ãĤ§ãĤ¢ãģĮåĲĪçĲĨåĮĸãģķãĤĮãģ¾ãģĹãģŁ": 4486,
      "ãģ®ãĥŁãĥīãĥ«ãĤ¦ãĤ§ãĤ¢ãģĮæľĢéģ©åĮĸãģķãĤĮãģ¾ãģĹãģŁ": 4487,
      "ãģ®ãĥĿãĥªãĥ¢ãĥ¼ãĥķãĤ£ãĤºãĥłãģĮç°¡ç´łåĮĸãģķãĤĮãģ¾ãģĹãģŁ": 4488,
      "ãģ®æ©Łèĥ½ãģĮè¿ĳä»£åĮĸãģķãĤĮãģ¾ãģĹãģŁ": 4489,
      "ãģ®æ©Łèĥ½ãģĮçµ±åĲĪãģķãĤĮãģ¾ãģĹãģŁ": 4490,
      "ãģ®ãĤ¯ãĤ¨ãĥªãģĮãĤ¢ãĥĥãĥĹãĤ°ãĥ¬ãĥ¼ãĥīãģķãĤĮãģ¾ãģĹãģŁ": 4491,
      "ãģ®æľĢéģ©åĮĸãģĮåĨįè¨Ńè¨ĪãģķãĤĮãģ¾ãģĹãģŁ": 4492,
      "ãģ®æľĢéģ©åĮĸãģĮæĶ¹åĸĦãģķãĤĮãģ¾ãģĹãģŁ": 4493,
      "ãģ®æľĢéģ©åĮĸãģĮåĨįæ§ĭç¯īãģķãĤĮãģ¾ãģĹãģŁ": 4494,
      "ãģ®ãĤ»ãĥŀãĥķãĤ©ãģĮåĨįç·¨æĪĲãģķãĤĮãģ¾ãģĹãģŁ": 4495,
      "ãģ®ãĤ»ãĥŀãĥķãĤ©ãģĮæĭ¡å¼µãģķãĤĮãģ¾ãģĹãģŁ": 4496,
      "ãģ®ãĤ»ãĥŀãĥķãĤ©ãģĮå¼·åĮĸãģķãĤĮãģ¾ãģĹãģŁ": 4497,
      "ãģ®ãĤ»ãĥĥãĤ·ãĥ§ãĥ³ãģĮåĨįæ§ĭç¯īãģķãĤĮãģ¾ãģĹãģŁ": 4498,
      "ãģ®ãĤµãĥ¼ãĥĵãĤ¹ãģĮçµ±åĲĪåĮĸãģķãĤĮãģ¾ãģĹãģŁ": 4499,
      "ãģ®ãĤªãĥ¼ãĥĲãĥ¼ãĥĺãĥĥãĥīãģĮè¿ĳä»£åĮĸãģķãĤĮãģ¾ãģĹãģŁ": 4500,
      "ãģ®ãĤ«ãĥ¼ãĥįãĥ«ãģĮæ¨ĻæºĸåĮĸãģķãĤĮãģ¾ãģĹãģŁ": 4501,
      "ãģ®ä¸¦åĪĹæĢ§ãģĮæľĢéģ©åĮĸãģķãĤĮãģ¾ãģĹãģŁ": 4502,
      "ãģ®åĲįåīįç©ºéĸĵãģĮæľĢéģ©åĮĸãģķãĤĮãģ¾ãģĹãģŁ": 4503,
      "ãģ®ãĤ«ãĥĹãĤ»ãĥ«åĮĸãģĮåĨįè¨Ńè¨ĪãģķãĤĮãģ¾ãģĹãģŁ": 4504,
      "ãģ®ä¿¡éł¼æĢ§ãģĮç°¡ç´łåĮĸãģķãĤĮãģ¾ãģĹãģŁ": 4505,
      "ãģ®èªįåı¯ãģĮåĨįè¨Ńè¨ĪãģķãĤĮãģ¾ãģĹãģŁ": 4506,
      "ãģ®èªįåı¯ãģĮå¼·åĮĸãģķãĤĮãģ¾ãģĹãģŁ": 4507,
      "ãģ®èªįåı¯ãģĮè¿ĳä»£åĮĸãģķãĤĮãģ¾ãģĹãģŁ": 4508,
      "ãģ®ãĤ¹ãĤ±ãĥ¼ãĥ©ãĥĵãĥªãĥĨãĤ£ãģĮåĪ·æĸ°ãģķãĤĮãģ¾ãģĹãģŁ": 4509,
      "ãģ®ãĤ·ãĥªãĤ¢ãĥ©ãĤ¤ãĤ¼ãĥ¼ãĤ·ãĥ§ãĥ³ãģĮç°¡ç´łåĮĸãģķãĤĮãģ¾ãģĹãģŁ": 4510,
      "ãģ®åĨįå¸°ãģĮæĶ¹åĸĦãģķãĤĮãģ¾ãģĹãģŁ": 4511,
      "ãģ®åĨįå¸°ãģĮåĲĪçĲĨåĮĸãģķãĤĮãģ¾ãģĹãģŁ": 4512,
      "ãģ®åĲĮæľŁãģĮæĶ¹åĸĦãģķãĤĮãģ¾ãģĹãģŁ": 4513,
      "ãģ®åĲĮæľŁãģĮåĨįæ§ĭç¯īãģķãĤĮãģ¾ãģĹãģŁ": 4514,
      "ãģ®åĲĮæľŁãģĮçµ±åĲĪãģķãĤĮãģ¾ãģĹãģŁ": 4515,
      "ãģ®ãĥĹãĥŃãĥĪãĤ³ãĥ«ãģĮæĶ¹åĸĦãģķãĤĮãģ¾ãģĹãģŁ": 4516,
      "ãģ®ãĥĹãĥŃãĥĪãĤ³ãĥ«ãģĮåĨįæ§ĭç¯īãģķãĤĮãģ¾ãģĹãģŁ": 4517,
      "ãģ®ãĥĪãĥ©ãĥ³ãĤ¶ãĤ¯ãĤ·ãĥ§ãĥ³ãģĮåĪ·æĸ°ãģķãĤĮãģ¾ãģĹãģŁ": 4518,
      "ãģ®ãĥĪãĥ©ãĥ³ãĤ¶ãĤ¯ãĤ·ãĥ§ãĥ³ãģĮåĨįæ§ĭç¯īãģķãĤĮãģ¾ãģĹãģŁ": 4519,
      "ãģ®ä¸¦è¡ĮæĢ§ãģĮåĨįè¨Ńè¨ĪãģķãĤĮãģ¾ãģĹãģŁ": 4520,
      "ãģ®å¤īæķ°ãģĮè¿ĳä»£åĮĸãģķãĤĮãģ¾ãģĹãģŁ": 4521,
      "ãģ®ä¾ĿåŃĺæĢ§ãģĮåĪ·æĸ°ãģķãĤĮãģ¾ãģĹãģŁ": 4522,
      "ãģ®ä¾ĿåŃĺæĢ§ãģĮè¿ĳä»£åĮĸãģķãĤĮãģ¾ãģĹãģŁ": 4523,
      "ãģ®ãĤ·ãĤ¹ãĥĨãĥłãģĮæĭ¡å¼µãģķãĤĮãģ¾ãģĹãģŁ": 4524,
      "ãģ®ãĤ¢ãĥ¼ãĤŃãĥĨãĤ¯ãĥģãĥ£ãģĮåĨįç·¨æĪĲãģķãĤĮãģ¾ãģĹãģŁ": 4525,
      "ãģ®ãĤ¢ãĥ¼ãĤŃãĥĨãĤ¯ãĥģãĥ£ãģĮæ¨ĻæºĸåĮĸãģķãĤĮãģ¾ãģĹãģŁ": 4526,
      "ãģ®ãĤ¢ãĥ¼ãĤŃãĥĨãĤ¯ãĥģãĥ£ãģĮåĨįæ§ĭç¯īãģķãĤĮãģ¾ãģĹãģŁ": 4527,
      "ãģ®ãĤ¢ãĥ¼ãĤŃãĥĨãĤ¯ãĥģãĥ£ãģĮç°¡ç´łåĮĸãģķãĤĮãģ¾ãģĹãģŁ": 4528,
      "ãģ®ãĤ¤ãĥĨãĥ¬ãĥ¼ãĤ·ãĥ§ãĥ³ãģĮæĶ¹åĸĦãģķãĤĮãģ¾ãģĹãģŁ": 4529,
      "ãģ®ãĤ¤ãĥĨãĥ¬ãĥ¼ãĤ·ãĥ§ãĥ³ãģĮæ¨ĻæºĸåĮĸãģķãĤĮãģ¾ãģĹãģŁ": 4530,
      "ãģ®ãĤ¤ãĥĨãĥ¬ãĥ¼ãĤ·ãĥ§ãĥ³ãģĮçµ±åĲĪãģķãĤĮãģ¾ãģĹãģŁ": 4531,
      "ãģ®ãĥĲãĥĥãĥķãĤ¡ãģĮåĪ·æĸ°ãģķãĤĮãģ¾ãģĹãģŁ": 4532,
      "ãģ®ãĥĲãĥĥãĥķãĤ¡ãģĮæ¨ĻæºĸåĮĸãģķãĤĮãģ¾ãģĹãģŁ": 4533,
      "Ġ25": 4534,
      "ãģ®ãĥĳãĥ©ãĥ¡ãĥ¼ãĤ¿ãģĮæĭ¡å¼µãģķãĤĮãģ¾ãģĹãģŁ": 4535,
      "ãģ®ãĥĳãĥ©ãĥ¡ãĥ¼ãĤ¿ãģĮçµ±åĲĪãģķãĤĮãģ¾ãģĹãģŁ": 4536,
      "ãģ®ãĥĩãĥĲãĥĥãĤ°ãģĮæĭ¡å¼µãģķãĤĮãģ¾ãģĹãģŁ": 4537,
      "ãģ®ãĥĻãĥ³ãĥģãĥŀãĥ¼ãĤ¯ãģĮæľĢéģ©åĮĸãģķãĤĮãģ¾ãģĹãģŁ": 4538,
      "ãģ®ãĥķãĥ¬ãĥ¼ãĥłãĥ¯ãĥ¼ãĤ¯ãģĮåĨįè¨Ńè¨ĪãģķãĤĮãģ¾ãģĹãģŁ": 4539,
      "ãģ®ãĥķãĥ¬ãĥ¼ãĥłãĥ¯ãĥ¼ãĤ¯ãģĮåĪ·æĸ°ãģķãĤĮãģ¾ãģĹãģŁ": 4540,
      "ãģ®ãĥķãĥ¬ãĥ¼ãĥłãĥ¯ãĥ¼ãĤ¯ãģĮçµ±åĲĪãģķãĤĮãģ¾ãģĹãģŁ": 4541,
      "ãģ®ãĥĳãĤ¤ãĥĹãĥ©ãĤ¤ãĥ³ãģĮçµ±åĲĪåĮĸãģķãĤĮãģ¾ãģĹãģŁ": 4542,
      "ãģ®ãĥĳãĥķãĤ©ãĥ¼ãĥŀãĥ³ãĤ¹ãģĮåĪ·æĸ°ãģķãĤĮãģ¾ãģĹãģŁ": 4543,
      "ãģ®ãĥĳãĥķãĤ©ãĥ¼ãĥŀãĥ³ãĤ¹ãģĮçµ±åĲĪãģķãĤĮãģ¾ãģĹãģŁ": 4544,
      "ãģ®æ©Łèĥ½ãģĮæĭ¡å¼µãģķãĤĮãģ¾ãģĹãģŁ": 4545,
      "ãģ®ãĤ³ãĥ³ãĥĿãĥ¼ãĥįãĥ³ãĥĪãģĮåĨįè¨Ńè¨ĪãģķãĤĮãģ¾ãģĹãģŁ": 4546,
      "ãģ®ãĤ³ãĥ³ãĥĳãĤ¤ãĥ©ãģĮæ¨ĻæºĸåĮĸãģķãĤĮãģ¾ãģĹãģŁ": 4547,
      "ãģ®ãĤµãĥ¼ãĥĵãĤ¹ãģĮåĨįç·¨æĪĲãģķãĤĮãģ¾ãģĹãģŁ": 4548,
      "ãģ®åĲįåīįç©ºéĸĵãģĮãĤ¢ãĥĥãĥĹãĤ°ãĥ¬ãĥ¼ãĥīãģķãĤĮãģ¾ãģĹãģŁ": 4549,
      "ãģ®åĲįåīįç©ºéĸĵãģĮæĭ¡å¼µãģķãĤĮãģ¾ãģĹãģŁ": 4550,
      "ãģ®ãĤ«ãĥĹãĤ»ãĥ«åĮĸãģĮåĨįæ§ĭç¯īãģķãĤĮãģ¾ãģĹãģŁ": 4551,
      "ãģ®ãĤ¨ãĥ³ãĥīãĥĿãĤ¤ãĥ³ãĥĪãģĮåĪ·æĸ°ãģķãĤĮãģ¾ãģĹãģŁ": 4552,
      "ãģ®ãĤ¨ãĥ³ãĥīãĥĿãĤ¤ãĥ³ãĥĪãģĮçµ±åĲĪãģķãĤĮãģ¾ãģĹãģŁ": 4553,
      "ãģ®ç¶Ļæī¿ãģĮæľĢéģ©åĮĸãģķãĤĮãģ¾ãģĹãģŁ": 4554,
      "ãģ®ç¶Ļæī¿ãģĮè¿ĳä»£åĮĸãģķãĤĮãģ¾ãģĹãģŁ": 4555,
      "ãģ®ä¿¡éł¼æĢ§ãģĮå¼·åĮĸãģķãĤĮãģ¾ãģĹãģŁ": 4556,
      "ãģ®ä»®æĥ³åĮĸãģĮåĪ·æĸ°ãģķãĤĮãģ¾ãģĹãģŁ": 4557,
      "ãģ®ä»®æĥ³åĮĸãģĮæ¨ĻæºĸåĮĸãģķãĤĮãģ¾ãģĹãģŁ": 4558,
      "ãģ®ä»®æĥ³åĮĸãģĮåĲĪçĲĨåĮĸãģķãĤĮãģ¾ãģĹãģŁ": 4559,
      "ãģ®ä»®æĥ³åĮĸãģĮæľĢéģ©åĮĸãģķãĤĮãģ¾ãģĹãģŁ": 4560,
      "ãģ®èªįåı¯ãģĮæľĢéģ©åĮĸãģķãĤĮãģ¾ãģĹãģŁ": 4561,
      "ãģ®ãĤ¹ãĤ±ãĥ¼ãĥ©ãĥĵãĥªãĥĨãĤ£ãģĮåĨįç·¨æĪĲãģķãĤĮãģ¾ãģĹãģŁ": 4562,
      "ãģ®ãĤ¹ãĤŃãĥ¼ãĥŀãģĮæľĢéģ©åĮĸãģķãĤĮãģ¾ãģĹãģŁ": 4563,
      "ãģ®ãĤ¹ãĤŃãĥ¼ãĥŀãģĮç°¡ç´łåĮĸãģķãĤĮãģ¾ãģĹãģŁ": 4564,
      "ãģ®ä»ķæ§ĺãģĮæ¨ĻæºĸåĮĸãģķãĤĮãģ¾ãģĹãģŁ": 4565,
      "ãģ®ãĤ·ãĥªãĤ¢ãĥ©ãĤ¤ãĤ¼ãĥ¼ãĤ·ãĥ§ãĥ³ãģĮæĭ¡å¼µãģķãĤĮãģ¾ãģĹãģŁ": 4566,
      "ãģ®ãĥĪãĥ¼ãĤ¯ãĥĬãĤ¤ãĤ¶ãĥ¼ãģĮåĨįæ§ĭç¯īãģķãĤĮãģ¾ãģĹãģŁ": 4567,
      "ãģ®ãĤ¤ãĥ³ãĤ¿ãĥ¼ãĥķãĤ§ãĥ¼ãĤ¹ãģĮæ¨ĻæºĸåĮĸãģķãĤĮãģ¾ãģĹãģŁ": 4568,
      "ãģ®ãĤ¤ãĥ³ãĤ¿ãĥ¼ãĥķãĤ§ãĥ¼ãĤ¹ãģĮå¼·åĮĸãģķãĤĮãģ¾ãģĹãģŁ": 4569,
      "ãģ®ãĤ¤ãĥ³ãĤ¿ãĥ¼ãĥķãĤ§ãĥ¼ãĤ¹ãģĮè¿ĳä»£åĮĸãģķãĤĮãģ¾ãģĹãģŁ": 4570,
      "ãģ®ãĥĹãĥŃãĥĪãĤ³ãĥ«ãģĮåĨįè¨Ńè¨ĪãģķãĤĮãģ¾ãģĹãģŁ": 4571,
      "ãģ®ãĥĪãĥ©ãĥ³ãĤ¶ãĤ¯ãĤ·ãĥ§ãĥ³ãģĮè¿ĳä»£åĮĸãģķãĤĮãģ¾ãģĹãģŁ": 4572,
      "ãģ®ä¸¦è¡ĮæĢ§ãģĮå¼·åĮĸãģķãĤĮãģ¾ãģĹãģŁ": 4573,
      "ãģ®å¤īæķ°ãģĮæľĢéģ©åĮĸãģķãĤĮãģ¾ãģĹãģŁ": 4574,
      "ãģ®å¤īæķ°ãģĮæĭ¡å¼µãģķãĤĮãģ¾ãģĹãģŁ": 4575,
      "ãģ®ä¾ĿåŃĺæĢ§ãģĮçµ±åĲĪåĮĸãģķãĤĮãģ¾ãģĹãģŁ": 4576,
      "ãģ®ä¾ĿåŃĺæĢ§ãģĮçµ±åĲĪãģķãĤĮãģ¾ãģĹãģŁ": 4577,
      "ãģ®ãĤ·ãĤ¹ãĥĨãĥłãģĮæ¨ĻæºĸåĮĸãģķãĤĮãģ¾ãģĹãģŁ": 4578,
      "ãģ®ãĤ·ãĤ¹ãĥĨãĥłãģĮå¼·åĮĸãģķãĤĮãģ¾ãģĹãģŁ": 4579,
      "ãģ®ãĥ©ãĤ¤ãĥĸãĥ©ãĥªãģĮæĶ¹åĸĦãģķãĤĮãģ¾ãģĹãģŁ": 4580,
      "ãģ®ãĤ¢ãĥ¼ãĤŃãĥĨãĤ¯ãĥģãĥ£ãģĮãĤ¢ãĥĥãĥĹãĤ°ãĥ¬ãĥ¼ãĥīãģķãĤĮãģ¾ãģĹãģŁ": 4581,
      "ãģ®ãĤ¢ãĥ¼ãĤŃãĥĨãĤ¯ãĥģãĥ£ãģĮè¿ĳä»£åĮĸãģķãĤĮãģ¾ãģĹãģŁ": 4582,
      "ãģ®ãĤ¤ãĥĨãĥ¬ãĥ¼ãĤ·ãĥ§ãĥ³ãģĮæĭ¡å¼µãģķãĤĮãģ¾ãģĹãģŁ": 4583,
      "ãģ®ãĤ¤ãĥĨãĥ¬ãĥ¼ãĤ·ãĥ§ãĥ³ãģĮç°¡ç´łåĮĸãģķãĤĮãģ¾ãģĹãģŁ": 4584,
      "cc": 4585,
      "Ġacc": 4586,
      "ãģ®ãĥŃãĥ¼ãĥīãģĮåĪ·æĸ°ãģķãĤĮãģ¾ãģĹãģŁ": 4587,
      "ãģ®æļĹåı·åĮĸãģĮåĨįè¨Ńè¨ĪãģķãĤĮãģ¾ãģĹãģŁ": 4588,
      "ãģ®ãĥĩãĥĹãĥŃãĤ¤ãģĮåĨįè¨Ńè¨ĪãģķãĤĮãģ¾ãģĹãģŁ": 4589,
      "ãģ®ãĥĩãĥĹãĥŃãĤ¤ãģĮå¼·åĮĸãģķãĤĮãģ¾ãģĹãģŁ": 4590,
      "ãģ®ãĥĳãĤ¤ãĥĹãĥ©ãĤ¤ãĥ³ãģĮçµ±åĲĪãģķãĤĮãģ¾ãģĹãģŁ": 4591,
      "ãģ®ãĥĩãĥ¼ãĤ¿ãĥĻãĥ¼ãĤ¹ãģĮå¼·åĮĸãģķãĤĮãģ¾ãģĹãģŁ": 4592,
      "ãģ®ãĥĳãĥķãĤ©ãĥ¼ãĥŀãĥ³ãĤ¹ãģĮè¿ĳä»£åĮĸãģķãĤĮãģ¾ãģĹãģŁ": 4593,
      "ãģ®ãĥĿãĥªãĥ¢ãĥ¼ãĥķãĤ£ãĤºãĥłãģĮæĶ¹åĸĦãģķãĤĮãģ¾ãģĹãģŁ": 4594,
      "ãģ®ãĤ³ãĥ³ãĥĿãĥ¼ãĥįãĥ³ãĥĪãģĮç°¡ç´łåĮĸãģķãĤĮãģ¾ãģĹãģŁ": 4595,
      "ãģ®ä¿Ŀå®ĪæĢ§ãģĮãĤ¢ãĥĥãĥĹãĤ°ãĥ¬ãĥ¼ãĥīãģķãĤĮãģ¾ãģĹãģŁ": 4596,
      "ãģ®ãĤŃãĥ£ãĥĥãĤ·ãĥ¥ãģĮè¿ĳä»£åĮĸãģķãĤĮãģ¾ãģĹãģŁ": 4597,
      "ãģ®ãĤ«ãĥ¼ãĥįãĥ«ãģĮå¼·åĮĸãģķãĤĮãģ¾ãģĹãģŁ": 4598,
      "ãģ®èĦĨå¼±æĢ§ãģĮçµ±åĲĪãģķãĤĮãģ¾ãģĹãģŁ": 4599,
      "ãģ®åĲįåīįç©ºéĸĵãģĮåĲĪçĲĨåĮĸãģķãĤĮãģ¾ãģĹãģŁ": 4600,
      "ãģ®åĲįåīįç©ºéĸĵãģĮè¿ĳä»£åĮĸãģķãĤĮãģ¾ãģĹãģŁ": 4601,
      "ãģ®å¸¯åŁŁå¹ħãģĮåĨįè¨Ńè¨ĪãģķãĤĮãģ¾ãģĹãģŁ": 4602,
      "ãģ®å¸¯åŁŁå¹ħãģĮåĲĪçĲĨåĮĸãģķãĤĮãģ¾ãģĹãģŁ": 4603,
      "ãģ®å¸¯åŁŁå¹ħãģĮæľĢéģ©åĮĸãģķãĤĮãģ¾ãģĹãģŁ": 4604,
      "ãģ®ãĤ¨ãĥ³ãĥīãĥĿãĤ¤ãĥ³ãĥĪãģĮæĶ¹åĸĦãģķãĤĮãģ¾ãģĹãģŁ": 4605,
      "ãģ®ãĤ¢ãĥ«ãĤ´ãĥªãĤºãĥłãģĮæĶ¹åĸĦãģķãĤĮãģ¾ãģĹãģŁ": 4606,
      "ãģ®ä»®æĥ³åĮĸãģĮçµ±åĲĪåĮĸãģķãĤĮãģ¾ãģĹãģŁ": 4607,
      "ãģ®ãĥªãĥĿãĤ¸ãĥĪãĥªãģĮè¿ĳä»£åĮĸãģķãĤĮãģ¾ãģĹãģŁ": 4608,
      "ãģ®åı¯çĶ¨æĢ§ãģĮçµ±åĲĪåĮĸãģķãĤĮãģ¾ãģĹãģŁ": 4609,
      "ãģ®è¨Ńå®ļãģĮæĶ¹åĸĦãģķãĤĮãģ¾ãģĹãģŁ": 4610,
      "ãģ®ãĤ¹ãĤ±ãĥ¼ãĥ©ãĥĵãĥªãĥĨãĤ£ãģĮçµ±åĲĪåĮĸãģķãĤĮãģ¾ãģĹãģŁ": 4611,
      "ãģ®ãĤ¹ãĤ±ãĥ¼ãĥ©ãĥĵãĥªãĥĨãĤ£ãģĮæľĢéģ©åĮĸãģķãĤĮãģ¾ãģĹãģŁ": 4612,
      "ãģ®ä»ķæ§ĺãģĮåĨįæ§ĭç¯īãģķãĤĮãģ¾ãģĹãģŁ": 4613,
      "ãģ®ãĤ·ãĥªãĤ¢ãĥ©ãĤ¤ãĤ¼ãĥ¼ãĤ·ãĥ§ãĥ³ãģĮçµ±åĲĪãģķãĤĮãģ¾ãģĹãģŁ": 4614,
      "ãģ®ãĤ¹ãĥ«ãĥ¼ãĥĹãĥĥãĥĪãģĮåĪ·æĸ°ãģķãĤĮãģ¾ãģĹãģŁ": 4615,
      "ãģ®ãĥĪãĥ¼ãĤ¯ãĥĬãĤ¤ãĤ¶ãĥ¼ãģĮæĭ¡å¼µãģķãĤĮãģ¾ãģĹãģŁ": 4616,
      "ãģ®ãĤ¤ãĥ³ãĤ¿ãĥ¼ãĥķãĤ§ãĥ¼ãĤ¹ãģĮç°¡ç´łåĮĸãģķãĤĮãģ¾ãģĹãģŁ": 4617,
      "ãģ®åĨįå¸°ãģĮãĤ¢ãĥĥãĥĹãĤ°ãĥ¬ãĥ¼ãĥīãģķãĤĮãģ¾ãģĹãģŁ": 4618,
      "ãģ®ãĥĹãĥŃãĥĪãĤ³ãĥ«ãģĮåĪ·æĸ°ãģķãĤĮãģ¾ãģĹãģŁ": 4619,
      "ãģ®ãĥĹãĥŃãĥĪãĤ³ãĥ«ãģĮåĲĪçĲĨåĮĸãģķãĤĮãģ¾ãģĹãģŁ": 4620,
      "ãģ®ãĥĪãĥ©ãĥ³ãĤ¶ãĤ¯ãĤ·ãĥ§ãĥ³ãģĮæĭ¡å¼µãģķãĤĮãģ¾ãģĹãģŁ": 4621,
      "ãģ®ä¸¦è¡ĮæĢ§ãģĮåĨįæ§ĭç¯īãģķãĤĮãģ¾ãģĹãģŁ": 4622,
      "ãģ®ä¸¦è¡ĮæĢ§ãģĮç°¡ç´łåĮĸãģķãĤĮãģ¾ãģĹãģŁ": 4623,
      "ãģ®ä¾ĿåŃĺæĢ§ãģĮãĤ¢ãĥĥãĥĹãĤ°ãĥ¬ãĥ¼ãĥīãģķãĤĮãģ¾ãģĹãģŁ": 4624,
      "ãģ®ãĤ·ãĤ¹ãĥĨãĥłãģĮåĲĪçĲĨåĮĸãģķãĤĮãģ¾ãģĹãģŁ": 4625,
      "ãģ®ãĤ·ãĤ¹ãĥĨãĥłãģĮçµ±åĲĪãģķãĤĮãģ¾ãģĹãģŁ": 4626,
      "ãģ®ãĥ©ãĤ¤ãĥĸãĥ©ãĥªãģĮçµ±åĲĪåĮĸãģķãĤĮãģ¾ãģĹãģŁ": 4627,
      "ãģ®ãĤ¤ãĥĨãĥ¬ãĥ¼ãĤ·ãĥ§ãĥ³ãģĮåĲĪçĲĨåĮĸãģķãĤĮãģ¾ãģĹãģŁ": 4628,
      "ãģ®ãĤ¤ãĥĨãĥ¬ãĥ¼ãĤ·ãĥ§ãĥ³ãģĮè¿ĳä»£åĮĸãģķãĤĮãģ¾ãģĹãģŁ": 4629,
      "ãģ®èªįè¨¼ãģĮåĪ·æĸ°ãģķãĤĮãģ¾ãģĹãģŁ": 4630,
      "ãģ®ãĥĲãĥĥãĥķãĤ¡ãģĮçµ±åĲĪãģķãĤĮãģ¾ãģĹãģŁ": 4631,
      "Ġ23": 4632,
      "ãģ®ãĥŁãĥīãĥ«ãĤ¦ãĤ§ãĤ¢ãģĮçµ±åĲĪãģķãĤĮãģ¾ãģĹãģŁ": 4633,
      "ãģ®ãĥĻãĥ³ãĥģãĥŀãĥ¼ãĤ¯ãģĮçµ±åĲĪãģķãĤĮãģ¾ãģĹãģŁ": 4634,
      "ãģ®ãĥķãĥ¬ãĥ¼ãĥłãĥ¯ãĥ¼ãĤ¯ãģĮæĭ¡å¼µãģķãĤĮãģ¾ãģĹãģŁ": 4635,
      "ãģ®ãĥĩãĥ¼ãĤ¿ãĥĻãĥ¼ãĤ¹ãģĮæĭ¡å¼µãģķãĤĮãģ¾ãģĹãģŁ": 4636,
      "ãģ®ãĥĿãĥªãĥ¢ãĥ¼ãĥķãĤ£ãĤºãĥłãģĮè¿ĳä»£åĮĸãģķãĤĮãģ¾ãģĹãģŁ": 4637,
      "ãģ®æľĢéģ©åĮĸãģĮçµ±åĲĪãģķãĤĮãģ¾ãģĹãģŁ": 4638,
      "ãģ®ãĤ³ãĥ³ãĥĨãĥĬãģĮçµ±åĲĪãģķãĤĮãģ¾ãģĹãģŁ": 4639,
      "ãģ®ä¿Ŀå®ĪæĢ§ãģĮç°¡ç´łåĮĸãģķãĤĮãģ¾ãģĹãģŁ": 4640,
      "ãģ®ä¸¦åĪĹæĢ§ãģĮåĪ·æĸ°ãģķãĤĮãģ¾ãģĹãģŁ": 4641,
      "ãģ®èĦĨå¼±æĢ§ãģĮæĭ¡å¼µãģķãĤĮãģ¾ãģĹãģŁ": 4642,
      "ãģ®ãĤ¨ãĥ³ãĥīãĥĿãĤ¤ãĥ³ãĥĪãģĮæľĢéģ©åĮĸãģķãĤĮãģ¾ãģĹãģŁ": 4643,
      "ãģ®åı¯çĶ¨æĢ§ãģĮåĲĪçĲĨåĮĸãģķãĤĮãģ¾ãģĹãģŁ": 4644,
      "ãģ®è¨Ńå®ļãģĮåĨįç·¨æĪĲãģķãĤĮãģ¾ãģĹãģŁ": 4645,
      "ãģ®è¨Ńå®ļãģĮæĭ¡å¼µãģķãĤĮãģ¾ãģĹãģŁ": 4646,
      "ãģ®ãĤ¹ãĥ«ãĥ¼ãĥĹãĥĥãĥĪãģĮè¿ĳä»£åĮĸãģķãĤĮãģ¾ãģĹãģŁ": 4647,
      "ãģ®ãĥĪãĥ¼ãĤ¯ãĥĬãĤ¤ãĤ¶ãĥ¼ãģĮå¼·åĮĸãģķãĤĮãģ¾ãģĹãģŁ": 4648,
      "ãģ®ãĥĪãĥ¼ãĤ¯ãĥĬãĤ¤ãĤ¶ãĥ¼ãģĮçµ±åĲĪãģķãĤĮãģ¾ãģĹãģŁ": 4649,
      "ãģ®åĲĮæľŁãģĮæ¨ĻæºĸåĮĸãģķãĤĮãģ¾ãģĹãģŁ": 4650,
      "ãģ®ãĥĪãĥ©ãĥ³ãĤ¶ãĤ¯ãĤ·ãĥ§ãĥ³ãģĮæ¨ĻæºĸåĮĸãģķãĤĮãģ¾ãģĹãģŁ": 4651,
      "ãģ®ä¸¦è¡ĮæĢ§ãģĮæľĢéģ©åĮĸãģķãĤĮãģ¾ãģĹãģŁ": 4652,
      "ãģ®ãĥ©ãĤ¤ãĥĸãĥ©ãĥªãģĮåĨįè¨Ńè¨ĪãģķãĤĮãģ¾ãģĹãģŁ": 4653,
      "ãģ®ãĥ©ãĤ¤ãĥĸãĥ©ãĥªãģĮåĨįç·¨æĪĲãģķãĤĮãģ¾ãģĹãģŁ": 4654,
      "ãģ®ãĥ©ãĤ¤ãĥĸãĥ©ãĥªãģĮåĪ·æĸ°ãģķãĤĮãģ¾ãģĹãģŁ": 4655,
      "ãģ®ãĤ¤ãĥĨãĥ¬ãĥ¼ãĤ·ãĥ§ãĥ³ãģĮãĤ¢ãĥĥãĥĹãĤ°ãĥ¬ãĥ¼ãĥīãģķãĤĮãģ¾ãģĹãģŁ": 4656,
      "ãģ®ãĥĲãĥĥãĥķãĤ¡ãģĮåĨįæ§ĭç¯īãģķãĤĮãģ¾ãģĹãģŁ": 4657,
      "ãģ®ãĤ»ãĥĥãĤ·ãĥ§ãĥ³ãģĮå¼·åĮĸãģķãĤĮãģ¾ãģĹãģŁ": 4658,
      "ãģ®ãĤµãĥ¼ãĥĵãĤ¹ãģĮåĲĪçĲĨåĮĸãģķãĤĮãģ¾ãģĹãģŁ": 4659,
      "ãģ®ãĤ«ãĥ¼ãĥįãĥ«ãģĮåĲĪçĲĨåĮĸãģķãĤĮãģ¾ãģĹãģŁ": 4660,
      "ãģ®ãĤ«ãĥ¼ãĥįãĥ«ãģĮæĭ¡å¼µãģķãĤĮãģ¾ãģĹãģŁ": 4661,
      "ãģ®ä¸¦åĪĹæĢ§ãģĮåĲĪçĲĨåĮĸãģķãĤĮãģ¾ãģĹãģŁ": 4662,
      "ãģ®ãĤ«ãĥĹãĤ»ãĥ«åĮĸãģĮç°¡ç´łåĮĸãģķãĤĮãģ¾ãģĹãģŁ": 4663,
      "ãģ®ç¶Ļæī¿ãģĮåĨįæ§ĭç¯īãģķãĤĮãģ¾ãģĹãģŁ": 4664,
      "ãģ®ä¿¡éł¼æĢ§ãģĮæ¨ĻæºĸåĮĸãģķãĤĮãģ¾ãģĹãģŁ": 4665,
      "ãģ®ä¿¡éł¼æĢ§ãģĮè¿ĳä»£åĮĸãģķãĤĮãģ¾ãģĹãģŁ": 4666,
      "ãģ®ãĥªãĥĿãĤ¸ãĥĪãĥªãģĮåĨįæ§ĭç¯īãģķãĤĮãģ¾ãģĹãģŁ": 4667,
      "ãģ®åı¯çĶ¨æĢ§ãģĮè¿ĳä»£åĮĸãģķãĤĮãģ¾ãģĹãģŁ": 4668,
      "ãģ®è¨Ńå®ļãģĮå¼·åĮĸãģķãĤĮãģ¾ãģĹãģŁ": 4669,
      "ãģ®èªįåı¯ãģĮåĨįæ§ĭç¯īãģķãĤĮãģ¾ãģĹãģŁ": 4670,
      "ãģ®èªįåı¯ãģĮç°¡ç´łåĮĸãģķãĤĮãģ¾ãģĹãģŁ": 4671,
      "ãģ®èªįåı¯ãģĮçµ±åĲĪãģķãĤĮãģ¾ãģĹãģŁ": 4672,
      "ãģ®ä»ķæ§ĺãģĮæĶ¹åĸĦãģķãĤĮãģ¾ãģĹãģŁ": 4673,
      "ãģ®ä»ķæ§ĺãģĮç°¡ç´łåĮĸãģķãĤĮãģ¾ãģĹãģŁ": 4674,
      "ãģ®ãĤ¹ãĥ«ãĥ¼ãĥĹãĥĥãĥĪãģĮçµ±åĲĪãģķãĤĮãģ¾ãģĹãģŁ": 4675,
      "ãģ®ãĥĪãĥ¼ãĤ¯ãĥĬãĤ¤ãĤ¶ãĥ¼ãģĮæĶ¹åĸĦãģķãĤĮãģ¾ãģĹãģŁ": 4676,
      "ãģ®åĲĮæľŁãģĮåĨįç·¨æĪĲãģķãĤĮãģ¾ãģĹãģŁ": 4677,
      "ãģ®åĲĮæľŁãģĮçµ±åĲĪåĮĸãģķãĤĮãģ¾ãģĹãģŁ": 4678,
      "ãģ®ä¸¦è¡ĮæĢ§ãģĮåĪ·æĸ°ãģķãĤĮãģ¾ãģĹãģŁ": 4679,
      "ãģ®ä¾ĿåŃĺæĢ§ãģĮåĲĪçĲĨåĮĸãģķãĤĮãģ¾ãģĹãģŁ": 4680,
      "ãģ®ãĥ©ãĤ¤ãĥĸãĥ©ãĥªãģĮåĲĪçĲĨåĮĸãģķãĤĮãģ¾ãģĹãģŁ": 4681,
      "ãģ®ãĥ©ãĤ¤ãĥĸãĥ©ãĥªãģĮæľĢéģ©åĮĸãģķãĤĮãģ¾ãģĹãģŁ": 4682,
      "ãģ®ãĤ¢ãĥ¼ãĤŃãĥĨãĤ¯ãĥģãĥ£ãģĮåĨįè¨Ńè¨ĪãģķãĤĮãģ¾ãģĹãģŁ": 4683,
      "ãģ®ãĤ¤ãĥĨãĥ¬ãĥ¼ãĤ·ãĥ§ãĥ³ãģĮåĨįç·¨æĪĲãģķãĤĮãģ¾ãģĹãģŁ": 4684,
      "ãģ®èªįè¨¼ãģĮåĨįè¨Ńè¨ĪãģķãĤĮãģ¾ãģĹãģŁ": 4685,
      "ãģ®èªįè¨¼ãģĮæľĢéģ©åĮĸãģķãĤĮãģ¾ãģĹãģŁ": 4686,
      "ãģ®èªįè¨¼ãģĮå¼·åĮĸãģķãĤĮãģ¾ãģĹãģŁ": 4687,
      "ãģ®èªįè¨¼ãģĮçµ±åĲĪãģķãĤĮãģ¾ãģĹãģŁ": 4688,
      "ãģ®ãĥĲãĥĥãĥķãĤ¡ãģĮåĲĪçĲĨåĮĸãģķãĤĮãģ¾ãģĹãģŁ": 4689,
      "ãģ®ãĥĲãĥĥãĥķãĤ¡ãģĮç°¡ç´łåĮĸãģķãĤĮãģ¾ãģĹãģŁ": 4690,
      "Ġ__": 4691,
      "init": 4692,
      "ãģ®ãĥ¢ãĤ¸ãĥ¥ãĥ¼ãĥ«ãģĮè¿ĳä»£åĮĸãģķãĤĮãģ¾ãģĹãģŁ": 4693,
      "ãģ®æ©Łèĥ½ãģĮåĪ·æĸ°ãģķãĤĮãģ¾ãģĹãģŁ": 4694,
      "ãģ®èĦĨå¼±æĢ§ãģĮåĨįç·¨æĪĲãģķãĤĮãģ¾ãģĹãģŁ": 4695,
      "ãģ®ãĤ«ãĥĹãĤ»ãĥ«åĮĸãģĮåĨįç·¨æĪĲãģķãĤĮãģ¾ãģĹãģŁ": 4696,
      "ãģ®åı¯çĶ¨æĢ§ãģĮæľĢéģ©åĮĸãģķãĤĮãģ¾ãģĹãģŁ": 4697,
      "ãģ®è¨Ńå®ļãģĮç°¡ç´łåĮĸãģķãĤĮãģ¾ãģĹãģŁ": 4698,
      "ãģ®ãĤ¹ãĤŃãĥ¼ãĥŀãģĮåĨįè¨Ńè¨ĪãģķãĤĮãģ¾ãģĹãģŁ": 4699,
      "ãģ®ãĤ¹ãĤŃãĥ¼ãĥŀãģĮæĶ¹åĸĦãģķãĤĮãģ¾ãģĹãģŁ": 4700,
      "ãģ®ãĤ·ãĥªãĤ¢ãĥ©ãĤ¤ãĤ¼ãĥ¼ãĤ·ãĥ§ãĥ³ãģĮåĪ·æĸ°ãģķãĤĮãģ¾ãģĹãģŁ": 4701,
      "ãģ®ãĤ·ãĥªãĤ¢ãĥ©ãĤ¤ãĤ¼ãĥ¼ãĤ·ãĥ§ãĥ³ãģĮåĲĪçĲĨåĮĸãģķãĤĮãģ¾ãģĹãģŁ": 4702,
      "ãģ®ãĤ¹ãĥ«ãĥ¼ãĥĹãĥĥãĥĪãģĮçµ±åĲĪåĮĸãģķãĤĮãģ¾ãģĹãģŁ": 4703,
      "ãģ®åĨįå¸°ãģĮå¼·åĮĸãģķãĤĮãģ¾ãģĹãģŁ": 4704,
      "ãģ®ä¸¦è¡ĮæĢ§ãģĮçµ±åĲĪåĮĸãģķãĤĮãģ¾ãģĹãģŁ": 4705,
      "ãģ®ä¸¦è¡ĮæĢ§ãģĮçµ±åĲĪãģķãĤĮãģ¾ãģĹãģŁ": 4706,
      "ãģ®å¤īæķ°ãģĮåĲĪçĲĨåĮĸãģķãĤĮãģ¾ãģĹãģŁ": 4707,
      "ãģ®å¤īæķ°ãģĮçµ±åĲĪãģķãĤĮãģ¾ãģĹãģŁ": 4708,
      "ãģ®ä¾ĿåŃĺæĢ§ãģĮæĭ¡å¼µãģķãĤĮãģ¾ãģĹãģŁ": 4709,
      "ãģ®ä¾ĿåŃĺæĢ§ãģĮå¼·åĮĸãģķãĤĮãģ¾ãģĹãģŁ": 4710,
      "ãģ®ãĤ·ãĤ¹ãĥĨãĥłãģĮç°¡ç´łåĮĸãģķãĤĮãģ¾ãģĹãģŁ": 4711,
      "ãģ®ãĤ¢ãĥ¼ãĤŃãĥĨãĤ¯ãĥģãĥ£ãģĮæľĢéģ©åĮĸãģķãĤĮãģ¾ãģĹãģŁ": 4712,
      "ãģ®ãĥĲãĥªãĥĩãĥ¼ãĤ·ãĥ§ãĥ³ãģĮãĤ¢ãĥĥãĥĹãĤ°ãĥ¬ãĥ¼ãĥīãģķãĤĮãģ¾ãģĹãģŁ": 4713,
      "ãģ®èªįè¨¼ãģĮè¿ĳä»£åĮĸãģķãĤĮãģ¾ãģĹãģŁ": 4714,
      "ãģ®ãĥĲãĥĥãĥķãĤ¡ãģĮæľĢéģ©åĮĸãģķãĤĮãģ¾ãģĹãģŁ": 4715,
      "__(": 4716,
      "3260": 4717,
      "gg": 4718,
      "Ġlo": 4719,
      "ãģ®ãĥĩãĥĹãĥŃãĤ¤ãģĮçµ±åĲĪãģķãĤĮãģ¾ãģĹãģŁ": 4720,
      "ãģ®æľĢéģ©åĮĸãģĮæĭ¡å¼µãģķãĤĮãģ¾ãģĹãģŁ": 4721,
      "ãģ®ç¶Ļæī¿ãģĮæ¨ĻæºĸåĮĸãģķãĤĮãģ¾ãģĹãģŁ": 4722,
      "ãģ®èªįåı¯ãģĮåĨįç·¨æĪĲãģķãĤĮãģ¾ãģĹãģŁ": 4723,
      "ãģ®ä»ķæ§ĺãģĮçµ±åĲĪãģķãĤĮãģ¾ãģĹãģŁ": 4724,
      "ãģ®ãĥĪãĥ¼ãĤ¯ãĥĬãĤ¤ãĤ¶ãĥ¼ãģĮçµ±åĲĪåĮĸãģķãĤĮãģ¾ãģĹãģŁ": 4725,
      "ãģ®ãĤ¤ãĥ³ãĤ¿ãĥ¼ãĥķãĤ§ãĥ¼ãĤ¹ãģĮãĤ¢ãĥĥãĥĹãĤ°ãĥ¬ãĥ¼ãĥīãģķãĤĮãģ¾ãģĹãģŁ": 4726,
      "ãģ®ãĥĪãĥ©ãĥ³ãĤ¶ãĤ¯ãĤ·ãĥ§ãĥ³ãģĮåĨįè¨Ńè¨ĪãģķãĤĮãģ¾ãģĹãģŁ": 4727,
      "ãģ®ãĤ·ãĤ¹ãĥĨãĥłãģĮãĤ¢ãĥĥãĥĹãĤ°ãĥ¬ãĥ¼ãĥīãģķãĤĮãģ¾ãģĹãģŁ": 4728,
      "ãģ®ãĤ¢ãĥ¼ãĤŃãĥĨãĤ¯ãĥģãĥ£ãģĮæĶ¹åĸĦãģķãĤĮãģ¾ãģĹãģŁ": 4729,
      "ãģ®ãĥĲãĥªãĥĩãĥ¼ãĤ·ãĥ§ãĥ³ãģĮçµ±åĲĪãģķãĤĮãģ¾ãģĹãģŁ": 4730,
      "ãģ®èªįè¨¼ãģĮç°¡ç´łåĮĸãģķãĤĮãģ¾ãģĹãģŁ": 4731,
      "Ġlogg": 4732,
      "Ġ26": 4733,
      "2733": 4734,
      "Ġasyncio": 4735,
      "1807": 4736,
      "1504": 4737,
      "1407": 4738,
      "2502": 4739,
      "2506": 4740,
      "ãģ®ãĥĿãĥªãĥ¢ãĥ¼ãĥķãĤ£ãĤºãĥłãģĮåĨįç·¨æĪĲãģķãĤĮãģ¾ãģĹãģŁ": 4741,
      "ãģ«ãģĬãģĦãģ¦ãĤ·ãĤ¹ãĥĨãĥłãģ®èªįè¨¼": 4742,
      "ãģ«ãģĬãģĦãģ¦ãĤ·ãĤ¹ãĥĨãĥłãģ®ãĤ¨ãĥ³ãĥīãĥĿãĤ¤ãĥ³ãĥĪ": 4743,
      "ãģ®ãĤŃãĥ£ãĥĥãĤ·ãĥ¥ãģĮçµ±åĲĪãģķãĤĮãģ¾ãģĹãģŁ": 4744,
      "ãģ®ãĤ¢ãĥ«ãĤ´ãĥªãĤºãĥłãģĮè¿ĳä»£åĮĸãģķãĤĮãģ¾ãģĹãģŁ": 4745,
      "ãģ®ä»®æĥ³åĮĸãģĮãĤ¢ãĥĥãĥĹãĤ°ãĥ¬ãĥ¼ãĥīãģķãĤĮãģ¾ãģĹãģŁ": 4746,
      "ãģ®åı¯çĶ¨æĢ§ãģĮçµ±åĲĪãģķãĤĮãģ¾ãģĹãģŁ": 4747,
      "ãģ®ãĤ¹ãĤŃãĥ¼ãĥŀãģĮå¼·åĮĸãģķãĤĮãģ¾ãģĹãģŁ": 4748,
      "ãģ®ä»ķæ§ĺãģĮæľĢéģ©åĮĸãģķãĤĮãģ¾ãģĹãģŁ": 4749,
      "ãģ®ä»ķæ§ĺãģĮè¿ĳä»£åĮĸãģķãĤĮãģ¾ãģĹãģŁ": 4750,
      "ãģ®ãĤ¹ãĥ«ãĥ¼ãĥĹãĥĥãĥĪãģĮåĨįç·¨æĪĲãģķãĤĮãģ¾ãģĹãģŁ": 4751,
      "ãģ®åĲĮæľŁãģĮç°¡ç´łåĮĸãģķãĤĮãģ¾ãģĹãģŁ": 4752,
      "ãģ®ãĥĹãĥŃãĥĪãĤ³ãĥ«ãģĮç°¡ç´łåĮĸãģķãĤĮãģ¾ãģĹãģŁ": 4753,
      "ãģ®å¤īæķ°ãģĮåĪ·æĸ°ãģķãĤĮãģ¾ãģĹãģŁ": 4754,
      "ãģ®å¤īæķ°ãģĮåĨįæ§ĭç¯īãģķãĤĮãģ¾ãģĹãģŁ": 4755,
      "ãģ®å¤īæķ°ãģĮç°¡ç´łåĮĸãģķãĤĮãģ¾ãģĹãģŁ": 4756,
      "ãģ®ä¾ĿåŃĺæĢ§ãģĮåĨįæ§ĭç¯īãģķãĤĮãģ¾ãģĹãģŁ": 4757,
      "ãģ®ãĥĲãĥªãĥĩãĥ¼ãĤ·ãĥ§ãĥ³ãģĮçµ±åĲĪåĮĸãģķãĤĮãģ¾ãģĹãģŁ": 4758,
      "ãģ®ãĥĲãĥªãĥĩãĥ¼ãĤ·ãĥ§ãĥ³ãģĮåĲĪçĲĨåĮĸãģķãĤĮãģ¾ãģĹãģŁ": 4759,
      "Ġlogging": 4760,
      "4170": 4761,
      "4200": 4762,
      "orch": 4763,
      "Ġtorch": 4764,
      "Ġhashlib": 4765,
      "1032": 4766,
      "1997": 4767,
      "2625": 4768,
      "2900": 4769,
      "3700": 4770,
      "4716": 4771,
      "4700": 4772,
      "1007": 4773,
      "1909": 4774,
      "1301": 4775,
      "ãģ®ä¸¦åĪĹæĢ§ãģĮæĭ¡å¼µãģķãĤĮãģ¾ãģĹãģŁ": 4776,
      "ãģ®èĦĨå¼±æĢ§ãģĮè¿ĳä»£åĮĸãģķãĤĮãģ¾ãģĹãģŁ": 4777,
      "ãģ®ãĤ·ãĥªãĤ¢ãĥ©ãĤ¤ãĤ¼ãĥ¼ãĤ·ãĥ§ãĥ³ãģĮè¿ĳä»£åĮĸãģķãĤĮãģ¾ãģĹãģŁ": 4778,
      "ãģ®èªįè¨¼ãģĮæĶ¹åĸĦãģķãĤĮãģ¾ãģĹãģŁ": 4779,
      "ãģ®ãĥĲãĥĥãĥķãĤ¡ãģĮåĨįè¨Ńè¨ĪãģķãĤĮãģ¾ãģĹãģŁ": 4780,
      "4679": 4781,
      "3145": 4782,
      "3175": 4783,
      "3360": 4784,
      "3251": 4785,
      "4190": 4786,
      "gp": 4787,
      "lle": 4788,
      "lal": 4789,
      "my": 4790,
      "qlal": 4791,
      "uid": 4792,
      "Ġsqlal": 4793,
      "Ġtime": 4794,
      "arse": 4795,
      "Ġrequest": 4796,
      "Ġcolle": 4797,
      "Ġaio": 4798,
      "Ġuuid": 4799,
      "ctions": 4800,
      "1035": 4801,
      "1535": 4802,
      "1913": 4803,
      "1974": 4804,
      "1428": 4805,
      "1799": 4806,
      "1245": 4807,
      "2385": 4808,
      "2682": 4809,
      "2954": 4810,
      "2715": 4811,
      "3759": 4812,
      "3924": 4813,
      "3978": 4814,
      "3581": 4815,
      "3615": 4816,
      "chemy": 4817,
      "Ġdatet": 4818,
      "Ġargp": 4819,
      "1805": 4820,
      "1601": 4821,
      "1602": 4822,
      "1302": 4823,
      "1709": 4824,
      "2007": 4825,
      "1403": 4826,
      "2308": 4827,
      "2602": 4828,
      "1195": 4829,
      "ãģ®ä¿Ŀå®ĪæĢ§ãģĮæľĢéģ©åĮĸãģķãĤĮãģ¾ãģĹãģŁ": 4830,
      "ãģ®ãĤ¤ãĥ³ãĤ¿ãĥ¼ãĥķãĤ§ãĥ¼ãĤ¹ãģĮåĲĪçĲĨåĮĸãģķãĤĮãģ¾ãģĹãģŁ": 4831,
      "ãģ«ãģĬãģĦãģ¦èĦĨå¼±æĢ§ãģ®å¸¯åŁŁå¹ħ": 4832,
      "4285": 4833,
      "Ġsqlalchemy": 4834,
      "Ġrequests": 4835,
      "Ġcollections": 4836,
      "Ġaiohttp": 4837,
      "Ġdatetime": 4838,
      "Ġargparse": 4839,
      "3160": 4840,
      "3150": 4841,
      "3230": 4842,
      "3208": 4843,
      "4255": 4844,
      "ac": 4845,
      "dant": 4846,
      "yping": 4847,
      "ydant": 4848,
      "athlib": 4849,
      "Ġtyping": 4850,
      "Ġflas": 4851,
      "Ġpydant": 4852,
      "Ġpathlib": 4853,
      "2058": 4854,
      "2031": 4855,
      "1092": 4856,
      "1635": 4857,
      "1611": 4858,
      "1676": 4859,
      "1560": 4860,
      "1569": 4861,
      "1599": 4862,
      "1597": 4863,
      "1582": 4864,
      "1818": 4865,
      "1865": 4866,
      "1937": 4867,
      "1921": 4868,
      "1437": 4869,
      "1469": 4870,
      "1470": 4871,
      "1313": 4872,
      "1726": 4873,
      "1739": 4874,
      "1775": 4875,
      "1238": 4876,
      "1299": 4877,
      "1246": 4878,
      "2529": 4879,
      "2539": 4880,
      "2558": 4881,
      "2553": 4882,
      "2591": 4883,
      "2460": 4884,
      "2459": 4885,
      "2456": 4886,
      "2360": 4887,
      "ses": 4888,
      "2636": 4889,
      "3018": 4890,
      "3030": 4891,
      "3049": 4892,
      "3032": 4893,
      "3006": 4894,
      "2815": 4895,
      "2867": 4896,
      "2855": 4897,
      "2856": 4898,
      "2802": 4899,
      "2997": 4900,
      "2790": 4901,
      "2785": 4902,
      "2700": 4903,
      "3826": 4904,
      "3860": 4905,
      "3875": 4906,
      "3886": 4907,
      "3744": 4908,
      "3945": 4909,
      "3974": 4910,
      "3525": 4911,
      "3511": 4912,
      "3560": 4913,
      "3578": 4914,
      "3500": 4915,
      "3628": 4916,
      "3611": 4917,
      "3672": 4918,
      "3609": 4919,
      "3420": 4920,
      "3449": 4921,
      "3444": 4922,
      "3406": 4923,
      "1115": 4924,
      "4044": 4925,
      "4782": 4926,
      "3219": 4927,
      "Ġdatac": 4928,
      "tool": 4929,
      "Ġitertool": 4930,
      "3332": 4931,
      "1002": 4932,
      "1003": 4933,
      "1004": 4934,
      "1904": 4935,
      "1906": 4936,
      "1908": 4937,
      "1304": 4938,
      "1509": 4939,
      "1707": 4940,
      "1401": 4941,
      "2301": 4942,
      "2504": 4943,
      "2402": 4944,
      "2403": 4945,
      "2406": 4946,
      "1187": 4947,
      "ãģ«ãģĬãģĦãģ¦ãĤ·ãĤ¹ãĥĨãĥłãģ®ãĥ©ãĤ¤ãĥĸãĥ©ãĥª": 4948,
      "ãģ«ãģĬãģĦãģ¦ãĤ¢ãĥ«ãĤ´ãĥªãĤºãĥłãģ®åĨįå¸°": 4949,
      "2125": 4950,
      "2144": 4951,
      "2185": 4952,
      "2201": 4953,
      "2243": 4954,
      "ãģ®åĨįå¸°ãģĮåĨįç·¨æĪĲãģķãĤĮãģ¾ãģĹãģŁ": 4955,
      "ãģ®ãĥĲãĥªãĥĩãĥ¼ãĤ·ãĥ§ãĥ³ãģĮæ¨ĻæºĸåĮĸãģķãĤĮãģ¾ãģĹãģŁ": 4956,
      "ãģ«ãģĬãģĦãģ¦èĦĨå¼±æĢ§ãģ®åĨįå¸°": 4957,
      "3389": 4958,
      "3373": 4959,
      "lasses": 4960,
      "Ġflask": 4961,
      "Ġpydantic": 4962,
      "Ġdataclasses": 4963,
      "Ġitertools": 4964,
      "2111": 4965,
      "3180": 4966,
      "3148": 4967,
      "3249": 4968,
      "3159": 4969,
      "3198": 4970,
      "3248": 4971,
      "3166": 4972,
      "3196": 4973,
      "3204": 4974,
      "3369": 4975,
      "3181": 4976,
      "3192": 4977,
      "3241": 4978,
      "3262": 4979,
      "4130": 4980,
      "4140": 4981,
      "4187": 4982,
      "4269": 4983,
      "4251": 4984,
      "4122": 4985,
      "4121": 4986,
      "5244": 4987,
      "om": 4988,
      "rand": 4989,
      "tapi": 4990,
      "ump": 4991,
      "Ġrand": 4992,
      "Ġbase": 4993,
      "Ġfas": 4994,
      "Ġpand": 4995,
      "Ġos": 4996,
      "Ġnump": 4997,
      "2010": 4998,
      "2016": 4999,
      "2064": 5000,
      "2038": 5001,
      "2040": 5002,
      "2075": 5003,
      "2043": 5004,
      "2097": 5005,
      "2053": 5006,
      "2093": 5007,
      "2061": 5008,
      "1011": 5009,
      "1040": 5010,
      "1049": 5011,
      "1044": 5012,
      "1074": 5013,
      "1073": 5014,
      "1620": 5015,
      "1610": 5016,
      "1615": 5017,
      "1629": 5018,
      "1634": 5019,
      "1648": 5020,
      "1667": 5021,
      "1668": 5022,
      "1642": 5023,
      "1663": 5024,
      "1653": 5025,
      "1564": 5026,
      "1527": 5027,
      "1511": 5028,
      "1547": 5029,
      "1532": 5030,
      "1568": 5031,
      "1575": 5032,
      "1546": 5033,
      "1572": 5034,
      "1581": 5035,
      "1810": 5036,
      "1830": 5037,
      "1845": 5038,
      "1827": 5039,
      "1847": 5040,
      "1822": 5041,
      "1855": 5042,
      "1833": 5043,
      "1866": 5044,
      "1857": 5045,
      "1862": 5046,
      "1882": 5047,
      "1912": 5048,
      "1960": 5049,
      "1932": 5050,
      "1959": 5051,
      "1998": 5052,
      "1956": 5053,
      "1414": 5054,
      "1413": 5055,
      "1417": 5056,
      "1436": 5057,
      "1448": 5058,
      "1478": 5059,
      "1450": 5060,
      "1459": 5061,
      "1488": 5062,
      "1442": 5063,
      "1452": 5064,
      "1482": 5065,
      "1323": 5066,
      "1329": 5067,
      "1338": 5068,
      "1337": 5069,
      "1335": 5070,
      "1340": 5071,
      "1365": 5072,
      "1378": 5073,
      "1370": 5074,
      "1350": 5075,
      "1346": 5076,
      "1398": 5077,
      "1374": 5078,
      "1353": 5079,
      "1371": 5080,
      "1712": 5081,
      "1725": 5082,
      "1748": 5083,
      "1770": 5084,
      "1777": 5085,
      "1787": 5086,
      "1763": 5087,
      "1762": 5088,
      "1776": 5089,
      "1228": 5090,
      "1248": 5091,
      "1267": 5092,
      "1278": 5093,
      "1290": 5094,
      "1266": 5095,
      "1275": 5096,
      "1257": 5097,
      "1231": 5098,
      "1296": 5099,
      "1272": 5100,
      "2526": 5101,
      "2534": 5102,
      "2540": 5103,
      "2570": 5104,
      "2588": 5105,
      "2586": 5106,
      "2592": 5107,
      "2412": 5108,
      "2423": 5109,
      "2427": 5110,
      "2447": 5111,
      "2433": 5112,
      "2472": 5113,
      "2313": 5114,
      "2327": 5115,
      "2337": 5116,
      "2336": 5117,
      "2388": 5118,
      "2390": 5119,
      "2389": 5120,
      "2397": 5121,
      "2394": 5122,
      "2635": 5123,
      "2668": 5124,
      "2688": 5125,
      "2621": 5126,
      "2663": 5127,
      "2654": 5128,
      "2686": 5129,
      "2671": 5130,
      "2691": 5131,
      "3026": 5132,
      "3029": 5133,
      "3027": 5134,
      "3037": 5135,
      "3039": 5136,
      "3040": 5137,
      "3079": 5138,
      "3090": 5139,
      "3021": 5140,
      "3097": 5141,
      "3054": 5142,
      "3084": 5143,
      "3096": 5144,
      "4536": 5145,
      "4582": 5146,
      "4506": 5147,
      "2817": 5148,
      "2823": 5149,
      "2845": 5150,
      "2864": 5151,
      "2838": 5152,
      "2837": 5153,
      "2847": 5154,
      "2888": 5155,
      "2880": 5156,
      "2866": 5157,
      "2841": 5158,
      "2862": 5159,
      "2800": 5160,
      "2925": 5161,
      "2949": 5162,
      "2950": 5163,
      "2979": 5164,
      "2958": 5165,
      "2988": 5166,
      "2922": 5167,
      "2955": 5168,
      "2946": 5169,
      "2987": 5170,
      "2963": 5171,
      "2991": 5172,
      "2903": 5173,
      "2720": 5174,
      "2718": 5175,
      "2729": 5176,
      "2758": 5177,
      "2722": 5178,
      "2799": 5179,
      "2757": 5180,
      "2787": 5181,
      "2702": 5182,
      "3870": 5183,
      "3879": 5184,
      "3853": 5185,
      "3809": 5186,
      "3804": 5187,
      "3710": 5188,
      "3739": 5189,
      "3760": 5190,
      "3755": 5191,
      "3775": 5192,
      "3787": 5193,
      "3754": 5194,
      "3794": 5195,
      "3706": 5196,
      "3703": 5197,
      "3920": 5198,
      "3918": 5199,
      "3926": 5200,
      "3930": 5201,
      "3957": 5202,
      "3941": 5203,
      "3956": 5204,
      "3954": 5205,
      "3986": 5206,
      "3972": 5207,
      "3904": 5208,
      "3517": 5209,
      "3526": 5210,
      "3527": 5211,
      "3590": 5212,
      "3589": 5213,
      "3557": 5214,
      "3595": 5215,
      "3574": 5216,
      "3593": 5217,
      "3561": 5218,
      "3508": 5219,
      "3614": 5220,
      "3670": 5221,
      "3633": 5222,
      "3662": 5223,
      "3600": 5224,
      "3676": 5225,
      "3604": 5226,
      "3429": 5227,
      "3439": 5228,
      "3488": 5229,
      "1120": 5230,
      "1110": 5231,
      "4020": 5232,
      "4014": 5233,
      "4036": 5234,
      "4050": 5235,
      "4099": 5236,
      "4095": 5237,
      "4000": 5238,
      "4074": 5239,
      "4073": 5240,
      "4002": 5241,
      "4814": 5242,
      "4832": 5243,
      "4844": 5244,
      "4809": 5245,
      "4770": 5246,
      "4762": 5247,
      "3226": 5248,
      "3228": 5249,
      "5000": 5250,
      "5800": 5251,
      "4449": 5252,
      "2214": 5253,
      "3315": 5254,
      "3317": 5255,
      "3324": 5256,
      "3328": 5257,
      "3336": 5258,
      "4667": 5259,
      "3120": 5260,
      "3117": 5261,
      "4120": 5262,
      "4115": 5263,
      "5624": 5264,
      "ãĤ¤ãĥĨãĥ¬ãĥ¼ãĤ·ãĥ§ãĥ³ãģĮåĲĪçĲĨåĮĸãģķãĤĮãģ¾ãģĹãģŁ": 5265,
      "ãĥĪãĥ¼ãĤ¯ãĥĬãĤ¤ãĤ¶ãĥ¼ãģĮæĭ¡å¼µãģķãĤĮãģ¾ãģĹãģŁ": 5266,
      "Ġstring": 5267,
      "1005": 5268,
      "1008": 5269,
      "1806": 5270,
      "1809": 5271,
      "1905": 5272,
      "1603": 5273,
      "1607": 5274,
      "1609": 5275,
      "1303": 5276,
      "1305": 5277,
      "1502": 5278,
      "1503": 5279,
      "1701": 5280,
      "1706": 5281,
      "2003": 5282,
      "2004": 5283,
      "2009": 5284,
      "1404": 5285,
      "2304": 5286,
      "2305": 5287,
      "2306": 5288,
      "2307": 5289,
      "2601": 5290,
      "2603": 5291,
      "2503": 5292,
      "2507": 5293,
      "2404": 5294,
      "2408": 5295,
      "1173": 5296,
      "1184": 5297,
      "1185": 5298,
      "1186": 5299,
      "1147": 5300,
      "1136": 5301,
      "1139": 5302,
      "1106": 5303,
      "1162": 5304,
      "1158": 5305,
      "ãģ«ãģĬãģĦãģ¦ãĤ·ãĤ¹ãĥĨãĥłãģ®å¤īæķ°": 5306,
      "2280": 5307,
      "2298": 5308,
      "ãģ«ãģĬãģĦãģ¦ãĥĿãĥªãĥ¢ãĥ¼ãĥķãĤ£ãĤºãĥłãģ®åĨįå¸°": 5309,
      "2126": 5310,
      "2265": 5311,
      "2253": 5312,
      "2132": 5313,
      "2133": 5314,
      "2137": 5315,
      "2141": 5316,
      "2148": 5317,
      "2169": 5318,
      "2209": 5319,
      "2174": 5320,
      "2176": 5321,
      "2104": 5322,
      "ãģ®ãĥĹãĥŃãĥĪãĤ³ãĥ«ãģĮæľĢéģ©åĮĸãģķãĤĮãģ¾ãģĹãģŁ": 5323,
      "ãģ®ãĥĪãĥ©ãĥ³ãĤ¶ãĤ¯ãĤ·ãĥ§ãĥ³ãģĮç°¡ç´łåĮĸãģķãĤĮãģ¾ãģĹãģŁ": 5324,
      "ãģ®ãĤ¢ãĥ¼ãĤŃãĥĨãĤ¯ãĥģãĥ£ãģĮå¼·åĮĸãģķãĤĮãģ¾ãģĹãģŁ": 5325,
      "ãģ®ãĥĲãĥªãĥĩãĥ¼ãĤ·ãĥ§ãĥ³ãģĮç°¡ç´łåĮĸãģķãĤĮãģ¾ãģĹãģŁ": 5326,
      "ãģ«ãģĬãģĦãģ¦ä¿Ŀå®ĪæĢ§ãģ®å¤īæķ°": 5327,
      "ãģ«ãģĬãģĦãģ¦åı¯çĶ¨æĢ§ãģ®è¨Ńå®ļ": 5328,
      "ãģ«ãģĬãģĦãģ¦ä¿¡éł¼æĢ§ãģ®ç¶Ļæī¿": 5329,
      "ãģ«ãģĬãģĦãģ¦ä¸¦è¡ĮæĢ§ãģ®ä»ķæ§ĺ": 5330,
      "4287": 5331,
      "3387": 5332,
      "4602": 5333,
      "3294": 5334,
      "3354": 5335,
      "4383": 5336,
      "3457": 5337,
      "4685": 5338,
      "4485": 5339,
      "4351": 5340,
      "4643": 5341,
      "4299": 5342,
      "3391": 5343,
      "3346": 5344,
      "Ġrandom": 5345,
      "Ġfastapi": 5346,
      "Ġpandas": 5347,
      "Ġnumpy": 5348,
      "3129": 5349,
      "3168": 5350,
      "3189": 5351,
      "3127": 5352,
      "3128": 5353,
      "3158": 5354,
      "3195": 5355,
      "3149": 5356,
      "3138": 5357,
      "3237": 5358,
      "3103": 5359,
      "3244": 5360,
      "3144": 5361,
      "3164": 5362,
      "3134": 5363,
      "3126": 5364,
      "3163": 5365,
      "3263": 5366,
      "3123": 5367,
      "3153": 5368,
      "3394": 5369,
      "3161": 5370,
      "3261": 5371,
      "3102": 5372,
      "3132": 5373,
      "3361": 5374,
      "3162": 5375,
      "3363": 5376,
      "3232": 5377,
      "3365": 5378,
      "4150": 5379,
      "4250": 5380,
      "4105": 5381,
      "4109": 5382,
      "4179": 5383,
      "4125": 5384,
      "4157": 5385,
      "4135": 5386,
      "4205": 5387,
      "4155": 5388,
      "4194": 5389,
      "4146": 5390,
      "4196": 5391,
      "4163": 5392,
      "4123": 5393,
      "4183": 5394,
      "4203": 5395,
      "4152": 5396,
      "4369": 5397,
      "4182": 5398,
      "4132": 5399,
      "4181": 5400,
      "4252": 5401,
      "4221": 5402,
      "6346": 5403,
      "7158": 5404,
      "pro": 5405,
      "Ġsub": 5406,
      "Ġhttp": 5407,
      "2012": 5408,
      "2026": 5409,
      "2030": 5410,
      "2045": 5411,
      "2028": 5412,
      "2027": 5413,
      "2037": 5414,
      "2039": 5415,
      "2011": 5416,
      "2049": 5417,
      "2060": 5418,
      "2067": 5419,
      "2069": 5420,
      "2070": 5421,
      "2059": 5422,
      "2088": 5423,
      "2077": 5424,
      "2042": 5425,
      "2063": 5426,
      "2074": 5427,
      "2096": 5428,
      "2073": 5429,
      "2072": 5430,
      "2082": 5431,
      "2091": 5432,
      "1020": 5433,
      "1016": 5434,
      "1019": 5435,
      "1014": 5436,
      "1013": 5437,
      "1017": 5438,
      "1048": 5439,
      "1047": 5440,
      "1065": 5441,
      "1069": 5442,
      "1070": 5443,
      "1059": 5444,
      "1079": 5445,
      "1088": 5446,
      "1099": 5447,
      "1098": 5448,
      "1057": 5449,
      "1085": 5450,
      "1041": 5451,
      "1054": 5452,
      "1086": 5453,
      "1096": 5454,
      "1093": 5455,
      "1614": 5456,
      "1613": 5457,
      "1617": 5458,
      "1612": 5459,
      "1645": 5460,
      "1638": 5461,
      "1647": 5462,
      "1632": 5463,
      "1678": 5464,
      "1679": 5465,
      "1690": 5466,
      "1680": 5467,
      "1699": 5468,
      "1674": 5469,
      "1686": 5470,
      "1673": 5471,
      "1692": 5472,
      "1681": 5473,
      "1510": 5474,
      "1516": 5475,
      "1515": 5476,
      "1514": 5477,
      "1512": 5478,
      "1530": 5479,
      "1545": 5480,
      "1536": 5481,
      "1548": 5482,
      "1549": 5483,
      "1565": 5484,
      "1578": 5485,
      "1588": 5486,
      "1544": 5487,
      "1577": 5488,
      "1566": 5489,
      "1598": 5490,
      "1521": 5491,
      "1543": 5492,
      "1587": 5493,
      "1531": 5494,
      "1541": 5495,
      "1574": 5496,
      "1554": 5497,
      "1594": 5498,
      "1584": 5499,
      "1814": 5500,
      "1813": 5501,
      "1812": 5502,
      "1824": 5503,
      "1829": 5504,
      "1838": 5505,
      "1839": 5506,
      "1836": 5507,
      "1811": 5508,
      "1840": 5509,
      "1832": 5510,
      "1878": 5511,
      "1858": 5512,
      "1888": 5513,
      "1890": 5514,
      "1877": 5515,
      "1899": 5516,
      "1846": 5517,
      "1898": 5518,
      "1842": 5519,
      "1863": 5520,
      "1876": 5521,
      "1884": 5522,
      "1873": 5523,
      "1872": 5524,
      "1871": 5525,
      "1861": 5526,
      "1917": 5527,
      "1924": 5528,
      "1945": 5529,
      "1964": 5530,
      "1928": 5531,
      "1927": 5532,
      "1935": 5533,
      "1911": 5534,
      "1965": 5535,
      "1968": 5536,
      "1978": 5537,
      "1975": 5538,
      "1989": 5539,
      "1946": 5540,
      "1957": 5541,
      "1943": 5542,
      "1931": 5543,
      "1942": 5544,
      "1962": 5545,
      "1961": 5546,
      "1419": 5547,
      "1412": 5548,
      "1445": 5549,
      "1464": 5550,
      "1429": 5551,
      "1411": 5552,
      "1449": 5553,
      "1444": 5554,
      "1455": 5555,
      "1475": 5556,
      "1498": 5557,
      "1457": 5558,
      "1495": 5559,
      "1497": 5560,
      "1473": 5561,
      "1483": 5562,
      "1461": 5563,
      "1451": 5564,
      "1320": 5565,
      "1319": 5566,
      "1314": 5567,
      "1312": 5568,
      "1330": 5569,
      "1345": 5570,
      "1327": 5571,
      "1334": 5572,
      "1367": 5573,
      "1368": 5574,
      "1344": 5575,
      "1377": 5576,
      "1399": 5577,
      "1366": 5578,
      "1389": 5579,
      "1385": 5580,
      "1395": 5581,
      "1363": 5582,
      "1362": 5583,
      "1356": 5584,
      "1386": 5585,
      "1383": 5586,
      "1393": 5587,
      "1352": 5588,
      "1382": 5589,
      "1720": 5590,
      "1710": 5591,
      "1719": 5592,
      "1745": 5593,
      "1764": 5594,
      "1729": 5595,
      "1737": 5596,
      "1734": 5597,
      "1711": 5598,
      "1747": 5599,
      "1767": 5600,
      "1778": 5601,
      "1788": 5602,
      "1733": 5603,
      "1766": 5604,
      "1785": 5605,
      "1795": 5606,
      "1797": 5607,
      "1741": 5608,
      "1756": 5609,
      "1792": 5610,
      "1791": 5611,
      "1220": 5612,
      "1216": 5613,
      "1215": 5614,
      "1218": 5615,
      "1213": 5616,
      "1217": 5617,
      "1212": 5618,
      "1224": 5619,
      "1230": 5620,
      "1264": 5621,
      "1239": 5622,
      "1235": 5623,
      "1236": 5624,
      "1269": 5625,
      "1259": 5626,
      "1244": 5627,
      "1233": 5628,
      "1284": 5629,
      "1253": 5630,
      "1271": 5631,
      "1281": 5632,
      "1291": 5633,
      "1251": 5634,
      "2518": 5635,
      "2512": 5636,
      "2525": 5637,
      "2524": 5638,
      "2535": 5639,
      "2511": 5640,
      "2548": 5641,
      "2568": 5642,
      "2550": 5643,
      "2559": 5644,
      "2579": 5645,
      "2522": 5646,
      "2590": 5647,
      "2577": 5648,
      "2599": 5649,
      "2533": 5650,
      "2566": 5651,
      "2546": 5652,
      "2521": 5653,
      "2587": 5654,
      "2597": 5655,
      "2562": 5656,
      "2556": 5657,
      "2573": 5658,
      "2583": 5659,
      "2572": 5660,
      "2416": 5661,
      "2419": 5662,
      "2426": 5663,
      "2430": 5664,
      "2438": 5665,
      "2439": 5666,
      "2435": 5667,
      "2440": 5668,
      "2465": 5669,
      "2468": 5670,
      "2469": 5671,
      "2478": 5672,
      "2470": 5673,
      "2422": 5674,
      "2490": 5675,
      "2421": 5676,
      "2487": 5677,
      "2441": 5678,
      "2484": 5679,
      "2473": 5680,
      "2493": 5681,
      "2482": 5682,
      "2492": 5683,
      "2320": 5684,
      "2317": 5685,
      "2323": 5686,
      "2328": 5687,
      "2338": 5688,
      "2348": 5689,
      "2347": 5690,
      "2367": 5691,
      "2368": 5692,
      "2369": 5693,
      "2379": 5694,
      "2380": 5695,
      "2366": 5696,
      "2375": 5697,
      "2346": 5698,
      "2357": 5699,
      "2374": 5700,
      "2383": 5701,
      "2393": 5702,
      "2352": 5703,
      "2371": 5704,
      "2361": 5705,
      "2391": 5706,
      "2620": 5707,
      "2610": 5708,
      "2616": 5709,
      "2614": 5710,
      "2624": 5711,
      "2630": 5712,
      "2637": 5713,
      "2647": 5714,
      "2649": 5715,
      "2632": 5716,
      "2665": 5717,
      "2670": 5718,
      "2658": 5719,
      "2690": 5720,
      "2677": 5721,
      "2680": 5722,
      "2633": 5723,
      "2666": 5724,
      "2657": 5725,
      "2643": 5726,
      "2631": 5727,
      "2676": 5728,
      "2673": 5729,
      "2653": 5730,
      "3020": 5731,
      "3010": 5732,
      "3015": 5733,
      "3012": 5734,
      "3045": 5735,
      "3028": 5736,
      "3048": 5737,
      "3067": 5738,
      "3068": 5739,
      "3078": 5740,
      "3050": 5741,
      "3022": 5742,
      "3033": 5743,
      "3066": 5744,
      "3046": 5745,
      "3043": 5746,
      "3095": 5747,
      "3087": 5748,
      "3062": 5749,
      "3000": 5750,
      "3076": 5751,
      "3094": 5752,
      "3083": 5753,
      "3081": 5754,
      "3002": 5755,
      "4515": 5756,
      "4514": 5757,
      "4517": 5758,
      "4512": 5759,
      "4524": 5760,
      "4538": 5761,
      "4539": 5762,
      "4500": 5763,
      "4586": 5764,
      "4501": 5765,
      "2819": 5766,
      "2812": 5767,
      "2824": 5768,
      "2830": 5769,
      "2836": 5770,
      "2834": 5771,
      "2878": 5772,
      "2850": 5773,
      "2822": 5774,
      "2890": 5775,
      "2899": 5776,
      "2833": 5777,
      "2875": 5778,
      "2889": 5779,
      "2898": 5780,
      "2857": 5781,
      "2843": 5782,
      "2863": 5783,
      "2874": 5784,
      "2894": 5785,
      "2884": 5786,
      "2853": 5787,
      "2852": 5788,
      "2861": 5789,
      "2892": 5790,
      "2808": 5791,
      "2916": 5792,
      "2918": 5793,
      "2919": 5794,
      "2914": 5795,
      "2917": 5796,
      "2927": 5797,
      "2937": 5798,
      "2935": 5799,
      "2936": 5800,
      "2960": 5801,
      "2932": 5802,
      "2969": 5803,
      "2977": 5804,
      "2980": 5805,
      "2999": 5806,
      "2998": 5807,
      "2921": 5808,
      "2985": 5809,
      "2942": 5810,
      "2962": 5811,
      "2956": 5812,
      "2994": 5813,
      "2961": 5814,
      "2902": 5815,
      "2907": 5816,
      "2716": 5817,
      "2724": 5818,
      "2723": 5819,
      "2727": 5820,
      "2732": 5821,
      "2779": 5822,
      "2744": 5823,
      "2777": 5824,
      "2766": 5825,
      "2789": 5826,
      "2763": 5827,
      "2762": 5828,
      "2756": 5829,
      "2786": 5830,
      "2772": 5831,
      "2793": 5832,
      "2771": 5833,
      "2751": 5834,
      "2704": 5835,
      "2705": 5836,
      "3816": 5837,
      "3818": 5838,
      "3813": 5839,
      "3825": 5840,
      "3864": 5841,
      "3827": 5842,
      "3835": 5843,
      "3847": 5844,
      "3878": 5845,
      "3888": 5846,
      "3822": 5847,
      "3866": 5848,
      "3889": 5849,
      "3846": 5850,
      "3821": 5851,
      "3882": 5852,
      "3802": 5853,
      "3807": 5854,
      "3715": 5855,
      "3719": 5856,
      "3714": 5857,
      "3713": 5858,
      "3725": 5859,
      "3723": 5860,
      "3726": 5861,
      "3728": 5862,
      "3711": 5863,
      "3747": 5864,
      "3732": 5865,
      "3779": 5866,
      "3758": 5867,
      "3788": 5868,
      "3722": 5869,
      "3790": 5870,
      "3777": 5871,
      "3780": 5872,
      "3798": 5873,
      "3742": 5874,
      "3762": 5875,
      "3756": 5876,
      "3753": 5877,
      "3752": 5878,
      "3771": 5879,
      "3761": 5880,
      "3792": 5881,
      "3781": 5882,
      "3791": 5883,
      "3705": 5884,
      "3919": 5885,
      "3917": 5886,
      "3912": 5887,
      "3925": 5888,
      "3923": 5889,
      "3928": 5890,
      "3936": 5891,
      "3967": 5892,
      "3990": 5893,
      "3975": 5894,
      "3984": 5895,
      "3973": 5896,
      "3993": 5897,
      "3952": 5898,
      "3992": 5899,
      "3981": 5900,
      "3991": 5901,
      "3951": 5902,
      "3901": 5903,
      "3907": 5904,
      "3903": 5905,
      "3510": 5906,
      "3516": 5907,
      "3519": 5908,
      "3512": 5909,
      "3538": 5910,
      "3535": 5911,
      "3540": 5912,
      "3549": 5913,
      "3579": 5914,
      "3544": 5915,
      "3577": 5916,
      "3580": 5917,
      "3543": 5918,
      "3585": 5919,
      "3554": 5920,
      "3594": 5921,
      "3584": 5922,
      "3552": 5923,
      "3582": 5924,
      "3592": 5925,
      "3501": 5926,
      "3509": 5927,
      "3507": 5928,
      "3620": 5929,
      "3610": 5930,
      "3612": 5931,
      "3625": 5932,
      "3624": 5933,
      "3626": 5934,
      "3629": 5935,
      "3627": 5936,
      "3666": 5937,
      "3675": 5938,
      "3657": 5939,
      "3656": 5940,
      "3694": 5941,
      "3684": 5942,
      "3673": 5943,
      "3653": 5944,
      "3692": 5945,
      "3681": 5946,
      "3691": 5947,
      "3651": 5948,
      "3607": 5949,
      "3417": 5950,
      "3425": 5951,
      "3424": 5952,
      "3445": 5953,
      "3464": 5954,
      "3427": 5955,
      "3438": 5956,
      "3435": 5957,
      "3469": 5958,
      "3433": 5959,
      "3475": 5960,
      "3489": 5961,
      "3495": 5962,
      "3431": 5963,
      "3442": 5964,
      "3463": 5965,
      "3441": 5966,
      "3400": 5967,
      "3486": 5968,
      "3496": 5969,
      "3483": 5970,
      "3482": 5971,
      "3492": 5972,
      "3402": 5973,
      "1118": 5974,
      "1112": 5975,
      "4016": 5976,
      "4017": 5977,
      "4024": 5978,
[...]
