{
  "version": "1.0",
  "truncation": null,
  "padding": null,
  "added_tokens": [
    {
      "id": 0,
      "content": "<s>",
      "single_word": false,
      "lstrip": false,
      "rstrip": false,
      "normalized": false,
      "special": true
    },
    {
      "id": 1,
      "content": "</s>",
      "single_word": false,
      "lstrip": false,
      "rstrip": false,
      "normalized": false,
      "special": true
    },
    {
      "id": 2,
      "content": "<pad>",
      "single_word": false,
      "lstrip": false,
      "rstrip": false,
      "normalized": false,
      "special": true
    },
    {
      "id": 3,
      "content": "<unk>",
      "single_word": false,
      "lstrip": false,
      "rstrip": false,
      "normalized": false,
      "special": true
    },
    {
      "id": 4,
      "content": "<fim_prefix>",
      "single_word": false,
      "lstrip": false,
      "rstrip": false,
      "normalized": false,
      "special": true
    },
    {
      "id": 5,
      "content": "<fim_suffix>",
      "single_word": false,
      "lstrip": false,
      "rstrip": false,
      "normalized": false,
      "special": true
    },
    {
      "id": 6,
      "content": "<fim_middle>",
      "single_word": false,
      "lstrip": false,
      "rstrip": false,
      "normalized": false,
      "special": true
    },
    {
      "id": 7,
      "content": "<tool_call>",
      "single_word": false,
      "lstrip": false,
      "rstrip": false,
      "normalized": false,
      "special": true
    },
    {
      "id": 8,
      "content": "</tool_call>",
      "single_word": false,
      "lstrip": false,
      "rstrip": false,
      "normalized": false,
      "special": true
    },
    {
      "id": 9,
      "content": "<scratchpad>",
      "single_word": false,
      "lstrip": false,
      "rstrip": false,
      "normalized": false,
      "special": true
    },
    {
      "id": 10,
      "content": "</scratchpad>",
      "single_word": false,
      "lstrip": false,
      "rstrip": false,
      "normalized": false,
      "special": true
    }
  ],
  "normalizer": {
    "type": "NFKC"
  },
  "pre_tokenizer": {
    "type": "ByteLevel",
    "add_prefix_space": false,
    "trim_offsets": true,
    "use_regex": true
  },
  "post_processor": {
    "type": "TemplateProcessing",
    "single": [
      {
        "SpecialToken": {
          "id": "<s>",
          "type_id": 0
        }
      },
      {
        "Sequence": {
          "id": "A",
          "type_id": 0
        }
      },
      {
        "SpecialToken": {
          "id": "</s>",
          "type_id": 0
        }
      }
    ],
    "pair": [
      {
        "SpecialToken": {
          "id": "<s>",
          "type_id": 0
        }
      },
      {
        "Sequence": {
          "id": "A",
          "type_id": 0
        }
      },
      {
        "SpecialToken": {
          "id": "</s>",
          "type_id": 0
        }
      },
      {
        "SpecialToken": {
          "id": "<s>",
          "type_id": 0
        }
      },
      {
        "Sequence": {
          "id": "B",
          "type_id": 0
        }
      },
      {
        "SpecialToken": {
          "id": "</s>",
          "type_id": 0
        }
      }
    ],
    "special_tokens": {
      "</s>": {
        "id": "</s>",
        "ids": [
          1
        ],
        "tokens": [
          "</s>"
        ]
      },
      "<s>": {
        "id": "<s>",
        "ids": [
          0
        ],
        "tokens": [
          "<s>"
        ]
      }
    }
  },
  "decoder": {
    "type": "ByteLevel",
    "add_prefix_space": true,
    "trim_offsets": true,
    "use_regex": true
  },
  "model": {
    "type": "BPE",
    "dropout": null,
    "unk_token": "<unk>",
    "continuing_subword_prefix": null,
    "end_of_word_suffix": null,
    "fuse_unk": false,
    "byte_fallback": false,
    "ignore_merges": false,
    "vocab": {
      "<s>": 0,
      "</s>": 1,
      "<pad>": 2,
      "<unk>": 3,
      "<fim_prefix>": 4,
      "<fim_suffix>": 5,
      "<fim_middle>": 6,
      "<tool_call>": 7,
      "</tool_call>": 8,
      "<scratchpad>": 9,
      "</scratchpad>": 10,
      "!": 11,
      "\"": 12,
      "#": 13,
      "$": 14,
      "%": 15,
      "&": 16,
      "'": 17,
      "(": 18,
      ")": 19,
      "*": 20,
      "+": 21,
      ",": 22,
      "-": 23,
      ".": 24,
      "/": 25,
      "0": 26,
      "1": 27,
      "2": 28,
      "3": 29,
      "4": 30,
      "5": 31,
      "6": 32,
      "7": 33,
      "8": 34,
      "9": 35,
      ":": 36,
      ";": 37,
      "<": 38,
      "=": 39,
      ">": 40,
      "?": 41,
      "@": 42,
      "A": 43,
      "B": 44,
      "C": 45,
      "D": 46,
      "E": 47,
      "F": 48,
      "G": 49,
      "H": 50,
      "I": 51,
      "J": 52,
      "K": 53,
      "L": 54,
      "M": 55,
      "N": 56,
      "O": 57,
      "P": 58,
      "Q": 59,
      "R": 60,
      "S": 61,
      "T": 62,
      "U": 63,
      "V": 64,
      "W": 65,
      "X": 66,
      "Y": 67,
      "Z": 68,
      "[": 69,
      "\\": 70,
      "]": 71,
      "^": 72,
      "_": 73,
      "`": 74,
      "a": 75,
      "b": 76,
      "c": 77,
      "d": 78,
      "e": 79,
      "f": 80,
      "g": 81,
      "h": 82,
      "i": 83,
      "j": 84,
      "k": 85,
      "l": 86,
      "m": 87,
      "n": 88,
      "o": 89,
      "p": 90,
      "q": 91,
      "r": 92,
      "s": 93,
      "t": 94,
      "u": 95,
      "v": 96,
      "w": 97,
      "x": 98,
      "y": 99,
      "z": 100,
      "{": 101,
      "|": 102,
      "}": 103,
      "~": 104,
      "¡": 105,
      "¢": 106,
      "£": 107,
      "¤": 108,
      "¥": 109,
      "¦": 110,
      "§": 111,
      "¨": 112,
      "©": 113,
      "ª": 114,
      "«": 115,
      "¬": 116,
      "®": 117,
      "¯": 118,
      "°": 119,
      "±": 120,
      "²": 121,
      "³": 122,
      "´": 123,
      "µ": 124,
      "¶": 125,
      "·": 126,
      "¸": 127,
      "¹": 128,
      "º": 129,
      "»": 130,
      "¼": 131,
      "½": 132,
      "¾": 133,
      "¿": 134,
      "À": 135,
      "Á": 136,
      "Â": 137,
      "Ã": 138,
      "Ä": 139,
      "Å": 140,
      "Æ": 141,
      "Ç": 142,
      "È": 143,
      "É": 144,
      "Ê": 145,
      "Ë": 146,
      "Ì": 147,
      "Í": 148,
      "Î": 149,
      "Ï": 150,
      "Ð": 151,
      "Ñ": 152,
      "Ò": 153,
      "Ó": 154,
      "Ô": 155,
      "Õ": 156,
      "Ö": 157,
      "×": 158,
      "Ø": 159,
      "Ù": 160,
      "Ú": 161,
      "Û": 162,
      "Ü": 163,
      "Ý": 164,
      "Þ": 165,
      "ß": 166,
      "à": 167,
      "á": 168,
      "â": 169,
      "ã": 170,
      "ä": 171,
      "å": 172,
      "æ": 173,
      "ç": 174,
      "è": 175,
      "é": 176,
      "ê": 177,
      "ë": 178,
      "ì": 179,
      "í": 180,
      "î": 181,
      "ï": 182,
      "ð": 183,
      "ñ": 184,
      "ò": 185,
      "ó": 186,
      "ô": 187,
      "õ": 188,
      "ö": 189,
      "÷": 190,
      "ø": 191,
      "ù": 192,
      "ú": 193,
      "û": 194,
      "ü": 195,
      "ý": 196,
      "þ": 197,
      "ÿ": 198,
      "Ā": 199,
      "ā": 200,
      "Ă": 201,
      "ă": 202,
      "Ą": 203,
      "ą": 204,
      "Ć": 205,
      "ć": 206,
      "Ĉ": 207,
      "ĉ": 208,
      "Ċ": 209,
      "ċ": 210,
      "Č": 211,
      "č": 212,
      "Ď": 213,
      "ď": 214,
      "Đ": 215,
      "đ": 216,
      "Ē": 217,
      "ē": 218,
      "Ĕ": 219,
      "ĕ": 220,
      "Ė": 221,
      "ė": 222,
      "Ę": 223,
      "ę": 224,
      "Ě": 225,
      "ě": 226,
      "Ĝ": 227,
      "ĝ": 228,
      "Ğ": 229,
      "ğ": 230,
      "Ġ": 231,
      "ġ": 232,
      "Ģ": 233,
      "ģ": 234,
      "Ĥ": 235,
      "ĥ": 236,
      "Ħ": 237,
      "ħ": 238,
      "Ĩ": 239,
      "ĩ": 240,
      "Ī": 241,
      "ī": 242,
      "Ĭ": 243,
      "ĭ": 244,
      "Į": 245,
      "į": 246,
      "İ": 247,
      "ı": 248,
      "Ĳ": 249,
      "ĳ": 250,
      "Ĵ": 251,
      "ĵ": 252,
      "Ķ": 253,
      "ķ": 254,
      "ĸ": 255,
      "Ĺ": 256,
      "ĺ": 257,
      "Ļ": 258,
      "ļ": 259,
      "Ľ": 260,
      "ľ": 261,
      "Ŀ": 262,
      "ŀ": 263,
      "Ł": 264,
      "ł": 265,
      "Ń": 266,
      "ãģ": 267,
      "ãĥ": 268,
      "ãĤ": 269,
      "ĠĠ": 270,
      "ãĥ¼": 271,
      "ĠĠĠĠ": 272,
      "ãģĻ": 273,
      "ĠĠĠ": 274,
      "ãĢ": 275,
      "ãģ§": 276,
      "ãĤĴ": 277,
      "ãĢĤ": 278,
      "in": 279,
      "ãģ®": 280,
      "re": 281,
      "Ĺãģ": 282,
      "ãģĹãģ": 283,
      "ãĥ¼ãĤ": 284,
      "¾ãģĻ": 285,
      "ãģ¯": 286,
      "on": 287,
      "se": 288,
      "ĊĠĠĠ": 289,
      "ãģ«": 290,
      "ãĥ³": 291,
      "ãĥ¼ãĥ": 292,
      "ãĤ¹": 293,
      "ar": 294,
      "Ġre": 295,
      "ãģĮ": 296,
      "le": 297,
      "ĊĠĠĠĠ": 298,
      "Ħãģ": 299,
      "de": 300,
      "or": 301,
      "tu": 302,
      "Ġ=": 303,
      "st": 304,
      "ãĥĪ": 305,
      "er": 306,
      "è¨": 307,
      "ãģĦãģ": 308,
      "ãĥĩ": 309,
      "Ġm": 310,
      "ĊĠĠĠĠĠĠĠ": 311,
      "ãĤ¤": 312,
      "Ġ{": 313,
      "en": 314,
      "at": 315,
      "å®": 316,
      "Ġt": 317,
      "ãĤ¯": 318,
      "ãģĹãģ¦": 319,
      "Ġ}": 320,
      "rn": 321,
      "Ġretu": 322,
      "Ġreturn": 323,
      "Ġ<": 324,
      "¦ç": 325,
      "ãģ¨": 326,
      "ãĥĨ": 327,
      "ãģ§ãģĻ": 328,
      "it": 329,
      "ä½": 330,
      "åĲ": 331,
      "éĸ": 332,
      "ĭç": 333,
      "Ĺãĥ": 334,
      "ãĥķ": 335,
      "ãģĹãģ¾ãģĻ": 336,
      "Ġf": 337,
      "int": 338,
      "arr": 339,
      ");": 340,
      "Ġa": 341,
      "Ġi": 342,
      "ion": 343,
      "use": 344,
      "åĪ": 345,
      "ãĥ©": 346,
      "ãĥª": 347,
      "ãĥĹãĥ": 348,
      "nc": 349,
      "Ġp": 350,
      "çĶ": 351,
      "è¡": 352,
      "è¦": 353,
      "ĲĨ": 354,
      "ãģĦãģ¾ãģĻ": 355,
      "ãĥĩãĥ¼ãĤ": 356,
      "ain": 357,
      "):": 358,
      "lf": 359,
      "Ġn": 360,
      "self": 361,
      "ss": 362,
      "Ġle": 363,
      "ht": 364,
      "id": 365,
      "ri": 366,
      "åī": 367,
      "Ġc": 368,
      "ãģª": 369,
      "ãģĵ": 370,
      "ãģ¾ãģĻ": 371,
      "ãĤĴä½": 372,
      "ãĥ¼ãĥ«": 373,
      "å®Ł": 374,
      "çĶ¨": 375,
      "è¡Į": 376,
      "ãĥĩãĥ¼ãĤ¿": 377,
      "ac": 378,
      "()": 379,
      "Ġmain": 380,
      "def": 381,
      "lo": 382,
      "et": 383,
      "ft": 384,
      "°å": 385,
      "ä¾": 386,
      "åĢ": 387,
      "æĸ": 388,
      "Ġ-": 389,
      "ãĥ¡": 390,
      "ãĥ§": 391,
      "ãĥ«": 392,
      "ãĥĥ": 393,
      "ãĤ°": 394,
      "ãĤĭ": 395,
      "ãĢģ": 396,
      "ãģ§ãģ¯": 397,
      "ãĤ¹ãĥĪ": 398,
      "ãģĹãģ¦ãģĦãģ¾ãģĻ": 399,
      "ãĥķãĤ": 400,
      "ãĥĹãĥŃ": 401,
      "è¦ģ": 402,
      "ãĤĴä½¿": 403,
      "io": 404,
      "rint": 405,
      "ort": 406,
      "im": 407,
      "Ġ1": 408,
      "Ġself": 409,
      "Ġif": 410,
      "//": 411,
      "am": 412,
      "ch": 413,
      "tion": 414,
      "ex": 415,
      "ght": 416,
      "he": 417,
      "ro": 418,
      "¹æ": 419,
      "åĩ": 420,
      "åĭ": 421,
      "åı": 422,
      "åŃ": 423,
      "æ§": 424,
      "æ¨": 425,
      "èª": 426,
      "èĥ": 427,
      "éģ": 428,
      "Ġuse": 429,
      "Ġri": 430,
      "ĭãĤ": 431,
      "Ļº": 432,
      "ãĥ¬": 433,
      "ãĥł": 434,
      "ãĤ³": 435,
      "ãģĻãĤĭ": 436,
      "ãģ«ãģ¯": 437,
      "ãģĦãģ¦": 438,
      "¦çĲĨ": 439,
      "éĸĭç": 440,
      "åĢ¤": 441,
      "è¦ģãģ§ãģĻ": 442,
      "åĩ¦çĲĨ": 443,
      "åĭķ": 444,
      "èĥ½": 445,
      "Ġright": 446,
      "éĸĭçĻº": 447,
      "Ġv": 448,
      "(\"": 449,
      "al": 450,
      "sy": 451,
      "sync": 452,
      "__": 453,
      "cl": 454,
      "el": 455,
      "unc": 456,
      "Ġarr": 457,
      "ck": 458,
      "ode": 459,
      "qu": 460,
      "Ġ(": 461,
      "ent": 462,
      "</": 463,
      "atu": 464,
      "ce": 465,
      "get": 466,
      "js": 467,
      "ok": 468,
      "pt": 469,
      "th": 470,
      "¢æ": 471,
      "¢ĥ": 472,
      "©Ł": 473,
      "³ķ": 474,
      "·ãĤ¹": 475,
      "·ãĥ§": 476,
      "¿Ĵ": 477,
      "ä¸": 478,
      "ä»": 479,
      "å¤": 480,
      "æľ": 481,
      "æ©Ł": 482,
      "ç´": 483,
      "çĴ": 484,
      "èĩ": 485,
      "éĩ": 486,
      "ĊĠ": 487,
      "Ġãģ¯": 488,
      "ĤãĤ": 489,
      "įåī": 490,
      "ãĥ¢": 491,
      "ãĥĲ": 492,
      "ãĤ¢": 493,
      "ãĤ¨": 494,
      "ãĤª": 495,
      "ĠĠĠĠĠĠĠ": 496,
      "ãĤĴæ": 497,
      "ãģ«å": 498,
      "ãĥ³ãĤ°": 499,
      "ĊĠĠĠĠĠĠĠĠĠĠĠ": 500,
      "è¨¼": 501,
      "è¨Ī": 502,
      "Ġmid": 503,
      "ãĤ¯ãĥ": 504,
      "¦ç¿Ĵ": 505,
      "åĲįåī": 506,
      "Ġleft": 507,
      "°å¢ĥ": 508,
      "æĸ¹æ": 509,
      "ãĥ¡ãĥ¼ãĥ«": 510,
      "åı¯": 511,
      "éģ©": 512,
      "Ġuser": 513,
      "json": 514,
      "çĴ°å¢ĥ": 515,
      "èĩª": 516,
      "åĲįåīį": 517,
      "æĸ¹æ³ķ": 518,
      "bon": 519,
      "ci": 520,
      "ibon": 521,
      "Ġfibon": 522,
      "acci": 523,
      "Ġfibonacci": 524,
      "\");": 525,
      "func": 526,
      "port": 527,
      "Ġdef": 528,
      "Ġ<=": 529,
      "Ġprint": 530,
      "import": 531,
      "ai": 532,
      "ass": 533,
      "em": 534,
      "iv": 535,
      "Ġ\"": 536,
      "Ġ+": 537,
      "Ġ0": 538,
      "Ġ2": 539,
      "Ġin": 540,
      "ame": 541,
      "ail": 542,
      "email": 543,
      "AP": 544,
      "Re": 545,
      "iz": 546,
      "ile": 547,
      "om": 548,
      "ost": 549,
      "ub": 550,
      "¡ç": 551,
      "£ħ": 552,
      "£ãģ": 553,
      "¯ī": 554,
      "·±": 555,
      "¿ħ": 556,
      "äº": 557,
      "åĬ": 558,
      "æĢ": 559,
      "æħ": 560,
      "æĪ": 561,
      "æĮ": 562,
      "ç®": 563,
      "çı": 564,
      "çĽ": 565,
      "è¿": 566,
      "è£ħ": 567,
      "éĿ": 568,
      "Ġ'": 569,
      "Ġb": 570,
      "Ġde": 571,
      "Ĭãģ¾ãģĻ": 572,
      "įãģ¾ãģĻ": 573,
      "įè¦ģãģ§ãģĻ": 574,
      "Ļãĥ¼ãĤ": 575,
      "ãģĦ": 576,
      "ãģĤãĤ": 577,
      "ãģ£ãģ": 578,
      "ãģįãģ¾ãģĻ": 579,
      "ãĥ¥": 580,
      "ãĥī": 581,
      "ãĥĬ": 582,
      "ãĥĳ": 583,
      "ãĥŀ": 584,
      "ãĥŁ": 585,
      "ãĥĻãĥ¼ãĤ": 586,
      "ãĤ§": 587,
      "ãĤµ": 588,
      "ãĤ»": 589,
      "ãĤ·ãĤ¹": 590,
      "ãģ§ãģįãģ¾ãģĻ": 591,
      "ãĤĴå®Ł": 592,
      "ãĤĴè¡Į": 593,
      "ãģĹãģŁ": 594,
      "ãĥ¼ãĤ¯": 595,
      "ãĥ¼ãĤ·ãĥ§": 596,
      "ãģ«ãģ": 597,
      "ãĥ¼ãĥī": 598,
      "arch": 599,
      "arget": 600,
      "Ġres": 601,
      "ãģĮéĩ": 602,
      "ãģĮãģĤãĤ": 603,
      "statu": 604,
      "err": 605,
      "è¨Ń": 606,
      "ate": 607,
      "ation": 608,
      "å®ļ": 609,
      "Ġtarget": 610,
      "ãģ¨ãģ§": 611,
      "ãĥĨãĤ¹ãĥĪ": 612,
      "ãĥĨãĥł": 613,
      "ä½ľ": 614,
      "éĸ¢æ": 615,
      "ĭç¯ī": 616,
      "åĪĨ": 617,
      "åĪĹ": 618,
      "ãģĵãģ®": 619,
      "ãģĵãģ¨ãģ§": 620,
      "ãĥĩãĥ¼ãĤ¿ãĥĻãĥ¼ãĤ": 621,
      "ä¾Ŀ": 622,
      "ãĥĥãĤ¯": 623,
      "ãĤĴä½¿çĶ¨": 624,
      "åŃ¦ç¿Ĵ": 625,
      "æ§ĭç¯ī": 626,
      "ãĤ³ãĥ³": 627,
      "cker": 628,
      "oken": 629,
      "å¤§": 630,
      "ç´¢": 631,
      "åı¯èĥ½": 632,
      "èĩªåĭķ": 633,
      "æĢ§": 634,
      "æĮĩ": 635,
      "çı¾": 636,
      "çĽ®": 637,
      "ãģĮéĩįè¦ģãģ§ãģĻ": 638,
      "ãģĮãģĤãĤĬãģ¾ãģĻ": 639,
      "status": 640,
      "éĸ¢æķ": 641,
      "Hel": 642,
      "ln": 643,
      "mt": 644,
      "rin": 645,
      "ĠN": 646,
      "Ġx": 647,
      "Ġst": 648,
      "Ġasync": 649,
      "Ġval": 650,
      "Hello": 651,
      "ring": 652,
      "Ġstring": 653,
      "async": 654,
      "dio": 655,
      "ec": 656,
      "ient": 657,
      "ot": 658,
      "tp": 659,
      "um": 660,
      "ude": 661,
      "Ġ&": 662,
      "ĠU": 663,
      "ĠW": 664,
      "Ġw": 665,
      "Ġ__": 666,
      "Ġemail": 667,
      "init": 668,
      "incl": 669,
      "left": 670,
      "stdio": 671,
      "ith": 672,
      "Ġfor": 673,
      "Ġname": 674,
      "Ġlen": 675,
      "http": 676,
      "__(": 677,
      "class": 678,
      "function": 679,
      "Ġprintf": 680,
      "include": 681,
      "({": 682,
      ").": 683,
      "40": 684,
      "DE": 685,
      "Do": 686,
      "EC": 687,
      "Git": 688,
      "Hub": 689,
      "JW": 690,
      "Py": 691,
      "RE": 692,
      "SC": 693,
      "Sc": 694,
      "Ty": 695,
      "an": 696,
      "ap": 697,
      "cer": 698,
      "code": 699,
      "com": 700,
      "du": 701,
      "div": 702,
      "es": 703,
      "est": 704,
      "file": 705,
      "git": 706,
      "hat": 707,
      "host": 708,
      "if": 709,
      "mid": 710,
      "pe": 711,
      "pon": 712,
      "ple": 713,
      "ry": 714,
      "spon": 715,
      "token": 716,
      "uth": 717,
      "}</": 718,
      "¢ç´¢": 719,
      "£ãĥ¼ãĥ«": 720,
      "¤ľ": 721,
      "¤åŃ¦ç¿Ĵ": 722,
      "¦ãĥ¼ãĤ": 723,
      "¬ç": 724,
      "±¤åŃ¦ç¿Ĵ": 725,
      "µĦãģ": 726,
      "¶æħ": 727,
      "¸ãĥ§": 728,
      "¸ãĤ§": 729,
      "¹ãģ®": 730,
      "¿ãĤ¤": 731,
      "ä¿": 732,
      "å¯": 733,
      "å¾": 734,
      "åħ": 735,
      "åĨ": 736,
      "åĮ": 737,
      "å¿ħ": 738,
      "å±¤åŃ¦ç¿Ĵ": 739,
      "æİ": 740,
      "æ·±": 741,
      "çĬ": 742,
      "çİ": 743,
      "çµĦãģ": 744,
      "è²": 745,
      "éĢ": 746,
      "éħ": 747,
      "ĠO": 748,
      "Ġãĥ": 749,
      "Ġse": 750,
      "Ġlo": 751,
      "ĠåĢ¤": 752,
      "Ġel": 753,
      "Ġãĥ¡ãĥ¼ãĥ«": 754,
      "ĠåĲįåīį": 755,
      "Ġerr": 756,
      "ĠçĽ®": 757,
      "Ģè²": 758,
      "ģãĥ": 759,
      "įè¨¼": 760,
      "įåĪĹ": 761,
      "įçı¾": 762,
      "ıãģ": 763,
      "ıæ¨": 764,
      "ĵãĤ¹": 765,
      "ķ¥": 766,
      "ĻåĢ¤": 767,
      "ŀĭãĤ": 768,
      "łãģ": 769,
      "ŃãĥĨ": 770,
      "ãģĨ": 771,
      "ãģĭãĤ": 772,
      "ãĥĸ": 773,
      "ãĥĿ": 774,
      "ãĤ£": 775,
      "ãĤ±": 776,
      "ãĤ½": 777,
      "ãĤ¿": 778,
      "ãĤ¸ãĤ§": 779,
      "ãĤĴçĶ¨": 780,
      "ãĤĴåĩ¦çĲĨ": 781,
      "ãĤĴè¿": 782,
      "inar": 783,
      "ãģ®å®Ł": 784,
      "ãģ®ãĥĲ": 785,
      "ãģ®æ§ĭç¯ī": 786,
      "ãģ®èĩªåĭķ": 787,
      "ree": 788,
      "respon": 789,
      "ãĥ¼ãĤ¸ãĥ§": 790,
      "ãĥ¼ãĤŃãĥĨ": 791,
      "onst": 792,
      "ãĥ³ãĤ¹": 793,
      "ãĥ¼ãĥĵãĤ¹": 794,
      "Ġreq": 795,
      "Ġrequ": 796,
      "ãģĮç": 797,
      "ãģĮéĸĭçĻº": 798,
      "ãģĮå¿ħ": 799,
      "Ġ==": 800,
      "ãĥĪãĥ¼ãĤ¯": 801,
      "è¨ĺ": 802,
      "ãĥĩãĥ«": 803,
      "ãĥĩãĥĹãĥŃ": 804,
      "ãĤ¤ãĥ³": 805,
      "ãĤ¤ãĥ«": 806,
      "ãĤ¤ãĤ¯ãĥ": 807,
      "Ġ{{": 808,
      "Ġthe": 809,
      "Ġthat": 810,
      "ãĤ¯ãĥĪ": 811,
      "ãĤ¯ãĤ¨": 812,
      "Ġ});": 813,
      "Ġ}}</": 814,
      "ãĥĨãĥĬ": 815,
      "åĲĪ": 816,
      "useRe": 817,
      "ãĥ©ãĤ¤": 818,
      "ãĥ©ãĥ³ãĤ¹": 819,
      "ãĥªãĤ¯ãĤ¨": 820,
      "Ġpro": 821,
      "è¦ıæ¨": 822,
      "Ġnex": 823,
      "ript": 824,
      "Ġconst": 825,
      "ãĥ¡ãĥ¢": 826,
      "ãĤ°ãĥ©": 827,
      "ãĥķãĤ©": 828,
      "ãĥķãĤ£ãĥ¼ãĥ«": 829,
      "ãĥĹãĥŃãĤ°ãĥ©": 830,
      "ãĤĴä½¿ãģ£ãģ": 831,
      "imiz": 832,
      "ample": 833,
      "example": 834,
      "åŃĺ": 835,
      "æ§ĭ": 836,
      "æ¨ĻåĢ¤": 837,
      "èª¬": 838,
      "èªįè¨¼": 839,
      "ãĥ¬ãĥ¼ãĤ·ãĥ§": 840,
      "ãĤ³ãĥ¼ãĥī": 841,
      "ãģĻãĤĭãģĵãģ¨ãģ§": 842,
      "cess": 843,
      "thon": 844,
      "ä¸Ģè²": 845,
      "ä»ĸ": 846,
      "æ©Łèĥ½": 847,
      "ãĥ¢ãĥĩãĥ«": 848,
      "ãĥĲãĥ¼ãĤ¸ãĥ§": 849,
      "è¨Īç®": 850,
      "ãĤ¯ãĥģãĥ": 851,
      "éģ©ãģĹãģ¦ãģĦãģ¾ãģĻ": 852,
      "API": 853,
      "¡çĲĨ": 854,
      "æĪĲ": 855,
      "Ġbinar": 856,
      "Ġdecode": 857,
      "ãĥŀãĤ¤ãĤ¯ãĥ": 858,
      "ãĤµãĥ¼ãĥĵãĤ¹": 859,
      "ãĤ·ãĤ¹ãĥĨãĥł": 860,
      "ãĤĴè¡ĮãģĦãģ¾ãģĻ": 861,
      "è¨Ńè¨Ī": 862,
      "ä¾ĿåŃĺ": 863,
      "ãĥĥãĤ¯ãĤ¹": 864,
      "ãĤĴä½¿çĶ¨ãģĻãĤĭãģĵãģ¨ãģ§": 865,
      "ãĤ³ãĥ³ãĥĨãĥĬ": 866,
      "å¤§è¦ıæ¨": 867,
      "åı¯èĥ½ãģ§ãģĻ": 868,
      "éĸ¢æķ°": 869,
      "Docker": 870,
      "GitHub": 871,
      "JWT": 872,
      "Python": 873,
      "Script": 874,
      "Type": 875,
      "ducer": 876,
      "ests": 877,
      "¦ãĥ¼ãĤ¶": 878,
      "åĨįçı¾": 879,
      "åĮĸ": 880,
      "æ·±å±¤åŃ¦ç¿Ĵ": 881,
      "çĬ¶æħ": 882,
      "çİĩ": 883,
      "çµĦãģ¿": 884,
      "éħįåĪĹ": 885,
      "Ġãĥ¦ãĥ¼ãĤ¶": 886,
      "Ġerror": 887,
      "ĠçĽ®æ¨ĻåĢ¤": 888,
      "ãģĭãĤī": 889,
      "ãĤ¸ãĤ§ãĤ¯ãĥĪ": 890,
      "ãĤĴåĩ¦çĲĨãģĹãģ¾ãģĻ": 891,
      "ãĤĴè¿½": 892,
      "response": 893,
      "ãĥ¼ãĤŃãĥĨãĤ¯ãĥģãĥ": 894,
      "Ġrequests": 895,
      "ãģĮéĸĭçĻºãģĹãģŁ": 896,
      "ãģĮå¿ħè¦ģãģ§ãģĻ": 897,
      "ãĥĪãĥ¼ãĤ¯ãĥ³": 898,
      "ãĥĩãĥĹãĥŃãĤ¤": 899,
      "useReducer": 900,
      "ãĥªãĤ¯ãĤ¨ãĤ¹ãĥĪ": 901,
      "Ġprocess": 902,
      "Ġnext": 903,
      "ãĥ¡ãĥ¢ãĥª": 904,
      "ãĥ¢ãĥĩãĥ«ãģ®": 905,
      "è¨Īç®Ĺ": 906,
      "Ġbinary": 907,
      "Ġdecoded": 908,
      "ãĥŀãĤ¤ãĤ¯ãĥŃ": 909,
      "å¤§è¦ıæ¨¡": 910,
      "ãĥ¼ãĤŃãĥĨãĤ¯ãĥģãĥ£": 911,
      "![": 912,
      "!\\": 913,
      "!(\"": 914,
      "\",": 915,
      ")//": 916,
      "Cl": 917,
      "Print": 918,
      "Se": 919,
      "];": 920,
      "ag": 921,
      "ber": 922,
      "fn": 923,
      "fac": 924,
      "fmt": 925,
      "ick": 926,
      "kag": 927,
      "ld": 928,
      "pac": 929,
      "rl": 930,
      "sort": 931,
      "url": 932,
      "val": 933,
      "{}": 934,
      "Ġ3": 935,
      "Ġs": 936,
      "Ġqu": 937,
      "one": 938,
      "ser": 939,
      "len": 940,
      "orld": 941,
      "erfac": 942,
      "Ġfet": 943,
      "Ġfmt": 944,
      "interfac": 945,
      "Ġas": 946,
      "Ġaio": 947,
      "Ġid": 948,
      "Ġpiv": 949,
      "Ġnum": 950,
      "ssion": 951,
      "Ġlet": 952,
      "Ġvec": 953,
      "Ġprintln": 954,
      "ĠNode": 955,
      "ĠNone": 956,
      "Ġasyncio": 957,
      "ientSe": 958,
      "ĠUser": 959,
      "ĠWorld": 960,
      "Ġwith": 961,
      "!(\"{}": 962,
      "ClientSe": 963,
      "Println": 964,
      "icksort": 965,
      "kage": 966,
      "package": 967,
      "Ġquicksort": 968,
      "Ġfetch": 969,
      "interface": 970,
      "Ġaiohttp": 971,
      "Ġpivot": 972,
      "Ġnumber": 973,
      "!(\"{}\",": 974,
      "ClientSession": 975,
      "!-": 976,
      "\":": 977,
      "\">": 978,
      "\"}": 979,
      "%@": 980,
      "')": 981,
      "('": 982,
      "();": 983,
      "++": 984,
      "->": 985,
      "00": 986,
      "32": 987,
      "432": 988,
      "5432": 989,
      "://": 990,
      "<!-": 991,
      "=\"": 992,
      "AI": 993,
      "Ac": 994,
      "Ad": 995,
      "BY": 996,
      "CD": 997,
      "CI": 998,
      "Cãģ§": 999,
      "Con": 1000,
      "CAP": 1001,
      "EL": 1002,
      "ERE": 1003,
      "FR": 1004,
      "Flo": 1005,
      "Go": 1006,
      "Gr": 1007,
      "HT": 1008,
      "HERE": 1009,
      "IK": 1010,
      "JS": 1011,
      "Ja": 1012,
      "Kub": 1013,
      "Lãĥĳ": 1014,
      "LIK": 1015,
      "Mid": 1016,
      "Nãĥĩãĥ¼ãĤ¿": 1017,
      "OM": 1018,
      "Oå¾": 1019,
      "ONãĥĩãĥ¼ãĤ¿": 1020,
      "Post": 1021,
      "PCãģ§": 1022,
      "QL": 1023,
      "Ru": 1024,
      "RDE": 1025,
      "RLãĥĳ": 1026,
      "St": 1027,
      "SEC": 1028,
      "SEL": 1029,
      "SQL": 1030,
      "TP": 1031,
      "Ten": 1032,
      "The": 1033,
      "VSC": 1034,
      "ab": 1035,
      "ad": 1036,
      "are": 1037,
      "ase": 1038,
      "ade": 1039,
      "aint": 1040,
      "auth": 1041,
      "aScript": 1042,
      "cal": 1043,
      "cent": 1044,
      "cation": 1045,
      "dm": 1046,
      "dle": 1047,
      "dat": 1048,
      "eatu": 1049,
      "for": 1050,
      "gin": 1051,
      "gre": 1052,
      "gle": 1053,
      "gor": 1054,
      "hile": 1055,
      "ian": 1056,
      "ication": 1057,
      "igin": 1058,
      "jw": 1059,
      "lass": 1060,
      "lgor": 1061,
      "lication": 1062,
      "mer": 1063,
      "mit": 1064,
      "net": 1065,
      "name": 1066,
      "opt": 1067,
      "ogle": 1068,
      "pp": 1069,
      "print": 1070,
      "pro": 1071,
      "rs": 1072,
      "ran": 1073,
      "sh": 1074,
      "sor": 1075,
      "sãĤĴä½¿ãģ£ãģ": 1076,
      "scent": 1077,
      "sfor": 1078,
      "tãģ®": 1079,
      "ten": 1080,
      "tent": 1081,
      "try": 1082,
      "tree": 1083,
      "ush": 1084,
      "var": 1085,
      "ver": 1086,
      "vaScript": 1087,
      "wãģ¯": 1088,
      "ware": 1089,
      "yap": 1090,
      "{\"": 1091,
      "¡§": 1092,
      "¡å": 1093,
      "¡ãģ®": 1094,
      "¡ãģ¯": 1095,
      "¡ãģĹãģ¾ãģĻ": 1096,
      "¡ãģ«ãģ¯": 1097,
      "¡åĬ": 1098,
      "¡ãĤ¤ãĥ«": 1099,
      "¡ãĤĴè¡ĮãģĦãģ¾ãģĻ": 1100,
      "¢°å": 1101,
      "¢ç®": 1102,
      "¢ä¿": 1103,
      "¢ãĥ¼ãĤŃãĥĨãĤ¯ãĥģãĥ£": 1104,
      "£èª¬": 1105,
      "£ãĤ·ãĤ¹ãĥĨãĥł": 1106,
      "¤ĩ": 1107,
      "¤ãģ®": 1108,
      "¤ãģĦãģ¦": 1109,
      "¥ç": 1110,
      "¥ãģĦãģ¦": 1111,
      "¥åĬ": 1112,
      "¦ãĤ¯": 1113,
      "¦è¡Į": 1114,
      "¦ãĤ§": 1115,
      "¦æİ": 1116,
      "¦ãĥĹãĥŃãĤ°ãĥ©": 1117,
      "§»": 1118,
      "§Ĩ": 1119,
      "§ãģ®": 1120,
      "§£èª¬": 1121,
      "¨æ": 1122,
      "¨æĢ§": 1123,
      "©ķ": 1124,
      "©æĸ": 1125,
      "©ãĤ¤ãĥ³": 1126,
      "©ãĤ·ãĤ¹ãĥĨãĥł": 1127,
      "ªä»": 1128,
      "ªãĥ³ãĤ°": 1129,
      "ªçĴ°å¢ĥ": 1130,
      "ªãģĦ": 1131,
      "ªãĤ±": 1132,
      "«ĭ": 1133,
      "«ĺ": 1134,
      "«ãĤ": 1135,
      "«æĢ§": 1136,
      "«ãĥªãĤ¯ãĤ¨ãĤ¹ãĥĪ": 1137,
      "¬ä»": 1138,
      "®ãģĹãģ¾ãģĻ": 1139,
      "®¡çĲĨ": 1140,
      "¯ãĥ¼ãĤ¯": 1141,
      "¯ä½ľ": 1142,
      "°ç": 1143,
      "°ãģĻãĤĭ": 1144,
      "°¡ç": 1145,
      "±Ĭ": 1146,
      "±ãĤ¹ãĥĪ": 1147,
      "²ĭ": 1148,
      "²ãģĹãģ¾ãģĻ": 1149,
      "³»": 1150,
      "³ĩ": 1151,
      "³¨æ": 1152,
      "µãĥĿ": 1153,
      "µæ©Łèĥ½": 1154,
      "¶ļ": 1155,
      "¶å¾": 1156,
      "·ç": 1157,
      "·ļ": 1158,
      "·¡ãģĹãģ¾ãģĻ": 1159,
      "¸ãģ®": 1160,
      "¸ãģĦãģ¦": 1161,
      "¹ħ": 1162,
      "¹ãģ§": 1163,
      "¹ãģ§ãģĻ": 1164,
      "ºĲ": 1165,
      "ºãģ": 1166,
      "ºãģ®": 1167,
      "ºãģĮéĩįè¦ģãģ§ãģĻ": 1168,
      "»ãģ®": 1169,
      "»éĿ": 1170,
      "¼ãģĹãģ¦": 1171,
      "¼µæ©Łèĥ½": 1172,
      "½¢æ": 1173,
      "¾ç": 1174,
      "¾ĵ": 1175,
      "¾ãģ§": 1176,
      "åį": 1177,
      "åİ": 1178,
      "åł": 1179,
      "å·±": 1180,
      "åŀĭãĤ": 1181,
      "å¹ħ": 1182,
      "å½¢æ": 1183,
      "æĥ": 1184,
      "æī": 1185,
      "æĬ": 1186,
      "æĭ": 1187,
      "æį": 1188,
      "æķ": 1189,
      "æĺ": 1190,
      "æĻ": 1191,
      "æ¤ľ": 1192,
      "æ¢°å": 1193,
      "æ³¨æ": 1194,
      "æºĲ": 1195,
      "çħ": 1196,
      "çķ": 1197,
      "çĲĨ": 1198,
      "ç°¡ç": 1199,
      "ç²ĭ": 1200,
      "ç·ļ": 1201,
      "èĢ": 1202,
      "è¤ĩ": 1203,
      "è§£èª¬": 1204,
      "è©ķ": 1205,
      "è±Ĭ": 1206,
      "è³ĩ": 1207,
      "è·¡ãģĹãģ¾ãģĻ": 1208,
      "éĽ": 1209,
      "éł": 1210,
      "é¡§": 1211,
      "é§Ĩ": 1212,
      "é«ĺ": 1213,
      "Ġ*": 1214,
      "Ġor": 1215,
      "Ġen": 1216,
      "Ġ//": 1217,
      "Ġro": 1218,
      "Ġarch": 1219,
      "Ġè¨Ń": 1220,
      "ĠãĥĨãĤ¹ãĥĪ": 1221,
      "Ġãģĵãģ®": 1222,
      "Ġãĥĩãĥ¼ãĤ¿ãĥĻãĥ¼ãĤ": 1223,
      "ĠDE": 1224,
      "Ġgit": 1225,
      "Ġhost": 1226,
      "ĠDocker": 1227,
      "ĠJWT": 1228,
      "Ġè¨Īç®Ĺ": 1229,
      "Ġ5432": 1230,
      "ĠAc": 1231,
      "ĠBY": 1232,
      "ĠFR": 1233,
      "ĠGo": 1234,
      "ĠJa": 1235,
      "ĠLIK": 1236,
      "Ġjw": 1237,
      "Ġopt": 1238,
      "Ġç·ļ": 1239,
      "Ġè¤ĩ": 1240,
      "Ġé¡§": 1241,
      "Ģãĥ¼": 1242,
      "ĢåĪ": 1243,
      "Ģè¡": 1244,
      "Ģèª": 1245,
      "Ģæľ": 1246,
      "ģãĤĭ": 1247,
      "ģãĥ¡ãĥ¢ãĥª": 1248,
      "ĤãĤĴ": 1249,
      "Ĥãģ«": 1250,
      "Ĥçħ": 1251,
      "ĥæħ": 1252,
      "Ħı": 1253,
      "Ħãĥ¼ãĥ«": 1254,
      "ĦãĤ»": 1255,
      "ĦãĤµãĥ¼ãĥĵãĤ¹": 1256,
      "Ħ¡åĬ": 1257,
      "ħãģ": 1258,
      "ħåł": 1259,
      "ĨãĥĥãĤ¯ãĤ¹": 1260,
      "ĩãģ«": 1261,
      "ĩãģ«å": 1262,
      "ĩãĤĴä½¿çĶ¨": 1263,
      "ĪãģĹãģ¦ãģĦãģ¾ãģĻ": 1264,
      "īãģĹãģ¾ãģĻ": 1265,
      "īæ¨": 1266,
      "īåħ": 1267,
      "ĬãģĦãģ¦": 1268,
      "ĭãģ§ãģ¯": 1269,
      "ĭéģ": 1270,
      "ĭå¤": 1271,
      "ĭãĥ³ãĤ°": 1272,
      "ĭäº": 1273,
      "ĭ¬ç": 1274,
      "ĭãĥĹãĥŃãĤ°ãĥ©": 1275,
      "Įãģ§ãģĻ": 1276,
      "Įãģ¾ãģĻ": 1277,
      "Įæľ": 1278,
      "ĮåĪĨ": 1279,
      "įķ": 1280,
      "İãģĹãģ¾ãģĻ": 1281,
      "İ¢ç´¢": 1282,
      "İ¥ç": 1283,
      "ıĲ": 1284,
      "ıãģ¯": 1285,
      "ıãĥ³": 1286,
      "ĳãģ§": 1287,
      "ĳãģª": 1288,
      "ĳè¨Ńè¨Ī": 1289,
      "Ĵä»ĸ": 1290,
      "ĵãģ«": 1291,
      "ĵãĤĴä½¿": 1292,
      "ĵãĥ¥": 1293,
      "ĵãģ«ãģ": 1294,
      "Ķç²ĭ": 1295,
      "ķãĤ": 1296,
      "ķãģĦ": 1297,
      "ķçµĦãģ¿": 1298,
      "ķªçĴ°å¢ĥ": 1299,
      "ĸãģ¨": 1300,
      "ĸãĤĴæ": 1301,
      "ĸçķ": 1302,
      "Ĺãĥ³": 1303,
      "ĺãĥĥ": 1304,
      "ĺä¸Ģè²": 1305,
      "ļĦãģ": 1306,
      "Ľãģ": 1307,
      "ĽãģĹãģ¦ãģĦãģ¾ãģĻ": 1308,
      "ĽåĢ¤": 1309,
      "Ľ¸ãģĦãģ¦": 1310,
      "ľæĪĲ": 1311,
      "ľģãĥ¡ãĥ¢ãĥª": 1312,
      "Ŀãģ«": 1313,
      "Ŀè¨¼": 1314,
      "ŀãģ§": 1315,
      "ŀãĥ¼ãĤ": 1316,
      "ŀåĲ": 1317,
      "ŀĭãĥĹãĥŃãĤ°ãĥ©": 1318,
      "Łåī": 1319,
      "Łãģª": 1320,
      "Łåĩ¦çĲĨ": 1321,
      "ŁCI": 1322,
      "Łºãģ": 1323,
      "łãĥ": 1324,
      "łãģĹãģŁ": 1325,
      "łãĤĴçĶ¨": 1326,
      "Ń¦ç¿Ĵ": 1327,
      "Ńãĥ¥": 1328,
      "ŃãĥķãĤ£ãĥ¼ãĥ«": 1329,
      "Ńĸãģ¨": 1330,
      "ãģıãģ": 1331,
      "ãģłãģ": 1332,
      "ãģ¤ãģ®": 1333,
      "ãģ¸ãģ®": 1334,
      "ãģ¾ãģ§": 1335,
      "ãģķãĤ": 1336,
      "ãĥĭãĤ": 1337,
      "ãĥĢãĥ¼": 1338,
      "ãĥĦãĥ¼ãĥ«": 1339,
      "ãĥĭãĥ³ãĤ°": 1340,
      "ãĥĵãĥ¥": 1341,
      "ãĥĺãĥĥ": 1342,
      "ãĤĭç": 1343,
      "ãĤıãģ": 1344,
      "ãĤ¦ãĤ§": 1345,
      "ãĤºãģĮéĩįè¦ģãģ§ãģĻ": 1346,
      "ãĤĦãĤ»": 1347,
      "ãĤĵãģ«ãģ": 1348,
      "ãĤŃãĥ¥": 1349,
      "ãĥ¼ãĤĴ": 1350,
      "ãĥ¼èªįè¨¼": 1351,
      "ãģĻãĤĭç": 1352,
      "ãģ§ãģ®": 1353,
      "ãģ§ãĥĹãĥ": 1354,
      "ãģ§æĮĩ": 1355,
      "ãĤĴåĲ": 1356,
      "ãĤĴåĪĨ": 1357,
      "ãĤĴæ§ĭç¯ī": 1358,
      "ãĤĴãĤ³ãĥ³": 1359,
      "ãĤĴèĩªåĭķ": 1360,
      "ãĤĴçĽ®": 1361,
      "ãĤĴèª¬": 1362,
      "ãĤĴçµĦãģ¿": 1363,
      "ãĤĴèĢ": 1364,
      "inimiz": 1365,
      "ãģ®ãĥĪ": 1366,
      "ãģ®ãģª": 1367,
      "ãģ®åĩ¦çĲĨ": 1368,
      "ãģ®API": 1369,
      "ãģ®è¨Ńè¨Ī": 1370,
      "ãģ®æī": 1371,
      "req": 1372,
      "reate": 1373,
      "ãģĹãģªãģĦ": 1374,
      "ãĥ¼ãĤ¹ãģ®": 1375,
      "ãĥ¼ãĤ±ãĤ¹ãĥĪ": 1376,
      "ãģ¯B": 1377,
      "ãģ¯åī": 1378,
      "ãģ¯åĢ": 1379,
      "ãģ¯èĩª": 1380,
      "ãģ¯äº": 1381,
      "ãģ¯ãĥĲãĥ¼ãĤ¸ãĥ§": 1382,
      "ãģ¯ãĥ¡ãĥ¢ãĥª": 1383,
      "search": 1384,
      "ãģ«ãĥĲãĥ¼ãĤ¸ãĥ§": 1385,
      "ãģ«éģ©ãģĹãģ¦ãģĦãģ¾ãģĻ": 1386,
      "ãģ«ä¾ĿåŃĺ": 1387,
      "ãģ«ç°¡ç": 1388,
      "ãĥ³ãĥĪ": 1389,
      "ãĥ³ãģ¨": 1390,
      "ãĥ³ãģ®å®Ł": 1391,
      "ãĥ³ãĥĦãĥ¼ãĥ«": 1392,
      "ãĥ³ãĤĴåĲ": 1393,
      "ãĥ¼ãĥĹãĥ": 1394,
      "ãĥ¼ãĥªãĥ³ãĤ°": 1395,
      "ãĥ¼ãĥĨãĥĥãĤ¯ãĤ¹": 1396,
      "ãĥ¼ãĥĪãģĹãģ¦ãģĦãģ¾ãģĻ": 1397,
      "ãĥ¼ãĥıãĥ³": 1398,
      "ãĥ¼ãĥĹãĥ³": 1399,
      "ãĥ¼ãĥŀãĥ¼ãĤ": 1400,
      "ãĥ¼ãĥłãĥ": 1401,
      "ãĤ¹ãĤ±": 1402,
      "ãĤ¹ãĤĴåĪĨ": 1403,
      "ãĤ¹ãģ«ãĥĲãĥ¼ãĤ¸ãĥ§": 1404,
      "ãģĮåı": 1405,
      "ãģĮä½ľ": 1406,
      "ãģĮå¤§": 1407,
      "ãģĮéģ©ãģĹãģ¦ãģĦãģ¾ãģĻ": 1408,
      "ãģĮåı¯èĥ½ãģ§ãģĻ": 1409,
      "ãģĮè±Ĭ": 1410,
      "orro": 1411,
      "oriz": 1412,
      "ture": 1413,
      "stãģ®æī": 1414,
      "ãĥĪãģ¨": 1415,
      "ãĥĪãĥ©ãĥ³ãĤ¹": 1416,
      "ãĥĪãģĮéĸĭçĻºãģĹãģŁ": 1417,
      "erate": 1418,
      "ernet": 1419,
      "è¨Ģèª": 1420,
      "ãģĦãģ¦ç": 1421,
      "ãĥĩãĤ£": 1422,
      "ãĥĩãĥĥãĤ¯ãĤ¹": 1423,
      "Ġmaint": 1424,
      "Ġmyap": 1425,
      "Ġminimiz": 1426,
      "ãĤ¤ãĥĹãĥ": 1427,
      "env": 1428,
      "ence": 1429,
      "atch": 1430,
      "atten": 1431,
      "å®¢ç®": 1432,
      "å®īåħ": 1433,
      "Ġto": 1434,
      "Ġtoken": 1435,
      "Ġtry": 1436,
      "Ġtree": 1437,
      "Ġtran": 1438,
      "ãģĹãģ¦éģ©": 1439,
      "ãģĹãģ¦åħ": 1440,
      "ãģĹãģ¦ãĤ³ãĥ¼ãĥī": 1441,
      "ãģĹãģ¦ãĥĩãĥĹãĥŃãĤ¤": 1442,
      "ãģĹãģ¦ãĥªãĤ¯ãĤ¨ãĤ¹ãĥĪ": 1443,
      "¦çķ¥": 1444,
      "ãģ¨C": 1445,
      "ãģ¨åı¯": 1446,
      "ãģ¨åĨįçı¾": 1447,
      "ãģ¨useReducer": 1448,
      "ãģ¨ãĥĺãĥĥ": 1449,
      "ãĥĨãĤ£": 1450,
      "itec": 1451,
      "åĲĦãĤµãĥ¼ãĥĵãĤ¹": 1452,
      "åĲĳè¨Ńè¨Ī": 1453,
      "éĸ¢ä¿": 1454,
      "éĸĵãģ«": 1455,
      "ĭç®¡çĲĨ": 1456,
      "ãĥķãĥ¬": 1457,
      "ãĥķãĥĥãĤ¯": 1458,
      "ãĥķãĤĴèĢ": 1459,
      "ãĥķãĥĪãģĮéĸĭçĻºãģĹãģŁ": 1460,
      "Ġfunc": 1461,
      "Ġfeatu": 1462,
      "Ġan": 1463,
      "Ġauth": 1464,
      "Ġadm": 1465,
      "Ġalgor": 1466,
      "Ġapp": 1467,
      "Ġis": 1468,
      "user": 1469,
      "useSt": 1470,
      "åĪ¶å¾": 1471,
      "åĪĩãģ«": 1472,
      "ãĥ©ãĥª": 1473,
      "ãĥ©ãĥ¼ãĥıãĥ³": 1474,
      "ãĥ©ãĤ¹ãĤĴåĪĨ": 1475,
      "ãĥªãĥĩãĥ¼ãĤ": 1476,
      "ãĥªãĥ³ãĤ°": 1477,
      "ãĥªãĥ¬ãĥ¼ãĤ·ãĥ§": 1478,
      "ãĥªãĥĨãĤ£": 1479,
      "ãĥĹãĥªãĤ±": 1480,
      "Ġport": 1481,
      "Ġpush": 1482,
      "çĶ»éĿ": 1483,
      "ains": 1484,
      "åī²ãģĹãģ¾ãģĻ": 1485,
      "Ġche": 1486,
      "Ġcom": 1487,
      "Ġclass": 1488,
      "Ġcreate": 1489,
      "Ġcatch": 1490,
      "ãģªãĥĩãĥ¼ãĤ¿": 1491,
      "ãģªçĴ°å¢ĥ": 1492,
      "ãģªä¾ĿåŃĺ": 1493,
      "ãģªAI": 1494,
      "ãģĵãĤĵãģ«ãģ": 1495,
      "ãĤĴä½ľæĪĲ": 1496,
      "å®Łè¡Į": 1497,
      "å®Łè£ħ": 1498,
      "çĶ¨æĢ§": 1499,
      "çĶ¨ãģ®ãģª": 1500,
      "è¡Įãģ§ãģįãģ¾ãģĻ": 1501,
      "è¡ĮãģĮåı¯èĥ½ãģ§ãģĻ": 1502,
      "ãĥĩãĥ¼ãĤ¿ãĤĴåĩ¦çĲĨãģĹãģ¾ãģĻ": 1503,
      "actãģ®": 1504,
      "())": 1505,
      "log": 1506,
      "°åŀĭãĥĹãĥŃãĤ°ãĥ©": 1507,
      "ä¾¡ãģ«ãģ¯": 1508,
      "ä¾ĭå¤": 1509,
      "ä¾ĽãģĹãģ¦ãģĦãģ¾ãģĻ": 1510,
      "æĸĩãĤĴä½¿çĶ¨": 1511,
      "Ġ-->": 1512,
      "ãĥ«ãĥĩãĥ¼ãĤ¿ãĥĻãĥ¼ãĤ": 1513,
      "ãĥ«ãĤ¦ãĤ§": 1514,
      "ãĥĥãĥī": 1515,
      "ãĥĥãĥĪãģ¨": 1516,
      "ãģ§ãģ¯æľ": 1517,
      "ãģ§ãģ¯ãĥŁ": 1518,
      "ãģ§ãģ¯CAP": 1519,
      "ãģ§ãģ¯åį": 1520,
      "ãģ§ãģ¯åĲĦãĤµãĥ¼ãĥĵãĤ¹": 1521,
      "ãĥķãĤ¿ãĤ¤": 1522,
      "ãĥķãĤ¡ãĤ¤ãĥ«": 1523,
      "ãĥĹãĥŃãĥķãĤ£ãĥ¼ãĥ«": 1524,
      "ãĥĹãĥŃãĤ¸ãĤ§ãĤ¯ãĥĪ": 1525,
      "è¦ģãģªä¾ĿåŃĺ": 1526,
      "ioãĥ©ãĤ¤": 1527,
      "tionsãĤĴä½¿ãģ£ãģ": 1528,
      "exce": 1529,
      "heade": 1530,
      "¹æİ¥ç": 1531,
      "Ġuses": 1532,
      "ãĥ¬ãĥ¼ãĥī": 1533,
      "ãĥ¬ãĥĵãĥ¥": 1534,
      "ãĥłãĤĴè¿½": 1535,
      "ãĥłãĤĴæ§ĭç¯ī": 1536,
      "ãģĻãĤĭæĸ¹æ³ķ": 1537,
      "ãģĻãĤĭéĿ": 1538,
      "ãģ«ãģ¯useReducer": 1539,
      "ãģ«ãģ¯å¤§è¦ıæ¨¡": 1540,
      "ãģ«ãģ¯try": 1541,
      "ãģ«ãģ¯useSt": 1542,
      "ãģĦãģ¦é«ĺ": 1543,
      "åĩ¦çĲĨãģ§ãģ¯ãĥŁ": 1544,
      "åĭķéĸĭçĻº": 1545,
      "åĭķä½ľ": 1546,
      "éĸĭçĻºçĴ°å¢ĥ": 1547,
      "éĸĭçĻºãģ«éģ©ãģĹãģ¦ãģĦãģ¾ãģĻ": 1548,
      "quence": 1549,
      "Ġ(!": 1550,
      "ptæĸĩãĤĴä½¿çĶ¨": 1551,
      "·ãĤ¹ãĥĨãĥł": 1552,
      "·ãĥ§ãĥ³ãģ¨": 1553,
      "ä¸¦è¡Į": 1554,
      "ä¸ĸçķ": 1555,
      "æľ¬ç": 1556,
      "æ©Łæ§ĭ": 1557,
      "æ©Łæ¢°å": 1558,
      "ç´Ķç²ĭ": 1559,
      "éĩıãģ¯": 1560,
      "Ġãģ¯ãĤª": 1561,
      "Ġãģ¯ãĤ³ãĥ³ãĥĨãĥĬ": 1562,
      "Ġãģ¯ãĥŀãĤ¤ãĤ¯ãĥŃ": 1563,
      "ĤãĤµãĥĿ": 1564,
      "ãĤ¢ãĤ·ãĤ¹": 1565,
      "ãĤ¢ãĥ¼ãĤŃãĥĨãĤ¯ãĥģãĥ£": 1566,
      "ãĤ¢ãĥĹãĥªãĤ±": 1567,
      "ãĤ¨ãĥĩãĤ£": 1568,
      "ãĤ¨ãĥ©ãĥ¼ãĥıãĥ³": 1569,
      "ãĤªãĥĸ": 1570,
      "ãĤªãĥ¼ãĤ±ãĤ¹ãĥĪ": 1571,
      "ãĤªãĥķãĤĴèĢ": 1572,
      "ãĤĴæ¤ľ": 1573,
      "ãĤĴæıĲ": 1574,
      "ãĤĴæĽ¸ãģĦãģ¦": 1575,
      "ãģ«å¿ħ": 1576,
      "ãģ«åŀĭãĤ": 1577,
      "ãģ«åŁºãģ": 1578,
      "ãĥ³ãĤ°ãģ¯åī": 1579,
      "è¨¼ãģĹãģ¦ãĥªãĤ¯ãĤ¨ãĤ¹ãĥĪ": 1580,
      "éģ©åĲĪ": 1581,
      "Ġusers": 1582,
      "çĴ°å¢ĥãģ«ä¾ĿåŃĺ": 1583,
      "æĸ¹æ³ķãģ«ãģ": 1584,
      "æĸ¹æ³ķãĤĴèª¬": 1585,
      "æĸ¹æ³ķãģ¨ãĥĺãĥĥ": 1586,
      "Ġ200": 1587,
      "Ġinvar": 1588,
      "Reactãģ®": 1589,
      "äºĭãģ§ãģ¯": 1590,
      "åĬłãģĹãģŁ": 1591,
      "æĪ¦çķ¥": 1592,
      "è¿°ãģĻãĤĭ": 1593,
      "è£ħãģĹãģ¦ãģĦãģ¾ãģĻ": 1594,
      "è£ħæĸ¹æ³ķãģ«ãģ": 1595,
      "éĿŀåĲ": 1596,
      "Ġ'%@": 1597,
      "Ġborro": 1598,
      "Ġdescent": 1599,
      "ãģĦç´Ķç²ĭ": 1600,
      "ãģ£ãģ¦ãĤ¯": 1601,
      "ãĥ¥ãĥ¼ãĥĨãĥĥãĤ¯ãĤ¹": 1602,
      "ãĥīãĥªãĥ³ãĤ°": 1603,
      "ãĥīãĥ«ãĤ¦ãĤ§": 1604,
      "ãĥĬãĥ«ãĥĩãĥ¼ãĤ¿ãĥĻãĥ¼ãĤ": 1605,
      "ãĥĳãĤ¤ãĥ«": 1606,
      "ãĥĳãĤ¤ãĥĹãĥ": 1607,
      "ãĥŀãĥķãĤ©": 1608,
      "ãĥŁãĥ³ãĤ°ãģ¯åī": 1609,
      "ãĥŁãĥīãĥ«ãĤ¦ãĤ§": 1610,
      "ãĤµãĥĭãĤ": 1611,
      "ãĤ»ãĤŃãĥ¥": 1612,
      "ãĤ»ãĥĥãĥĪãģ¨": 1613,
      "ãĤĴå®Łçı¾": 1614,
      "ãĤĴå®Łè¡Įãģ§ãģįãģ¾ãģĻ": 1615,
      "ãĤĴå®Łè£ħãģĹãģ¦ãģĦãģ¾ãģĻ": 1616,
      "ãĤĴè¡ĮãģĨ": 1617,
      "ãĥ¼ãĤ·ãĥ§ãĥ³ãģ®å®Ł": 1618,
      "ãģ«ãģĬãģĦãģ¦": 1619,
      "ateãģ¨useReducer": 1620,
      "å®ļçĲĨ": 1621,
      "å®ļãĥķãĤ¡ãĤ¤ãĥ«": 1622,
      "å®ļãģĻãĤĭæĸ¹æ³ķ": 1623,
      "ãĥĨãĤ¹ãĥĪé§Ĩ": 1624,
      "ãĥĨãĤ¹ãĥĪãĤĴæĽ¸ãģĦãģ¦": 1625,
      "åĪĨæķ": 1626,
      "åĪĹãĥĩãĥ¼ãĤ¿ãĤĴåĩ¦çĲĨãģĹãģ¾ãģĻ": 1627,
      "ãģĵãģ®è¨ĺ": 1628,
      "ãģĵãģ®ãĥĹãĥŃãĤ¸ãĤ§ãĤ¯ãĥĪ": 1629,
      "ãģĵãģ¨ãģ§çĴ°å¢ĥãģ«ä¾ĿåŃĺ": 1630,
      "ãĥĩãĥ¼ãĤ¿ãĥĻãĥ¼ãĤ¹ãģ®": 1631,
      "ä¾Ŀéł": 1632,
      "åŃ¦ç¿Ĵãģ«ãģ¯å¤§è¦ıæ¨¡": 1633,
      "ckerãģĮåı": 1634,
      "ç´¢ãĤĴå®Łçı¾": 1635,
      "åı¯èĥ½ãģªçĴ°å¢ĥ": 1636,
      "æĮĩãģĹãģ¦ãģĦãģ¾ãģĻ": 1637,
      "æĮĩåĲĳè¨Ńè¨Ī": 1638,
      "éĸ¢æķ°åŀĭãĥĹãĥŃãĤ°ãĥ©": 1639,
      "asyncioãĥ©ãĤ¤": 1640,
      "umerate": 1641,
      "Ġ&&": 1642,
      "ĠURLãĥĳ": 1643,
      "ĠWHERE": 1644,
      "Ġwhile": 1645,
      "ithm": 1646,
      "https": 1647,
      "401": 1648,
      "403": 1649,
      "ECT": 1650,
      "RET": 1651,
      "api": 1652,
      "fileãģ«å¿ħ": 1653,
      "ify": 1654,
      "¢ç´¢ãĤĴå®Łè£ħãģĹãģ¦ãģĦãģ¾ãģĻ": 1655,
      "¿ãĤ¤ãĤºãģĮéĩįè¦ģãģ§ãģĻ": 1656,
      "ä¿Ŀè¨¼": 1657,
      "å¯¾ç": 1658,
      "å¯Įãģ§ãģĻ": 1659,
      "æİ¢ç´¢ãĤĴå®Łè£ħãģĹãģ¦ãģĦãģ¾ãģĻ": 1660,
      "éĢŁãģª": 1661,
      "éĢłãĤĴçĶ¨": 1662,
      "ĠOK": 1663,
      "ĠORDE": 1664,
      "Ġsearch": 1665,
      "Ġsequence": 1666,
      "Ġloss": 1667,
      "Ġlocal": 1668,
      "Ġelse": 1669,
      "Ġelif": 1670,
      "ķ¥åĮĸ": 1671,
      "łãģķãģĦ": 1672,
      "ãģĨãģĵãģ¨ãģ§çĴ°å¢ĥãģ«ä¾ĿåŃĺ": 1673,
      "ãĥĸãĥ©ãĥª": 1674,
      "ãĥĿãĥĥãĥī": 1675,
      "ãĤ½ãĥ¼ãĤ¹ãģ®": 1676,
      "ãĤ½ãĥķãĥĪãģĮéĸĭçĻºãģĹãģŁ": 1677,
      "ãĤ¿ãģ§": 1678,
      "ãĤ¿ãĥ³ãĥĪ": 1679,
      "ãĤĴçĶ¨ãģĦãģ¦ç": 1680,
      "ãģ®å®Łè£ħæĸ¹æ³ķãģ«ãģ": 1681,
      "ãģ®ãĥĲãĥ©ãĥ³ãĤ¹": 1682,
      "ãģ®ãĥĲãĥªãĥĩãĥ¼ãĤ": 1683,
      "ãģ®æ§ĭç¯īãģĮå¤§": 1684,
      "ãģ®æ§ĭç¯īæĸ¹æ³ķãĤĴèª¬": 1685,
      "ãģ®èĩªåĭķãĤ¹ãĤ±": 1686,
      "ãģ®èĩªåĭķå®Łè¡Į": 1687,
      "ãģĮçĦ¡åĬ": 1688,
      "ãģĮçĭ¬ç": 1689,
      "è¨ĺè¿°ãģĻãĤĭ": 1690,
      "ãĤ¤ãĥ³ãĥĩãĥĥãĤ¯ãĤ¹": 1691,
      "åĲĪãĤıãģ": 1692,
      "ãĥ©ãĤ¤ãĥķãĤ¿ãĤ¤": 1693,
      "ãĥķãĤ©ãĥ¼ãĥŀãĥ¼ãĤ": 1694,
      "ãĤĴä½¿ãģ£ãģ¦æİ": 1695,
      "imization": 1696,
      "æ§ĭéĢłãĤĴçĶ¨": 1697,
      "èªįè¨¼ãģĮå¿ħè¦ģãģ§ãģĻ": 1698,
      "ãĥ¬ãĥ¼ãĤ·ãĥ§ãĥ³ãĥĦãĥ¼ãĥ«": 1699,
      "ãĤ³ãĥ¼ãĥīãĤ¨ãĥĩãĤ£": 1700,
      "ä¸Ģè²«æĢ§": 1701,
      "ä»ĸãģ®åĩ¦çĲĨ": 1702,
      "æ©Łèĥ½ãģĮãģĤãĤĬãģ¾ãģĻ": 1703,
      "APIãģ®è¨Ńè¨Ī": 1704,
      "æĪĲãģ§ãģįãģ¾ãģĻ": 1705,
      "ãĤµãĥ¼ãĥĵãĤ¹ãĤ¢ãĥ¼ãĤŃãĥĨãĤ¯ãĥģãĥ£": 1706,
      "ãĤĴä½¿çĶ¨ãģĻãĤĭãģĵãģ¨ãģ§éĸĭçĻºçĴ°å¢ĥ": 1707,
      "ãĤ³ãĥ³ãĥĨãĥĬæĬ": 1708,
      "éĸ¢æķ°ãĤĴçµĦãģ¿": 1709,
      "éĸ¢æķ°ãģ¯äº": 1710,
      "DockerãĤĴä½¿çĶ¨ãģĻãĤĭãģĵãģ¨ãģ§éĸĭçĻºçĴ°å¢ĥ": 1711,
      "GitHubãģ§ãĥĹãĥ": 1712,
      "Pythonãģ§ãģ®": 1713,
      "Pythonãģ¨C": 1714,
      "TypeScript": 1715,
      "åĨįçı¾åı¯èĥ½ãģªçĴ°å¢ĥ": 1716,
      "åĮĸãģ§ãģįãģ¾ãģĻ": 1717,
      "æ·±å±¤åŃ¦ç¿Ĵãĥ¢ãĥĩãĥ«ãģ®": 1718,
      "æ·±å±¤åŃ¦ç¿Ĵãĥķãĥ¬": 1719,
      "çĬ¶æħĭéģ": 1720,
      "çĬ¶æħĭç®¡çĲĨ": 1721,
      "çİĩãģ¨åĨįçı¾": 1722,
      "çİĩãģ®ãĥĲãĥ©ãĥ³ãĤ¹": 1723,
      "Ġãĥ¦ãĥ¼ãĤ¶ãĥ¼èªįè¨¼": 1724,
      "Ġãĥ¦ãĥ¼ãĤ¶ãĥ¼ãĥĹãĥ": 1725,
      "ãģĭãĤīå®Łè£ħ": 1726,
      "ãģĭãĤīæľ¬ç": 1727,
      "ãĤ¸ãĤ§ãĤ¯ãĥĪæĮĩåĲĳè¨Ńè¨Ī": 1728,
      "ãĤĴè¿½åĬłãģĹãģŁ": 1729,
      "ãģĮéĸĭçĻºãģĹãģŁæ·±å±¤åŃ¦ç¿Ĵãĥķãĥ¬": 1730,
      "ãĥĪãĥ¼ãĤ¯ãĥ³ãĤĴæ¤ľ": 1731,
      "ãĥĪãĥ¼ãĤ¯ãĥ³ãģĮçĦ¡åĬ": 1732,
      "ãĥĩãĥĹãĥŃãĤ¤ãģ¾ãģ§": 1733,
      "ãĥ¢ãĥĩãĥ«ãģ®è©ķ": 1734,
      "è¨Īç®Ĺè³ĩ": 1735,
      "ãĥŀãĤ¤ãĤ¯ãĥŃãĤµãĥ¼ãĥĵãĤ¹ãĤ¢ãĥ¼ãĤŃãĥĨãĤ¯ãĥģãĥ£": 1736,
      "å¤§è¦ıæ¨¡éĸĭçĻºãģ«éģ©ãģĹãģ¦ãģĦãģ¾ãģĻ": 1737,
      "<!--": 1738,
      "Add": 1739,
      "CDãĥĳãĤ¤ãĥĹãĥ": 1740,
      "Content": 1741,
      "Flowãģ¯": 1742,
      "Grad": 1743,
      "HTTP": 1744,
      "JSONãĥĩãĥ¼ãĤ¿": 1745,
      "Kubernet": 1746,
      "Middle": 1747,
      "Oå¾ħãģ": 1748,
      "Postgre": 1749,
      "PCãģ§åĭķä½ľ": 1750,
      "Rustãģ®æī": 1751,
      "SECRET": 1752,
      "SELECT": 1753,
      "Tensor": 1754,
      "VSCode": 1755,
      "abase": 1756,
      "authoriz": 1757,
      "database": 1758,
      "iant": 1759,
      "ogleãģĮéĸĭçĻºãģĹãģŁæ·±å±¤åŃ¦ç¿Ĵãĥķãĥ¬": 1760,
      "profile": 1761,
      "sformer": 1762,
      "treeæ§ĭéĢłãĤĴçĶ¨": 1763,
      "verify": 1764,
      "vaScriptãģ«åŀĭãĤ": 1765,
      "¡å¼µæ©Łèĥ½": 1766,
      "¡ãģ®éĸĵãģ«": 1767,
      "¡ãģ¯ä¸ĸçķ": 1768,
      "¢ãĥ¼ãĤŃãĥĨãĤ¯ãĥģãĥ£ãģ¯èĩª": 1769,
      "£ãĤ·ãĤ¹ãĥĨãĥłãģ§ãģ¯CAP": 1770,
      "¤ãģĦãģ¦è§£èª¬": 1771,
      "¥ãģĦãģ¦ä¸Ģè²«æĢ§": 1772,
      "¥åĬĽåĢ¤": 1773,
      "¦ãĥĹãĥŃãĤ°ãĥ©ãĥłãĤĴæ§ĭç¯ī": 1774,
      "§»ãģ«ãģ¯useReducer": 1775,
      "§ãģ®ãĥ©ãĤ¤ãĥķãĤ¿ãĤ¤": 1776,
      "¨æĢ§ãĤĴãĤ³ãĥ³": 1777,
      "©æĸ°ç": 1778,
      "©ãĤ¤ãĥ³ãģ®æ§ĭç¯īæĸ¹æ³ķãĤĴèª¬": 1779,
      "©ãĤ·ãĤ¹ãĥĨãĥłãģ¯ãĥ¡ãĥ¢ãĥª": 1780,
      "ªä»ķçµĦãģ¿": 1781,
      "«ĭãģĹãģ¦ãĥĩãĥĹãĥŃãĤ¤": 1782,
      "«ãĤģãĤĭ": 1783,
      "«ãĥªãĤ¯ãĤ¨ãĤ¹ãĥĪãĤĴä½ľæĪĲ": 1784,
      "¬ä»»ãģ®": 1785,
      "¯ãĥ¼ãĤ¯ãģ§": 1786,
      "¯ä½ľçĶ¨ãģ®ãģª": 1787,
      "³»åĪĹãĥĩãĥ¼ãĤ¿ãĤĴåĩ¦çĲĨãģĹãģ¾ãģĻ": 1788,
      "¶ļæĥ": 1789,
      "·ç§»ãģ«ãģ¯useReducer": 1790,
      "ºãģ®PCãģ§åĭķä½ľ": 1791,
      "¼ãģĹãģ¦ãģıãģ": 1792,
      "¾ĵãģ£ãģ¦ãĤ¯": 1793,
      "åİŁåī": 1794,
      "å·±æ³¨æ": 1795,
      "åŀĭãĤĤãĤµãĥĿ": 1796,
      "å¹ħãģ«ç°¡ç": 1797,
      "å½¢æİ¢ç´¢": 1798,
      "æĭ¡å¼µæ©Łèĥ½": 1799,
      "æįīãģĹãģ¾ãģĻ": 1800,
      "æĺİãģĹãģ¾ãģĻ": 1801,
      "æĻĤãģ«": 1802,
      "æ¤ľç´¢ãĤĴå®Łçı¾": 1803,
      "æºĲãģĮå¿ħè¦ģãģ§ãģĻ": 1804,
      "éĽĳãģª": 1805,
      "Ġorigin": 1806,
      "Ġenumerate": 1807,
      "Ġroot": 1808,
      "Ġarchitec": 1809,
      "Ġè¨Ńå®ļãĥķãĤ¡ãĤ¤ãĥ«": 1810,
      "ĠãĥĨãĤ¹ãĥĪãģ®èĩªåĭķå®Łè¡Į": 1811,
      "Ġãģĵãģ®éĸ¢æķ°ãģ¯äº": 1812,
      "Ġãĥĩãĥ¼ãĤ¿ãĥĻãĥ¼ãĤ¹æİ¥ç": 1813,
      "ĠDESC": 1814,
      "ĠDockerfileãģ«å¿ħ": 1815,
      "ĠJWTãĥĪãĥ¼ãĤ¯ãĥ³ãĤĴæ¤ľ": 1816,
      "Ġè¨Īç®Ĺéĩıãģ¯": 1817,
      "ĠActionsãĤĴä½¿ãģ£ãģ": 1818,
      "ĠFROM": 1819,
      "ĠGoogleãģĮéĸĭçĻºãģĹãģŁæ·±å±¤åŃ¦ç¿Ĵãĥķãĥ¬": 1820,
      "ĠJavaScriptãģ«åŀĭãĤ": 1821,
      "ĠLIKE": 1822,
      "Ġjwt": 1823,
      "Ġoptimization": 1824,
      "Ġç·ļå½¢æİ¢ç´¢": 1825,
      "Ġè¤ĩéĽĳãģª": 1826,
      "Ġé¡§å®¢ç®": 1827,
      "ĢåĪĿãģ«": 1828,
      "Ģè¡ĵãĤĴä½¿": 1829,
      "Ģæľīæ¨": 1830,
      "ĤãĤĴè¨ĺè¿°ãģĻãĤĭ": 1831,
      "Ĥçħ§ãģ®ãĥ©ãĤ¤ãĥķãĤ¿ãĤ¤": 1832,
      "ĥæħ®ãģĹãģ¾ãģĻ": 1833,
      "Ħıæ©Łæ§ĭ": 1834,
      "ħåł±": 1835,
      "ĩãģ«å¾ĵãģ£ãģ¦ãĤ¯": 1836,
      "ĭäººãģ®PCãģ§åĭķä½ľ": 1837,
      "ĮæľŁåĩ¦çĲĨ": 1838,
      "ĮåĪĨæİ¢ç´¢ãĤĴå®Łè£ħãģĹãģ¦ãģĦãģ¾ãģĻ": 1839,
      "įķæįīãģĹãģ¾ãģĻ": 1840,
      "ĳãģ§åĨįçı¾åı¯èĥ½ãģªçĴ°å¢ĥ": 1841,
      "Ĵä»ĸåĪ¶å¾": 1842,
      "ķªçĴ°å¢ĥãģ¸ãģ®": 1843,
      "ĸãĤĴæįķæįīãģĹãģ¾ãģĻ": 1844,
      "ĺä¸Ģè²¬ä»»ãģ®": 1845,
      "ļĦãģªä»ķçµĦãģ¿": 1846,
      "Ľãģ¦ãĥĹãĥŃãĤ°ãĥ©ãĥłãĤĴæ§ĭç¯ī": 1847,
      "ľģãĥ¡ãĥ¢ãĥªãģªAI": 1848,
      "Ń¦ç¿Ĵãĥ¢ãĥĩãĥ«ãģ®è©ķ": 1849,
      "ŃãĥķãĤ£ãĥ¼ãĥ«çĶ»éĿ": 1850,
      "Ńĸãģ¨ãģĹãģ¦åħ": 1851,
      "ãģłãģĳãģ§åĨįçı¾åı¯èĥ½ãģªçĴ°å¢ĥ": 1852,
      "ãģ¤ãģ®ãĥķãĥĥãĤ¯": 1853,
      "ãģķãĤĮãģ¾ãģĻ": 1854,
      "ãĥĢãĥ¼ãģ§æĮĩ": 1855,
      "ãĥĭãĥ³ãĤ°æĪ¦çķ¥": 1856,
      "ãĤĦãĤ»ãĥŀãĥķãĤ©": 1857,
      "ãĥ¼ãĤĴä¾Ŀéł": 1858,
      "ãģĻãĤĭçľģãĥ¡ãĥ¢ãĥªãģªAI": 1859,
      "ãĤĴèĩªåĭķåĮĸãģ§ãģįãģ¾ãģĻ": 1860,
      "ãĤĴçĽ®æĮĩãģĹãģ¦ãģĦãģ¾ãģĻ": 1861,
      "ãģ®ãĥĪãĥ¬ãĥ¼ãĥī": 1862,
      "ãģ®APIãĤĴæıĲ": 1863,
      "ãģĹãģªãģĦãĤ¢ãĥĹãĥªãĤ±": 1864,
      "ãģ¯åĢĭäººãģ®PCãģ§åĭķä½ľ": 1865,
      "ãģ¯ãĥĲãĥ¼ãĤ¸ãĥ§ãĥĭãĥ³ãĤ°æĪ¦çķ¥": 1866,
      "ãĥ³ãĤĴåĲ«ãĤģãĤĭ": 1867,
      "ãĥ¼ãĥªãĥ³ãĤ°æ©Łèĥ½ãģĮãģĤãĤĬãģ¾ãģĻ": 1868,
      "ãĥ¼ãĥĹãĥ³ãĤ½ãĥ¼ãĤ¹ãģ®": 1869,
      "ãĥ¼ãĥłãĥ¯ãĥ¼ãĤ¯ãģ§": 1870,
      "ãĤ¹ãģ«ãĥĲãĥ¼ãĤ¸ãĥ§ãĥ³ãĤĴåĲ«ãĤģãĤĭ": 1871,
      "ãģĮä½ľæĪĲãģ§ãģįãģ¾ãģĻ": 1872,
      "ãģĮè±Ĭå¯Įãģ§ãģĻ": 1873,
      "ãĥĪãĥ©ãĥ³ãĤ¹ãĥķãĤ©ãĥ¼ãĥŀãĥ¼ãĤ": 1874,
      "è¨Ģèªŀãģ§": 1875,
      "Ġmaintains": 1876,
      "Ġmyapp": 1877,
      "Ġminimizes": 1878,
      "attention": 1879,
      "å®īåħ¨æĢ§ãĤĴãĤ³ãĥ³": 1880,
      "Ġtransformer": 1881,
      "ãģĹãģ¦éģ©åĪĩãģ«": 1882,
      "ãģĹãģ¦ãĤ³ãĥ¼ãĥīãĥ¬ãĥĵãĥ¥": 1883,
      "ãģ¨åı¯çĶ¨æĢ§": 1884,
      "éĸ¢ä¿ĤãĤĴè¨ĺè¿°ãģĻãĤĭ": 1885,
      "Ġfunction": 1886,
      "Ġfeature": 1887,
      "ĠauthMiddle": 1888,
      "Ġadmin": 1889,
      "Ġalgorithm": 1890,
      "Ġapplication": 1891,
      "ãĥ©ãĤ¹ãĤĴåĪĨåī²ãģĹãģ¾ãģĻ": 1892,
      "ãĥªãĥ¬ãĥ¼ãĤ·ãĥ§ãĥĬãĥ«ãĥĩãĥ¼ãĤ¿ãĥĻãĥ¼ãĤ": 1893,
      "ãĥªãĥĨãĤ£å¯¾ç": 1894,
      "ĠcheckerãģĮåı": 1895,
      "Ġcommit": 1896,
      "Ġcreated": 1897,
      "ãģªãĥĩãĥ¼ãĤ¿ãĤ»ãĥĥãĥĪãģ¨": 1898,
      "ãģĵãĤĵãģ«ãģ¡ãģ¯ä¸ĸçķ": 1899,
      "ä¾¡ãģ«ãģ¯éģ©åĲĪ": 1900,
      "ä¾ĭå¤ĸãĤĴæįķæįīãģĹãģ¾ãģĻ": 1901,
      "ãģ§ãģ¯æľĢåĪĿãģ«": 1902,
      "ãģ§ãģ¯åįĺä¸Ģè²¬ä»»ãģ®": 1903,
      "ãģ§ãģ¯åĲĦãĤµãĥ¼ãĥĵãĤ¹ãģĮçĭ¬ç": 1904,
      "è¦ģãģªä¾ĿåŃĺéĸ¢ä¿ĤãĤĴè¨ĺè¿°ãģĻãĤĭ": 1905,
      "exceptæĸĩãĤĴä½¿çĶ¨": 1906,
      "headers": 1907,
      "ãĥłãĤĴè¿½è·¡ãģĹãģ¾ãģĻ": 1908,
      "ãģĻãĤĭéĿ©æĸ°ç": 1909,
      "ãģ«ãģ¯useStateãģ¨useReducer": 1910,
      "ãģĦãģ¦é«ĺéĢŁãģª": 1911,
      "åĩ¦çĲĨãģ§ãģ¯ãĥŁãĥ¥ãĥ¼ãĥĨãĥĥãĤ¯ãĤ¹": 1912,
      "åĭķéĸĭçĻºãģ§ãģ¯æľĢåĪĿãģ«": 1913,
      "·ãĤ¹ãĥĨãĥłãĤĴè¿½åĬłãģĹãģŁ": 1914,
      "·ãĥ§ãĥ³ãģ¨ãĤµãĥĭãĤ": 1915,
      "ä¸¦è¡Įåĩ¦çĲĨãģ§ãģ¯ãĥŁãĥ¥ãĥ¼ãĥĨãĥĥãĤ¯ãĤ¹": 1916,
      "æ©Łæ¢°åŃ¦ç¿Ĵãĥ¢ãĥĩãĥ«ãģ®è©ķ": 1917,
      "Ġãģ¯ãĤªãĥ¼ãĥĹãĥ³ãĤ½ãĥ¼ãĤ¹ãģ®": 1918,
      "Ġãģ¯ãĤ³ãĥ³ãĥĨãĥĬãĤªãĥ¼ãĤ±ãĤ¹ãĥĪ": 1919,
      "Ġãģ¯ãĥŀãĤ¤ãĤ¯ãĥŃãĤ½ãĥķãĥĪãģĮéĸĭçĻºãģĹãģŁ": 1920,
      "ãĤ¢ãĤ·ãĤ¹ãĤ¿ãĥ³ãĥĪ": 1921,
      "ãĤ¨ãĥ©ãĥ¼ãĥıãĥ³ãĥīãĥªãĥ³ãĤ°": 1922,
      "ãĤªãĥĸãĤ¸ãĤ§ãĤ¯ãĥĪæĮĩåĲĳè¨Ńè¨Ī": 1923,
      "ãĤªãĥķãĤĴèĢĥæħ®ãģĹãģ¾ãģĻ": 1924,
      "ãģ«åŁºãģ¥ãģĦãģ¦ä¸Ģè²«æĢ§": 1925,
      "è¨¼ãģĹãģ¦ãĥªãĤ¯ãĤ¨ãĤ¹ãĥĪãĤĴåĩ¦çĲĨãģĹãģ¾ãģĻ": 1926,
      "æĸ¹æ³ķãģ¨ãĥĺãĥĥãĥĢãĥ¼ãģ§æĮĩ": 1927,
      "Ġinvariant": 1928,
      "Reactãģ®çĬ¶æħĭç®¡çĲĨ": 1929,
      "äºĭãģ§ãģ¯Pythonãģ§ãģ®": 1930,
      "éĿŀåĲĮæľŁåĩ¦çĲĨ": 1931,
      "Ġborrow": 1932,
      "ãģĦç´Ķç²ĭéĸ¢æķ°ãĤĴçµĦãģ¿": 1933,
      "ãĥĳãĤ¤ãĥ«æĻĤãģ«": 1934,
      "ãĥŁãĥ³ãĤ°ãģ¯åī¯ä½ľçĶ¨ãģ®ãģª": 1935,
      "ãĥŁãĥīãĥ«ãĤ¦ãĤ§ãĤ¢": 1936,
      "ãĤ»ãĤŃãĥ¥ãĥªãĥĨãĤ£å¯¾ç": 1937,
      "ãĤĴè¡ĮãģĨãĥŁãĥīãĥ«ãĤ¦ãĤ§ãĤ¢": 1938,
      "ãĥ¼ãĤ·ãĥ§ãĥ³ãģ®å®Łè¡ĮãģĮåı¯èĥ½ãģ§ãģĻ": 1939,
      "ãģ«ãģĬãģĦãģ¦ãģ¯ãĥĲãĥ¼ãĤ¸ãĥ§ãĥĭãĥ³ãĤ°æĪ¦çķ¥": 1940,
      "å®ļçĲĨãģ«åŁºãģ¥ãģĦãģ¦ä¸Ģè²«æĢ§": 1941,
      "å®ļãģĻãĤĭæĸ¹æ³ķãģĮãģĤãĤĬãģ¾ãģĻ": 1942,
      "ãĥĨãĤ¹ãĥĪé§ĨåĭķéĸĭçĻºãģ§ãģ¯æľĢåĪĿãģ«": 1943,
      "ãĥĨãĤ¹ãĥĪãĤĴæĽ¸ãģĦãģ¦ãģĭãĤīå®Łè£ħ": 1944,
      "åĪĨæķ£ãĤ·ãĤ¹ãĥĨãĥłãģ§ãģ¯CAP": 1945,
      "ãģĵãģ®è¨ĺäºĭãģ§ãģ¯Pythonãģ§ãģ®": 1946,
      "ãģĵãģ®ãĥĹãĥŃãĤ¸ãĤ§ãĤ¯ãĥĪãģ¯åĢĭäººãģ®PCãģ§åĭķä½ľ": 1947,
      "ãĥĩãĥ¼ãĤ¿ãĥĻãĥ¼ãĤ¹ãģ®ãĤ¤ãĥ³ãĥĩãĥĥãĤ¯ãĤ¹": 1948,
      "åŃ¦ç¿Ĵãģ«ãģ¯å¤§è¦ıæ¨¡ãģªãĥĩãĥ¼ãĤ¿ãĤ»ãĥĥãĥĪãģ¨": 1949,
      "éĸ¢æķ°åŀĭãĥĹãĥŃãĤ°ãĥ©ãĥŁãĥ³ãĤ°ãģ¯åī¯ä½ľçĶ¨ãģ®ãģª": 1950,
      "asyncioãĥ©ãĤ¤ãĥĸãĥ©ãĥª": 1951,
      "ĠURLãĥĳãĤ¹ãģ«ãĥĲãĥ¼ãĤ¸ãĥ§ãĥ³ãĤĴåĲ«ãĤģãĤĭ": 1952,
      "ä¿Ŀè¨¼ãģĻãĤĭéĿ©æĸ°ç": 1953,
      "ĠORDER": 1954,
      "Ġsequences": 1955,
      "Ġlocalhost": 1956,
      "ķ¥åĮĸãģķãĤĮãģ¾ãģĻ": 1957,
      "ãģĨãģĵãģ¨ãģ§çĴ°å¢ĥãģ«ä¾ĿåŃĺãģĹãģªãģĦãĤ¢ãĥĹãĥªãĤ±": 1958,
      "ãĥĿãĥĥãĥīãģ®èĩªåĭķãĤ¹ãĤ±": 1959,
      "ãĤĴçĶ¨ãģĦãģ¦ç³»åĪĹãĥĩãĥ¼ãĤ¿ãĤĴåĩ¦çĲĨãģĹãģ¾ãģĻ": 1960,
      "ãģ®å®Łè£ħæĸ¹æ³ķãģ«ãģ¤ãģĦãģ¦è§£èª¬": 1961,
      "ãģ®ãĥĲãĥªãĥĩãĥ¼ãĤ·ãĥ§ãĥ³ãģ¨ãĤµãĥĭãĤ": 1962,
      "ãģ®æ§ĭç¯īãģĮå¤§å¹ħãģ«ç°¡ç": 1963,
      "åĲĪãĤıãģĽãģ¦ãĥĹãĥŃãĤ°ãĥ©ãĥłãĤĴæ§ĭç¯ī": 1964,
      "ãĤĴä½¿ãģ£ãģ¦æİĴä»ĸåĪ¶å¾": 1965,
      "ãĥ¬ãĥ¼ãĤ·ãĥ§ãĥ³ãĥĦãĥ¼ãĥ«ãģ§": 1966,
      "ãĤ³ãĥ¼ãĥīãĤ¨ãĥĩãĤ£ãĤ¿ãģ§": 1967,
      "ä»ĸãģ®åĩ¦çĲĨãĤĴå®Łè¡Įãģ§ãģįãģ¾ãģĻ": 1968,
      "APIãģ®è¨Ńè¨Īãģ«ãģĬãģĦãģ¦ãģ¯ãĥĲãĥ¼ãĤ¸ãĥ§ãĥĭãĥ³ãĤ°æĪ¦çķ¥": 1969,
      "ãĤ³ãĥ³ãĥĨãĥĬæĬĢè¡ĵãĤĴä½¿": 1970,
      "DockerãĤĴä½¿çĶ¨ãģĻãĤĭãģĵãģ¨ãģ§éĸĭçĻºçĴ°å¢ĥãģ®æ§ĭç¯īãģĮå¤§å¹ħãģ«ç°¡ç": 1971,
      "GitHubãģ§ãĥĹãĥ«ãĥªãĤ¯ãĤ¨ãĤ¹ãĥĪãĤĴä½ľæĪĲ": 1972,
      "æ·±å±¤åŃ¦ç¿Ĵãĥ¢ãĥĩãĥ«ãģ®åŃ¦ç¿Ĵãģ«ãģ¯å¤§è¦ıæ¨¡ãģªãĥĩãĥ¼ãĤ¿ãĤ»ãĥĥãĥĪãģ¨": 1973,
      "çĬ¶æħĭéģ·ç§»ãģ«ãģ¯useReducer": 1974,
      "çİĩãģ¨åĨįçı¾çİĩãģ®ãĥĲãĥ©ãĥ³ãĤ¹": 1975,
      "Ġãĥ¦ãĥ¼ãĤ¶ãĥ¼èªįè¨¼ãĤĴè¡ĮãģĨãĥŁãĥīãĥ«ãĤ¦ãĤ§ãĤ¢": 1976,
      "Ġãĥ¦ãĥ¼ãĤ¶ãĥ¼ãĥĹãĥŃãĥķãĤ£ãĥ¼ãĥ«çĶ»éĿ": 1977,
      "ãģĭãĤīæľ¬çķªçĴ°å¢ĥãģ¸ãģ®": 1978,
      "ãĥĪãĥ¼ãĤ¯ãĥ³ãģĮçĦ¡åĬ¹ãģ§ãģĻ": 1979,
      "ãĥĩãĥĹãĥŃãĤ¤ãģ¾ãģ§ãĤĴèĩªåĭķåĮĸãģ§ãģįãģ¾ãģĻ": 1980,
      "è¨Īç®Ĺè³ĩæºĲãģĮå¿ħè¦ģãģ§ãģĻ": 1981,
      "ãĥŀãĤ¤ãĤ¯ãĥŃãĤµãĥ¼ãĥĵãĤ¹ãĤ¢ãĥ¼ãĤŃãĥĨãĤ¯ãĥģãĥ£ãģ§ãģ¯åĲĦãĤµãĥ¼ãĥĵãĤ¹ãģĮçĭ¬ç": 1982,
      "CDãĥĳãĤ¤ãĥĹãĥ©ãĤ¤ãĥ³ãģ®æ§ĭç¯īæĸ¹æ³ķãĤĴèª¬": 1983,
      "Gradient": 1984,
      "JSONãĥĩãĥ¼ãĤ¿åŀĭãĤĤãĤµãĥĿ": 1985,
      "Kubernetes": 1986,
      "Oå¾ħãģ¡ãģ®éĸĵãģ«": 1987,
      "PostgreSQL": 1988,
      "Rustãģ®æīĢæľīæ¨": 1989,
      "TensorFlowãģ¯": 1990,
      "authorization": 1991,
      "treeæ§ĭéĢłãĤĴçĶ¨ãģĦãģ¦é«ĺéĢŁãģª": 1992,
      "¢ãĥ¼ãĤŃãĥĨãĤ¯ãĥģãĥ£ãģ¯èĩªå·±æ³¨æ": 1993,
      "¥åĬĽåĢ¤ãģ®ãĥĲãĥªãĥĩãĥ¼ãĤ·ãĥ§ãĥ³ãģ¨ãĤµãĥĭãĤ": 1994,
      "©ãĤ·ãĤ¹ãĥĨãĥłãģ¯ãĥ¡ãĥ¢ãĥªå®īåħ¨æĢ§ãĤĴãĤ³ãĥ³": 1995,
      "«ĭãģĹãģ¦ãĥĩãĥĹãĥŃãĤ¤åı¯èĥ½ãģ§ãģĻ": 1996,
      "¶ļæĥħåł±": 1997,
      "¼ãģĹãģ¦ãģıãģłãģķãģĦ": 1998,
      "åİŁåīĩãģ«å¾ĵãģ£ãģ¦ãĤ¯": 1999,
      "æĭ¡å¼µæ©Łèĥ½ãģĮè±Ĭå¯Įãģ§ãģĻ": 2000,
      "æ¤ľç´¢ãĤĴå®Łçı¾ãģĹãģ¾ãģĻ": 2001,
      "Ġarchitecture": 2002,
      "ĠãĥĨãĤ¹ãĥĪãģ®èĩªåĭķå®Łè¡ĮãģĭãĤīæľ¬çķªçĴ°å¢ĥãģ¸ãģ®": 2003,
      "Ġãģĵãģ®éĸ¢æķ°ãģ¯äºĮåĪĨæİ¢ç´¢ãĤĴå®Łè£ħãģĹãģ¦ãģĦãģ¾ãģĻ": 2004,
      "Ġãĥĩãĥ¼ãĤ¿ãĥĻãĥ¼ãĤ¹æİ¥ç¶ļæĥħåł±": 2005,
      "ĠDockerfileãģ«å¿ħè¦ģãģªä¾ĿåŃĺéĸ¢ä¿ĤãĤĴè¨ĺè¿°ãģĻãĤĭ": 2006,
      "ĠJWTãĥĪãĥ¼ãĤ¯ãĥ³ãĤĴæ¤ľè¨¼ãģĹãģ¦ãĥªãĤ¯ãĤ¨ãĤ¹ãĥĪãĤĴåĩ¦çĲĨãģĹãģ¾ãģĻ": 2007,
      "Ġè¨Īç®Ĺéĩıãģ¯O": 2008,
      "ĠActionsãĤĴä½¿ãģ£ãģŁCI": 2009,
      "ĠGoogleãģĮéĸĭçĻºãģĹãģŁæ·±å±¤åŃ¦ç¿Ĵãĥķãĥ¬ãĥ¼ãĥłãĥ¯ãĥ¼ãĤ¯ãģ§": 2010,
      "ĠJavaScriptãģ«åŀĭãĤ·ãĤ¹ãĥĨãĥłãĤĴè¿½åĬłãģĹãģŁ": 2011,
      "Ġè¤ĩéĽĳãģªçĬ¶æħĭéģ·ç§»ãģ«ãģ¯useReducer": 2012,
      "Ġé¡§å®¢ç®¡çĲĨ": 2013,
      "Ĥçħ§ãģ®ãĥ©ãĤ¤ãĥķãĤ¿ãĤ¤ãĥłãĤĴè¿½è·¡ãģĹãģ¾ãģĻ": 2014,
      "Ħıæ©Łæ§ĭãĤĴçĶ¨ãģĦãģ¦ç³»åĪĹãĥĩãĥ¼ãĤ¿ãĤĴåĩ¦çĲĨãģĹãģ¾ãģĻ": 2015,
      "ļĦãģªä»ķçµĦãģ¿ãģ§ãģĻ": 2016,
      "Ńĸãģ¨ãģĹãģ¦åħ¥åĬĽåĢ¤ãģ®ãĥĲãĥªãĥĩãĥ¼ãĤ·ãĥ§ãĥ³ãģ¨ãĤµãĥĭãĤ": 2017,
      "ãģłãģĳãģ§åĨįçı¾åı¯èĥ½ãģªçĴ°å¢ĥãģĮä½ľæĪĲãģ§ãģįãģ¾ãģĻ": 2018,
      "ãģ¤ãģ®ãĥķãĥĥãĤ¯ãģĮãģĤãĤĬãģ¾ãģĻ": 2019,
      "ãĤĦãĤ»ãĥŀãĥķãĤ©ãĤĴä½¿ãģ£ãģ¦æİĴä»ĸåĪ¶å¾": 2020,
      "ãĥ¼ãĤĴä¾Ŀéł¼ãģĹãģ¦ãģıãģłãģķãģĦ": 2021,
      "ãģĻãĤĭçľģãĥ¡ãĥ¢ãĥªãģªAIãĤ¢ãĤ·ãĤ¹ãĤ¿ãĥ³ãĥĪ": 2022,
      "ãģ®ãĥĪãĥ¬ãĥ¼ãĥīãĤªãĥķãĤĴèĢĥæħ®ãģĹãģ¾ãģĻ": 2023,
      "ãģ®APIãĤĴæıĲä¾ĽãģĹãģ¦ãģĦãģ¾ãģĻ": 2024,
      "ãĥĪãĥ©ãĥ³ãĤ¹ãĥķãĤ©ãĥ¼ãĥŀãĥ¼ãĤ¢ãĥ¼ãĤŃãĥĨãĤ¯ãĥģãĥ£ãģ¯èĩªå·±æ³¨æ": 2025,
      "ãģĹãģ¦éģ©åĪĩãģ«ä¾ĭå¤ĸãĤĴæįķæįīãģĹãģ¾ãģĻ": 2026,
      "ãģĹãģ¦ãĤ³ãĥ¼ãĥīãĥ¬ãĥĵãĥ¥ãĥ¼ãĤĴä¾Ŀéł¼ãģĹãģ¦ãģıãģłãģķãģĦ": 2027,
      "ãģ¨åı¯çĶ¨æĢ§ãģ®ãĥĪãĥ¬ãĥ¼ãĥīãĤªãĥķãĤĴèĢĥæħ®ãģĹãģ¾ãģĻ": 2028,
      "ĠauthMiddleware": 2029,
      "ãĥªãĥ¬ãĥ¼ãĤ·ãĥ§ãĥĬãĥ«ãĥĩãĥ¼ãĤ¿ãĥĻãĥ¼ãĤ¹ãģ§": 2030,
      "ĠcheckerãģĮåıĤçħ§ãģ®ãĥ©ãĤ¤ãĥķãĤ¿ãĤ¤ãĥłãĤĴè¿½è·¡ãģĹãģ¾ãģĻ": 2031,
      "ãģĵãĤĵãģ«ãģ¡ãģ¯ä¸ĸçķĮ": 2032,
      "ä¾¡ãģ«ãģ¯éģ©åĲĪçİĩãģ¨åĨįçı¾çİĩãģ®ãĥĲãĥ©ãĥ³ãĤ¹": 2033,
      "ãģ§ãģ¯åįĺä¸Ģè²¬ä»»ãģ®åİŁåīĩãģ«å¾ĵãģ£ãģ¦ãĤ¯": 2034,
      "exceptæĸĩãĤĴä½¿çĶ¨ãģĹãģ¦éģ©åĪĩãģ«ä¾ĭå¤ĸãĤĴæįķæįīãģĹãģ¾ãģĻ": 2035,
      "ãģ«ãģ¯useStateãģ¨useReducerãģ®": 2036,
      "ä¸¦è¡Įåĩ¦çĲĨãģ§ãģ¯ãĥŁãĥ¥ãĥ¼ãĥĨãĥĥãĤ¯ãĤ¹ãĤĦãĤ»ãĥŀãĥķãĤ©ãĤĴä½¿ãģ£ãģ¦æİĴä»ĸåĪ¶å¾": 2037,
      "æ©Łæ¢°åŃ¦ç¿Ĵãĥ¢ãĥĩãĥ«ãģ®è©ķä¾¡ãģ«ãģ¯éģ©åĲĪçİĩãģ¨åĨįçı¾çİĩãģ®ãĥĲãĥ©ãĥ³ãĤ¹": 2038,
      "Ġãģ¯ãĤªãĥ¼ãĥĹãĥ³ãĤ½ãĥ¼ãĤ¹ãģ®ãĥªãĥ¬ãĥ¼ãĤ·ãĥ§ãĥĬãĥ«ãĥĩãĥ¼ãĤ¿ãĥĻãĥ¼ãĤ¹ãģ§": 2039,
      "Ġãģ¯ãĤ³ãĥ³ãĥĨãĥĬãĤªãĥ¼ãĤ±ãĤ¹ãĥĪãĥ¬ãĥ¼ãĤ·ãĥ§ãĥ³ãĥĦãĥ¼ãĥ«ãģ§": 2040,
      "Ġãģ¯ãĥŀãĤ¤ãĤ¯ãĥŃãĤ½ãĥķãĥĪãģĮéĸĭçĻºãģĹãģŁãĤ³ãĥ¼ãĥīãĤ¨ãĥĩãĤ£ãĤ¿ãģ§": 2041,
      "ãĤ¨ãĥ©ãĥ¼ãĥıãĥ³ãĥīãĥªãĥ³ãĤ°ãģ«ãģ¯try": 2042,
      "ãĤªãĥĸãĤ¸ãĤ§ãĤ¯ãĥĪæĮĩåĲĳè¨Ńè¨Īãģ§ãģ¯åįĺä¸Ģè²¬ä»»ãģ®åİŁåīĩãģ«å¾ĵãģ£ãģ¦ãĤ¯": 2043,
      "æĸ¹æ³ķãģ¨ãĥĺãĥĥãĥĢãĥ¼ãģ§æĮĩå®ļãģĻãĤĭæĸ¹æ³ķãģĮãģĤãĤĬãģ¾ãģĻ": 2044,
      "Reactãģ®çĬ¶æħĭç®¡çĲĨãģ«ãģ¯useStateãģ¨useReducerãģ®": 2045,
      "éĿŀåĲĮæľŁåĩ¦çĲĨãģ®å®Łè£ħæĸ¹æ³ķãģ«ãģ¤ãģĦãģ¦è§£èª¬": 2046,
      "ãģĦç´Ķç²ĭéĸ¢æķ°ãĤĴçµĦãģ¿åĲĪãĤıãģĽãģ¦ãĥĹãĥŃãĤ°ãĥ©ãĥłãĤĴæ§ĭç¯ī": 2047,
      "ãĥĳãĤ¤ãĥ«æĻĤãģ«ä¿Ŀè¨¼ãģĻãĤĭéĿ©æĸ°ç": 2048,
      "ãĤ»ãĤŃãĥ¥ãĥªãĥĨãĤ£å¯¾çŃĸãģ¨ãģĹãģ¦åħ¥åĬĽåĢ¤ãģ®ãĥĲãĥªãĥĩãĥ¼ãĤ·ãĥ§ãĥ³ãģ¨ãĤµãĥĭãĤ": 2049,
      "å®ļçĲĨãģ«åŁºãģ¥ãģĦãģ¦ä¸Ģè²«æĢ§ãģ¨åı¯çĶ¨æĢ§ãģ®ãĥĪãĥ¬ãĥ¼ãĥīãĤªãĥķãĤĴèĢĥæħ®ãģĹãģ¾ãģĻ": 2050,
      "ãĥĨãĤ¹ãĥĪé§ĨåĭķéĸĭçĻºãģ§ãģ¯æľĢåĪĿãģ«ãĥĨãĤ¹ãĥĪãĤĴæĽ¸ãģĦãģ¦ãģĭãĤīå®Łè£ħ": 2051,
      "åĪĨæķ£ãĤ·ãĤ¹ãĥĨãĥłãģ§ãģ¯CAPå®ļçĲĨãģ«åŁºãģ¥ãģĦãģ¦ä¸Ģè²«æĢ§ãģ¨åı¯çĶ¨æĢ§ãģ®ãĥĪãĥ¬ãĥ¼ãĥīãĤªãĥķãĤĴèĢĥæħ®ãģĹãģ¾ãģĻ": 2052,
      "ãģĵãģ®è¨ĺäºĭãģ§ãģ¯Pythonãģ§ãģ®éĿŀåĲĮæľŁåĩ¦çĲĨãģ®å®Łè£ħæĸ¹æ³ķãģ«ãģ¤ãģĦãģ¦è§£èª¬": 2053,
      "ãģĵãģ®ãĥĹãĥŃãĤ¸ãĤ§ãĤ¯ãĥĪãģ¯åĢĭäººãģ®PCãģ§åĭķä½ľãģĻãĤĭçľģãĥ¡ãĥ¢ãĥªãģªAIãĤ¢ãĤ·ãĤ¹ãĤ¿ãĥ³ãĥĪ": 2054,
      "ãĥĩãĥ¼ãĤ¿ãĥĻãĥ¼ãĤ¹ãģ®ãĤ¤ãĥ³ãĥĩãĥĥãĤ¯ãĤ¹ãģ¯B": 2055,
      "éĸ¢æķ°åŀĭãĥĹãĥŃãĤ°ãĥ©ãĥŁãĥ³ãĤ°ãģ¯åī¯ä½ľçĶ¨ãģ®ãģªãģĦç´Ķç²ĭéĸ¢æķ°ãĤĴçµĦãģ¿åĲĪãĤıãģĽãģ¦ãĥĹãĥŃãĤ°ãĥ©ãĥłãĤĴæ§ĭç¯ī": 2056,
      "asyncioãĥ©ãĤ¤ãĥĸãĥ©ãĥªãĤĴä½¿çĶ¨ãģĻãĤĭãģĵãģ¨ãģ§": 2057,
      "ĠURLãĥĳãĤ¹ãģ«ãĥĲãĥ¼ãĤ¸ãĥ§ãĥ³ãĤĴåĲ«ãĤģãĤĭæĸ¹æ³ķãģ¨ãĥĺãĥĥãĥĢãĥ¼ãģ§æĮĩå®ļãģĻãĤĭæĸ¹æ³ķãģĮãģĤãĤĬãģ¾ãģĻ": 2058,
      "ãģĨãģĵãģ¨ãģ§çĴ°å¢ĥãģ«ä¾ĿåŃĺãģĹãģªãģĦãĤ¢ãĥĹãĥªãĤ±ãĥ¼ãĤ·ãĥ§ãĥ³ãģ®å®Łè¡ĮãģĮåı¯èĥ½ãģ§ãģĻ": 2059,
      "ãĥĿãĥĥãĥīãģ®èĩªåĭķãĤ¹ãĤ±ãĥ¼ãĥªãĥ³ãĤ°æ©Łèĥ½ãģĮãģĤãĤĬãģ¾ãģĻ": 2060,
      "APIãģ®è¨Ńè¨Īãģ«ãģĬãģĦãģ¦ãģ¯ãĥĲãĥ¼ãĤ¸ãĥ§ãĥĭãĥ³ãĤ°æĪ¦çķ¥ãģĮéĩįè¦ģãģ§ãģĻ": 2061,
      "ãĤ³ãĥ³ãĥĨãĥĬæĬĢè¡ĵãĤĴä½¿ãģĨãģĵãģ¨ãģ§çĴ°å¢ĥãģ«ä¾ĿåŃĺãģĹãģªãģĦãĤ¢ãĥĹãĥªãĤ±ãĥ¼ãĤ·ãĥ§ãĥ³ãģ®å®Łè¡ĮãģĮåı¯èĥ½ãģ§ãģĻ": 2062,
      "DockerãĤĴä½¿çĶ¨ãģĻãĤĭãģĵãģ¨ãģ§éĸĭçĻºçĴ°å¢ĥãģ®æ§ĭç¯īãģĮå¤§å¹ħãģ«ç°¡çķ¥åĮĸãģķãĤĮãģ¾ãģĻ": 2063,
      "GitHubãģ§ãĥĹãĥ«ãĥªãĤ¯ãĤ¨ãĤ¹ãĥĪãĤĴä½ľæĪĲãģĹãģ¦ãĤ³ãĥ¼ãĥīãĥ¬ãĥĵãĥ¥ãĥ¼ãĤĴä¾Ŀéł¼ãģĹãģ¦ãģıãģłãģķãģĦ": 2064,
      "æ·±å±¤åŃ¦ç¿Ĵãĥ¢ãĥĩãĥ«ãģ®åŃ¦ç¿Ĵãģ«ãģ¯å¤§è¦ıæ¨¡ãģªãĥĩãĥ¼ãĤ¿ãĤ»ãĥĥãĥĪãģ¨è¨Īç®Ĺè³ĩæºĲãģĮå¿ħè¦ģãģ§ãģĻ": 2065,
      "Ġãĥ¦ãĥ¼ãĤ¶ãĥ¼ãĥĹãĥŃãĥķãĤ£ãĥ¼ãĥ«çĶ»éĿ¢": 2066,
      "ãĥŀãĤ¤ãĤ¯ãĥŃãĤµãĥ¼ãĥĵãĤ¹ãĤ¢ãĥ¼ãĤŃãĥĨãĤ¯ãĥģãĥ£ãģ§ãģ¯åĲĦãĤµãĥ¼ãĥĵãĤ¹ãģĮçĭ¬ç«ĭãģĹãģ¦ãĥĩãĥĹãĥŃãĤ¤åı¯èĥ½ãģ§ãģĻ": 2067,
      "CDãĥĳãĤ¤ãĥĹãĥ©ãĤ¤ãĥ³ãģ®æ§ĭç¯īæĸ¹æ³ķãĤĴèª¬æĺİãģĹãģ¾ãģĻ": 2068,
      "JSONãĥĩãĥ¼ãĤ¿åŀĭãĤĤãĤµãĥĿãĥ¼ãĥĪãģĹãģ¦ãģĦãģ¾ãģĻ": 2069,
      "Oå¾ħãģ¡ãģ®éĸĵãģ«ä»ĸãģ®åĩ¦çĲĨãĤĴå®Łè¡Įãģ§ãģįãģ¾ãģĻ": 2070,
      "Rustãģ®æīĢæľīæ¨©ãĤ·ãĤ¹ãĥĨãĥłãģ¯ãĥ¡ãĥ¢ãĥªå®īåħ¨æĢ§ãĤĴãĤ³ãĥ³": 2071,
      "treeæ§ĭéĢłãĤĴçĶ¨ãģĦãģ¦é«ĺéĢŁãģªæ¤ľç´¢ãĤĴå®Łçı¾ãģĹãģ¾ãģĻ": 2072,
      "ĠãĥĨãĤ¹ãĥĪãģ®èĩªåĭķå®Łè¡ĮãģĭãĤīæľ¬çķªçĴ°å¢ĥãģ¸ãģ®ãĥĩãĥĹãĥŃãĤ¤ãģ¾ãģ§ãĤĴèĩªåĭķåĮĸãģ§ãģįãģ¾ãģĻ": 2073,
      "ĠDockerfileãģ«å¿ħè¦ģãģªä¾ĿåŃĺéĸ¢ä¿ĤãĤĴè¨ĺè¿°ãģĻãĤĭãģłãģĳãģ§åĨįçı¾åı¯èĥ½ãģªçĴ°å¢ĥãģĮä½ľæĪĲãģ§ãģįãģ¾ãģĻ": 2074,
      "ĠJavaScriptãģ«åŀĭãĤ·ãĤ¹ãĥĨãĥłãĤĴè¿½åĬłãģĹãģŁè¨Ģèªŀãģ§": 2075,
      "Ġè¤ĩéĽĳãģªçĬ¶æħĭéģ·ç§»ãģ«ãģ¯useReducerãģĮéģ©ãģĹãģ¦ãģĦãģ¾ãģĻ": 2076,
      "ãĥĪãĥ©ãĥ³ãĤ¹ãĥķãĤ©ãĥ¼ãĥŀãĥ¼ãĤ¢ãĥ¼ãĤŃãĥĨãĤ¯ãĥģãĥ£ãģ¯èĩªå·±æ³¨æĦıæ©Łæ§ĭãĤĴçĶ¨ãģĦãģ¦ç³»åĪĹãĥĩãĥ¼ãĤ¿ãĤĴåĩ¦çĲĨãģĹãģ¾ãģĻ": 2077,
      "ä¸¦è¡Įåĩ¦çĲĨãģ§ãģ¯ãĥŁãĥ¥ãĥ¼ãĥĨãĥĥãĤ¯ãĤ¹ãĤĦãĤ»ãĥŀãĥķãĤ©ãĤĴä½¿ãģ£ãģ¦æİĴä»ĸåĪ¶å¾¡ãĤĴè¡ĮãģĦãģ¾ãģĻ": 2078,
      "æ©Łæ¢°åŃ¦ç¿Ĵãĥ¢ãĥĩãĥ«ãģ®è©ķä¾¡ãģ«ãģ¯éģ©åĲĪçİĩãģ¨åĨįçı¾çİĩãģ®ãĥĲãĥ©ãĥ³ãĤ¹ãģĮéĩįè¦ģãģ§ãģĻ": 2079,
      "ãĤªãĥĸãĤ¸ãĤ§ãĤ¯ãĥĪæĮĩåĲĳè¨Ńè¨Īãģ§ãģ¯åįĺä¸Ģè²¬ä»»ãģ®åİŁåīĩãģ«å¾ĵãģ£ãģ¦ãĤ¯ãĥ©ãĤ¹ãĤĴåĪĨåī²ãģĹãģ¾ãģĻ": 2080,
      "ãĥĳãĤ¤ãĥ«æĻĤãģ«ä¿Ŀè¨¼ãģĻãĤĭéĿ©æĸ°çļĦãģªä»ķçµĦãģ¿ãģ§ãģĻ": 2081,
      "ãĤ»ãĤŃãĥ¥ãĥªãĥĨãĤ£å¯¾çŃĸãģ¨ãģĹãģ¦åħ¥åĬĽåĢ¤ãģ®ãĥĲãĥªãĥĩãĥ¼ãĤ·ãĥ§ãĥ³ãģ¨ãĤµãĥĭãĤ¿ãĤ¤ãĤºãģĮéĩįè¦ģãģ§ãģĻ": 2082,
      "ãĥĨãĤ¹ãĥĪé§ĨåĭķéĸĭçĻºãģ§ãģ¯æľĢåĪĿãģ«ãĥĨãĤ¹ãĥĪãĤĴæĽ¸ãģĦãģ¦ãģĭãĤīå®Łè£ħãĤĴè¡ĮãģĦãģ¾ãģĻ": 2083,
      "ãģĵãģ®è¨ĺäºĭãģ§ãģ¯Pythonãģ§ãģ®éĿŀåĲĮæľŁåĩ¦çĲĨãģ®å®Łè£ħæĸ¹æ³ķãģ«ãģ¤ãģĦãģ¦è§£èª¬ãģĹãģ¾ãģĻ": 2084,
      "ãģĵãģ®ãĥĹãĥŃãĤ¸ãĤ§ãĤ¯ãĥĪãģ¯åĢĭäººãģ®PCãģ§åĭķä½ľãģĻãĤĭçľģãĥ¡ãĥ¢ãĥªãģªAIãĤ¢ãĤ·ãĤ¹ãĤ¿ãĥ³ãĥĪãĤĴçĽ®æĮĩãģĹãģ¦ãģĦãģ¾ãģĻ": 2085,
      "éĸ¢æķ°åŀĭãĥĹãĥŃãĤ°ãĥ©ãĥŁãĥ³ãĤ°ãģ¯åī¯ä½ľçĶ¨ãģ®ãģªãģĦç´Ķç²ĭéĸ¢æķ°ãĤĴçµĦãģ¿åĲĪãĤıãģĽãģ¦ãĥĹãĥŃãĤ°ãĥ©ãĥłãĤĴæ§ĭç¯īãģĹãģ¾ãģĻ": 2086,
      "Rustãģ®æīĢæľīæ¨©ãĤ·ãĤ¹ãĥĨãĥłãģ¯ãĥ¡ãĥ¢ãĥªå®īåħ¨æĢ§ãĤĴãĤ³ãĥ³ãĥĳãĤ¤ãĥ«æĻĤãģ«ä¿Ŀè¨¼ãģĻãĤĭéĿ©æĸ°çļĦãģªä»ķçµĦãģ¿ãģ§ãģĻ": 2087
    },
    "merges": [
      [
        "ã",
        "ģ"
      ],
      [
        "ã",
        "ĥ"
      ],
      [
        "ã",
        "Ĥ"
      ],
      [
        "Ġ",
        "Ġ"
      ],
      [
        "ãĥ",
        "¼"
      ],
      [
        "ĠĠ",
        "ĠĠ"
      ],
      [
        "ãģ",
        "Ļ"
      ],
      [
        "ĠĠ",
        "Ġ"
      ],
      [
        "ã",
        "Ģ"
      ],
      [
        "ãģ",
        "§"
      ],
      [
        "ãĤ",
        "Ĵ"
      ],
      [
        "ãĢ",
        "Ĥ"
      ],
      [
        "i",
        "n"
      ],
      [
        "ãģ",
        "®"
      ],
      [
        "r",
        "e"
      ],
      [
        "Ĺ",
        "ãģ"
      ],
      [
        "ãģ",
        "Ĺãģ"
      ],
      [
        "ãĥ¼",
        "ãĤ"
      ],
      [
        "¾",
        "ãģĻ"
      ],
      [
        "ãģ",
        "¯"
      ],
      [
        "o",
        "n"
      ],
      [
        "s",
        "e"
      ],
      [
        "Ċ",
        "ĠĠĠ"
      ],
      [
        "ãģ",
        "«"
      ],
      [
        "ãĥ",
        "³"
      ],
      [
        "ãĥ¼",
        "ãĥ"
      ],
      [
        "ãĤ",
        "¹"
      ],
      [
        "a",
        "r"
      ],
      [
        "Ġ",
        "re"
      ],
      [
        "ãģ",
        "Į"
      ],
      [
        "l",
        "e"
      ],
      [
        "Ċ",
        "ĠĠĠĠ"
      ],
      [
        "Ħ",
        "ãģ"
      ],
      [
        "d",
        "e"
      ],
      [
        "o",
        "r"
      ],
      [
        "t",
        "u"
      ],
      [
        "Ġ",
        "="
      ],
      [
        "s",
        "t"
      ],
      [
        "ãĥ",
        "Ī"
      ],
      [
        "e",
        "r"
      ],
      [
        "è",
        "¨"
      ],
      [
        "ãģ",
        "Ħãģ"
      ],
      [
        "ãĥ",
        "ĩ"
      ],
      [
        "Ġ",
        "m"
      ],
      [
        "ĊĠĠĠĠ",
        "ĠĠĠ"
      ],
      [
        "ãĤ",
        "¤"
      ],
      [
        "Ġ",
        "{"
      ],
      [
        "e",
        "n"
      ],
      [
        "a",
        "t"
      ],
      [
        "å",
        "®"
      ],
      [
        "Ġ",
        "t"
      ],
      [
        "ãĤ",
        "¯"
      ],
      [
        "ãģĹãģ",
        "¦"
      ],
      [
        "Ġ",
        "}"
      ],
      [
        "r",
        "n"
      ],
      [
        "Ġre",
        "tu"
      ],
      [
        "Ġretu",
        "rn"
      ],
      [
        "Ġ",
        "<"
      ],
      [
        "¦",
        "ç"
      ],
      [
        "ãģ",
        "¨"
      ],
      [
        "ãĥ",
        "Ĩ"
      ],
      [
        "ãģ§",
        "ãģĻ"
      ],
      [
        "i",
        "t"
      ],
      [
        "ä",
        "½"
      ],
      [
        "å",
        "Ĳ"
      ],
      [
        "é",
        "ĸ"
      ],
      [
        "ĭ",
        "ç"
      ],
      [
        "Ĺ",
        "ãĥ"
      ],
      [
        "ãĥ",
        "ķ"
      ],
      [
        "ãģĹãģ",
        "¾ãģĻ"
      ],
      [
        "Ġ",
        "f"
      ],
      [
        "in",
        "t"
      ],
      [
        "ar",
        "r"
      ],
      [
        ")",
        ";"
      ],
      [
        "Ġ",
        "a"
      ],
      [
        "Ġ",
        "i"
      ],
      [
        "i",
        "on"
      ],
      [
        "u",
        "se"
      ],
      [
        "å",
        "Ī"
      ],
      [
        "ãĥ",
        "©"
      ],
      [
        "ãĥ",
        "ª"
      ],
      [
        "ãĥ",
        "Ĺãĥ"
      ],
      [
        "n",
        "c"
      ],
      [
        "Ġ",
        "p"
      ],
      [
        "ç",
        "Ķ"
      ],
      [
        "è",
        "¡"
      ],
      [
        "è",
        "¦"
      ],
      [
        "Ĳ",
        "Ĩ"
      ],
      [
        "ãģĦãģ",
        "¾ãģĻ"
      ],
      [
        "ãĥĩ",
        "ãĥ¼ãĤ"
      ],
      [
        "a",
        "in"
      ],
      [
        ")",
        ":"
      ],
      [
        "l",
        "f"
      ],
      [
        "Ġ",
        "n"
      ],
      [
        "se",
        "lf"
      ],
      [
        "s",
        "s"
      ],
      [
        "Ġ",
        "le"
      ],
      [
        "h",
        "t"
      ],
      [
        "i",
        "d"
      ],
      [
        "r",
        "i"
      ],
      [
        "å",
        "ī"
      ],
      [
        "Ġ",
        "c"
      ],
      [
        "ãģ",
        "ª"
      ],
      [
        "ãģ",
        "ĵ"
      ],
      [
        "ãģ",
        "¾ãģĻ"
      ],
      [
        "ãĤĴ",
        "ä½"
      ],
      [
        "ãĥ¼ãĥ",
        "«"
      ],
      [
        "å®",
        "Ł"
      ],
      [
        "çĶ",
        "¨"
      ],
      [
        "è¡",
        "Į"
      ],
      [
        "ãĥĩãĥ¼ãĤ",
        "¿"
      ],
      [
        "a",
        "c"
      ],
      [
        "(",
        ")"
      ],
      [
        "Ġm",
        "ain"
      ],
      [
        "de",
        "f"
      ],
      [
        "l",
        "o"
      ],
      [
        "e",
        "t"
      ],
      [
        "f",
        "t"
      ],
      [
        "°",
        "å"
      ],
      [
        "ä",
        "¾"
      ],
      [
        "å",
        "Ģ"
      ],
      [
        "æ",
        "ĸ"
      ],
      [
        "Ġ",
        "-"
      ],
      [
        "ãĥ",
        "¡"
      ],
      [
        "ãĥ",
        "§"
      ],
      [
        "ãĥ",
        "«"
      ],
      [
        "ãĥ",
        "ĥ"
      ],
      [
        "ãĤ",
        "°"
      ],
      [
        "ãĤ",
        "ĭ"
      ],
      [
        "ãĢ",
        "ģ"
      ],
      [
        "ãģ§",
        "ãģ¯"
      ],
      [
        "ãĤ¹",
        "ãĥĪ"
      ],
      [
        "ãģĹãģ¦",
        "ãģĦãģ¾ãģĻ"
      ],
      [
        "ãĥķ",
        "ãĤ"
      ],
      [
        "ãĥĹãĥ",
        "Ń"
      ],
      [
        "è¦",
        "ģ"
      ],
      [
        "ãĤĴä½",
        "¿"
      ],
      [
        "i",
        "o"
      ],
      [
        "r",
        "int"
      ],
      [
        "or",
        "t"
      ],
      [
        "i",
        "m"
      ],
      [
        "Ġ",
        "1"
      ],
      [
        "Ġ",
        "self"
      ],
      [
        "Ġi",
        "f"
      ],
      [
        "/",
        "/"
      ],
      [
        "a",
        "m"
      ],
      [
        "c",
        "h"
      ],
      [
        "t",
        "ion"
      ],
      [
        "e",
        "x"
      ],
      [
        "g",
        "ht"
      ],
      [
        "h",
        "e"
      ],
      [
        "r",
        "o"
      ],
      [
        "¹",
        "æ"
      ],
      [
        "å",
        "ĩ"
      ],
      [
        "å",
        "ĭ"
      ],
      [
        "å",
        "ı"
      ],
      [
        "å",
        "Ń"
      ],
      [
        "æ",
        "§"
      ],
      [
        "æ",
        "¨"
      ],
      [
        "è",
        "ª"
      ],
      [
        "è",
        "ĥ"
      ],
      [
        "é",
        "ģ"
      ],
      [
        "Ġ",
        "use"
      ],
      [
        "Ġ",
        "ri"
      ],
      [
        "ĭ",
        "ãĤ"
      ],
      [
        "Ļ",
        "º"
      ],
      [
        "ãĥ",
        "¬"
      ],
      [
        "ãĥ",
        "ł"
      ],
      [
        "ãĤ",
        "³"
      ],
      [
        "ãģĻ",
        "ãĤĭ"
      ],
      [
        "ãģ«",
        "ãģ¯"
      ],
      [
        "ãģĦãģ",
        "¦"
      ],
      [
        "¦ç",
        "ĲĨ"
      ],
      [
        "éĸ",
        "ĭç"
      ],
      [
        "åĢ",
        "¤"
      ],
      [
        "è¦ģ",
        "ãģ§ãģĻ"
      ],
      [
        "åĩ",
        "¦çĲĨ"
      ],
      [
        "åĭ",
        "ķ"
      ],
      [
        "èĥ",
        "½"
      ],
      [
        "Ġri",
        "ght"
      ],
      [
        "éĸĭç",
        "Ļº"
      ],
      [
        "Ġ",
        "v"
      ],
      [
        "(",
        "\""
      ],
      [
        "a",
        "l"
      ],
      [
        "s",
        "y"
      ],
      [
        "sy",
        "nc"
      ],
      [
        "_",
        "_"
      ],
      [
        "c",
        "l"
      ],
      [
        "e",
        "l"
      ],
      [
        "u",
        "nc"
      ],
      [
        "Ġ",
        "arr"
      ],
      [
        "c",
        "k"
      ],
      [
        "o",
        "de"
      ],
      [
        "q",
        "u"
      ],
      [
        "Ġ",
        "("
      ],
      [
        "en",
        "t"
      ],
      [
        "<",
        "/"
      ],
      [
        "a",
        "tu"
      ],
      [
        "c",
        "e"
      ],
      [
        "g",
        "et"
      ],
      [
        "j",
        "s"
      ],
      [
        "o",
        "k"
      ],
      [
        "p",
        "t"
      ],
      [
        "t",
        "h"
      ],
      [
        "¢",
        "æ"
      ],
      [
        "¢",
        "ĥ"
      ],
      [
        "©",
        "Ł"
      ],
      [
        "³",
        "ķ"
      ],
      [
        "·",
        "ãĤ¹"
      ],
      [
        "·",
        "ãĥ§"
      ],
      [
        "¿",
        "Ĵ"
      ],
      [
        "ä",
        "¸"
      ],
      [
        "ä",
        "»"
      ],
      [
        "å",
        "¤"
      ],
      [
        "æ",
        "ľ"
      ],
      [
        "æ",
        "©Ł"
      ],
      [
        "ç",
        "´"
      ],
      [
        "ç",
        "Ĵ"
      ],
      [
        "è",
        "ĩ"
      ],
      [
        "é",
        "ĩ"
      ],
      [
        "Ċ",
        "Ġ"
      ],
      [
        "Ġ",
        "ãģ¯"
      ],
      [
        "Ĥ",
        "ãĤ"
      ],
      [
        "į",
        "åī"
      ],
      [
        "ãĥ",
        "¢"
      ],
      [
        "ãĥ",
        "Ĳ"
      ],
      [
        "ãĤ",
        "¢"
      ],
      [
        "ãĤ",
        "¨"
      ],
      [
        "ãĤ",
        "ª"
      ],
      [
        "ĠĠĠĠ",
        "ĠĠĠ"
      ],
      [
        "ãĤĴ",
        "æ"
      ],
      [
        "ãģ«",
        "å"
      ],
      [
        "ãĥ³",
        "ãĤ°"
      ],
      [
        "ĊĠĠĠĠ",
        "ĠĠĠĠĠĠĠ"
      ],
      [
        "è¨",
        "¼"
      ],
      [
        "è¨",
        "Ī"
      ],
      [
        "Ġm",
        "id"
      ],
      [
        "ãĤ¯",
        "ãĥ"
      ],
      [
        "¦ç",
        "¿Ĵ"
      ],
      [
        "åĲ",
        "įåī"
      ],
      [
        "Ġle",
        "ft"
      ],
      [
        "°å",
        "¢ĥ"
      ],
      [
        "æĸ",
        "¹æ"
      ],
      [
        "ãĥ¡",
        "ãĥ¼ãĥ«"
      ],
      [
        "åı",
        "¯"
      ],
      [
        "éģ",
        "©"
      ],
      [
        "Ġuse",
        "r"
      ],
      [
        "js",
        "on"
      ],
      [
        "çĴ",
        "°å¢ĥ"
      ],
      [
        "èĩ",
        "ª"
      ],
      [
        "åĲįåī",
        "į"
      ],
      [
        "æĸ¹æ",
        "³ķ"
      ],
      [
        "b",
        "on"
      ],
      [
        "c",
        "i"
      ],
      [
        "i",
        "bon"
      ],
      [
        "Ġf",
        "ibon"
      ],
      [
        "ac",
        "ci"
      ],
      [
        "Ġfibon",
        "acci"
      ],
      [
        "\"",
        ");"
      ],
      [
        "f",
        "unc"
      ],
      [
        "p",
        "ort"
      ],
      [
        "Ġ",
        "def"
      ],
      [
        "Ġ<",
        "="
      ],
      [
        "Ġp",
        "rint"
      ],
      [
        "im",
        "port"
      ],
      [
        "a",
        "i"
      ],
      [
        "a",
        "ss"
      ],
      [
        "e",
        "m"
      ],
      [
        "i",
        "v"
      ],
      [
        "Ġ",
        "\""
      ],
      [
        "Ġ",
        "+"
      ],
      [
        "Ġ",
        "0"
      ],
      [
        "Ġ",
        "2"
      ],
      [
        "Ġ",
        "in"
      ],
      [
        "am",
        "e"
      ],
      [
        "ai",
        "l"
      ],
      [
        "em",
        "ail"
      ],
      [
        "A",
        "P"
      ],
      [
        "R",
        "e"
      ],
      [
        "i",
        "z"
      ],
      [
        "i",
        "le"
      ],
      [
        "o",
        "m"
      ],
      [
        "o",
        "st"
      ],
      [
        "u",
        "b"
      ],
      [
        "¡",
        "ç"
      ],
      [
        "£",
        "ħ"
      ],
      [
        "£",
        "ãģ"
      ],
      [
        "¯",
        "ī"
      ],
      [
        "·",
        "±"
      ],
      [
        "¿",
        "ħ"
      ],
      [
        "ä",
        "º"
      ],
      [
        "å",
        "Ĭ"
      ],
      [
        "æ",
        "Ģ"
      ],
      [
        "æ",
        "ħ"
      ],
      [
        "æ",
        "Ī"
      ],
      [
        "æ",
        "Į"
      ],
      [
        "ç",
        "®"
      ],
      [
        "ç",
        "ı"
      ],
      [
        "ç",
        "Ľ"
      ],
      [
        "è",
        "¿"
      ],
      [
        "è",
        "£ħ"
      ],
      [
        "é",
        "Ŀ"
      ],
      [
        "Ġ",
        "'"
      ],
      [
        "Ġ",
        "b"
      ],
      [
        "Ġ",
        "de"
      ],
      [
        "Ĭ",
        "ãģ¾ãģĻ"
      ],
      [
        "į",
        "ãģ¾ãģĻ"
      ],
      [
        "į",
        "è¦ģãģ§ãģĻ"
      ],
      [
        "Ļ",
        "ãĥ¼ãĤ"
      ],
      [
        "ãģ",
        "Ħ"
      ],
      [
        "ãģ",
        "ĤãĤ"
      ],
      [
        "ãģ",
        "£ãģ"
      ],
      [
        "ãģ",
        "įãģ¾ãģĻ"
      ],
      [
        "ãĥ",
        "¥"
      ],
      [
        "ãĥ",
        "ī"
      ],
      [
        "ãĥ",
        "Ĭ"
      ],
      [
        "ãĥ",
        "ĳ"
      ],
      [
        "ãĥ",
        "ŀ"
      ],
      [
        "ãĥ",
        "Ł"
      ],
      [
        "ãĥ",
        "Ļãĥ¼ãĤ"
      ],
      [
        "ãĤ",
        "§"
      ],
      [
        "ãĤ",
        "µ"
      ],
      [
        "ãĤ",
        "»"
      ],
      [
        "ãĤ",
        "·ãĤ¹"
      ],
      [
        "ãģ§",
        "ãģįãģ¾ãģĻ"
      ],
      [
        "ãĤĴ",
        "å®Ł"
      ],
      [
        "ãĤĴ",
        "è¡Į"
      ],
      [
        "ãģĹãģ",
        "Ł"
      ],
      [
        "ãĥ¼ãĤ",
        "¯"
      ],
      [
        "ãĥ¼ãĤ",
        "·ãĥ§"
      ],
      [
        "ãģ«",
        "ãģ"
      ],
      [
        "ãĥ¼ãĥ",
        "ī"
      ],
      [
        "ar",
        "ch"
      ],
      [
        "ar",
        "get"
      ],
      [
        "Ġre",
        "s"
      ],
      [
        "ãģĮ",
        "éĩ"
      ],
      [
        "ãģĮ",
        "ãģĤãĤ"
      ],
      [
        "st",
        "atu"
      ],
      [
        "er",
        "r"
      ],
      [
        "è¨",
        "Ń"
      ],
      [
        "at",
        "e"
      ],
      [
        "at",
        "ion"
      ],
      [
        "å®",
        "ļ"
      ],
      [
        "Ġt",
        "arget"
      ],
      [
        "ãģ¨",
        "ãģ§"
      ],
      [
        "ãĥĨ",
        "ãĤ¹ãĥĪ"
      ],
      [
        "ãĥĨ",
        "ãĥł"
      ],
      [
        "ä½",
        "ľ"
      ],
      [
        "éĸ",
        "¢æ"
      ],
      [
        "ĭç",
        "¯ī"
      ],
      [
        "åĪ",
        "Ĩ"
      ],
      [
        "åĪ",
        "Ĺ"
      ],
      [
        "ãģĵ",
        "ãģ®"
      ],
      [
        "ãģĵ",
        "ãģ¨ãģ§"
      ],
      [
        "ãĥĩãĥ¼ãĤ¿",
        "ãĥĻãĥ¼ãĤ"
      ],
      [
        "ä¾",
        "Ŀ"
      ],
      [
        "ãĥĥ",
        "ãĤ¯"
      ],
      [
        "ãĤĴä½¿",
        "çĶ¨"
      ],
      [
        "åŃ",
        "¦ç¿Ĵ"
      ],
      [
        "æ§",
        "ĭç¯ī"
      ],
      [
        "ãĤ³",
        "ãĥ³"
      ],
      [
        "ck",
        "er"
      ],
      [
        "ok",
        "en"
      ],
      [
        "å¤",
        "§"
      ],
      [
        "ç´",
        "¢"
      ],
      [
        "åı¯",
        "èĥ½"
      ],
      [
        "èĩª",
        "åĭķ"
      ],
      [
        "æĢ",
        "§"
      ],
      [
        "æĮ",
        "ĩ"
      ],
      [
        "çı",
        "¾"
      ],
      [
        "çĽ",
        "®"
      ],
      [
        "ãģĮéĩ",
        "įè¦ģãģ§ãģĻ"
      ],
      [
        "ãģĮãģĤãĤ",
        "Ĭãģ¾ãģĻ"
      ],
      [
        "statu",
        "s"
      ],
      [
        "éĸ¢æ",
        "ķ"
      ],
      [
        "H",
        "el"
      ],
      [
        "l",
        "n"
      ],
      [
        "m",
        "t"
      ],
      [
        "r",
        "in"
      ],
      [
        "Ġ",
        "N"
      ],
      [
        "Ġ",
        "x"
      ],
      [
        "Ġ",
        "st"
      ],
      [
        "Ġa",
        "sync"
      ],
      [
        "Ġv",
        "al"
      ],
      [
        "Hel",
        "lo"
      ],
      [
        "rin",
        "g"
      ],
      [
        "Ġst",
        "ring"
      ],
      [
        "a",
        "sync"
      ],
      [
        "d",
        "io"
      ],
      [
        "e",
        "c"
      ],
      [
        "i",
        "ent"
      ],
      [
        "o",
        "t"
      ],
      [
        "t",
        "p"
      ],
      [
        "u",
        "m"
      ],
      [
        "u",
        "de"
      ],
      [
        "Ġ",
        "&"
      ],
      [
        "Ġ",
        "U"
      ],
      [
        "Ġ",
        "W"
      ],
      [
        "Ġ",
        "w"
      ],
      [
        "Ġ",
        "__"
      ],
      [
        "Ġ",
        "email"
      ],
      [
        "in",
        "it"
      ],
      [
        "in",
        "cl"
      ],
      [
        "le",
        "ft"
      ],
      [
        "st",
        "dio"
      ],
      [
        "it",
        "h"
      ],
      [
        "Ġf",
        "or"
      ],
      [
        "Ġn",
        "ame"
      ],
      [
        "Ġle",
        "n"
      ],
      [
        "ht",
        "tp"
      ],
      [
        "__",
        "("
      ],
      [
        "cl",
        "ass"
      ],
      [
        "func",
        "tion"
      ],
      [
        "Ġprint",
        "f"
      ],
      [
        "incl",
        "ude"
      ],
      [
        "(",
        "{"
      ],
      [
        ")",
        "."
      ],
      [
        "4",
        "0"
      ],
      [
        "D",
        "E"
      ],
      [
        "D",
        "o"
      ],
      [
        "E",
        "C"
      ],
      [
        "G",
        "it"
      ],
      [
        "H",
        "ub"
      ],
      [
        "J",
        "W"
      ],
      [
        "P",
        "y"
      ],
      [
        "R",
        "E"
      ],
      [
        "S",
        "C"
      ],
      [
        "S",
        "c"
      ],
      [
        "T",
        "y"
      ],
      [
        "a",
        "n"
      ],
      [
        "a",
        "p"
      ],
      [
        "c",
        "er"
      ],
      [
        "c",
        "ode"
      ],
      [
        "c",
        "om"
      ],
      [
        "d",
        "u"
      ],
      [
        "d",
        "iv"
      ],
      [
        "e",
        "s"
      ],
      [
        "e",
        "st"
      ],
      [
        "f",
        "ile"
      ],
      [
        "g",
        "it"
      ],
      [
        "h",
        "at"
      ],
      [
        "h",
        "ost"
      ],
      [
        "i",
        "f"
      ],
      [
        "m",
        "id"
      ],
      [
        "p",
        "e"
      ],
      [
        "p",
        "on"
      ],
      [
        "p",
        "le"
      ],
      [
        "r",
        "y"
      ],
      [
        "s",
        "pon"
      ],
      [
        "t",
        "oken"
      ],
      [
        "u",
        "th"
      ],
      [
        "}",
        "</"
      ],
      [
        "¢",
        "ç´¢"
      ],
      [
        "£",
        "ãĥ¼ãĥ«"
      ],
      [
        "¤",
        "ľ"
      ],
      [
        "¤",
        "åŃ¦ç¿Ĵ"
      ],
      [
        "¦",
        "ãĥ¼ãĤ"
      ],
      [
        "¬",
        "ç"
      ],
      [
        "±",
        "¤åŃ¦ç¿Ĵ"
      ],
      [
        "µ",
        "Ħãģ"
      ],
      [
        "¶",
        "æħ"
      ],
      [
        "¸",
        "ãĥ§"
      ],
      [
        "¸",
        "ãĤ§"
      ],
      [
        "¹",
        "ãģ®"
      ],
      [
        "¿",
        "ãĤ¤"
      ],
      [
        "ä",
        "¿"
      ],
      [
        "å",
        "¯"
      ],
      [
        "å",
        "¾"
      ],
      [
        "å",
        "ħ"
      ],
      [
        "å",
        "Ĩ"
      ],
      [
        "å",
        "Į"
      ],
      [
        "å",
        "¿ħ"
      ],
      [
        "å",
        "±¤åŃ¦ç¿Ĵ"
      ],
      [
        "æ",
        "İ"
      ],
      [
        "æ",
        "·±"
      ],
      [
        "ç",
        "Ĭ"
      ],
      [
        "ç",
        "İ"
      ],
      [
        "ç",
        "µĦãģ"
      ],
      [
        "è",
        "²"
      ],
      [
        "é",
        "Ģ"
      ],
      [
        "é",
        "ħ"
      ],
      [
        "Ġ",
        "O"
      ],
      [
        "Ġ",
        "ãĥ"
      ],
      [
        "Ġ",
        "se"
      ],
      [
        "Ġ",
        "lo"
      ],
      [
        "Ġ",
        "åĢ¤"
      ],
      [
        "Ġ",
        "el"
      ],
      [
        "Ġ",
        "ãĥ¡ãĥ¼ãĥ«"
      ],
      [
        "Ġ",
        "åĲįåīį"
      ],
      [
        "Ġ",
        "err"
      ],
      [
        "Ġ",
        "çĽ®"
      ],
      [
        "Ģ",
        "è²"
      ],
      [
        "ģ",
        "ãĥ"
      ],
      [
        "į",
        "è¨¼"
      ],
      [
        "į",
        "åĪĹ"
      ],
      [
        "į",
        "çı¾"
      ],
      [
        "ı",
        "ãģ"
      ],
      [
        "ı",
        "æ¨"
      ],
      [
        "ĵ",
        "ãĤ¹"
      ],
      [
        "ķ",
        "¥"
      ],
      [
        "Ļ",
        "åĢ¤"
      ],
      [
        "ŀ",
        "ĭãĤ"
      ],
      [
        "ł",
        "ãģ"
      ],
      [
        "Ń",
        "ãĥĨ"
      ],
      [
        "ãģ",
        "Ĩ"
      ],
      [
        "ãģ",
        "ĭãĤ"
      ],
      [
        "ãĥ",
        "ĸ"
      ],
      [
        "ãĥ",
        "Ŀ"
      ],
      [
        "ãĤ",
        "£"
      ],
      [
        "ãĤ",
        "±"
      ],
      [
        "ãĤ",
        "½"
      ],
      [
        "ãĤ",
        "¿"
      ],
      [
        "ãĤ",
        "¸ãĤ§"
      ],
      [
        "ãĤĴ",
        "çĶ¨"
      ],
      [
        "ãĤĴ",
        "åĩ¦çĲĨ"
      ],
      [
        "ãĤĴ",
        "è¿"
      ],
      [
        "in",
        "ar"
      ],
      [
        "ãģ®",
        "å®Ł"
      ],
      [
        "ãģ®",
        "ãĥĲ"
      ],
      [
        "ãģ®",
        "æ§ĭç¯ī"
      ],
      [
        "ãģ®",
        "èĩªåĭķ"
      ],
      [
        "re",
        "e"
      ],
      [
        "re",
        "spon"
      ],
      [
        "ãĥ¼ãĤ",
        "¸ãĥ§"
      ],
      [
        "ãĥ¼ãĤ",
        "ŃãĥĨ"
      ],
      [
        "on",
        "st"
      ],
      [
        "ãĥ³",
        "ãĤ¹"
      ],
      [
        "ãĥ¼ãĥ",
        "ĵãĤ¹"
      ],
      [
        "Ġre",
        "q"
      ],
      [
        "Ġre",
        "qu"
      ],
      [
        "ãģĮ",
        "ç"
      ],
      [
        "ãģĮ",
        "éĸĭçĻº"
      ],
      [
        "ãģĮ",
        "å¿ħ"
      ],
      [
        "Ġ=",
        "="
      ],
      [
        "ãĥĪ",
        "ãĥ¼ãĤ¯"
      ],
      [
        "è¨",
        "ĺ"
      ],
      [
        "ãĥĩ",
        "ãĥ«"
      ],
      [
        "ãĥĩ",
        "ãĥĹãĥŃ"
      ],
      [
        "ãĤ¤",
        "ãĥ³"
      ],
      [
        "ãĤ¤",
        "ãĥ«"
      ],
      [
        "ãĤ¤",
        "ãĤ¯ãĥ"
      ],
      [
        "Ġ{",
        "{"
      ],
      [
        "Ġt",
        "he"
      ],
      [
        "Ġt",
        "hat"
      ],
      [
        "ãĤ¯",
        "ãĥĪ"
      ],
      [
        "ãĤ¯",
        "ãĤ¨"
      ],
      [
        "Ġ}",
        ");"
      ],
      [
        "Ġ}",
        "}</"
      ],
      [
        "ãĥĨ",
        "ãĥĬ"
      ],
      [
        "åĲ",
        "Ī"
      ],
      [
        "use",
        "Re"
      ],
      [
        "ãĥ©",
        "ãĤ¤"
      ],
      [
        "ãĥ©",
        "ãĥ³ãĤ¹"
      ],
      [
        "ãĥª",
        "ãĤ¯ãĤ¨"
      ],
      [
        "Ġp",
        "ro"
      ],
      [
        "è¦",
        "ıæ¨"
      ],
      [
        "Ġn",
        "ex"
      ],
      [
        "ri",
        "pt"
      ],
      [
        "Ġc",
        "onst"
      ],
      [
        "ãĥ¡",
        "ãĥ¢"
      ],
      [
        "ãĤ°",
        "ãĥ©"
      ],
      [
        "ãĥķãĤ",
        "©"
      ],
      [
        "ãĥķãĤ",
        "£ãĥ¼ãĥ«"
      ],
      [
        "ãĥĹãĥŃ",
        "ãĤ°ãĥ©"
      ],
      [
        "ãĤĴä½¿",
        "ãģ£ãģ"
      ],
      [
        "im",
        "iz"
      ],
      [
        "am",
        "ple"
      ],
      [
        "ex",
        "ample"
      ],
      [
        "åŃ",
        "ĺ"
      ],
      [
        "æ§",
        "ĭ"
      ],
      [
        "æ¨",
        "ĻåĢ¤"
      ],
      [
        "èª",
        "¬"
      ],
      [
        "èª",
        "įè¨¼"
      ],
      [
        "ãĥ¬",
        "ãĥ¼ãĤ·ãĥ§"
      ],
      [
        "ãĤ³",
        "ãĥ¼ãĥī"
      ],
      [
        "ãģĻãĤĭ",
        "ãģĵãģ¨ãģ§"
      ],
      [
        "ce",
        "ss"
      ],
      [
        "th",
        "on"
      ],
      [
        "ä¸",
        "Ģè²"
      ],
      [
        "ä»",
        "ĸ"
      ],
      [
        "æ©Ł",
        "èĥ½"
      ],
      [
        "ãĥ¢",
        "ãĥĩãĥ«"
      ],
      [
        "ãĥĲ",
        "ãĥ¼ãĤ¸ãĥ§"
      ],
      [
        "è¨Ī",
        "ç®"
      ],
      [
        "ãĤ¯ãĥ",
        "ģãĥ"
      ],
      [
        "éģ©",
        "ãģĹãģ¦ãģĦãģ¾ãģĻ"
      ],
      [
        "AP",
        "I"
      ],
      [
        "¡ç",
        "ĲĨ"
      ],
      [
        "æĪ",
        "Ĳ"
      ],
      [
        "Ġb",
        "inar"
      ],
      [
        "Ġde",
        "code"
      ],
      [
        "ãĥŀ",
        "ãĤ¤ãĤ¯ãĥ"
      ],
      [
        "ãĤµ",
        "ãĥ¼ãĥĵãĤ¹"
      ],
      [
        "ãĤ·ãĤ¹",
        "ãĥĨãĥł"
      ],
      [
        "ãĤĴè¡Į",
        "ãģĦãģ¾ãģĻ"
      ],
      [
        "è¨Ń",
        "è¨Ī"
      ],
      [
        "ä¾Ŀ",
        "åŃĺ"
      ],
      [
        "ãĥĥãĤ¯",
        "ãĤ¹"
      ],
      [
        "ãĤĴä½¿çĶ¨",
        "ãģĻãĤĭãģĵãģ¨ãģ§"
      ],
      [
        "ãĤ³ãĥ³",
        "ãĥĨãĥĬ"
      ],
      [
        "å¤§",
        "è¦ıæ¨"
      ],
      [
        "åı¯èĥ½",
        "ãģ§ãģĻ"
      ],
      [
        "éĸ¢æķ",
        "°"
      ],
      [
        "Do",
        "cker"
      ],
      [
        "Git",
        "Hub"
      ],
      [
        "JW",
        "T"
      ],
      [
        "Py",
        "thon"
      ],
      [
        "Sc",
        "ript"
      ],
      [
        "Ty",
        "pe"
      ],
      [
        "du",
        "cer"
      ],
      [
        "est",
        "s"
      ],
      [
        "¦ãĥ¼ãĤ",
        "¶"
      ],
      [
        "åĨ",
        "įçı¾"
      ],
      [
        "åĮ",
        "ĸ"
      ],
      [
        "æ·±",
        "å±¤åŃ¦ç¿Ĵ"
      ],
      [
        "çĬ",
        "¶æħ"
      ],
      [
        "çİ",
        "ĩ"
      ],
      [
        "çµĦãģ",
        "¿"
      ],
      [
        "éħ",
        "įåĪĹ"
      ],
      [
        "Ġãĥ",
        "¦ãĥ¼ãĤ¶"
      ],
      [
        "Ġerr",
        "or"
      ],
      [
        "ĠçĽ®",
        "æ¨ĻåĢ¤"
      ],
      [
        "ãģĭãĤ",
        "ī"
      ],
      [
        "ãĤ¸ãĤ§",
        "ãĤ¯ãĥĪ"
      ],
      [
        "ãĤĴåĩ¦çĲĨ",
        "ãģĹãģ¾ãģĻ"
      ],
      [
        "ãĤĴè¿",
        "½"
      ],
      [
        "respon",
        "se"
      ],
      [
        "ãĥ¼ãĤŃãĥĨ",
        "ãĤ¯ãĥģãĥ"
      ],
      [
        "Ġrequ",
        "ests"
      ],
      [
        "ãģĮéĸĭçĻº",
        "ãģĹãģŁ"
      ],
      [
        "ãģĮå¿ħ",
        "è¦ģãģ§ãģĻ"
      ],
      [
        "ãĥĪãĥ¼ãĤ¯",
        "ãĥ³"
      ],
      [
        "ãĥĩãĥĹãĥŃ",
        "ãĤ¤"
      ],
      [
        "useRe",
        "ducer"
      ],
      [
        "ãĥªãĤ¯ãĤ¨",
        "ãĤ¹ãĥĪ"
      ],
      [
        "Ġpro",
        "cess"
      ],
      [
        "Ġnex",
        "t"
      ],
      [
        "ãĥ¡ãĥ¢",
        "ãĥª"
      ],
      [
        "ãĥ¢ãĥĩãĥ«",
        "ãģ®"
      ],
      [
        "è¨Īç®",
        "Ĺ"
      ],
      [
        "Ġbinar",
        "y"
      ],
      [
        "Ġdecode",
        "d"
      ],
      [
        "ãĥŀãĤ¤ãĤ¯ãĥ",
        "Ń"
      ],
      [
        "å¤§è¦ıæ¨",
        "¡"
      ],
      [
        "ãĥ¼ãĤŃãĥĨãĤ¯ãĥģãĥ",
        "£"
      ],
      [
        "!",
        "["
      ],
      [
        "!",
        "\\"
      ],
      [
        "!",
        "(\""
      ],
      [
        "\"",
        ","
      ],
      [
        ")",
        "//"
      ],
      [
        "C",
        "l"
      ],
      [
        "P",
        "rint"
      ],
      [
        "S",
        "e"
      ],
      [
        "]",
        ";"
      ],
      [
        "a",
        "g"
      ],
      [
        "b",
        "er"
      ],
      [
        "f",
        "n"
      ],
      [
        "f",
        "ac"
      ],
      [
        "f",
        "mt"
      ],
      [
        "i",
        "ck"
      ],
      [
        "k",
        "ag"
      ],
      [
        "l",
        "d"
      ],
      [
        "p",
        "ac"
      ],
      [
        "r",
        "l"
      ],
      [
        "s",
        "ort"
      ],
      [
        "u",
        "rl"
      ],
      [
        "v",
        "al"
      ],
      [
        "{",
        "}"
      ],
      [
        "Ġ",
        "3"
      ],
      [
        "Ġ",
        "s"
      ],
      [
        "Ġ",
        "qu"
      ],
      [
        "on",
        "e"
      ],
      [
        "se",
        "r"
      ],
      [
        "le",
        "n"
      ],
      [
        "or",
        "ld"
      ],
      [
        "er",
        "fac"
      ],
      [
        "Ġf",
        "et"
      ],
      [
        "Ġf",
        "mt"
      ],
      [
        "int",
        "erfac"
      ],
      [
        "Ġa",
        "s"
      ],
      [
        "Ġa",
        "io"
      ],
      [
        "Ġi",
        "d"
      ],
      [
        "Ġp",
        "iv"
      ],
      [
        "Ġn",
        "um"
      ],
      [
        "ss",
        "ion"
      ],
      [
        "Ġle",
        "t"
      ],
      [
        "Ġv",
        "ec"
      ],
      [
        "Ġprint",
        "ln"
      ],
      [
        "ĠN",
        "ode"
      ],
      [
        "ĠN",
        "one"
      ],
      [
        "Ġasync",
        "io"
      ],
      [
        "ient",
        "Se"
      ],
      [
        "ĠU",
        "ser"
      ],
      [
        "ĠW",
        "orld"
      ],
      [
        "Ġw",
        "ith"
      ],
      [
        "!(\"",
        "{}"
      ],
      [
        "Cl",
        "ientSe"
      ],
      [
        "Print",
        "ln"
      ],
      [
        "ick",
        "sort"
      ],
      [
        "kag",
        "e"
      ],
      [
        "pac",
        "kage"
      ],
      [
        "Ġqu",
        "icksort"
      ],
      [
        "Ġfet",
        "ch"
      ],
      [
        "interfac",
        "e"
      ],
      [
        "Ġaio",
        "http"
      ],
      [
        "Ġpiv",
        "ot"
      ],
      [
        "Ġnum",
        "ber"
      ],
      [
        "!(\"{}",
        "\","
      ],
      [
        "ClientSe",
        "ssion"
      ],
      [
        "!",
        "-"
      ],
      [
        "\"",
        ":"
      ],
      [
        "\"",
        ">"
      ],
      [
        "\"",
        "}"
      ],
      [
        "%",
        "@"
      ],
      [
        "'",
        ")"
      ],
      [
        "(",
        "'"
      ],
      [
        "(",
        ");"
      ],
      [
        "+",
        "+"
      ],
      [
        "-",
        ">"
      ],
      [
        "0",
        "0"
      ],
      [
        "3",
        "2"
      ],
      [
        "4",
        "32"
      ],
      [
        "5",
        "432"
      ],
      [
        ":",
        "//"
      ],
      [
        "<",
        "!-"
      ],
      [
        "=",
        "\""
      ],
      [
        "A",
        "I"
      ],
      [
        "A",
        "c"
      ],
      [
        "A",
        "d"
      ],
      [
        "B",
        "Y"
      ],
      [
        "C",
        "D"
      ],
      [
        "C",
        "I"
      ],
      [
        "C",
        "ãģ§"
      ],
      [
        "C",
        "on"
      ],
      [
        "C",
        "AP"
      ],
      [
        "E",
        "L"
      ],
      [
        "E",
        "RE"
      ],
      [
        "F",
        "R"
      ],
      [
        "F",
        "lo"
      ],
      [
        "G",
        "o"
      ],
      [
        "G",
        "r"
      ],
      [
        "H",
        "T"
      ],
      [
        "H",
        "ERE"
      ],
      [
        "I",
        "K"
      ],
      [
        "J",
        "S"
      ],
      [
        "J",
        "a"
      ],
      [
        "K",
        "ub"
      ],
      [
        "L",
        "ãĥĳ"
      ],
      [
        "L",
        "IK"
      ],
      [
        "M",
        "id"
      ],
      [
        "N",
        "ãĥĩãĥ¼ãĤ¿"
      ],
      [
        "O",
        "M"
      ],
      [
        "O",
        "å¾"
      ],
      [
        "O",
        "Nãĥĩãĥ¼ãĤ¿"
      ],
      [
        "P",
        "ost"
      ],
      [
        "P",
        "Cãģ§"
      ],
      [
        "Q",
        "L"
      ],
      [
        "R",
        "u"
      ],
      [
        "R",
        "DE"
      ],
      [
        "R",
        "Lãĥĳ"
      ],
      [
        "S",
        "t"
      ],
      [
        "S",
        "EC"
      ],
      [
        "S",
        "EL"
      ],
      [
        "S",
        "QL"
      ],
      [
        "T",
        "P"
      ],
      [
        "T",
        "en"
      ],
      [
        "T",
        "he"
      ],
      [
        "V",
        "SC"
      ],
      [
        "a",
        "b"
      ],
      [
        "a",
        "d"
      ],
      [
        "a",
        "re"
      ],
      [
        "a",
        "se"
      ],
      [
        "a",
        "de"
      ],
      [
        "a",
        "int"
      ],
      [
        "a",
        "uth"
      ],
      [
        "a",
        "Script"
      ],
      [
        "c",
        "al"
      ],
      [
        "c",
        "ent"
      ],
      [
        "c",
        "ation"
      ],
      [
        "d",
        "m"
      ],
      [
        "d",
        "le"
      ],
      [
        "d",
        "at"
      ],
      [
        "e",
        "atu"
      ],
      [
        "f",
        "or"
      ],
      [
        "g",
        "in"
      ],
      [
        "g",
        "re"
      ],
      [
        "g",
        "le"
      ],
      [
        "g",
        "or"
      ],
      [
        "h",
        "ile"
      ],
      [
        "i",
        "an"
      ],
      [
        "i",
        "cation"
      ],
      [
        "i",
        "gin"
      ],
      [
        "j",
        "w"
      ],
      [
        "l",
        "ass"
      ],
      [
        "l",
        "gor"
      ],
      [
        "l",
        "ication"
      ],
      [
        "m",
        "er"
      ],
      [
        "m",
        "it"
      ],
      [
        "n",
        "et"
      ],
      [
        "n",
        "ame"
      ],
      [
        "o",
        "pt"
      ],
      [
        "o",
        "gle"
      ],
      [
        "p",
        "p"
      ],
      [
        "p",
        "rint"
      ],
      [
        "p",
        "ro"
      ],
      [
        "r",
        "s"
      ],
      [
        "r",
        "an"
      ],
      [
        "s",
        "h"
      ],
      [
        "s",
        "or"
      ],
      [
        "s",
        "ãĤĴä½¿ãģ£ãģ"
      ],
      [
        "s",
        "cent"
      ],
      [
        "s",
        "for"
      ],
      [
        "t",
        "ãģ®"
      ],
      [
        "t",
        "en"
      ],
      [
        "t",
        "ent"
      ],
      [
        "t",
        "ry"
      ],
      [
        "t",
        "ree"
      ],
      [
        "u",
        "sh"
      ],
      [
        "v",
        "ar"
      ],
      [
        "v",
        "er"
      ],
      [
        "v",
        "aScript"
      ],
      [
        "w",
        "ãģ¯"
      ],
      [
        "w",
        "are"
      ],
      [
        "y",
        "ap"
      ],
      [
        "{",
        "\""
      ],
      [
        "¡",
        "§"
      ],
      [
        "¡",
        "å"
      ],
      [
        "¡",
        "ãģ®"
      ],
      [
        "¡",
        "ãģ¯"
      ],
      [
        "¡",
        "ãģĹãģ¾ãģĻ"
      ],
      [
        "¡",
        "ãģ«ãģ¯"
      ],
      [
        "¡",
        "åĬ"
      ],
      [
        "¡",
        "ãĤ¤ãĥ«"
      ],
      [
        "¡",
        "ãĤĴè¡ĮãģĦãģ¾ãģĻ"
      ],
      [
        "¢",
        "°å"
      ],
      [
        "¢",
        "ç®"
      ],
      [
        "¢",
        "ä¿"
      ],
      [
        "¢",
        "ãĥ¼ãĤŃãĥĨãĤ¯ãĥģãĥ£"
      ],
      [
        "£",
        "èª¬"
      ],
      [
        "£",
        "ãĤ·ãĤ¹ãĥĨãĥł"
      ],
      [
        "¤",
        "ĩ"
      ],
      [
        "¤",
        "ãģ®"
      ],
      [
        "¤",
        "ãģĦãģ¦"
      ],
      [
        "¥",
        "ç"
      ],
      [
        "¥",
        "ãģĦãģ¦"
      ],
      [
        "¥",
        "åĬ"
      ],
      [
        "¦",
        "ãĤ¯"
      ],
      [
        "¦",
        "è¡Į"
      ],
      [
        "¦",
        "ãĤ§"
      ],
      [
        "¦",
        "æİ"
      ],
      [
        "¦",
        "ãĥĹãĥŃãĤ°ãĥ©"
      ],
      [
        "§",
        "»"
      ],
      [
        "§",
        "Ĩ"
      ],
      [
        "§",
        "ãģ®"
      ],
      [
        "§",
        "£èª¬"
      ],
      [
        "¨",
        "æ"
      ],
      [
        "¨",
        "æĢ§"
      ],
      [
        "©",
        "ķ"
      ],
      [
        "©",
        "æĸ"
      ],
      [
        "©",
        "ãĤ¤ãĥ³"
      ],
      [
        "©",
        "ãĤ·ãĤ¹ãĥĨãĥł"
      ],
      [
        "ª",
        "ä»"
      ],
      [
        "ª",
        "ãĥ³ãĤ°"
      ],
      [
        "ª",
        "çĴ°å¢ĥ"
      ],
      [
        "ª",
        "ãģĦ"
      ],
      [
        "ª",
        "ãĤ±"
      ],
      [
        "«",
        "ĭ"
      ],
      [
        "«",
        "ĺ"
      ],
      [
        "«",
        "ãĤ"
      ],
      [
        "«",
        "æĢ§"
      ],
      [
        "«",
        "ãĥªãĤ¯ãĤ¨ãĤ¹ãĥĪ"
      ],
      [
        "¬",
        "ä»"
      ],
      [
        "®",
        "ãģĹãģ¾ãģĻ"
      ],
      [
        "®",
        "¡çĲĨ"
      ],
      [
        "¯",
        "ãĥ¼ãĤ¯"
      ],
      [
        "¯",
        "ä½ľ"
      ],
      [
        "°",
        "ç"
      ],
      [
        "°",
        "ãģĻãĤĭ"
      ],
      [
        "°",
        "¡ç"
      ],
      [
        "±",
        "Ĭ"
      ],
      [
        "±",
        "ãĤ¹ãĥĪ"
      ],
      [
        "²",
        "ĭ"
      ],
      [
        "²",
        "ãģĹãģ¾ãģĻ"
      ],
      [
        "³",
        "»"
      ],
      [
        "³",
        "ĩ"
      ],
      [
        "³",
        "¨æ"
      ],
      [
        "µ",
        "ãĥĿ"
      ],
      [
        "µ",
        "æ©Łèĥ½"
      ],
      [
        "¶",
        "ļ"
      ],
      [
        "¶",
        "å¾"
      ],
      [
        "·",
        "ç"
      ],
      [
        "·",
        "ļ"
      ],
      [
        "·",
        "¡ãģĹãģ¾ãģĻ"
      ],
      [
        "¸",
        "ãģ®"
      ],
      [
        "¸",
        "ãģĦãģ¦"
      ],
      [
        "¹",
        "ħ"
      ],
      [
        "¹",
        "ãģ§"
      ],
      [
        "¹",
        "ãģ§ãģĻ"
      ],
      [
        "º",
        "Ĳ"
      ],
      [
        "º",
        "ãģ"
      ],
      [
        "º",
        "ãģ®"
      ],
      [
        "º",
        "ãģĮéĩįè¦ģãģ§ãģĻ"
      ],
      [
        "»",
        "ãģ®"
      ],
      [
        "»",
        "éĿ"
      ],
      [
        "¼",
        "ãģĹãģ¦"
      ],
      [
        "¼",
        "µæ©Łèĥ½"
      ],
      [
        "½",
        "¢æ"
      ],
      [
        "¾",
        "ç"
      ],
      [
        "¾",
        "ĵ"
      ],
      [
        "¾",
        "ãģ§"
      ],
      [
        "å",
        "į"
      ],
      [
        "å",
        "İ"
      ],
      [
        "å",
        "ł"
      ],
      [
        "å",
        "·±"
      ],
      [
        "å",
        "ŀĭãĤ"
      ],
      [
        "å",
        "¹ħ"
      ],
      [
        "å",
        "½¢æ"
      ],
      [
        "æ",
        "ĥ"
      ],
      [
        "æ",
        "ī"
      ],
      [
        "æ",
        "Ĭ"
      ],
      [
        "æ",
        "ĭ"
      ],
      [
        "æ",
        "į"
      ],
      [
        "æ",
        "ķ"
      ],
      [
        "æ",
        "ĺ"
      ],
      [
        "æ",
        "Ļ"
      ],
      [
        "æ",
        "¤ľ"
      ],
      [
        "æ",
        "¢°å"
      ],
      [
        "æ",
        "³¨æ"
      ],
      [
        "æ",
        "ºĲ"
      ],
      [
        "ç",
        "ħ"
      ],
      [
        "ç",
        "ķ"
      ],
      [
        "ç",
        "ĲĨ"
      ],
      [
        "ç",
        "°¡ç"
      ],
      [
        "ç",
        "²ĭ"
      ],
      [
        "ç",
        "·ļ"
      ],
      [
        "è",
        "Ģ"
      ],
      [
        "è",
        "¤ĩ"
      ],
      [
        "è",
        "§£èª¬"
      ],
      [
        "è",
        "©ķ"
      ],
      [
        "è",
        "±Ĭ"
      ],
      [
        "è",
        "³ĩ"
      ],
      [
        "è",
        "·¡ãģĹãģ¾ãģĻ"
      ],
      [
        "é",
        "Ľ"
      ],
      [
        "é",
        "ł"
      ],
      [
        "é",
        "¡§"
      ],
      [
        "é",
        "§Ĩ"
      ],
      [
        "é",
        "«ĺ"
      ],
      [
        "Ġ",
        "*"
      ],
      [
        "Ġ",
        "or"
      ],
      [
        "Ġ",
        "en"
      ],
      [
        "Ġ",
        "//"
      ],
      [
        "Ġ",
        "ro"
      ],
      [
        "Ġ",
        "arch"
      ],
      [
        "Ġ",
        "è¨Ń"
      ],
      [
        "Ġ",
        "ãĥĨãĤ¹ãĥĪ"
      ],
      [
        "Ġ",
        "ãģĵãģ®"
      ],
      [
        "Ġ",
        "ãĥĩãĥ¼ãĤ¿ãĥĻãĥ¼ãĤ"
      ],
      [
        "Ġ",
        "DE"
      ],
      [
        "Ġ",
        "git"
      ],
      [
        "Ġ",
        "host"
      ],
      [
        "Ġ",
        "Docker"
      ],
      [
        "Ġ",
        "JWT"
      ],
      [
        "Ġ",
        "è¨Īç®Ĺ"
      ],
      [
        "Ġ",
        "5432"
      ],
      [
        "Ġ",
        "Ac"
      ],
      [
        "Ġ",
        "BY"
      ],
      [
        "Ġ",
        "FR"
      ],
      [
        "Ġ",
        "Go"
      ],
      [
        "Ġ",
        "Ja"
      ],
      [
        "Ġ",
        "LIK"
      ],
      [
        "Ġ",
        "jw"
      ],
      [
        "Ġ",
        "opt"
      ],
      [
        "Ġ",
        "ç·ļ"
      ],
      [
        "Ġ",
        "è¤ĩ"
      ],
      [
        "Ġ",
        "é¡§"
      ],
      [
        "Ģ",
        "ãĥ¼"
      ],
      [
        "Ģ",
        "åĪ"
      ],
      [
        "Ģ",
        "è¡"
      ],
      [
        "Ģ",
        "èª"
      ],
      [
        "Ģ",
        "æľ"
      ],
      [
        "ģ",
        "ãĤĭ"
      ],
      [
        "ģ",
        "ãĥ¡ãĥ¢ãĥª"
      ],
      [
        "Ĥ",
        "ãĤĴ"
      ],
      [
        "Ĥ",
        "ãģ«"
      ],
      [
        "Ĥ",
        "çħ"
      ],
      [
        "ĥ",
        "æħ"
      ],
      [
        "Ħ",
        "ı"
      ],
      [
        "Ħ",
        "ãĥ¼ãĥ«"
      ],
      [
        "Ħ",
        "ãĤ»"
      ],
      [
        "Ħ",
        "ãĤµãĥ¼ãĥĵãĤ¹"
      ],
      [
        "Ħ",
        "¡åĬ"
      ],
      [
        "ħ",
        "ãģ"
      ],
      [
        "ħ",
        "åł"
      ],
      [
        "Ĩ",
        "ãĥĥãĤ¯ãĤ¹"
      ],
      [
        "ĩ",
        "ãģ«"
      ],
      [
        "ĩ",
        "ãģ«å"
      ],
      [
        "ĩ",
        "ãĤĴä½¿çĶ¨"
      ],
      [
        "Ī",
        "ãģĹãģ¦ãģĦãģ¾ãģĻ"
      ],
      [
        "ī",
        "ãģĹãģ¾ãģĻ"
      ],
      [
        "ī",
        "æ¨"
      ],
      [
        "ī",
        "åħ"
      ],
      [
        "Ĭ",
        "ãģĦãģ¦"
      ],
      [
        "ĭ",
        "ãģ§ãģ¯"
      ],
      [
        "ĭ",
        "éģ"
      ],
      [
        "ĭ",
        "å¤"
      ],
      [
        "ĭ",
        "ãĥ³ãĤ°"
      ],
      [
        "ĭ",
        "äº"
      ],
      [
        "ĭ",
        "¬ç"
      ],
      [
        "ĭ",
        "ãĥĹãĥŃãĤ°ãĥ©"
      ],
      [
        "Į",
        "ãģ§ãģĻ"
      ],
      [
        "Į",
        "ãģ¾ãģĻ"
      ],
      [
        "Į",
        "æľ"
      ],
      [
        "Į",
        "åĪĨ"
      ],
      [
        "į",
        "ķ"
      ],
      [
        "İ",
        "ãģĹãģ¾ãģĻ"
      ],
      [
        "İ",
        "¢ç´¢"
      ],
      [
        "İ",
        "¥ç"
      ],
      [
        "ı",
        "Ĳ"
      ],
      [
        "ı",
        "ãģ¯"
      ],
      [
        "ı",
        "ãĥ³"
      ],
      [
        "ĳ",
        "ãģ§"
      ],
      [
        "ĳ",
        "ãģª"
      ],
      [
        "ĳ",
        "è¨Ńè¨Ī"
      ],
      [
        "Ĵ",
        "ä»ĸ"
      ],
      [
        "ĵ",
        "ãģ«"
      ],
      [
        "ĵ",
        "ãĤĴä½¿"
      ],
      [
        "ĵ",
        "ãĥ¥"
      ],
      [
        "ĵ",
        "ãģ«ãģ"
      ],
      [
        "Ķ",
        "ç²ĭ"
      ],
      [
        "ķ",
        "ãĤ"
      ],
      [
        "ķ",
        "ãģĦ"
      ],
      [
        "ķ",
        "çµĦãģ¿"
      ],
      [
        "ķ",
        "ªçĴ°å¢ĥ"
      ],
      [
        "ĸ",
        "ãģ¨"
      ],
      [
        "ĸ",
        "ãĤĴæ"
      ],
      [
        "ĸ",
        "çķ"
      ],
      [
        "Ĺ",
        "ãĥ³"
      ],
      [
        "ĺ",
        "ãĥĥ"
      ],
      [
        "ĺ",
        "ä¸Ģè²"
      ],
      [
        "ļ",
        "Ħãģ"
      ],
      [
        "Ľ",
        "ãģ"
      ],
      [
        "Ľ",
        "ãģĹãģ¦ãģĦãģ¾ãģĻ"
      ],
      [
        "Ľ",
        "åĢ¤"
      ],
      [
        "Ľ",
        "¸ãģĦãģ¦"
      ],
      [
        "ľ",
        "æĪĲ"
      ],
      [
        "ľ",
        "ģãĥ¡ãĥ¢ãĥª"
      ],
      [
        "Ŀ",
        "ãģ«"
      ],
      [
        "Ŀ",
        "è¨¼"
      ],
      [
        "ŀ",
        "ãģ§"
      ],
      [
        "ŀ",
        "ãĥ¼ãĤ"
      ],
      [
        "ŀ",
        "åĲ"
      ],
      [
        "ŀ",
        "ĭãĥĹãĥŃãĤ°ãĥ©"
      ],
      [
        "Ł",
        "åī"
      ],
      [
        "Ł",
        "ãģª"
      ],
      [
        "Ł",
        "åĩ¦çĲĨ"
      ],
      [
        "Ł",
        "CI"
      ],
      [
        "Ł",
        "ºãģ"
      ],
      [
        "ł",
        "ãĥ"
      ],
      [
        "ł",
        "ãģĹãģŁ"
      ],
      [
        "ł",
        "ãĤĴçĶ¨"
      ],
      [
        "Ń",
        "¦ç¿Ĵ"
      ],
      [
        "Ń",
        "ãĥ¥"
      ],
      [
        "Ń",
        "ãĥķãĤ£ãĥ¼ãĥ«"
      ],
      [
        "Ń",
        "ĸãģ¨"
      ],
      [
        "ãģ",
        "ıãģ"
      ],
      [
        "ãģ",
        "łãģ"
      ],
      [
        "ãģ",
        "¤ãģ®"
      ],
      [
        "ãģ",
        "¸ãģ®"
      ],
      [
        "ãģ",
        "¾ãģ§"
      ],
      [
        "ãģ",
        "ķãĤ"
      ],
      [
        "ãĥ",
        "ĭãĤ"
      ],
      [
        "ãĥ",
        "Ģãĥ¼"
      ],
      [
        "ãĥ",
        "Ħãĥ¼ãĥ«"
      ],
      [
        "ãĥ",
        "ĭãĥ³ãĤ°"
      ],
      [
        "ãĥ",
        "ĵãĥ¥"
      ],
      [
        "ãĥ",
        "ĺãĥĥ"
      ],
      [
        "ãĤ",
        "ĭç"
      ],
      [
        "ãĤ",
        "ıãģ"
      ],
      [
        "ãĤ",
        "¦ãĤ§"
      ],
      [
        "ãĤ",
        "ºãģĮéĩįè¦ģãģ§ãģĻ"
      ],
      [
        "ãĤ",
        "ĦãĤ»"
      ],
      [
        "ãĤ",
        "ĵãģ«ãģ"
      ],
      [
        "ãĤ",
        "Ńãĥ¥"
      ],
      [
        "ãĥ¼",
        "ãĤĴ"
      ],
      [
        "ãĥ¼",
        "èªįè¨¼"
      ],
      [
        "ãģĻ",
        "ãĤĭç"
      ],
      [
        "ãģ§",
        "ãģ®"
      ],
      [
        "ãģ§",
        "ãĥĹãĥ"
      ],
      [
        "ãģ§",
        "æĮĩ"
      ],
      [
        "ãĤĴ",
        "åĲ"
      ],
      [
        "ãĤĴ",
        "åĪĨ"
      ],
      [
        "ãĤĴ",
        "æ§ĭç¯ī"
      ],
      [
        "ãĤĴ",
        "ãĤ³ãĥ³"
      ],
      [
        "ãĤĴ",
        "èĩªåĭķ"
      ],
      [
        "ãĤĴ",
        "çĽ®"
      ],
      [
        "ãĤĴ",
        "èª¬"
      ],
      [
        "ãĤĴ",
        "çµĦãģ¿"
      ],
      [
        "ãĤĴ",
        "èĢ"
      ],
      [
        "in",
        "imiz"
      ],
      [
        "ãģ®",
        "ãĥĪ"
      ],
      [
        "ãģ®",
        "ãģª"
      ],
      [
        "ãģ®",
        "åĩ¦çĲĨ"
      ],
      [
        "ãģ®",
        "API"
      ],
      [
        "ãģ®",
        "è¨Ńè¨Ī"
      ],
      [
        "ãģ®",
        "æī"
      ],
      [
        "re",
        "q"
      ],
      [
        "re",
        "ate"
      ],
      [
        "ãģĹãģ",
        "ªãģĦ"
      ],
      [
        "ãĥ¼ãĤ",
        "¹ãģ®"
      ],
      [
        "ãĥ¼ãĤ",
        "±ãĤ¹ãĥĪ"
      ],
      [
        "ãģ¯",
        "B"
      ],
      [
        "ãģ¯",
        "åī"
      ],
      [
        "ãģ¯",
        "åĢ"
      ],
      [
        "ãģ¯",
        "èĩª"
      ],
      [
        "ãģ¯",
        "äº"
      ],
      [
        "ãģ¯",
        "ãĥĲãĥ¼ãĤ¸ãĥ§"
      ],
      [
        "ãģ¯",
        "ãĥ¡ãĥ¢ãĥª"
      ],
      [
        "se",
        "arch"
      ],
      [
        "ãģ«",
        "ãĥĲãĥ¼ãĤ¸ãĥ§"
      ],
      [
        "ãģ«",
        "éģ©ãģĹãģ¦ãģĦãģ¾ãģĻ"
      ],
      [
        "ãģ«",
        "ä¾ĿåŃĺ"
      ],
      [
        "ãģ«",
        "ç°¡ç"
      ],
      [
        "ãĥ³",
        "ãĥĪ"
      ],
      [
        "ãĥ³",
        "ãģ¨"
      ],
      [
        "ãĥ³",
        "ãģ®å®Ł"
      ],
      [
        "ãĥ³",
        "ãĥĦãĥ¼ãĥ«"
      ],
      [
        "ãĥ³",
        "ãĤĴåĲ"
      ],
      [
        "ãĥ¼ãĥ",
        "Ĺãĥ"
      ],
      [
        "ãĥ¼ãĥ",
        "ªãĥ³ãĤ°"
      ],
      [
        "ãĥ¼ãĥ",
        "ĨãĥĥãĤ¯ãĤ¹"
      ],
      [
        "ãĥ¼ãĥ",
        "ĪãģĹãģ¦ãģĦãģ¾ãģĻ"
      ],
      [
        "ãĥ¼ãĥ",
        "ıãĥ³"
      ],
      [
        "ãĥ¼ãĥ",
        "Ĺãĥ³"
      ],
      [
        "ãĥ¼ãĥ",
        "ŀãĥ¼ãĤ"
      ],
      [
        "ãĥ¼ãĥ",
        "łãĥ"
      ],
      [
        "ãĤ¹",
        "ãĤ±"
      ],
      [
        "ãĤ¹",
        "ãĤĴåĪĨ"
      ],
      [
        "ãĤ¹",
        "ãģ«ãĥĲãĥ¼ãĤ¸ãĥ§"
      ],
      [
        "ãģĮ",
        "åı"
      ],
      [
        "ãģĮ",
        "ä½ľ"
      ],
      [
        "ãģĮ",
        "å¤§"
      ],
      [
        "ãģĮ",
        "éģ©ãģĹãģ¦ãģĦãģ¾ãģĻ"
      ],
      [
        "ãģĮ",
        "åı¯èĥ½ãģ§ãģĻ"
      ],
      [
        "ãģĮ",
        "è±Ĭ"
      ],
      [
        "or",
        "ro"
      ],
      [
        "or",
        "iz"
      ],
      [
        "tu",
        "re"
      ],
      [
        "st",
        "ãģ®æī"
      ],
      [
        "ãĥĪ",
        "ãģ¨"
      ],
      [
        "ãĥĪ",
        "ãĥ©ãĥ³ãĤ¹"
      ],
      [
        "ãĥĪ",
        "ãģĮéĸĭçĻºãģĹãģŁ"
      ],
      [
        "er",
        "ate"
      ],
      [
        "er",
        "net"
      ],
      [
        "è¨",
        "Ģèª"
      ],
      [
        "ãģĦãģ",
        "¦ç"
      ],
      [
        "ãĥĩ",
        "ãĤ£"
      ],
      [
        "ãĥĩ",
        "ãĥĥãĤ¯ãĤ¹"
      ],
      [
        "Ġm",
        "aint"
      ],
      [
        "Ġm",
        "yap"
      ],
      [
        "Ġm",
        "inimiz"
      ],
      [
        "ãĤ¤",
        "ãĥĹãĥ"
      ],
      [
        "en",
        "v"
      ],
      [
        "en",
        "ce"
      ],
      [
        "at",
        "ch"
      ],
      [
        "at",
        "ten"
      ],
      [
        "å®",
        "¢ç®"
      ],
      [
        "å®",
        "īåħ"
      ],
      [
        "Ġt",
        "o"
      ],
      [
        "Ġt",
        "oken"
      ],
      [
        "Ġt",
        "ry"
      ],
      [
        "Ġt",
        "ree"
      ],
      [
        "Ġt",
        "ran"
      ],
      [
        "ãģĹãģ¦",
        "éģ©"
      ],
      [
        "ãģĹãģ¦",
        "åħ"
      ],
      [
        "ãģĹãģ¦",
        "ãĤ³ãĥ¼ãĥī"
      ],
      [
        "ãģĹãģ¦",
        "ãĥĩãĥĹãĥŃãĤ¤"
      ],
      [
        "ãģĹãģ¦",
        "ãĥªãĤ¯ãĤ¨ãĤ¹ãĥĪ"
      ],
      [
        "¦ç",
        "ķ¥"
      ],
      [
        "ãģ¨",
        "C"
      ],
      [
        "ãģ¨",
        "åı¯"
      ],
      [
        "ãģ¨",
        "åĨįçı¾"
      ],
      [
        "ãģ¨",
        "useReducer"
      ],
      [
        "ãģ¨",
        "ãĥĺãĥĥ"
      ],
      [
        "ãĥĨ",
        "ãĤ£"
      ],
      [
        "it",
        "ec"
      ],
      [
        "åĲ",
        "ĦãĤµãĥ¼ãĥĵãĤ¹"
      ],
      [
        "åĲ",
        "ĳè¨Ńè¨Ī"
      ],
      [
        "éĸ",
        "¢ä¿"
      ],
      [
        "éĸ",
        "ĵãģ«"
      ],
      [
        "ĭç",
        "®¡çĲĨ"
      ],
      [
        "ãĥķ",
        "ãĥ¬"
      ],
      [
        "ãĥķ",
        "ãĥĥãĤ¯"
      ],
      [
        "ãĥķ",
        "ãĤĴèĢ"
      ],
      [
        "ãĥķ",
        "ãĥĪãģĮéĸĭçĻºãģĹãģŁ"
      ],
      [
        "Ġf",
        "unc"
      ],
      [
        "Ġf",
        "eatu"
      ],
      [
        "Ġa",
        "n"
      ],
      [
        "Ġa",
        "uth"
      ],
      [
        "Ġa",
        "dm"
      ],
      [
        "Ġa",
        "lgor"
      ],
      [
        "Ġa",
        "pp"
      ],
      [
        "Ġi",
        "s"
      ],
      [
        "use",
        "r"
      ],
      [
        "use",
        "St"
      ],
      [
        "åĪ",
        "¶å¾"
      ],
      [
        "åĪ",
        "ĩãģ«"
      ],
      [
        "ãĥ©",
        "ãĥª"
      ],
      [
        "ãĥ©",
        "ãĥ¼ãĥıãĥ³"
      ],
      [
        "ãĥ©",
        "ãĤ¹ãĤĴåĪĨ"
      ],
      [
        "ãĥª",
        "ãĥĩãĥ¼ãĤ"
      ],
      [
        "ãĥª",
        "ãĥ³ãĤ°"
      ],
      [
        "ãĥª",
        "ãĥ¬ãĥ¼ãĤ·ãĥ§"
      ],
      [
        "ãĥª",
        "ãĥĨãĤ£"
      ],
      [
        "ãĥĹãĥ",
        "ªãĤ±"
      ],
      [
        "Ġp",
        "ort"
      ],
      [
        "Ġp",
        "ush"
      ],
      [
        "çĶ",
        "»éĿ"
      ],
      [
        "ain",
        "s"
      ],
      [
        "åī",
        "²ãģĹãģ¾ãģĻ"
      ],
      [
        "Ġc",
        "he"
      ],
      [
        "Ġc",
        "om"
      ],
      [
        "Ġc",
        "lass"
      ],
      [
        "Ġc",
        "reate"
      ],
      [
        "Ġc",
        "atch"
      ],
      [
        "ãģª",
        "ãĥĩãĥ¼ãĤ¿"
      ],
      [
        "ãģª",
        "çĴ°å¢ĥ"
      ],
      [
        "ãģª",
        "ä¾ĿåŃĺ"
      ],
      [
        "ãģª",
        "AI"
      ],
      [
        "ãģĵ",
        "ãĤĵãģ«ãģ"
      ],
      [
        "ãĤĴä½",
        "ľæĪĲ"
      ],
      [
        "å®Ł",
        "è¡Į"
      ],
      [
        "å®Ł",
        "è£ħ"
      ],
      [
        "çĶ¨",
        "æĢ§"
      ],
      [
        "çĶ¨",
        "ãģ®ãģª"
      ],
      [
        "è¡Į",
        "ãģ§ãģįãģ¾ãģĻ"
      ],
      [
        "è¡Į",
        "ãģĮåı¯èĥ½ãģ§ãģĻ"
      ],
      [
        "ãĥĩãĥ¼ãĤ¿",
        "ãĤĴåĩ¦çĲĨãģĹãģ¾ãģĻ"
      ],
      [
        "ac",
        "tãģ®"
      ],
      [
        "()",
        ")"
      ],
      [
        "lo",
        "g"
      ],
      [
        "°å",
        "ŀĭãĥĹãĥŃãĤ°ãĥ©"
      ],
      [
        "ä¾",
        "¡ãģ«ãģ¯"
      ],
      [
        "ä¾",
        "ĭå¤"
      ],
      [
        "ä¾",
        "ĽãģĹãģ¦ãģĦãģ¾ãģĻ"
      ],
      [
        "æĸ",
        "ĩãĤĴä½¿çĶ¨"
      ],
      [
        "Ġ-",
        "->"
      ],
      [
        "ãĥ«",
        "ãĥĩãĥ¼ãĤ¿ãĥĻãĥ¼ãĤ"
      ],
      [
        "ãĥ«",
        "ãĤ¦ãĤ§"
      ],
      [
        "ãĥĥ",
        "ãĥī"
      ],
      [
        "ãĥĥ",
        "ãĥĪãģ¨"
      ],
      [
        "ãģ§ãģ¯",
        "æľ"
      ],
      [
        "ãģ§ãģ¯",
        "ãĥŁ"
      ],
      [
        "ãģ§ãģ¯",
        "CAP"
      ],
      [
        "ãģ§ãģ¯",
        "åį"
      ],
      [
        "ãģ§ãģ¯",
        "åĲĦãĤµãĥ¼ãĥĵãĤ¹"
      ],
      [
        "ãĥķãĤ",
        "¿ãĤ¤"
      ],
      [
        "ãĥķãĤ",
        "¡ãĤ¤ãĥ«"
      ],
      [
        "ãĥĹãĥŃ",
        "ãĥķãĤ£ãĥ¼ãĥ«"
      ],
      [
        "ãĥĹãĥŃ",
        "ãĤ¸ãĤ§ãĤ¯ãĥĪ"
      ],
      [
        "è¦ģ",
        "ãģªä¾ĿåŃĺ"
      ],
      [
        "io",
        "ãĥ©ãĤ¤"
      ],
      [
        "tion",
        "sãĤĴä½¿ãģ£ãģ"
      ],
      [
        "ex",
        "ce"
      ],
      [
        "he",
        "ade"
      ],
      [
        "¹æ",
        "İ¥ç"
      ],
      [
        "Ġuse",
        "s"
      ],
      [
        "ãĥ¬",
        "ãĥ¼ãĥī"
      ],
      [
        "ãĥ¬",
        "ãĥĵãĥ¥"
      ],
      [
        "ãĥł",
        "ãĤĴè¿½"
      ],
      [
        "ãĥł",
        "ãĤĴæ§ĭç¯ī"
      ],
      [
        "ãģĻãĤĭ",
        "æĸ¹æ³ķ"
      ],
      [
        "ãģĻãĤĭ",
        "éĿ"
      ],
      [
        "ãģ«ãģ¯",
        "useReducer"
      ],
      [
        "ãģ«ãģ¯",
        "å¤§è¦ıæ¨¡"
      ],
      [
        "ãģ«ãģ¯",
        "try"
      ],
      [
        "ãģ«ãģ¯",
        "useSt"
      ],
      [
        "ãģĦãģ¦",
        "é«ĺ"
      ],
      [
        "åĩ¦çĲĨ",
        "ãģ§ãģ¯ãĥŁ"
      ],
      [
        "åĭķ",
        "éĸĭçĻº"
      ],
      [
        "åĭķ",
        "ä½ľ"
      ],
      [
        "éĸĭçĻº",
        "çĴ°å¢ĥ"
      ],
      [
        "éĸĭçĻº",
        "ãģ«éģ©ãģĹãģ¦ãģĦãģ¾ãģĻ"
      ],
      [
        "qu",
        "ence"
      ],
      [
        "Ġ(",
        "!"
      ],
      [
        "pt",
        "æĸĩãĤĴä½¿çĶ¨"
      ],
      [
        "·ãĤ¹",
        "ãĥĨãĥł"
      ],
      [
        "·ãĥ§",
        "ãĥ³ãģ¨"
      ],
      [
        "ä¸",
        "¦è¡Į"
      ],
      [
        "ä¸",
        "ĸçķ"
      ],
      [
        "æľ",
        "¬ç"
      ],
      [
        "æ©Ł",
        "æ§ĭ"
      ],
      [
        "æ©Ł",
        "æ¢°å"
      ],
      [
        "ç´",
        "Ķç²ĭ"
      ],
      [
        "éĩ",
        "ıãģ¯"
      ],
      [
        "Ġãģ¯",
        "ãĤª"
      ],
      [
        "Ġãģ¯",
        "ãĤ³ãĥ³ãĥĨãĥĬ"
      ],
      [
        "Ġãģ¯",
        "ãĥŀãĤ¤ãĤ¯ãĥŃ"
      ],
      [
        "ĤãĤ",
        "µãĥĿ"
      ],
      [
        "ãĤ¢",
        "ãĤ·ãĤ¹"
      ],
      [
        "ãĤ¢",
        "ãĥ¼ãĤŃãĥĨãĤ¯ãĥģãĥ£"
      ],
      [
        "ãĤ¢",
        "ãĥĹãĥªãĤ±"
      ],
      [
        "ãĤ¨",
        "ãĥĩãĤ£"
      ],
      [
        "ãĤ¨",
        "ãĥ©ãĥ¼ãĥıãĥ³"
      ],
      [
        "ãĤª",
        "ãĥĸ"
      ],
      [
        "ãĤª",
        "ãĥ¼ãĤ±ãĤ¹ãĥĪ"
      ],
      [
        "ãĤª",
        "ãĥķãĤĴèĢ"
      ],
      [
        "ãĤĴæ",
        "¤ľ"
      ],
      [
        "ãĤĴæ",
        "ıĲ"
      ],
      [
        "ãĤĴæ",
        "Ľ¸ãģĦãģ¦"
      ],
      [
        "ãģ«å",
        "¿ħ"
      ],
      [
        "ãģ«å",
        "ŀĭãĤ"
      ],
      [
        "ãģ«å",
        "Łºãģ"
      ],
      [
        "ãĥ³ãĤ°",
        "ãģ¯åī"
      ],
      [
        "è¨¼",
        "ãģĹãģ¦ãĥªãĤ¯ãĤ¨ãĤ¹ãĥĪ"
      ],
      [
        "éģ©",
        "åĲĪ"
      ],
      [
        "Ġuser",
        "s"
      ],
      [
        "çĴ°å¢ĥ",
        "ãģ«ä¾ĿåŃĺ"
      ],
      [
        "æĸ¹æ³ķ",
        "ãģ«ãģ"
      ],
      [
        "æĸ¹æ³ķ",
        "ãĤĴèª¬"
      ],
      [
        "æĸ¹æ³ķ",
        "ãģ¨ãĥĺãĥĥ"
      ],
      [
        "Ġ2",
        "00"
      ],
      [
        "Ġin",
        "var"
      ],
      [
        "Re",
        "actãģ®"
      ],
      [
        "äº",
        "ĭãģ§ãģ¯"
      ],
      [
        "åĬ",
        "łãģĹãģŁ"
      ],
      [
        "æĪ",
        "¦çķ¥"
      ],
      [
        "è¿",
        "°ãģĻãĤĭ"
      ],
      [
        "è£ħ",
        "ãģĹãģ¦ãģĦãģ¾ãģĻ"
      ],
      [
        "è£ħ",
        "æĸ¹æ³ķãģ«ãģ"
      ],
      [
        "éĿ",
        "ŀåĲ"
      ],
      [
        "Ġ'",
        "%@"
      ],
      [
        "Ġb",
        "orro"
      ],
      [
        "Ġde",
        "scent"
      ],
      [
        "ãģĦ",
        "ç´Ķç²ĭ"
      ],
      [
        "ãģ£ãģ",
        "¦ãĤ¯"
      ],
      [
        "ãĥ¥",
        "ãĥ¼ãĥĨãĥĥãĤ¯ãĤ¹"
      ],
      [
        "ãĥī",
        "ãĥªãĥ³ãĤ°"
      ],
      [
        "ãĥī",
        "ãĥ«ãĤ¦ãĤ§"
      ],
      [
        "ãĥĬ",
        "ãĥ«ãĥĩãĥ¼ãĤ¿ãĥĻãĥ¼ãĤ"
      ],
      [
        "ãĥĳ",
        "ãĤ¤ãĥ«"
      ],
      [
        "ãĥĳ",
        "ãĤ¤ãĥĹãĥ"
      ],
      [
        "ãĥŀ",
        "ãĥķãĤ©"
      ],
      [
        "ãĥŁ",
        "ãĥ³ãĤ°ãģ¯åī"
      ],
      [
        "ãĥŁ",
        "ãĥīãĥ«ãĤ¦ãĤ§"
      ],
      [
        "ãĤµ",
        "ãĥĭãĤ"
      ],
      [
        "ãĤ»",
        "ãĤŃãĥ¥"
      ],
      [
        "ãĤ»",
        "ãĥĥãĥĪãģ¨"
      ],
      [
        "ãĤĴå®Ł",
        "çı¾"
      ],
      [
        "ãĤĴå®Ł",
        "è¡Įãģ§ãģįãģ¾ãģĻ"
      ],
      [
        "ãĤĴå®Ł",
        "è£ħãģĹãģ¦ãģĦãģ¾ãģĻ"
      ],
      [
        "ãĤĴè¡Į",
        "ãģĨ"
      ],
      [
        "ãĥ¼ãĤ·ãĥ§",
        "ãĥ³ãģ®å®Ł"
      ],
      [
        "ãģ«ãģ",
        "ĬãģĦãģ¦"
      ],
      [
        "ate",
        "ãģ¨useReducer"
      ],
      [
        "å®ļ",
        "çĲĨ"
      ],
      [
        "å®ļ",
        "ãĥķãĤ¡ãĤ¤ãĥ«"
      ],
      [
        "å®ļ",
        "ãģĻãĤĭæĸ¹æ³ķ"
      ],
      [
        "ãĥĨãĤ¹ãĥĪ",
        "é§Ĩ"
      ],
      [
        "ãĥĨãĤ¹ãĥĪ",
        "ãĤĴæĽ¸ãģĦãģ¦"
      ],
      [
        "åĪĨ",
        "æķ"
      ],
      [
        "åĪĹ",
        "ãĥĩãĥ¼ãĤ¿ãĤĴåĩ¦çĲĨãģĹãģ¾ãģĻ"
      ],
      [
        "ãģĵãģ®",
        "è¨ĺ"
      ],
      [
        "ãģĵãģ®",
        "ãĥĹãĥŃãĤ¸ãĤ§ãĤ¯ãĥĪ"
      ],
      [
        "ãģĵãģ¨ãģ§",
        "çĴ°å¢ĥãģ«ä¾ĿåŃĺ"
      ],
      [
        "ãĥĩãĥ¼ãĤ¿ãĥĻãĥ¼ãĤ",
        "¹ãģ®"
      ],
      [
        "ä¾Ŀ",
        "éł"
      ],
      [
        "åŃ¦ç¿Ĵ",
        "ãģ«ãģ¯å¤§è¦ıæ¨¡"
      ],
      [
        "cker",
        "ãģĮåı"
      ],
      [
        "ç´¢",
        "ãĤĴå®Łçı¾"
      ],
      [
        "åı¯èĥ½",
        "ãģªçĴ°å¢ĥ"
      ],
      [
        "æĮĩ",
        "ãģĹãģ¦ãģĦãģ¾ãģĻ"
      ],
      [
        "æĮĩ",
        "åĲĳè¨Ńè¨Ī"
      ],
      [
        "éĸ¢æķ",
        "°åŀĭãĥĹãĥŃãĤ°ãĥ©"
      ],
      [
        "async",
        "ioãĥ©ãĤ¤"
      ],
      [
        "um",
        "erate"
      ],
      [
        "Ġ&",
        "&"
      ],
      [
        "ĠU",
        "RLãĥĳ"
      ],
      [
        "ĠW",
        "HERE"
      ],
      [
        "Ġw",
        "hile"
      ],
      [
        "ith",
        "m"
      ],
      [
        "http",
        "s"
      ],
      [
        "40",
        "1"
      ],
      [
        "40",
        "3"
      ],
      [
        "EC",
        "T"
      ],
      [
        "RE",
        "T"
      ],
      [
        "ap",
        "i"
      ],
      [
        "file",
        "ãģ«å¿ħ"
      ],
      [
        "if",
        "y"
      ],
      [
        "¢ç´¢",
        "ãĤĴå®Łè£ħãģĹãģ¦ãģĦãģ¾ãģĻ"
      ],
      [
        "¿ãĤ¤",
        "ãĤºãģĮéĩįè¦ģãģ§ãģĻ"
      ],
      [
        "ä¿",
        "Ŀè¨¼"
      ],
      [
        "å¯",
        "¾ç"
      ],
      [
        "å¯",
        "Įãģ§ãģĻ"
      ],
      [
        "æİ",
        "¢ç´¢ãĤĴå®Łè£ħãģĹãģ¦ãģĦãģ¾ãģĻ"
      ],
      [
        "éĢ",
        "Łãģª"
      ],
      [
        "éĢ",
        "łãĤĴçĶ¨"
      ],
      [
        "ĠO",
        "K"
      ],
      [
        "ĠO",
        "RDE"
      ],
      [
        "Ġse",
        "arch"
      ],
      [
        "Ġse",
        "quence"
      ],
      [
        "Ġlo",
        "ss"
      ],
      [
        "Ġlo",
        "cal"
      ],
      [
        "Ġel",
        "se"
      ],
      [
        "Ġel",
        "if"
      ],
      [
        "ķ¥",
        "åĮĸ"
      ],
      [
        "łãģ",
        "ķãģĦ"
      ],
      [
        "ãģĨ",
        "ãģĵãģ¨ãģ§çĴ°å¢ĥãģ«ä¾ĿåŃĺ"
      ],
      [
        "ãĥĸ",
        "ãĥ©ãĥª"
      ],
      [
        "ãĥĿ",
        "ãĥĥãĥī"
      ],
      [
        "ãĤ½",
        "ãĥ¼ãĤ¹ãģ®"
      ],
      [
        "ãĤ½",
        "ãĥķãĥĪãģĮéĸĭçĻºãģĹãģŁ"
      ],
      [
        "ãĤ¿",
        "ãģ§"
      ],
      [
        "ãĤ¿",
        "ãĥ³ãĥĪ"
      ],
      [
        "ãĤĴçĶ¨",
        "ãģĦãģ¦ç"
      ],
      [
        "ãģ®å®Ł",
        "è£ħæĸ¹æ³ķãģ«ãģ"
      ],
      [
        "ãģ®ãĥĲ",
        "ãĥ©ãĥ³ãĤ¹"
      ],
      [
        "ãģ®ãĥĲ",
        "ãĥªãĥĩãĥ¼ãĤ"
      ],
      [
        "ãģ®æ§ĭç¯ī",
        "ãģĮå¤§"
      ],
      [
        "ãģ®æ§ĭç¯ī",
        "æĸ¹æ³ķãĤĴèª¬"
      ],
      [
        "ãģ®èĩªåĭķ",
        "ãĤ¹ãĤ±"
      ],
      [
        "ãģ®èĩªåĭķ",
        "å®Łè¡Į"
      ],
      [
        "ãģĮç",
        "Ħ¡åĬ"
      ],
      [
        "ãģĮç",
        "ĭ¬ç"
      ],
      [
        "è¨ĺ",
        "è¿°ãģĻãĤĭ"
      ],
      [
        "ãĤ¤ãĥ³",
        "ãĥĩãĥĥãĤ¯ãĤ¹"
      ],
      [
        "åĲĪ",
        "ãĤıãģ"
      ],
      [
        "ãĥ©ãĤ¤",
        "ãĥķãĤ¿ãĤ¤"
      ],
      [
        "ãĥķãĤ©",
        "ãĥ¼ãĥŀãĥ¼ãĤ"
      ],
      [
        "ãĤĴä½¿ãģ£ãģ",
        "¦æİ"
      ],
      [
        "imiz",
        "ation"
      ],
      [
        "æ§ĭ",
        "éĢłãĤĴçĶ¨"
      ],
      [
        "èªįè¨¼",
        "ãģĮå¿ħè¦ģãģ§ãģĻ"
      ],
      [
        "ãĥ¬ãĥ¼ãĤ·ãĥ§",
        "ãĥ³ãĥĦãĥ¼ãĥ«"
      ],
      [
        "ãĤ³ãĥ¼ãĥī",
        "ãĤ¨ãĥĩãĤ£"
      ],
      [
        "ä¸Ģè²",
        "«æĢ§"
      ],
      [
        "ä»ĸ",
        "ãģ®åĩ¦çĲĨ"
      ],
      [
        "æ©Łèĥ½",
        "ãģĮãģĤãĤĬãģ¾ãģĻ"
      ],
      [
        "API",
        "ãģ®è¨Ńè¨Ī"
      ],
      [
        "æĪĲ",
        "ãģ§ãģįãģ¾ãģĻ"
      ],
      [
        "ãĤµãĥ¼ãĥĵãĤ¹",
        "ãĤ¢ãĥ¼ãĤŃãĥĨãĤ¯ãĥģãĥ£"
      ],
      [
        "ãĤĴä½¿çĶ¨ãģĻãĤĭãģĵãģ¨ãģ§",
        "éĸĭçĻºçĴ°å¢ĥ"
      ],
      [
        "ãĤ³ãĥ³ãĥĨãĥĬ",
        "æĬ"
      ],
      [
        "éĸ¢æķ°",
        "ãĤĴçµĦãģ¿"
      ],
      [
        "éĸ¢æķ°",
        "ãģ¯äº"
      ],
      [
        "Docker",
        "ãĤĴä½¿çĶ¨ãģĻãĤĭãģĵãģ¨ãģ§éĸĭçĻºçĴ°å¢ĥ"
      ],
      [
        "GitHub",
        "ãģ§ãĥĹãĥ"
      ],
      [
        "Python",
        "ãģ§ãģ®"
      ],
      [
        "Python",
        "ãģ¨C"
      ],
      [
        "Type",
        "Script"
      ],
      [
        "åĨįçı¾",
        "åı¯èĥ½ãģªçĴ°å¢ĥ"
      ],
      [
        "åĮĸ",
        "ãģ§ãģįãģ¾ãģĻ"
      ],
      [
        "æ·±å±¤åŃ¦ç¿Ĵ",
        "ãĥ¢ãĥĩãĥ«ãģ®"
      ],
      [
        "æ·±å±¤åŃ¦ç¿Ĵ",
        "ãĥķãĥ¬"
      ],
      [
        "çĬ¶æħ",
        "ĭéģ"
      ],
      [
        "çĬ¶æħ",
        "ĭç®¡çĲĨ"
      ],
      [
        "çİĩ",
        "ãģ¨åĨįçı¾"
      ],
      [
        "çİĩ",
        "ãģ®ãĥĲãĥ©ãĥ³ãĤ¹"
      ],
      [
        "Ġãĥ¦ãĥ¼ãĤ¶",
        "ãĥ¼èªįè¨¼"
      ],
      [
        "Ġãĥ¦ãĥ¼ãĤ¶",
        "ãĥ¼ãĥĹãĥ"
      ],
      [
        "ãģĭãĤī",
        "å®Łè£ħ"
      ],
      [
        "ãģĭãĤī",
        "æľ¬ç"
      ],
      [
        "ãĤ¸ãĤ§ãĤ¯ãĥĪ",
        "æĮĩåĲĳè¨Ńè¨Ī"
      ],
      [
        "ãĤĴè¿½",
        "åĬłãģĹãģŁ"
      ],
      [
        "ãģĮéĸĭçĻºãģĹãģŁ",
        "æ·±å±¤åŃ¦ç¿Ĵãĥķãĥ¬"
      ],
      [
        "ãĥĪãĥ¼ãĤ¯ãĥ³",
        "ãĤĴæ¤ľ"
      ],
      [
        "ãĥĪãĥ¼ãĤ¯ãĥ³",
        "ãģĮçĦ¡åĬ"
      ],
      [
        "ãĥĩãĥĹãĥŃãĤ¤",
        "ãģ¾ãģ§"
      ],
      [
        "ãĥ¢ãĥĩãĥ«ãģ®",
        "è©ķ"
      ],
      [
        "è¨Īç®Ĺ",
        "è³ĩ"
      ],
      [
        "ãĥŀãĤ¤ãĤ¯ãĥŃ",
        "ãĤµãĥ¼ãĥĵãĤ¹ãĤ¢ãĥ¼ãĤŃãĥĨãĤ¯ãĥģãĥ£"
      ],
      [
        "å¤§è¦ıæ¨¡",
        "éĸĭçĻºãģ«éģ©ãģĹãģ¦ãģĦãģ¾ãģĻ"
      ],
      [
        "<!-",
        "-"
      ],
      [
        "Ad",
        "d"
      ],
      [
        "CD",
        "ãĥĳãĤ¤ãĥĹãĥ"
      ],
      [
        "Con",
        "tent"
      ],
      [
        "Flo",
        "wãģ¯"
      ],
      [
        "Gr",
        "ad"
      ],
      [
        "HT",
        "TP"
      ],
      [
        "JS",
        "ONãĥĩãĥ¼ãĤ¿"
      ],
      [
        "Kub",
        "ernet"
      ],
      [
        "Mid",
        "dle"
      ],
      [
        "Oå¾",
        "ħãģ"
      ],
      [
        "Post",
        "gre"
      ],
      [
        "PCãģ§",
        "åĭķä½ľ"
      ],
      [
        "Ru",
        "stãģ®æī"
      ],
      [
        "SEC",
        "RET"
      ],
      [
        "SEL",
        "ECT"
      ],
      [
        "Ten",
        "sor"
      ],
      [
        "VSC",
        "ode"
      ],
      [
        "ab",
        "ase"
      ],
      [
        "auth",
        "oriz"
      ],
      [
        "dat",
        "abase"
      ],
      [
        "ian",
        "t"
      ],
      [
        "ogle",
        "ãģĮéĸĭçĻºãģĹãģŁæ·±å±¤åŃ¦ç¿Ĵãĥķãĥ¬"
      ],
      [
        "pro",
        "file"
      ],
      [
        "sfor",
        "mer"
      ],
      [
        "tree",
        "æ§ĭéĢłãĤĴçĶ¨"
      ],
      [
        "ver",
        "ify"
      ],
      [
        "vaScript",
        "ãģ«åŀĭãĤ"
      ],
      [
        "¡å",
        "¼µæ©Łèĥ½"
      ],
      [
        "¡ãģ®",
        "éĸĵãģ«"
      ],
      [
        "¡ãģ¯",
        "ä¸ĸçķ"
      ],
      [
        "¢ãĥ¼ãĤŃãĥĨãĤ¯ãĥģãĥ£",
        "ãģ¯èĩª"
      ],
      [
        "£ãĤ·ãĤ¹ãĥĨãĥł",
        "ãģ§ãģ¯CAP"
      ],
      [
        "¤ãģĦãģ¦",
        "è§£èª¬"
      ],
      [
        "¥ãģĦãģ¦",
        "ä¸Ģè²«æĢ§"
      ],
      [
        "¥åĬ",
        "ĽåĢ¤"
      ],
      [
        "¦ãĥĹãĥŃãĤ°ãĥ©",
        "ãĥłãĤĴæ§ĭç¯ī"
      ],
      [
        "§»",
        "ãģ«ãģ¯useReducer"
      ],
      [
        "§ãģ®",
        "ãĥ©ãĤ¤ãĥķãĤ¿ãĤ¤"
      ],
      [
        "¨æĢ§",
        "ãĤĴãĤ³ãĥ³"
      ],
      [
        "©æĸ",
        "°ç"
      ],
      [
        "©ãĤ¤ãĥ³",
        "ãģ®æ§ĭç¯īæĸ¹æ³ķãĤĴèª¬"
      ],
      [
        "©ãĤ·ãĤ¹ãĥĨãĥł",
        "ãģ¯ãĥ¡ãĥ¢ãĥª"
      ],
      [
        "ªä»",
        "ķçµĦãģ¿"
      ],
      [
        "«ĭ",
        "ãģĹãģ¦ãĥĩãĥĹãĥŃãĤ¤"
      ],
      [
        "«ãĤ",
        "ģãĤĭ"
      ],
      [
        "«ãĥªãĤ¯ãĤ¨ãĤ¹ãĥĪ",
        "ãĤĴä½ľæĪĲ"
      ],
      [
        "¬ä»",
        "»ãģ®"
      ],
      [
        "¯ãĥ¼ãĤ¯",
        "ãģ§"
      ],
      [
        "¯ä½ľ",
        "çĶ¨ãģ®ãģª"
      ],
      [
        "³»",
        "åĪĹãĥĩãĥ¼ãĤ¿ãĤĴåĩ¦çĲĨãģĹãģ¾ãģĻ"
      ],
      [
        "¶ļ",
        "æĥ"
      ],
      [
        "·ç",
        "§»ãģ«ãģ¯useReducer"
      ],
      [
        "ºãģ®",
        "PCãģ§åĭķä½ľ"
      ],
      [
        "¼ãģĹãģ¦",
        "ãģıãģ"
      ],
      [
        "¾ĵ",
        "ãģ£ãģ¦ãĤ¯"
      ],
      [
        "åİ",
        "Łåī"
      ],
      [
        "å·±",
        "æ³¨æ"
      ],
      [
        "åŀĭãĤ",
        "ĤãĤµãĥĿ"
      ],
      [
        "å¹ħ",
        "ãģ«ç°¡ç"
      ],
      [
        "å½¢æ",
        "İ¢ç´¢"
      ],
      [
        "æĭ",
        "¡å¼µæ©Łèĥ½"
      ],
      [
        "æį",
        "īãģĹãģ¾ãģĻ"
      ],
      [
        "æĺ",
        "İãģĹãģ¾ãģĻ"
      ],
      [
        "æĻ",
        "Ĥãģ«"
      ],
      [
        "æ¤ľ",
        "ç´¢ãĤĴå®Łçı¾"
      ],
      [
        "æºĲ",
        "ãģĮå¿ħè¦ģãģ§ãģĻ"
      ],
      [
        "éĽ",
        "ĳãģª"
      ],
      [
        "Ġor",
        "igin"
      ],
      [
        "Ġen",
        "umerate"
      ],
      [
        "Ġro",
        "ot"
      ],
      [
        "Ġarch",
        "itec"
      ],
      [
        "Ġè¨Ń",
        "å®ļãĥķãĤ¡ãĤ¤ãĥ«"
      ],
      [
        "ĠãĥĨãĤ¹ãĥĪ",
        "ãģ®èĩªåĭķå®Łè¡Į"
      ],
      [
        "Ġãģĵãģ®",
        "éĸ¢æķ°ãģ¯äº"
      ],
      [
        "Ġãĥĩãĥ¼ãĤ¿ãĥĻãĥ¼ãĤ",
        "¹æİ¥ç"
      ],
      [
        "ĠDE",
        "SC"
      ],
      [
        "ĠDocker",
        "fileãģ«å¿ħ"
      ],
      [
        "ĠJWT",
        "ãĥĪãĥ¼ãĤ¯ãĥ³ãĤĴæ¤ľ"
      ],
      [
        "Ġè¨Īç®Ĺ",
        "éĩıãģ¯"
      ],
      [
        "ĠAc",
        "tionsãĤĴä½¿ãģ£ãģ"
      ],
      [
        "ĠFR",
        "OM"
      ],
      [
        "ĠGo",
        "ogleãģĮéĸĭçĻºãģĹãģŁæ·±å±¤åŃ¦ç¿Ĵãĥķãĥ¬"
      ],
      [
        "ĠJa",
        "vaScriptãģ«åŀĭãĤ"
      ],
      [
        "ĠLIK",
        "E"
      ],
      [
        "Ġjw",
        "t"
      ],
      [
        "Ġopt",
        "imization"
      ],
      [
        "Ġç·ļ",
        "å½¢æİ¢ç´¢"
      ],
      [
        "Ġè¤ĩ",
        "éĽĳãģª"
      ],
      [
        "Ġé¡§",
        "å®¢ç®"
      ],
      [
        "ĢåĪ",
        "Ŀãģ«"
      ],
      [
        "Ģè¡",
        "ĵãĤĴä½¿"
      ],
      [
        "Ģæľ",
        "īæ¨"
      ],
      [
        "ĤãĤĴ",
        "è¨ĺè¿°ãģĻãĤĭ"
      ],
      [
        "Ĥçħ",
        "§ãģ®ãĥ©ãĤ¤ãĥķãĤ¿ãĤ¤"
      ],
      [
        "ĥæħ",
        "®ãģĹãģ¾ãģĻ"
      ],
      [
        "Ħı",
        "æ©Łæ§ĭ"
      ],
      [
        "ħåł",
        "±"
      ],
      [
        "ĩãģ«å",
        "¾ĵãģ£ãģ¦ãĤ¯"
      ],
      [
        "ĭäº",
        "ºãģ®PCãģ§åĭķä½ľ"
      ],
      [
        "Įæľ",
        "Łåĩ¦çĲĨ"
      ],
      [
        "ĮåĪĨ",
        "æİ¢ç´¢ãĤĴå®Łè£ħãģĹãģ¦ãģĦãģ¾ãģĻ"
      ],
      [
        "įķ",
        "æįīãģĹãģ¾ãģĻ"
      ],
      [
        "ĳãģ§",
        "åĨįçı¾åı¯èĥ½ãģªçĴ°å¢ĥ"
      ],
      [
        "Ĵä»ĸ",
        "åĪ¶å¾"
      ],
      [
        "ķªçĴ°å¢ĥ",
        "ãģ¸ãģ®"
      ],
      [
        "ĸãĤĴæ",
        "įķæįīãģĹãģ¾ãģĻ"
      ],
      [
        "ĺä¸Ģè²",
        "¬ä»»ãģ®"
      ],
      [
        "ļĦãģ",
        "ªä»ķçµĦãģ¿"
      ],
      [
        "Ľãģ",
        "¦ãĥĹãĥŃãĤ°ãĥ©ãĥłãĤĴæ§ĭç¯ī"
      ],
      [
        "ľģãĥ¡ãĥ¢ãĥª",
        "ãģªAI"
      ],
      [
        "Ń¦ç¿Ĵ",
        "ãĥ¢ãĥĩãĥ«ãģ®è©ķ"
      ],
      [
        "ŃãĥķãĤ£ãĥ¼ãĥ«",
        "çĶ»éĿ"
      ],
      [
        "Ńĸãģ¨",
        "ãģĹãģ¦åħ"
      ],
      [
        "ãģłãģ",
        "ĳãģ§åĨįçı¾åı¯èĥ½ãģªçĴ°å¢ĥ"
      ],
      [
        "ãģ¤ãģ®",
        "ãĥķãĥĥãĤ¯"
      ],
      [
        "ãģķãĤ",
        "Įãģ¾ãģĻ"
      ],
      [
        "ãĥĢãĥ¼",
        "ãģ§æĮĩ"
      ],
      [
        "ãĥĭãĥ³ãĤ°",
        "æĪ¦çķ¥"
      ],
      [
        "ãĤĦãĤ»",
        "ãĥŀãĥķãĤ©"
      ],
      [
        "ãĥ¼ãĤĴ",
        "ä¾Ŀéł"
      ],
      [
        "ãģĻãĤĭç",
        "ľģãĥ¡ãĥ¢ãĥªãģªAI"
      ],
      [
        "ãĤĴèĩªåĭķ",
        "åĮĸãģ§ãģįãģ¾ãģĻ"
      ],
      [
        "ãĤĴçĽ®",
        "æĮĩãģĹãģ¦ãģĦãģ¾ãģĻ"
      ],
      [
        "ãģ®ãĥĪ",
        "ãĥ¬ãĥ¼ãĥī"
      ],
      [
        "ãģ®API",
        "ãĤĴæıĲ"
      ],
      [
        "ãģĹãģªãģĦ",
        "ãĤ¢ãĥĹãĥªãĤ±"
      ],
      [
        "ãģ¯åĢ",
        "ĭäººãģ®PCãģ§åĭķä½ľ"
      ],
      [
        "ãģ¯ãĥĲãĥ¼ãĤ¸ãĥ§",
        "ãĥĭãĥ³ãĤ°æĪ¦çķ¥"
      ],
      [
        "ãĥ³ãĤĴåĲ",
        "«ãĤģãĤĭ"
      ],
      [
        "ãĥ¼ãĥªãĥ³ãĤ°",
        "æ©Łèĥ½ãģĮãģĤãĤĬãģ¾ãģĻ"
      ],
      [
        "ãĥ¼ãĥĹãĥ³",
        "ãĤ½ãĥ¼ãĤ¹ãģ®"
      ],
      [
        "ãĥ¼ãĥłãĥ",
        "¯ãĥ¼ãĤ¯ãģ§"
      ],
      [
        "ãĤ¹ãģ«ãĥĲãĥ¼ãĤ¸ãĥ§",
        "ãĥ³ãĤĴåĲ«ãĤģãĤĭ"
      ],
      [
        "ãģĮä½ľ",
        "æĪĲãģ§ãģįãģ¾ãģĻ"
      ],
      [
        "ãģĮè±Ĭ",
        "å¯Įãģ§ãģĻ"
      ],
      [
        "ãĥĪãĥ©ãĥ³ãĤ¹",
        "ãĥķãĤ©ãĥ¼ãĥŀãĥ¼ãĤ"
      ],
      [
        "è¨Ģèª",
        "ŀãģ§"
      ],
      [
        "Ġmaint",
        "ains"
      ],
      [
        "Ġmyap",
        "p"
      ],
      [
        "Ġminimiz",
        "es"
      ],
      [
        "atten",
        "tion"
      ],
      [
        "å®īåħ",
        "¨æĢ§ãĤĴãĤ³ãĥ³"
      ],
      [
        "Ġtran",
        "sformer"
      ],
      [
        "ãģĹãģ¦éģ©",
        "åĪĩãģ«"
      ],
      [
        "ãģĹãģ¦ãĤ³ãĥ¼ãĥī",
        "ãĥ¬ãĥĵãĥ¥"
      ],
      [
        "ãģ¨åı¯",
        "çĶ¨æĢ§"
      ],
      [
        "éĸ¢ä¿",
        "ĤãĤĴè¨ĺè¿°ãģĻãĤĭ"
      ],
      [
        "Ġfunc",
        "tion"
      ],
      [
        "Ġfeatu",
        "re"
      ],
      [
        "Ġauth",
        "Middle"
      ],
      [
        "Ġadm",
        "in"
      ],
      [
        "Ġalgor",
        "ithm"
      ],
      [
        "Ġapp",
        "lication"
      ],
      [
        "ãĥ©ãĤ¹ãĤĴåĪĨ",
        "åī²ãģĹãģ¾ãģĻ"
      ],
      [
        "ãĥªãĥ¬ãĥ¼ãĤ·ãĥ§",
        "ãĥĬãĥ«ãĥĩãĥ¼ãĤ¿ãĥĻãĥ¼ãĤ"
      ],
      [
        "ãĥªãĥĨãĤ£",
        "å¯¾ç"
      ],
      [
        "Ġche",
        "ckerãģĮåı"
      ],
      [
        "Ġcom",
        "mit"
      ],
      [
        "Ġcreate",
        "d"
      ],
      [
        "ãģªãĥĩãĥ¼ãĤ¿",
        "ãĤ»ãĥĥãĥĪãģ¨"
      ],
      [
        "ãģĵãĤĵãģ«ãģ",
        "¡ãģ¯ä¸ĸçķ"
      ],
      [
        "ä¾¡ãģ«ãģ¯",
        "éģ©åĲĪ"
      ],
      [
        "ä¾ĭå¤",
        "ĸãĤĴæįķæįīãģĹãģ¾ãģĻ"
      ],
      [
        "ãģ§ãģ¯æľ",
        "ĢåĪĿãģ«"
      ],
      [
        "ãģ§ãģ¯åį",
        "ĺä¸Ģè²¬ä»»ãģ®"
      ],
      [
        "ãģ§ãģ¯åĲĦãĤµãĥ¼ãĥĵãĤ¹",
        "ãģĮçĭ¬ç"
      ],
      [
        "è¦ģãģªä¾ĿåŃĺ",
        "éĸ¢ä¿ĤãĤĴè¨ĺè¿°ãģĻãĤĭ"
      ],
      [
        "exce",
        "ptæĸĩãĤĴä½¿çĶ¨"
      ],
      [
        "heade",
        "rs"
      ],
      [
        "ãĥłãĤĴè¿½",
        "è·¡ãģĹãģ¾ãģĻ"
      ],
      [
        "ãģĻãĤĭéĿ",
        "©æĸ°ç"
      ],
      [
        "ãģ«ãģ¯useSt",
        "ateãģ¨useReducer"
      ],
      [
        "ãģĦãģ¦é«ĺ",
        "éĢŁãģª"
      ],
      [
        "åĩ¦çĲĨãģ§ãģ¯ãĥŁ",
        "ãĥ¥ãĥ¼ãĥĨãĥĥãĤ¯ãĤ¹"
      ],
      [
        "åĭķéĸĭçĻº",
        "ãģ§ãģ¯æľĢåĪĿãģ«"
      ],
      [
        "·ãĤ¹ãĥĨãĥł",
        "ãĤĴè¿½åĬłãģĹãģŁ"
      ],
      [
        "·ãĥ§ãĥ³ãģ¨",
        "ãĤµãĥĭãĤ"
      ],
      [
        "ä¸¦è¡Į",
        "åĩ¦çĲĨãģ§ãģ¯ãĥŁãĥ¥ãĥ¼ãĥĨãĥĥãĤ¯ãĤ¹"
      ],
      [
        "æ©Łæ¢°å",
        "Ń¦ç¿Ĵãĥ¢ãĥĩãĥ«ãģ®è©ķ"
      ],
      [
        "Ġãģ¯ãĤª",
        "ãĥ¼ãĥĹãĥ³ãĤ½ãĥ¼ãĤ¹ãģ®"
      ],
      [
        "Ġãģ¯ãĤ³ãĥ³ãĥĨãĥĬ",
        "ãĤªãĥ¼ãĤ±ãĤ¹ãĥĪ"
      ],
      [
        "Ġãģ¯ãĥŀãĤ¤ãĤ¯ãĥŃ",
        "ãĤ½ãĥķãĥĪãģĮéĸĭçĻºãģĹãģŁ"
      ],
      [
        "ãĤ¢ãĤ·ãĤ¹",
        "ãĤ¿ãĥ³ãĥĪ"
      ],
      [
        "ãĤ¨ãĥ©ãĥ¼ãĥıãĥ³",
        "ãĥīãĥªãĥ³ãĤ°"
      ],
      [
        "ãĤªãĥĸ",
        "ãĤ¸ãĤ§ãĤ¯ãĥĪæĮĩåĲĳè¨Ńè¨Ī"
      ],
      [
        "ãĤªãĥķãĤĴèĢ",
        "ĥæħ®ãģĹãģ¾ãģĻ"
      ],
      [
        "ãģ«åŁºãģ",
        "¥ãģĦãģ¦ä¸Ģè²«æĢ§"
      ],
      [
        "è¨¼ãģĹãģ¦ãĥªãĤ¯ãĤ¨ãĤ¹ãĥĪ",
        "ãĤĴåĩ¦çĲĨãģĹãģ¾ãģĻ"
      ],
      [
        "æĸ¹æ³ķãģ¨ãĥĺãĥĥ",
        "ãĥĢãĥ¼ãģ§æĮĩ"
      ],
      [
        "Ġinvar",
        "iant"
      ],
      [
        "Reactãģ®",
        "çĬ¶æħĭç®¡çĲĨ"
      ],
      [
        "äºĭãģ§ãģ¯",
        "Pythonãģ§ãģ®"
      ],
      [
        "éĿŀåĲ",
        "ĮæľŁåĩ¦çĲĨ"
      ],
      [
        "Ġborro",
        "w"
      ],
      [
        "ãģĦç´Ķç²ĭ",
        "éĸ¢æķ°ãĤĴçµĦãģ¿"
      ],
      [
        "ãĥĳãĤ¤ãĥ«",
        "æĻĤãģ«"
      ],
      [
        "ãĥŁãĥ³ãĤ°ãģ¯åī",
        "¯ä½ľçĶ¨ãģ®ãģª"
      ],
      [
        "ãĥŁãĥīãĥ«ãĤ¦ãĤ§",
        "ãĤ¢"
      ],
      [
        "ãĤ»ãĤŃãĥ¥",
        "ãĥªãĥĨãĤ£å¯¾ç"
      ],
      [
        "ãĤĴè¡ĮãģĨ",
        "ãĥŁãĥīãĥ«ãĤ¦ãĤ§ãĤ¢"
      ],
      [
        "ãĥ¼ãĤ·ãĥ§ãĥ³ãģ®å®Ł",
        "è¡ĮãģĮåı¯èĥ½ãģ§ãģĻ"
      ],
      [
        "ãģ«ãģĬãģĦãģ¦",
        "ãģ¯ãĥĲãĥ¼ãĤ¸ãĥ§ãĥĭãĥ³ãĤ°æĪ¦çķ¥"
      ],
      [
        "å®ļçĲĨ",
        "ãģ«åŁºãģ¥ãģĦãģ¦ä¸Ģè²«æĢ§"
      ],
      [
        "å®ļãģĻãĤĭæĸ¹æ³ķ",
        "ãģĮãģĤãĤĬãģ¾ãģĻ"
      ],
      [
        "ãĥĨãĤ¹ãĥĪé§Ĩ",
        "åĭķéĸĭçĻºãģ§ãģ¯æľĢåĪĿãģ«"
      ],
      [
        "ãĥĨãĤ¹ãĥĪãĤĴæĽ¸ãģĦãģ¦",
        "ãģĭãĤīå®Łè£ħ"
      ],
      [
        "åĪĨæķ",
        "£ãĤ·ãĤ¹ãĥĨãĥłãģ§ãģ¯CAP"
      ],
      [
        "ãģĵãģ®è¨ĺ",
        "äºĭãģ§ãģ¯Pythonãģ§ãģ®"
      ],
      [
        "ãģĵãģ®ãĥĹãĥŃãĤ¸ãĤ§ãĤ¯ãĥĪ",
        "ãģ¯åĢĭäººãģ®PCãģ§åĭķä½ľ"
      ],
      [
        "ãĥĩãĥ¼ãĤ¿ãĥĻãĥ¼ãĤ¹ãģ®",
        "ãĤ¤ãĥ³ãĥĩãĥĥãĤ¯ãĤ¹"
      ],
      [
        "åŃ¦ç¿Ĵãģ«ãģ¯å¤§è¦ıæ¨¡",
        "ãģªãĥĩãĥ¼ãĤ¿ãĤ»ãĥĥãĥĪãģ¨"
      ],
      [
        "éĸ¢æķ°åŀĭãĥĹãĥŃãĤ°ãĥ©",
        "ãĥŁãĥ³ãĤ°ãģ¯åī¯ä½ľçĶ¨ãģ®ãģª"
      ],
      [
        "asyncioãĥ©ãĤ¤",
        "ãĥĸãĥ©ãĥª"
      ],
      [
        "ĠURLãĥĳ",
        "ãĤ¹ãģ«ãĥĲãĥ¼ãĤ¸ãĥ§ãĥ³ãĤĴåĲ«ãĤģãĤĭ"
      ],
      [
        "ä¿Ŀè¨¼",
        "ãģĻãĤĭéĿ©æĸ°ç"
      ],
      [
        "ĠORDE",
        "R"
      ],
      [
        "Ġsequence",
        "s"
      ],
      [
        "Ġlocal",
        "host"
      ],
      [
        "ķ¥åĮĸ",
        "ãģķãĤĮãģ¾ãģĻ"
      ],
      [
        "ãģĨãģĵãģ¨ãģ§çĴ°å¢ĥãģ«ä¾ĿåŃĺ",
        "ãģĹãģªãģĦãĤ¢ãĥĹãĥªãĤ±"
      ],
      [
        "ãĥĿãĥĥãĥī",
        "ãģ®èĩªåĭķãĤ¹ãĤ±"
      ],
      [
        "ãĤĴçĶ¨ãģĦãģ¦ç",
        "³»åĪĹãĥĩãĥ¼ãĤ¿ãĤĴåĩ¦çĲĨãģĹãģ¾ãģĻ"
      ],
      [
        "ãģ®å®Łè£ħæĸ¹æ³ķãģ«ãģ",
        "¤ãģĦãģ¦è§£èª¬"
      ],
      [
        "ãģ®ãĥĲãĥªãĥĩãĥ¼ãĤ",
        "·ãĥ§ãĥ³ãģ¨ãĤµãĥĭãĤ"
      ],
      [
        "ãģ®æ§ĭç¯īãģĮå¤§",
        "å¹ħãģ«ç°¡ç"
      ],
      [
        "åĲĪãĤıãģ",
        "Ľãģ¦ãĥĹãĥŃãĤ°ãĥ©ãĥłãĤĴæ§ĭç¯ī"
      ],
      [
        "ãĤĴä½¿ãģ£ãģ¦æİ",
        "Ĵä»ĸåĪ¶å¾"
      ],
      [
        "ãĥ¬ãĥ¼ãĤ·ãĥ§ãĥ³ãĥĦãĥ¼ãĥ«",
        "ãģ§"
      ],
      [
        "ãĤ³ãĥ¼ãĥīãĤ¨ãĥĩãĤ£",
        "ãĤ¿ãģ§"
      ],
      [
        "ä»ĸãģ®åĩ¦çĲĨ",
        "ãĤĴå®Łè¡Įãģ§ãģįãģ¾ãģĻ"
      ],
      [
        "APIãģ®è¨Ńè¨Ī",
        "ãģ«ãģĬãģĦãģ¦ãģ¯ãĥĲãĥ¼ãĤ¸ãĥ§ãĥĭãĥ³ãĤ°æĪ¦çķ¥"
      ],
      [
        "ãĤ³ãĥ³ãĥĨãĥĬæĬ",
        "Ģè¡ĵãĤĴä½¿"
      ],
      [
        "DockerãĤĴä½¿çĶ¨ãģĻãĤĭãģĵãģ¨ãģ§éĸĭçĻºçĴ°å¢ĥ",
        "ãģ®æ§ĭç¯īãģĮå¤§å¹ħãģ«ç°¡ç"
      ],
      [
        "GitHubãģ§ãĥĹãĥ",
        "«ãĥªãĤ¯ãĤ¨ãĤ¹ãĥĪãĤĴä½ľæĪĲ"
      ],
      [
        "æ·±å±¤åŃ¦ç¿Ĵãĥ¢ãĥĩãĥ«ãģ®",
        "åŃ¦ç¿Ĵãģ«ãģ¯å¤§è¦ıæ¨¡ãģªãĥĩãĥ¼ãĤ¿ãĤ»ãĥĥãĥĪãģ¨"
      ],
      [
        "çĬ¶æħĭéģ",
        "·ç§»ãģ«ãģ¯useReducer"
      ],
      [
        "çİĩãģ¨åĨįçı¾",
        "çİĩãģ®ãĥĲãĥ©ãĥ³ãĤ¹"
      ],
      [
        "Ġãĥ¦ãĥ¼ãĤ¶ãĥ¼èªįè¨¼",
        "ãĤĴè¡ĮãģĨãĥŁãĥīãĥ«ãĤ¦ãĤ§ãĤ¢"
      ],
      [
        "Ġãĥ¦ãĥ¼ãĤ¶ãĥ¼ãĥĹãĥ",
        "ŃãĥķãĤ£ãĥ¼ãĥ«çĶ»éĿ"
      ],
      [
        "ãģĭãĤīæľ¬ç",
        "ķªçĴ°å¢ĥãģ¸ãģ®"
      ],
      [
        "ãĥĪãĥ¼ãĤ¯ãĥ³ãģĮçĦ¡åĬ",
        "¹ãģ§ãģĻ"
      ],
      [
        "ãĥĩãĥĹãĥŃãĤ¤ãģ¾ãģ§",
        "ãĤĴèĩªåĭķåĮĸãģ§ãģįãģ¾ãģĻ"
      ],
      [
        "è¨Īç®Ĺè³ĩ",
        "æºĲãģĮå¿ħè¦ģãģ§ãģĻ"
      ],
      [
        "ãĥŀãĤ¤ãĤ¯ãĥŃãĤµãĥ¼ãĥĵãĤ¹ãĤ¢ãĥ¼ãĤŃãĥĨãĤ¯ãĥģãĥ£",
        "ãģ§ãģ¯åĲĦãĤµãĥ¼ãĥĵãĤ¹ãģĮçĭ¬ç"
      ],
      [
        "CDãĥĳãĤ¤ãĥĹãĥ",
        "©ãĤ¤ãĥ³ãģ®æ§ĭç¯īæĸ¹æ³ķãĤĴèª¬"
      ],
      [
        "Grad",
        "ient"
      ],
      [
        "JSONãĥĩãĥ¼ãĤ¿",
        "åŀĭãĤĤãĤµãĥĿ"
      ],
      [
        "Kubernet",
        "es"
      ],
      [
        "Oå¾ħãģ",
        "¡ãģ®éĸĵãģ«"
      ],
      [
        "Postgre",
        "SQL"
      ],
      [
        "Rustãģ®æī",
        "Ģæľīæ¨"
      ],
      [
        "Tensor",
        "Flowãģ¯"
      ],
      [
        "authoriz",
        "ation"
      ],
      [
        "treeæ§ĭéĢłãĤĴçĶ¨",
        "ãģĦãģ¦é«ĺéĢŁãģª"
      ],
      [
        "¢ãĥ¼ãĤŃãĥĨãĤ¯ãĥģãĥ£ãģ¯èĩª",
        "å·±æ³¨æ"
      ],
      [
        "¥åĬĽåĢ¤",
        "ãģ®ãĥĲãĥªãĥĩãĥ¼ãĤ·ãĥ§ãĥ³ãģ¨ãĤµãĥĭãĤ"
      ],
      [
        "©ãĤ·ãĤ¹ãĥĨãĥłãģ¯ãĥ¡ãĥ¢ãĥª",
        "å®īåħ¨æĢ§ãĤĴãĤ³ãĥ³"
      ],
      [
        "«ĭãģĹãģ¦ãĥĩãĥĹãĥŃãĤ¤",
        "åı¯èĥ½ãģ§ãģĻ"
      ],
      [
        "¶ļæĥ",
        "ħåł±"
      ],
      [
        "¼ãģĹãģ¦ãģıãģ",
        "łãģķãģĦ"
      ],
      [
        "åİŁåī",
        "ĩãģ«å¾ĵãģ£ãģ¦ãĤ¯"
      ],
      [
        "æĭ¡å¼µæ©Łèĥ½",
        "ãģĮè±Ĭå¯Įãģ§ãģĻ"
      ],
      [
        "æ¤ľç´¢ãĤĴå®Łçı¾",
        "ãģĹãģ¾ãģĻ"
      ],
      [
        "Ġarchitec",
        "ture"
      ],
      [
        "ĠãĥĨãĤ¹ãĥĪãģ®èĩªåĭķå®Łè¡Į",
        "ãģĭãĤīæľ¬çķªçĴ°å¢ĥãģ¸ãģ®"
      ],
      [
        "Ġãģĵãģ®éĸ¢æķ°ãģ¯äº",
        "ĮåĪĨæİ¢ç´¢ãĤĴå®Łè£ħãģĹãģ¦ãģĦãģ¾ãģĻ"
      ],
      [
        "Ġãĥĩãĥ¼ãĤ¿ãĥĻãĥ¼ãĤ¹æİ¥ç",
        "¶ļæĥħåł±"
      ],
      [
        "ĠDockerfileãģ«å¿ħ",
        "è¦ģãģªä¾ĿåŃĺéĸ¢ä¿ĤãĤĴè¨ĺè¿°ãģĻãĤĭ"
      ],
      [
        "ĠJWTãĥĪãĥ¼ãĤ¯ãĥ³ãĤĴæ¤ľ",
        "è¨¼ãģĹãģ¦ãĥªãĤ¯ãĤ¨ãĤ¹ãĥĪãĤĴåĩ¦çĲĨãģĹãģ¾ãģĻ"
      ],
      [
        "Ġè¨Īç®Ĺéĩıãģ¯",
        "O"
      ],
      [
        "ĠActionsãĤĴä½¿ãģ£ãģ",
        "ŁCI"
      ],
      [
        "ĠGoogleãģĮéĸĭçĻºãģĹãģŁæ·±å±¤åŃ¦ç¿Ĵãĥķãĥ¬",
        "ãĥ¼ãĥłãĥ¯ãĥ¼ãĤ¯ãģ§"
      ],
      [
        "ĠJavaScriptãģ«åŀĭãĤ",
        "·ãĤ¹ãĥĨãĥłãĤĴè¿½åĬłãģĹãģŁ"
      ],
      [
        "Ġè¤ĩéĽĳãģª",
        "çĬ¶æħĭéģ·ç§»ãģ«ãģ¯useReducer"
      ],
      [
        "Ġé¡§å®¢ç®",
        "¡çĲĨ"
      ],
      [
        "Ĥçħ§ãģ®ãĥ©ãĤ¤ãĥķãĤ¿ãĤ¤",
        "ãĥłãĤĴè¿½è·¡ãģĹãģ¾ãģĻ"
      ],
      [
        "Ħıæ©Łæ§ĭ",
        "ãĤĴçĶ¨ãģĦãģ¦ç³»åĪĹãĥĩãĥ¼ãĤ¿ãĤĴåĩ¦çĲĨãģĹãģ¾ãģĻ"
      ],
      [
        "ļĦãģªä»ķçµĦãģ¿",
        "ãģ§ãģĻ"
      ],
      [
        "Ńĸãģ¨ãģĹãģ¦åħ",
        "¥åĬĽåĢ¤ãģ®ãĥĲãĥªãĥĩãĥ¼ãĤ·ãĥ§ãĥ³ãģ¨ãĤµãĥĭãĤ"
      ],
      [
        "ãģłãģĳãģ§åĨįçı¾åı¯èĥ½ãģªçĴ°å¢ĥ",
        "ãģĮä½ľæĪĲãģ§ãģįãģ¾ãģĻ"
      ],
      [
        "ãģ¤ãģ®ãĥķãĥĥãĤ¯",
        "ãģĮãģĤãĤĬãģ¾ãģĻ"
      ],
      [
        "ãĤĦãĤ»ãĥŀãĥķãĤ©",
        "ãĤĴä½¿ãģ£ãģ¦æİĴä»ĸåĪ¶å¾"
      ],
      [
        "ãĥ¼ãĤĴä¾Ŀéł",
        "¼ãģĹãģ¦ãģıãģłãģķãģĦ"
      ],
      [
        "ãģĻãĤĭçľģãĥ¡ãĥ¢ãĥªãģªAI",
        "ãĤ¢ãĤ·ãĤ¹ãĤ¿ãĥ³ãĥĪ"
      ],
      [
        "ãģ®ãĥĪãĥ¬ãĥ¼ãĥī",
        "ãĤªãĥķãĤĴèĢĥæħ®ãģĹãģ¾ãģĻ"
      ],
      [
        "ãģ®APIãĤĴæıĲ",
        "ä¾ĽãģĹãģ¦ãģĦãģ¾ãģĻ"
      ],
      [
        "ãĥĪãĥ©ãĥ³ãĤ¹ãĥķãĤ©ãĥ¼ãĥŀãĥ¼ãĤ",
        "¢ãĥ¼ãĤŃãĥĨãĤ¯ãĥģãĥ£ãģ¯èĩªå·±æ³¨æ"
      ],
      [
        "ãģĹãģ¦éģ©åĪĩãģ«",
        "ä¾ĭå¤ĸãĤĴæįķæįīãģĹãģ¾ãģĻ"
      ],
      [
        "ãģĹãģ¦ãĤ³ãĥ¼ãĥīãĥ¬ãĥĵãĥ¥",
        "ãĥ¼ãĤĴä¾Ŀéł¼ãģĹãģ¦ãģıãģłãģķãģĦ"
      ],
      [
        "ãģ¨åı¯çĶ¨æĢ§",
        "ãģ®ãĥĪãĥ¬ãĥ¼ãĥīãĤªãĥķãĤĴèĢĥæħ®ãģĹãģ¾ãģĻ"
      ],
      [
        "ĠauthMiddle",
        "ware"
      ],
      [
        "ãĥªãĥ¬ãĥ¼ãĤ·ãĥ§ãĥĬãĥ«ãĥĩãĥ¼ãĤ¿ãĥĻãĥ¼ãĤ",
        "¹ãģ§"
      ],
      [
        "ĠcheckerãģĮåı",
        "Ĥçħ§ãģ®ãĥ©ãĤ¤ãĥķãĤ¿ãĤ¤ãĥłãĤĴè¿½è·¡ãģĹãģ¾ãģĻ"
      ],
      [
        "ãģĵãĤĵãģ«ãģ¡ãģ¯ä¸ĸçķ",
        "Į"
      ],
      [
        "ä¾¡ãģ«ãģ¯éģ©åĲĪ",
        "çİĩãģ¨åĨįçı¾çİĩãģ®ãĥĲãĥ©ãĥ³ãĤ¹"
      ],
      [
        "ãģ§ãģ¯åįĺä¸Ģè²¬ä»»ãģ®",
        "åİŁåīĩãģ«å¾ĵãģ£ãģ¦ãĤ¯"
      ],
      [
        "exceptæĸĩãĤĴä½¿çĶ¨",
        "ãģĹãģ¦éģ©åĪĩãģ«ä¾ĭå¤ĸãĤĴæįķæįīãģĹãģ¾ãģĻ"
      ],
      [
        "ãģ«ãģ¯useStateãģ¨useReducer",
        "ãģ®"
      ],
      [
        "ä¸¦è¡Įåĩ¦çĲĨãģ§ãģ¯ãĥŁãĥ¥ãĥ¼ãĥĨãĥĥãĤ¯ãĤ¹",
        "ãĤĦãĤ»ãĥŀãĥķãĤ©ãĤĴä½¿ãģ£ãģ¦æİĴä»ĸåĪ¶å¾"
      ],
      [
        "æ©Łæ¢°åŃ¦ç¿Ĵãĥ¢ãĥĩãĥ«ãģ®è©ķ",
        "ä¾¡ãģ«ãģ¯éģ©åĲĪçİĩãģ¨åĨįçı¾çİĩãģ®ãĥĲãĥ©ãĥ³ãĤ¹"
      ],
      [
        "Ġãģ¯ãĤªãĥ¼ãĥĹãĥ³ãĤ½ãĥ¼ãĤ¹ãģ®",
        "ãĥªãĥ¬ãĥ¼ãĤ·ãĥ§ãĥĬãĥ«ãĥĩãĥ¼ãĤ¿ãĥĻãĥ¼ãĤ¹ãģ§"
      ],
      [
        "Ġãģ¯ãĤ³ãĥ³ãĥĨãĥĬãĤªãĥ¼ãĤ±ãĤ¹ãĥĪ",
        "ãĥ¬ãĥ¼ãĤ·ãĥ§ãĥ³ãĥĦãĥ¼ãĥ«ãģ§"
      ],
      [
        "Ġãģ¯ãĥŀãĤ¤ãĤ¯ãĥŃãĤ½ãĥķãĥĪãģĮéĸĭçĻºãģĹãģŁ",
        "ãĤ³ãĥ¼ãĥīãĤ¨ãĥĩãĤ£ãĤ¿ãģ§"
      ],
      [
        "ãĤ¨ãĥ©ãĥ¼ãĥıãĥ³ãĥīãĥªãĥ³ãĤ°",
        "ãģ«ãģ¯try"
      ],
      [
        "ãĤªãĥĸãĤ¸ãĤ§ãĤ¯ãĥĪæĮĩåĲĳè¨Ńè¨Ī",
        "ãģ§ãģ¯åįĺä¸Ģè²¬ä»»ãģ®åİŁåīĩãģ«å¾ĵãģ£ãģ¦ãĤ¯"
      ],
      [
        "æĸ¹æ³ķãģ¨ãĥĺãĥĥãĥĢãĥ¼ãģ§æĮĩ",
        "å®ļãģĻãĤĭæĸ¹æ³ķãģĮãģĤãĤĬãģ¾ãģĻ"
      ],
      [
        "Reactãģ®çĬ¶æħĭç®¡çĲĨ",
        "ãģ«ãģ¯useStateãģ¨useReducerãģ®"
      ],
      [
        "éĿŀåĲĮæľŁåĩ¦çĲĨ",
        "ãģ®å®Łè£ħæĸ¹æ³ķãģ«ãģ¤ãģĦãģ¦è§£èª¬"
      ],
      [
        "ãģĦç´Ķç²ĭéĸ¢æķ°ãĤĴçµĦãģ¿",
        "åĲĪãĤıãģĽãģ¦ãĥĹãĥŃãĤ°ãĥ©ãĥłãĤĴæ§ĭç¯ī"
      ],
      [
        "ãĥĳãĤ¤ãĥ«æĻĤãģ«",
        "ä¿Ŀè¨¼ãģĻãĤĭéĿ©æĸ°ç"
      ],
      [
        "ãĤ»ãĤŃãĥ¥ãĥªãĥĨãĤ£å¯¾ç",
        "Ńĸãģ¨ãģĹãģ¦åħ¥åĬĽåĢ¤ãģ®ãĥĲãĥªãĥĩãĥ¼ãĤ·ãĥ§ãĥ³ãģ¨ãĤµãĥĭãĤ"
      ],
      [
        "å®ļçĲĨãģ«åŁºãģ¥ãģĦãģ¦ä¸Ģè²«æĢ§",
        "ãģ¨åı¯çĶ¨æĢ§ãģ®ãĥĪãĥ¬ãĥ¼ãĥīãĤªãĥķãĤĴèĢĥæħ®ãģĹãģ¾ãģĻ"
      ],
      [
        "ãĥĨãĤ¹ãĥĪé§ĨåĭķéĸĭçĻºãģ§ãģ¯æľĢåĪĿãģ«",
        "ãĥĨãĤ¹ãĥĪãĤĴæĽ¸ãģĦãģ¦ãģĭãĤīå®Łè£ħ"
      ],
      [
        "åĪĨæķ£ãĤ·ãĤ¹ãĥĨãĥłãģ§ãģ¯CAP",
        "å®ļçĲĨãģ«åŁºãģ¥ãģĦãģ¦ä¸Ģè²«æĢ§ãģ¨åı¯çĶ¨æĢ§ãģ®ãĥĪãĥ¬ãĥ¼ãĥīãĤªãĥķãĤĴèĢĥæħ®ãģĹãģ¾ãģĻ"
      ],
      [
        "ãģĵãģ®è¨ĺäºĭãģ§ãģ¯Pythonãģ§ãģ®",
        "éĿŀåĲĮæľŁåĩ¦çĲĨãģ®å®Łè£ħæĸ¹æ³ķãģ«ãģ¤ãģĦãģ¦è§£èª¬"
      ],
      [
        "ãģĵãģ®ãĥĹãĥŃãĤ¸ãĤ§ãĤ¯ãĥĪãģ¯åĢĭäººãģ®PCãģ§åĭķä½ľ",
        "ãģĻãĤĭçľģãĥ¡ãĥ¢ãĥªãģªAIãĤ¢ãĤ·ãĤ¹ãĤ¿ãĥ³ãĥĪ"
      ],
      [
        "ãĥĩãĥ¼ãĤ¿ãĥĻãĥ¼ãĤ¹ãģ®ãĤ¤ãĥ³ãĥĩãĥĥãĤ¯ãĤ¹",
        "ãģ¯B"
      ],
      [
        "éĸ¢æķ°åŀĭãĥĹãĥŃãĤ°ãĥ©ãĥŁãĥ³ãĤ°ãģ¯åī¯ä½ľçĶ¨ãģ®ãģª",
        "ãģĦç´Ķç²ĭéĸ¢æķ°ãĤĴçµĦãģ¿åĲĪãĤıãģĽãģ¦ãĥĹãĥŃãĤ°ãĥ©ãĥłãĤĴæ§ĭç¯ī"
      ],
      [
        "asyncioãĥ©ãĤ¤ãĥĸãĥ©ãĥª",
        "ãĤĴä½¿çĶ¨ãģĻãĤĭãģĵãģ¨ãģ§"
      ],
      [
        "ĠURLãĥĳãĤ¹ãģ«ãĥĲãĥ¼ãĤ¸ãĥ§ãĥ³ãĤĴåĲ«ãĤģãĤĭ",
        "æĸ¹æ³ķãģ¨ãĥĺãĥĥãĥĢãĥ¼ãģ§æĮĩå®ļãģĻãĤĭæĸ¹æ³ķãģĮãģĤãĤĬãģ¾ãģĻ"
      ],
      [
        "ãģĨãģĵãģ¨ãģ§çĴ°å¢ĥãģ«ä¾ĿåŃĺãģĹãģªãģĦãĤ¢ãĥĹãĥªãĤ±",
        "ãĥ¼ãĤ·ãĥ§ãĥ³ãģ®å®Łè¡ĮãģĮåı¯èĥ½ãģ§ãģĻ"
      ],
      [
        "ãĥĿãĥĥãĥīãģ®èĩªåĭķãĤ¹ãĤ±",
        "ãĥ¼ãĥªãĥ³ãĤ°æ©Łèĥ½ãģĮãģĤãĤĬãģ¾ãģĻ"
      ],
      [
        "APIãģ®è¨Ńè¨Īãģ«ãģĬãģĦãģ¦ãģ¯ãĥĲãĥ¼ãĤ¸ãĥ§ãĥĭãĥ³ãĤ°æĪ¦çķ¥",
        "ãģĮéĩįè¦ģãģ§ãģĻ"
      ],
      [
        "ãĤ³ãĥ³ãĥĨãĥĬæĬĢè¡ĵãĤĴä½¿",
        "ãģĨãģĵãģ¨ãģ§çĴ°å¢ĥãģ«ä¾ĿåŃĺãģĹãģªãģĦãĤ¢ãĥĹãĥªãĤ±ãĥ¼ãĤ·ãĥ§ãĥ³ãģ®å®Łè¡ĮãģĮåı¯èĥ½ãģ§ãģĻ"
      ],
      [
        "DockerãĤĴä½¿çĶ¨ãģĻãĤĭãģĵãģ¨ãģ§éĸĭçĻºçĴ°å¢ĥãģ®æ§ĭç¯īãģĮå¤§å¹ħãģ«ç°¡ç",
        "ķ¥åĮĸãģķãĤĮãģ¾ãģĻ"
      ],
      [
        "GitHubãģ§ãĥĹãĥ«ãĥªãĤ¯ãĤ¨ãĤ¹ãĥĪãĤĴä½ľæĪĲ",
        "ãģĹãģ¦ãĤ³ãĥ¼ãĥīãĥ¬ãĥĵãĥ¥ãĥ¼ãĤĴä¾Ŀéł¼ãģĹãģ¦ãģıãģłãģķãģĦ"
      ],
      [
        "æ·±å±¤åŃ¦ç¿Ĵãĥ¢ãĥĩãĥ«ãģ®åŃ¦ç¿Ĵãģ«ãģ¯å¤§è¦ıæ¨¡ãģªãĥĩãĥ¼ãĤ¿ãĤ»ãĥĥãĥĪãģ¨",
        "è¨Īç®Ĺè³ĩæºĲãģĮå¿ħè¦ģãģ§ãģĻ"
      ],
      [
        "Ġãĥ¦ãĥ¼ãĤ¶ãĥ¼ãĥĹãĥŃãĥķãĤ£ãĥ¼ãĥ«çĶ»éĿ",
        "¢"
      ],
      [
        "ãĥŀãĤ¤ãĤ¯ãĥŃãĤµãĥ¼ãĥĵãĤ¹ãĤ¢ãĥ¼ãĤŃãĥĨãĤ¯ãĥģãĥ£ãģ§ãģ¯åĲĦãĤµãĥ¼ãĥĵãĤ¹ãģĮçĭ¬ç",
        "«ĭãģĹãģ¦ãĥĩãĥĹãĥŃãĤ¤åı¯èĥ½ãģ§ãģĻ"
      ],
      [
        "CDãĥĳãĤ¤ãĥĹãĥ©ãĤ¤ãĥ³ãģ®æ§ĭç¯īæĸ¹æ³ķãĤĴèª¬",
        "æĺİãģĹãģ¾ãģĻ"
      ],
      [
        "JSONãĥĩãĥ¼ãĤ¿åŀĭãĤĤãĤµãĥĿ",
        "ãĥ¼ãĥĪãģĹãģ¦ãģĦãģ¾ãģĻ"
      ],
      [
        "Oå¾ħãģ¡ãģ®éĸĵãģ«",
        "ä»ĸãģ®åĩ¦çĲĨãĤĴå®Łè¡Įãģ§ãģįãģ¾ãģĻ"
      ],
      [
        "Rustãģ®æīĢæľīæ¨",
        "©ãĤ·ãĤ¹ãĥĨãĥłãģ¯ãĥ¡ãĥ¢ãĥªå®īåħ¨æĢ§ãĤĴãĤ³ãĥ³"
      ],
      [
        "treeæ§ĭéĢłãĤĴçĶ¨ãģĦãģ¦é«ĺéĢŁãģª",
        "æ¤ľç´¢ãĤĴå®Łçı¾ãģĹãģ¾ãģĻ"
      ],
      [
        "ĠãĥĨãĤ¹ãĥĪãģ®èĩªåĭķå®Łè¡ĮãģĭãĤīæľ¬çķªçĴ°å¢ĥãģ¸ãģ®",
        "ãĥĩãĥĹãĥŃãĤ¤ãģ¾ãģ§ãĤĴèĩªåĭķåĮĸãģ§ãģįãģ¾ãģĻ"
      ],
      [
        "ĠDockerfileãģ«å¿ħè¦ģãģªä¾ĿåŃĺéĸ¢ä¿ĤãĤĴè¨ĺè¿°ãģĻãĤĭ",
        "ãģłãģĳãģ§åĨįçı¾åı¯èĥ½ãģªçĴ°å¢ĥãģĮä½ľæĪĲãģ§ãģįãģ¾ãģĻ"
      ],
      [
        "ĠJavaScriptãģ«åŀĭãĤ·ãĤ¹ãĥĨãĥłãĤĴè¿½åĬłãģĹãģŁ",
        "è¨Ģèªŀãģ§"
      ],
      [
        "Ġè¤ĩéĽĳãģªçĬ¶æħĭéģ·ç§»ãģ«ãģ¯useReducer",
        "ãģĮéģ©ãģĹãģ¦ãģĦãģ¾ãģĻ"
      ],
      [
        "ãĥĪãĥ©ãĥ³ãĤ¹ãĥķãĤ©ãĥ¼ãĥŀãĥ¼ãĤ¢ãĥ¼ãĤŃãĥĨãĤ¯ãĥģãĥ£ãģ¯èĩªå·±æ³¨æ",
        "Ħıæ©Łæ§ĭãĤĴçĶ¨ãģĦãģ¦ç³»åĪĹãĥĩãĥ¼ãĤ¿ãĤĴåĩ¦çĲĨãģĹãģ¾ãģĻ"
      ],
      [
        "ä¸¦è¡Įåĩ¦çĲĨãģ§ãģ¯ãĥŁãĥ¥ãĥ¼ãĥĨãĥĥãĤ¯ãĤ¹ãĤĦãĤ»ãĥŀãĥķãĤ©ãĤĴä½¿ãģ£ãģ¦æİĴä»ĸåĪ¶å¾",
        "¡ãĤĴè¡ĮãģĦãģ¾ãģĻ"
      ],
      [
        "æ©Łæ¢°åŃ¦ç¿Ĵãĥ¢ãĥĩãĥ«ãģ®è©ķä¾¡ãģ«ãģ¯éģ©åĲĪçİĩãģ¨åĨįçı¾çİĩãģ®ãĥĲãĥ©ãĥ³ãĤ¹",
        "ãģĮéĩįè¦ģãģ§ãģĻ"
      ],
      [
        "ãĤªãĥĸãĤ¸ãĤ§ãĤ¯ãĥĪæĮĩåĲĳè¨Ńè¨Īãģ§ãģ¯åįĺä¸Ģè²¬ä»»ãģ®åİŁåīĩãģ«å¾ĵãģ£ãģ¦ãĤ¯",
        "ãĥ©ãĤ¹ãĤĴåĪĨåī²ãģĹãģ¾ãģĻ"
      ],
      [
        "ãĥĳãĤ¤ãĥ«æĻĤãģ«ä¿Ŀè¨¼ãģĻãĤĭéĿ©æĸ°ç",
        "ļĦãģªä»ķçµĦãģ¿ãģ§ãģĻ"
      ],
      [
        "ãĤ»ãĤŃãĥ¥ãĥªãĥĨãĤ£å¯¾çŃĸãģ¨ãģĹãģ¦åħ¥åĬĽåĢ¤ãģ®ãĥĲãĥªãĥĩãĥ¼ãĤ·ãĥ§ãĥ³ãģ¨ãĤµãĥĭãĤ",
        "¿ãĤ¤ãĤºãģĮéĩįè¦ģãģ§ãģĻ"
      ],
      [
        "ãĥĨãĤ¹ãĥĪé§ĨåĭķéĸĭçĻºãģ§ãģ¯æľĢåĪĿãģ«ãĥĨãĤ¹ãĥĪãĤĴæĽ¸ãģĦãģ¦ãģĭãĤīå®Łè£ħ",
        "ãĤĴè¡ĮãģĦãģ¾ãģĻ"
      ],
      [
        "ãģĵãģ®è¨ĺäºĭãģ§ãģ¯Pythonãģ§ãģ®éĿŀåĲĮæľŁåĩ¦çĲĨãģ®å®Łè£ħæĸ¹æ³ķãģ«ãģ¤ãģĦãģ¦è§£èª¬",
        "ãģĹãģ¾ãģĻ"
      ],
      [
        "ãģĵãģ®ãĥĹãĥŃãĤ¸ãĤ§ãĤ¯ãĥĪãģ¯åĢĭäººãģ®PCãģ§åĭķä½ľãģĻãĤĭçľģãĥ¡ãĥ¢ãĥªãģªAIãĤ¢ãĤ·ãĤ¹ãĤ¿ãĥ³ãĥĪ",
        "ãĤĴçĽ®æĮĩãģĹãģ¦ãģĦãģ¾ãģĻ"
      ],
      [
        "éĸ¢æķ°åŀĭãĥĹãĥŃãĤ°ãĥ©ãĥŁãĥ³ãĤ°ãģ¯åī¯ä½ľçĶ¨ãģ®ãģªãģĦç´Ķç²ĭéĸ¢æķ°ãĤĴçµĦãģ¿åĲĪãĤıãģĽãģ¦ãĥĹãĥŃãĤ°ãĥ©ãĥłãĤĴæ§ĭç¯ī",
        "ãģĹãģ¾ãģĻ"
      ],
      [
        "Rustãģ®æīĢæľīæ¨©ãĤ·ãĤ¹ãĥĨãĥłãģ¯ãĥ¡ãĥ¢ãĥªå®īåħ¨æĢ§ãĤĴãĤ³ãĥ³",
        "ãĥĳãĤ¤ãĥ«æĻĤãģ«ä¿Ŀè¨¼ãģĻãĤĭéĿ©æĸ°çļĦãģªä»ķçµĦãģ¿ãģ§ãģĻ"
      ]
    ]
  }
}