{
  "version": "1.0",
  "truncation": null,
  "padding": null,
  "added_tokens": [
    {
      "id": 0,
      "content": "<s>",
      "single_word": false,
      "lstrip": false,
      "rstrip": false,
      "normalized": false,
      "special": true
    },
    {
      "id": 1,
      "content": "</s>",
      "single_word": false,
      "lstrip": false,
      "rstrip": false,
      "normalized": false,
      "special": true
    },
    {
      "id": 2,
      "content": "<pad>",
      "single_word": false,
      "lstrip": false,
      "rstrip": false,
      "normalized": false,
      "special": true
    },
    {
      "id": 3,
      "content": "<unk>",
      "single_word": false,
      "lstrip": false,
      "rstrip": false,
      "normalized": false,
      "special": true
    },
    {
      "id": 4,
      "content": "<fim_prefix>",
      "single_word": false,
      "lstrip": false,
      "rstrip": false,
      "normalized": false,
      "special": true
    },
    {
      "id": 5,
      "content": "<fim_suffix>",
      "single_word": false,
      "lstrip": false,
      "rstrip": false,
      "normalized": false,
      "special": true
    },
    {
      "id": 6,
      "content": "<fim_middle>",
      "single_word": false,
      "lstrip": false,
      "rstrip": false,
      "normalized": false,
      "special": true
    },
    {
      "id": 7,
      "content": "<tool_call>",
      "single_word": false,
      "lstrip": false,
      "rstrip": false,
      "normalized": false,
      "special": true
    },
    {
      "id": 8,
      "content": "</tool_call>",
      "single_word": false,
      "lstrip": false,
      "rstrip": false,
      "normalized": false,
      "special": true
    },
    {
      "id": 9,
      "content": "<scratchpad>",
      "single_word": false,
      "lstrip": false,
      "rstrip": false,
      "normalized": false,
      "special": true
    },
    {
      "id": 10,
      "content": "</scratchpad>",
      "single_word": false,
      "lstrip": false,
      "rstrip": false,
      "normalized": false,
      "special": true
    }
  ],
  "normalizer": {
    "type": "NFKC"
  },
  "pre_tokenizer": {
    "type": "ByteLevel",
    "add_prefix_space": false,
    "trim_offsets": true,
    "use_regex": true
  },
  "post_processor": {
    "type": "TemplateProcessing",
    "single": [
      {
        "SpecialToken": {
          "id": "<s>",
          "type_id": 0
        }
      },
      {
        "Sequence": {
          "id": "A",
          "type_id": 0
        }
      },
      {
        "SpecialToken": {
          "id": "</s>",
          "type_id": 0
        }
      }
    ],
    "pair": [
      {
        "SpecialToken": {
          "id": "<s>",
          "type_id": 0
        }
      },
      {
        "Sequence": {
          "id": "A",
          "type_id": 0
        }
      },
      {
        "SpecialToken": {
          "id": "</s>",
          "type_id": 0
        }
      },
      {
        "SpecialToken": {
          "id": "<s>",
          "type_id": 0
        }
      },
      {
        "Sequence": {
          "id": "B",
          "type_id": 0
        }
      },
      {
        "SpecialToken": {
          "id": "</s>",
          "type_id": 0
        }
      }
    ],
    "special_tokens": {
      "</s>": {
        "id": "</s>",
        "ids": [
          1
        ],
        "tokens": [
          "</s>"
        ]
      },
      "<s>": {
        "id": "<s>",
        "ids": [
          0
        ],
        "tokens": [
          "<s>"
        ]
      }
    }
  },
  "decoder": {
    "type": "ByteLevel",
    "add_prefix_space": true,
    "trim_offsets": true,
    "use_regex": true
  },
  "model": {
    "type": "BPE",
    "dropout": null,
    "unk_token": "<unk>",
    "continuing_subword_prefix": null,
    "end_of_word_suffix": null,
    "fuse_unk": false,
    "byte_fallback": false,
    "ignore_merges": false,
    "vocab": {
      "<s>": 0,
      "</s>": 1,
      "<pad>": 2,
      "<unk>": 3,
      "<fim_prefix>": 4,
      "<fim_suffix>": 5,
      "<fim_middle>": 6,
      "<tool_call>": 7,
      "</tool_call>": 8,
      "<scratchpad>": 9,
      "</scratchpad>": 10,
      "!": 11,
      "\"": 12,
      "#": 13,
      "$": 14,
      "%": 15,
      "&": 16,
      "'": 17,
      "(": 18,
      ")": 19,
      "*": 20,
      "+": 21,
      ",": 22,
      "-": 23,
      ".": 24,
      "/": 25,
      "0": 26,
      "1": 27,
      "2": 28,
      "3": 29,
      "4": 30,
      "5": 31,
      "6": 32,
      "7": 33,
      "8": 34,
      "9": 35,
      ":": 36,
      ";": 37,
      "<": 38,
      "=": 39,
      ">": 40,
      "?": 41,
      "@": 42,
      "A": 43,
      "B": 44,
      "C": 45,
      "D": 46,
      "E": 47,
      "F": 48,
      "G": 49,
      "H": 50,
      "I": 51,
      "J": 52,
      "K": 53,
      "L": 54,
      "M": 55,
      "N": 56,
      "O": 57,
      "P": 58,
      "Q": 59,
      "R": 60,
      "S": 61,
      "T": 62,
      "U": 63,
      "V": 64,
      "W": 65,
      "X": 66,
      "Y": 67,
      "Z": 68,
      "[": 69,
      "\\": 70,
      "]": 71,
      "^": 72,
      "_": 73,
      "`": 74,
      "a": 75,
      "b": 76,
      "c": 77,
      "d": 78,
      "e": 79,
      "f": 80,
      "g": 81,
      "h": 82,
      "i": 83,
      "j": 84,
      "k": 85,
      "l": 86,
      "m": 87,
      "n": 88,
      "o": 89,
      "p": 90,
      "q": 91,
      "r": 92,
      "s": 93,
      "t": 94,
      "u": 95,
      "v": 96,
      "w": 97,
      "x": 98,
      "y": 99,
      "z": 100,
      "{": 101,
      "|": 102,
      "}": 103,
      "~": 104,
      "¡": 105,
      "¢": 106,
      "£": 107,
      "¤": 108,
      "¥": 109,
      "¦": 110,
      "§": 111,
      "¨": 112,
      "©": 113,
      "ª": 114,
      "«": 115,
      "¬": 116,
      "®": 117,
      "¯": 118,
      "°": 119,
      "±": 120,
      "²": 121,
      "³": 122,
      "´": 123,
      "µ": 124,
      "¶": 125,
      "·": 126,
      "¸": 127,
      "¹": 128,
      "º": 129,
      "»": 130,
      "¼": 131,
      "½": 132,
      "¾": 133,
      "¿": 134,
      "À": 135,
      "Á": 136,
      "Â": 137,
      "Ã": 138,
      "Ä": 139,
      "Å": 140,
      "Æ": 141,
      "Ç": 142,
      "È": 143,
      "É": 144,
      "Ê": 145,
      "Ë": 146,
      "Ì": 147,
      "Í": 148,
      "Î": 149,
      "Ï": 150,
      "Ð": 151,
      "Ñ": 152,
      "Ò": 153,
      "Ó": 154,
      "Ô": 155,
      "Õ": 156,
      "Ö": 157,
      "×": 158,
      "Ø": 159,
      "Ù": 160,
      "Ú": 161,
      "Û": 162,
      "Ü": 163,
      "Ý": 164,
      "Þ": 165,
      "ß": 166,
      "à": 167,
      "á": 168,
      "â": 169,
      "ã": 170,
      "ä": 171,
      "å": 172,
      "æ": 173,
      "ç": 174,
      "è": 175,
      "é": 176,
      "ê": 177,
      "ë": 178,
      "ì": 179,
      "í": 180,
      "î": 181,
      "ï": 182,
      "ð": 183,
      "ñ": 184,
      "ò": 185,
      "ó": 186,
      "ô": 187,
      "õ": 188,
      "ö": 189,
      "÷": 190,
      "ø": 191,
      "ù": 192,
      "ú": 193,
      "û": 194,
      "ü": 195,
      "ý": 196,
      "þ": 197,
      "ÿ": 198,
      "Ā": 199,
      "ā": 200,
      "Ă": 201,
      "ă": 202,
      "Ą": 203,
      "ą": 204,
      "Ć": 205,
      "ć": 206,
      "Ĉ": 207,
      "ĉ": 208,
      "Ċ": 209,
      "ċ": 210,
      "Č": 211,
      "č": 212,
      "Ď": 213,
      "ď": 214,
      "Đ": 215,
      "đ": 216,
      "Ē": 217,
      "ē": 218,
      "Ĕ": 219,
      "ĕ": 220,
      "Ė": 221,
      "ė": 222,
      "Ę": 223,
      "ę": 224,
      "Ě": 225,
      "ě": 226,
      "Ĝ": 227,
      "ĝ": 228,
      "Ğ": 229,
      "ğ": 230,
      "Ġ": 231,
      "ġ": 232,
      "Ģ": 233,
      "ģ": 234,
      "Ĥ": 235,
      "ĥ": 236,
      "Ħ": 237,
      "ħ": 238,
      "Ĩ": 239,
      "ĩ": 240,
      "Ī": 241,
      "ī": 242,
      "Ĭ": 243,
      "ĭ": 244,
      "Į": 245,
      "į": 246,
      "İ": 247,
      "ı": 248,
      "Ĳ": 249,
      "ĳ": 250,
      "Ĵ": 251,
      "ĵ": 252,
      "Ķ": 253,
      "ķ": 254,
      "ĸ": 255,
      "Ĺ": 256,
      "ĺ": 257,
      "Ļ": 258,
      "ļ": 259,
      "Ľ": 260,
      "ľ": 261,
      "Ŀ": 262,
      "ŀ": 263,
      "Ł": 264,
      "ł": 265,
      "Ń": 266,
      "in": 267,
      "ĠĠ": 268,
      "on": 269,
      "Ġ{": 270,
      "st": 271,
      "at": 272,
      "er": 273,
      "or": 274,
      "Ġf": 275,
      "Ġ=": 276,
      "Ġa": 277,
      "ĊĠĠ": 278,
      "ct": 279,
      "en": 280,
      "es": 281,
      "Ġ}": 282,
      "int": 283,
      "it": 284,
      "ĊĠĠĠ": 285,
      "de": 286,
      "Ġr": 287,
      "str": 288,
      "ma": 289,
      "()": 290,
      "ur": 291,
      "Ġp": 292,
      ");": 293,
      "ar": 294,
      "el": 295,
      "et": 296,
      "ent": 297,
      "Ġt": 298,
      "al": 299,
      "Ġv": 300,
      "Ġs": 301,
      "iz": 302,
      "ion": 303,
      "Ġstr": 304,
      "Ġma": 305,
      "cl": 306,
      "ĠN": 307,
      "as": 308,
      "lo": 309,
      "nc": 310,
      "uct": 311,
      "Ġ<": 312,
      "elf": 313,
      "ch": 314,
      "):": 315,
      "ata": 316,
      "ort": 317,
      "le": 318,
      "vo": 319,
      "id": 320,
      "im": 321,
      "Ġ2": 322,
      "Ġn": 323,
      "ing": 324,
      "ize": 325,
      "Ġmain": 326,
      "ac": 327,
      "Ġx": 328,
      "Ġth": 329,
      "ode": 330,
      "Ġas": 331,
      "ĠNode": 332,
      "data": 333,
      "ync": 334,
      "Ġint": 335,
      "def": 336,
      "clas": 337,
      "class": 338,
      "Ġ3": 339,
      "Ġret": 340,
      "urn": 341,
      "Ġpr": 342,
      "Ġreturn": 343,
      "ht": 344,
      "ig": 345,
      "qu": 346,
      "ser": 347,
      "ĠC": 348,
      "void": 349,
      "am": 350,
      "Ġ*": 351,
      "Ġc": 352,
      "Ġstring": 353,
      "io": 354,
      "rr": 355,
      "std": 356,
      "arr": 357,
      "Ġval": 358,
      "::": 359,
      "ex": 360,
      "ect": 361,
      "Ġ1": 362,
      "ess": 363,
      "struct": 364,
      "Ġself": 365,
      "(\"": 366,
      "lt": 367,
      "tp": 368,
      "Ġe": 369,
      "Ġi": 370,
      "Ġin": 371,
      "one": 372,
      "Ġfet": 373,
      "Ġres": 374,
      "url": 375,
      "Ġstruct": 376,
      "imp": 377,
      "http": 378,
      "Ġfetch": 379,
      "an": 380,
      "bon": 381,
      "ci": 382,
      "equ": 383,
      "fu": 384,
      "ge": 385,
      "ibon": 386,
      "js": 387,
      "nct": 388,
      "om": 389,
      "re": 390,
      "us": 391,
      "vent": 392,
      "Ġ\"": 393,
      "Ġ(": 394,
      "ĠO": 395,
      "ĠS": 396,
      "eri": 397,
      "Ġfibon": 398,
      "acci": 399,
      "ame": 400,
      "json": 401,
      "nction": 402,
      "Ġfibonacci": 403,
      "__": 404,
      "len": 405,
      "sort": 406,
      "ude": 407,
      "vect": 408,
      "Ġdef": 409,
      "incl": 410,
      "ĠĠĠ": 411,
      "ĠĠĠĠĠ": 412,
      "Ġarr": 413,
      "ĊĠĠĠĠĠĠĠ": 414,
      "Ġasync": 415,
      "vector": 416,
      "include": 417,
      "\");": 418,
      "Hel": 419,
      "ad": 420,
      "ait": 421,
      "cess": 422,
      "ft": 423,
      "fig": 424,
      "he": 425,
      "ic": 426,
      "ient": 427,
      "ocess": 428,
      "pt": 429,
      "size": 430,
      "tr": 431,
      "ult": 432,
      "wait": 433,
      "};": 434,
      "Ġ0": 435,
      "Ġ4": 436,
      "Ġ5": 437,
      "ĠV": 438,
      "ĠW": 439,
      "Ġb": 440,
      "Ġlo": 441,
      "Ġle": 442,
      "Ġdata": 443,
      "onfig": 444,
      "ate": 445,
      "Ġawait": 446,
      "ith": 447,
      "async": 448,
      "Ġ<=": 449,
      "Ġprint": 450,
      "Ġprocess": 451,
      "ĠConfig": 452,
      "Ġif": 453,
      "Ġresult": 454,
      "import": 455,
      "Hello": 456,
      "\"`": 457,
      ":\"": 458,
      ">(": 459,
      "DE": 460,
      "Pr": 461,
      "Requ": 462,
      "User": 463,
      "age": 464,
      "ec": 465,
      "ew": 466,
      "est": 467,
      "event": 468,
      "git": 469,
      "il": 470,
      "is": 471,
      "ln": 472,
      "lone": 473,
      "mt": 474,
      "mit": 475,
      "pe": 476,
      "tent": 477,
      "ub": 478,
      "unction": 479,
      "ype": 480,
      "Ġ&": 481,
      "Ġ+": 482,
      "Ġ-": 483,
      "ĠB": 484,
      "Ġ`": 485,
      "Ġu": 486,
      "ĠUser": 487,
      "inar": 488,
      "onst": 489,
      "ation": 490,
      "Ġfn": 491,
      "Ġfunction": 492,
      "Ġ=>": 493,
      "mail": 494,
      "ure": 495,
      "alize": 496,
      "imiz": 497,
      "Ġthe": 498,
      "Ġthat": 499,
      "ĠClone": 500,
      "Ġemail": 501,
      "func": 502,
      "ree": 503,
      "ĠSelf": 504,
      "erialize": 505,
      "Request": 506,
      "inary": 507,
      "!\\": 508,
      ")/": 509,
      "**": 510,
      "Cl": 511,
      "Err": 512,
      "Sess": 513,
      "be": 514,
      "ce": 515,
      "eErr": 516,
      "gin": 517,
      "ivo": 518,
      "ksort": 519,
      "ld": 520,
      "ning": 521,
      "ror": 522,
      "rate": 523,
      "self": 524,
      "ueErr": 525,
      "val": 526,
      "with": 527,
      "Ġqu": 528,
      "Ġ__": 529,
      "Ġlen": 530,
      "Ġhe": 531,
      "Ġwith": 532,
      "init": 533,
      "atch": 534,
      "error": 535,
      "orld": 536,
      "Ġflo": 537,
      "Ġaio": 538,
      "end": 539,
      "Ġ};": 540,
      "(),": 541,
      "());": 542,
      "Ġpivo": 543,
      "arning": 544,
      "alueErr": 545,
      "ĠNone": 546,
      "left": 547,
      "Ġnex": 548,
      "dataclass": 549,
      "Ġ32": 550,
      "sert": 551,
      "stdio": 552,
      "exce": 553,
      "Ġinsert": 554,
      "__(": 555,
      "Ġasyncio": 556,
      "icksort": 557,
      "ientSess": 558,
      "try": 559,
      "ĠValueErr": 560,
      "ĠWorld": 561,
      "Ġbatch": 562,
      "Ġlog": 563,
      "Ġlearning": 564,
      "Ġprintf": 565,
      ")//": 566,
      "ClientSess": 567,
      "begin": 568,
      "Ġquicksort": 569,
      "Ġhead": 570,
      "Ġfloat": 571,
      "Ġaiohttp": 572,
      "Ġpivot": 573,
      "Ġnext": 574,
      "except": 575,
      "ĠValueError": 576,
      "ClientSession": 577,
      "![": 578,
      "!(\"": 579,
      "\",": 580,
      "\":": 581,
      "\"}": 582,
      "#[": 583,
      "%@": 584,
      "'%@": 585,
      "))": 586,
      ").": 587,
      ")?": 588,
      ")]": 589,
      ")>(": 590,
      "00": 591,
      "16": 592,
      "==": 593,
      "AX": 594,
      "Ad": 595,
      "Age": 596,
      "CT": 597,
      "Con": 598,
      "De": 599,
      "Des": 600,
      "Data": 601,
      "EL": 602,
      "ER": 603,
      "Event": 604,
      "Emit": 605,
      "ECT": 606,
      "FR": 607,
      "Gr": 608,
      "HT": 609,
      "He": 610,
      "Han": 611,
      "HER": 612,
      "IK": 613,
      "LIK": 614,
      "MAX": 615,
      "OM": 616,
      "Res": 617,
      "RDE": 618,
      "SC": 619,
      "Ser": 620,
      "SEL": 621,
      "TP": 622,
      "The": 623,
      "Type": 624,
      "Wr": 625,
      "].": 626,
      "];": 627,
      "ap": 628,
      "ain": 629,
      "bu": 630,
      "ber": 631,
      "ces": 632,
      "cent": 633,
      "com": 634,
      "const": 635,
      "des": 636,
      "dle": 637,
      "deri": 638,
      "eat": 639,
      "ear": 640,
      "eWr": 641,
      "fi": 642,
      "fn": 643,
      "for": 644,
      "fac": 645,
      "fmt": 646,
      "gor": 647,
      "ian": 648,
      "kage": 649,
      "let": 650,
      "llo": 651,
      "lic": 652,
      "lgor": 653,
      "min": 654,
      "mer": 655,
      "mber": 656,
      "name": 657,
      "new": 658,
      "ok": 659,
      "oo": 660,
      "opt": 661,
      "pp": 662,
      "pon": 663,
      "ple": 664,
      "pac": 665,
      "pub": 666,
      "rd": 667,
      "rch": 668,
      "ran": 669,
      "ss": 670,
      "seWr": 671,
      "sfor": 672,
      "ter": 673,
      "type": 674,
      "umber": 675,
      "ve": 676,
      "ver": 677,
      "var": 678,
      "{\"": 679,
      "{}": 680,
      "Ġ%": 681,
      "Ġ[": 682,
      "Ġon": 683,
      "Ġor": 684,
      "Ġid": 685,
      "Ġhttp": 686,
      "Ġus": 687,
      "ĠDE": 688,
      "ĠPr": 689,
      "Ġgit": 690,
      "Ġ'%@": 691,
      "ĠAge": 692,
      "ĠDes": 693,
      "ĠEvent": 694,
      "ĠFR": 695,
      "ĠHan": 696,
      "ĠLIK": 697,
      "ĠMAX": 698,
      "Ġdes": 699,
      "Ġlet": 700,
      "Ġmin": 701,
      "Ġopt": 702,
      "ine": 703,
      "onstruct": 704,
      "Ġ{};": 705,
      "stat": 706,
      "attent": 707,
      "erfac": 708,
      "Ġfor": 709,
      "Ġfmt": 710,
      "Ġfree": 711,
      "Ġfeat": 712,
      "Ġ===": 713,
      "Ġan": 714,
      "Ġalgor": 715,
      "Ġapp": 716,
      "Ġarch": 717,
      "ences": 718,
      "intln": 719,
      "intain": 720,
      "interfac": 721,
      "iter": 722,
      "itect": 723,
      "Ġrig": 724,
      "Ġroo": 725,
      "map": 726,
      "Ġport": 727,
      "Ġpus": 728,
      "Ġptr": 729,
      "Ġpub": 730,
      "Ġto": 731,
      "Ġtree": 732,
      "Ġtran": 733,
      "Ġvec": 734,
      "Ġsize": 735,
      "Ġsequ": 736,
      "Ġsear": 737,
      "Ġmallo": 738,
      "Ġmaintain": 739,
      "ĠName": 740,
      "):(": 741,
      "Ġ200": 742,
      "Ġname": 743,
      "Ġnew": 744,
      "Ġnumber": 745,
      "Ġthis": 746,
      "define": 747,
      "igin": 748,
      "sers": 749,
      "ample": 750,
      "Ġcom": 751,
      "Ġcre": 752,
      "Ġconst": 753,
      "Ġconstruct": 754,
      "example": 755,
      "lter": 756,
      "Ġis": 757,
      "Ġinvar": 758,
      "impl": 759,
      "ĠfetchData": 760,
      "function": 761,
      "omis": 762,
      "Ġ((": 763,
      "ĠOK": 764,
      "ĠORDE": 765,
      "ĠOrd": 766,
      "ĠSerialize": 767,
      "adient": 768,
      "ĠVec": 769,
      "ĠWHER": 770,
      "Ġbinary": 771,
      "Ġloss": 772,
      "Ġleft": 773,
      "ated": 774,
      "ithm": 775,
      "Ġprintln": 776,
      "\"`;": 777,
      "Println": 778,
      "events": 779,
      "Ġ&&": 780,
      "Ġ->": 781,
      "ĠBY": 782,
      "ĠBinary": 783,
      "Ġusers": 784,
      "imizes": 785,
      "imization": 786,
      "!(\"{}": 787,
      ")?(": 788,
      "Add": 789,
      "Content": 790,
      "Debu": 791,
      "Emitter": 792,
      "Gradient": 793,
      "HTTP": 794,
      "Heap": 795,
      "Respon": 796,
      "Server": 797,
      "SELECT": 798,
      "dleRequest": 799,
      "derive": 800,
      "filter": 801,
      "iant": 802,
      "lication": 803,
      "package": 804,
      "seWriter": 805,
      "sformer": 806,
      "Ġorigin": 807,
      "Ġuses": 808,
      "ĠDESC": 809,
      "ĠPromis": 810,
      "ĠDeserialize": 811,
      "ĠEventEmitter": 812,
      "ĠFROM": 813,
      "ĠHandleRequest": 814,
      "ĠLIKE": 815,
      "Ġdescent": 816,
      "Ġminimizes": 817,
      "Ġoptimization": 818,
      "status": 819,
      "attention": 820,
      "Ġfeature": 821,
      "Ġalgorithm": 822,
      "Ġapplication": 823,
      "Ġarchitect": 824,
      "interface": 825,
      "Ġright": 826,
      "Ġroot": 827,
      "Ġpush": 828,
      "Ġtransformer": 829,
      "Ġsequences": 830,
      "Ġsearch": 831,
      "Ġmalloc": 832,
      "Ġmaintains": 833,
      "Ġcommit": 834,
      "Ġcreated": 835,
      "Ġconstructor": 836,
      "Ġinvariant": 837,
      "ĠORDER": 838,
      "ĠWHERE": 839,
      "ĠBinaryHeap": 840,
      "!(\"{}\",": 841,
      "Debug": 842,
      "ResponseWriter": 843,
      "ĠPromise": 844,
      "Ġarchitecture": 845
    },
    "merges": [
      [
        "i",
        "n"
      ],
      [
        "Ġ",
        "Ġ"
      ],
      [
        "o",
        "n"
      ],
      [
        "Ġ",
        "{"
      ],
      [
        "s",
        "t"
      ],
      [
        "a",
        "t"
      ],
      [
        "e",
        "r"
      ],
      [
        "o",
        "r"
      ],
      [
        "Ġ",
        "f"
      ],
      [
        "Ġ",
        "="
      ],
      [
        "Ġ",
        "a"
      ],
      [
        "Ċ",
        "ĠĠ"
      ],
      [
        "c",
        "t"
      ],
      [
        "e",
        "n"
      ],
      [
        "e",
        "s"
      ],
      [
        "Ġ",
        "}"
      ],
      [
        "in",
        "t"
      ],
      [
        "i",
        "t"
      ],
      [
        "ĊĠĠ",
        "Ġ"
      ],
      [
        "d",
        "e"
      ],
      [
        "Ġ",
        "r"
      ],
      [
        "st",
        "r"
      ],
      [
        "m",
        "a"
      ],
      [
        "(",
        ")"
      ],
      [
        "u",
        "r"
      ],
      [
        "Ġ",
        "p"
      ],
      [
        ")",
        ";"
      ],
      [
        "a",
        "r"
      ],
      [
        "e",
        "l"
      ],
      [
        "e",
        "t"
      ],
      [
        "en",
        "t"
      ],
      [
        "Ġ",
        "t"
      ],
      [
        "a",
        "l"
      ],
      [
        "Ġ",
        "v"
      ],
      [
        "Ġ",
        "s"
      ],
      [
        "i",
        "z"
      ],
      [
        "i",
        "on"
      ],
      [
        "Ġ",
        "str"
      ],
      [
        "Ġ",
        "ma"
      ],
      [
        "c",
        "l"
      ],
      [
        "Ġ",
        "N"
      ],
      [
        "a",
        "s"
      ],
      [
        "l",
        "o"
      ],
      [
        "n",
        "c"
      ],
      [
        "u",
        "ct"
      ],
      [
        "Ġ",
        "<"
      ],
      [
        "el",
        "f"
      ],
      [
        "c",
        "h"
      ],
      [
        ")",
        ":"
      ],
      [
        "at",
        "a"
      ],
      [
        "or",
        "t"
      ],
      [
        "l",
        "e"
      ],
      [
        "v",
        "o"
      ],
      [
        "i",
        "d"
      ],
      [
        "i",
        "m"
      ],
      [
        "Ġ",
        "2"
      ],
      [
        "Ġ",
        "n"
      ],
      [
        "in",
        "g"
      ],
      [
        "iz",
        "e"
      ],
      [
        "Ġma",
        "in"
      ],
      [
        "a",
        "c"
      ],
      [
        "Ġ",
        "x"
      ],
      [
        "Ġt",
        "h"
      ],
      [
        "o",
        "de"
      ],
      [
        "Ġa",
        "s"
      ],
      [
        "ĠN",
        "ode"
      ],
      [
        "d",
        "ata"
      ],
      [
        "y",
        "nc"
      ],
      [
        "Ġ",
        "int"
      ],
      [
        "de",
        "f"
      ],
      [
        "cl",
        "as"
      ],
      [
        "clas",
        "s"
      ],
      [
        "Ġ",
        "3"
      ],
      [
        "Ġr",
        "et"
      ],
      [
        "ur",
        "n"
      ],
      [
        "Ġp",
        "r"
      ],
      [
        "Ġret",
        "urn"
      ],
      [
        "h",
        "t"
      ],
      [
        "i",
        "g"
      ],
      [
        "q",
        "u"
      ],
      [
        "s",
        "er"
      ],
      [
        "Ġ",
        "C"
      ],
      [
        "vo",
        "id"
      ],
      [
        "a",
        "m"
      ],
      [
        "Ġ",
        "*"
      ],
      [
        "Ġ",
        "c"
      ],
      [
        "Ġstr",
        "ing"
      ],
      [
        "i",
        "o"
      ],
      [
        "r",
        "r"
      ],
      [
        "st",
        "d"
      ],
      [
        "ar",
        "r"
      ],
      [
        "Ġv",
        "al"
      ],
      [
        ":",
        ":"
      ],
      [
        "e",
        "x"
      ],
      [
        "e",
        "ct"
      ],
      [
        "Ġ",
        "1"
      ],
      [
        "es",
        "s"
      ],
      [
        "str",
        "uct"
      ],
      [
        "Ġs",
        "elf"
      ],
      [
        "(",
        "\""
      ],
      [
        "l",
        "t"
      ],
      [
        "t",
        "p"
      ],
      [
        "Ġ",
        "e"
      ],
      [
        "Ġ",
        "i"
      ],
      [
        "Ġ",
        "in"
      ],
      [
        "on",
        "e"
      ],
      [
        "Ġf",
        "et"
      ],
      [
        "Ġr",
        "es"
      ],
      [
        "ur",
        "l"
      ],
      [
        "Ġstr",
        "uct"
      ],
      [
        "im",
        "p"
      ],
      [
        "ht",
        "tp"
      ],
      [
        "Ġfet",
        "ch"
      ],
      [
        "a",
        "n"
      ],
      [
        "b",
        "on"
      ],
      [
        "c",
        "i"
      ],
      [
        "e",
        "qu"
      ],
      [
        "f",
        "u"
      ],
      [
        "g",
        "e"
      ],
      [
        "i",
        "bon"
      ],
      [
        "j",
        "s"
      ],
      [
        "n",
        "ct"
      ],
      [
        "o",
        "m"
      ],
      [
        "r",
        "e"
      ],
      [
        "u",
        "s"
      ],
      [
        "v",
        "ent"
      ],
      [
        "Ġ",
        "\""
      ],
      [
        "Ġ",
        "("
      ],
      [
        "Ġ",
        "O"
      ],
      [
        "Ġ",
        "S"
      ],
      [
        "er",
        "i"
      ],
      [
        "Ġf",
        "ibon"
      ],
      [
        "ac",
        "ci"
      ],
      [
        "am",
        "e"
      ],
      [
        "js",
        "on"
      ],
      [
        "nct",
        "ion"
      ],
      [
        "Ġfibon",
        "acci"
      ],
      [
        "_",
        "_"
      ],
      [
        "l",
        "en"
      ],
      [
        "s",
        "ort"
      ],
      [
        "u",
        "de"
      ],
      [
        "v",
        "ect"
      ],
      [
        "Ġ",
        "def"
      ],
      [
        "in",
        "cl"
      ],
      [
        "ĠĠ",
        "Ġ"
      ],
      [
        "ĠĠ",
        "ĠĠĠ"
      ],
      [
        "Ġa",
        "rr"
      ],
      [
        "ĊĠĠ",
        "ĠĠĠĠĠ"
      ],
      [
        "Ġas",
        "ync"
      ],
      [
        "vect",
        "or"
      ],
      [
        "incl",
        "ude"
      ],
      [
        "\"",
        ");"
      ],
      [
        "H",
        "el"
      ],
      [
        "a",
        "d"
      ],
      [
        "a",
        "it"
      ],
      [
        "c",
        "ess"
      ],
      [
        "f",
        "t"
      ],
      [
        "f",
        "ig"
      ],
      [
        "h",
        "e"
      ],
      [
        "i",
        "c"
      ],
      [
        "i",
        "ent"
      ],
      [
        "o",
        "cess"
      ],
      [
        "p",
        "t"
      ],
      [
        "s",
        "ize"
      ],
      [
        "t",
        "r"
      ],
      [
        "u",
        "lt"
      ],
      [
        "w",
        "ait"
      ],
      [
        "}",
        ";"
      ],
      [
        "Ġ",
        "0"
      ],
      [
        "Ġ",
        "4"
      ],
      [
        "Ġ",
        "5"
      ],
      [
        "Ġ",
        "V"
      ],
      [
        "Ġ",
        "W"
      ],
      [
        "Ġ",
        "b"
      ],
      [
        "Ġ",
        "lo"
      ],
      [
        "Ġ",
        "le"
      ],
      [
        "Ġ",
        "data"
      ],
      [
        "on",
        "fig"
      ],
      [
        "at",
        "e"
      ],
      [
        "Ġa",
        "wait"
      ],
      [
        "it",
        "h"
      ],
      [
        "as",
        "ync"
      ],
      [
        "Ġ<",
        "="
      ],
      [
        "Ġpr",
        "int"
      ],
      [
        "Ġpr",
        "ocess"
      ],
      [
        "ĠC",
        "onfig"
      ],
      [
        "Ġi",
        "f"
      ],
      [
        "Ġres",
        "ult"
      ],
      [
        "imp",
        "ort"
      ],
      [
        "Hel",
        "lo"
      ],
      [
        "\"",
        "`"
      ],
      [
        ":",
        "\""
      ],
      [
        ">",
        "("
      ],
      [
        "D",
        "E"
      ],
      [
        "P",
        "r"
      ],
      [
        "R",
        "equ"
      ],
      [
        "U",
        "ser"
      ],
      [
        "a",
        "ge"
      ],
      [
        "e",
        "c"
      ],
      [
        "e",
        "w"
      ],
      [
        "e",
        "st"
      ],
      [
        "e",
        "vent"
      ],
      [
        "g",
        "it"
      ],
      [
        "i",
        "l"
      ],
      [
        "i",
        "s"
      ],
      [
        "l",
        "n"
      ],
      [
        "l",
        "one"
      ],
      [
        "m",
        "t"
      ],
      [
        "m",
        "it"
      ],
      [
        "p",
        "e"
      ],
      [
        "t",
        "ent"
      ],
      [
        "u",
        "b"
      ],
      [
        "u",
        "nction"
      ],
      [
        "y",
        "pe"
      ],
      [
        "Ġ",
        "&"
      ],
      [
        "Ġ",
        "+"
      ],
      [
        "Ġ",
        "-"
      ],
      [
        "Ġ",
        "B"
      ],
      [
        "Ġ",
        "`"
      ],
      [
        "Ġ",
        "u"
      ],
      [
        "Ġ",
        "User"
      ],
      [
        "in",
        "ar"
      ],
      [
        "on",
        "st"
      ],
      [
        "at",
        "ion"
      ],
      [
        "Ġf",
        "n"
      ],
      [
        "Ġf",
        "unction"
      ],
      [
        "Ġ=",
        ">"
      ],
      [
        "ma",
        "il"
      ],
      [
        "ur",
        "e"
      ],
      [
        "al",
        "ize"
      ],
      [
        "im",
        "iz"
      ],
      [
        "Ġth",
        "e"
      ],
      [
        "Ġth",
        "at"
      ],
      [
        "ĠC",
        "lone"
      ],
      [
        "Ġe",
        "mail"
      ],
      [
        "fu",
        "nc"
      ],
      [
        "re",
        "e"
      ],
      [
        "ĠS",
        "elf"
      ],
      [
        "eri",
        "alize"
      ],
      [
        "Requ",
        "est"
      ],
      [
        "inar",
        "y"
      ],
      [
        "!",
        "\\"
      ],
      [
        ")",
        "/"
      ],
      [
        "*",
        "*"
      ],
      [
        "C",
        "l"
      ],
      [
        "E",
        "rr"
      ],
      [
        "S",
        "ess"
      ],
      [
        "b",
        "e"
      ],
      [
        "c",
        "e"
      ],
      [
        "e",
        "Err"
      ],
      [
        "g",
        "in"
      ],
      [
        "i",
        "vo"
      ],
      [
        "k",
        "sort"
      ],
      [
        "l",
        "d"
      ],
      [
        "n",
        "ing"
      ],
      [
        "r",
        "or"
      ],
      [
        "r",
        "ate"
      ],
      [
        "s",
        "elf"
      ],
      [
        "u",
        "eErr"
      ],
      [
        "v",
        "al"
      ],
      [
        "w",
        "ith"
      ],
      [
        "Ġ",
        "qu"
      ],
      [
        "Ġ",
        "__"
      ],
      [
        "Ġ",
        "len"
      ],
      [
        "Ġ",
        "he"
      ],
      [
        "Ġ",
        "with"
      ],
      [
        "in",
        "it"
      ],
      [
        "at",
        "ch"
      ],
      [
        "er",
        "ror"
      ],
      [
        "or",
        "ld"
      ],
      [
        "Ġf",
        "lo"
      ],
      [
        "Ġa",
        "io"
      ],
      [
        "en",
        "d"
      ],
      [
        "Ġ}",
        ";"
      ],
      [
        "()",
        ","
      ],
      [
        "()",
        ");"
      ],
      [
        "Ġp",
        "ivo"
      ],
      [
        "ar",
        "ning"
      ],
      [
        "al",
        "ueErr"
      ],
      [
        "ĠN",
        "one"
      ],
      [
        "le",
        "ft"
      ],
      [
        "Ġn",
        "ex"
      ],
      [
        "data",
        "class"
      ],
      [
        "Ġ3",
        "2"
      ],
      [
        "ser",
        "t"
      ],
      [
        "std",
        "io"
      ],
      [
        "ex",
        "ce"
      ],
      [
        "Ġin",
        "sert"
      ],
      [
        "__",
        "("
      ],
      [
        "Ġasync",
        "io"
      ],
      [
        "ic",
        "ksort"
      ],
      [
        "ient",
        "Sess"
      ],
      [
        "tr",
        "y"
      ],
      [
        "ĠV",
        "alueErr"
      ],
      [
        "ĠW",
        "orld"
      ],
      [
        "Ġb",
        "atch"
      ],
      [
        "Ġlo",
        "g"
      ],
      [
        "Ġle",
        "arning"
      ],
      [
        "Ġprint",
        "f"
      ],
      [
        ")/",
        "/"
      ],
      [
        "Cl",
        "ientSess"
      ],
      [
        "be",
        "gin"
      ],
      [
        "Ġqu",
        "icksort"
      ],
      [
        "Ġhe",
        "ad"
      ],
      [
        "Ġflo",
        "at"
      ],
      [
        "Ġaio",
        "http"
      ],
      [
        "Ġpivo",
        "t"
      ],
      [
        "Ġnex",
        "t"
      ],
      [
        "exce",
        "pt"
      ],
      [
        "ĠValueErr",
        "or"
      ],
      [
        "ClientSess",
        "ion"
      ],
      [
        "!",
        "["
      ],
      [
        "!",
        "(\""
      ],
      [
        "\"",
        ","
      ],
      [
        "\"",
        ":"
      ],
      [
        "\"",
        "}"
      ],
      [
        "#",
        "["
      ],
      [
        "%",
        "@"
      ],
      [
        "'",
        "%@"
      ],
      [
        ")",
        ")"
      ],
      [
        ")",
        "."
      ],
      [
        ")",
        "?"
      ],
      [
        ")",
        "]"
      ],
      [
        ")",
        ">("
      ],
      [
        "0",
        "0"
      ],
      [
        "1",
        "6"
      ],
      [
        "=",
        "="
      ],
      [
        "A",
        "X"
      ],
      [
        "A",
        "d"
      ],
      [
        "A",
        "ge"
      ],
      [
        "C",
        "T"
      ],
      [
        "C",
        "on"
      ],
      [
        "D",
        "e"
      ],
      [
        "D",
        "es"
      ],
      [
        "D",
        "ata"
      ],
      [
        "E",
        "L"
      ],
      [
        "E",
        "R"
      ],
      [
        "E",
        "vent"
      ],
      [
        "E",
        "mit"
      ],
      [
        "E",
        "CT"
      ],
      [
        "F",
        "R"
      ],
      [
        "G",
        "r"
      ],
      [
        "H",
        "T"
      ],
      [
        "H",
        "e"
      ],
      [
        "H",
        "an"
      ],
      [
        "H",
        "ER"
      ],
      [
        "I",
        "K"
      ],
      [
        "L",
        "IK"
      ],
      [
        "M",
        "AX"
      ],
      [
        "O",
        "M"
      ],
      [
        "R",
        "es"
      ],
      [
        "R",
        "DE"
      ],
      [
        "S",
        "C"
      ],
      [
        "S",
        "er"
      ],
      [
        "S",
        "EL"
      ],
      [
        "T",
        "P"
      ],
      [
        "T",
        "he"
      ],
      [
        "T",
        "ype"
      ],
      [
        "W",
        "r"
      ],
      [
        "]",
        "."
      ],
      [
        "]",
        ";"
      ],
      [
        "a",
        "p"
      ],
      [
        "a",
        "in"
      ],
      [
        "b",
        "u"
      ],
      [
        "b",
        "er"
      ],
      [
        "c",
        "es"
      ],
      [
        "c",
        "ent"
      ],
      [
        "c",
        "om"
      ],
      [
        "c",
        "onst"
      ],
      [
        "d",
        "es"
      ],
      [
        "d",
        "le"
      ],
      [
        "d",
        "eri"
      ],
      [
        "e",
        "at"
      ],
      [
        "e",
        "ar"
      ],
      [
        "e",
        "Wr"
      ],
      [
        "f",
        "i"
      ],
      [
        "f",
        "n"
      ],
      [
        "f",
        "or"
      ],
      [
        "f",
        "ac"
      ],
      [
        "f",
        "mt"
      ],
      [
        "g",
        "or"
      ],
      [
        "i",
        "an"
      ],
      [
        "k",
        "age"
      ],
      [
        "l",
        "et"
      ],
      [
        "l",
        "lo"
      ],
      [
        "l",
        "ic"
      ],
      [
        "l",
        "gor"
      ],
      [
        "m",
        "in"
      ],
      [
        "m",
        "er"
      ],
      [
        "m",
        "ber"
      ],
      [
        "n",
        "ame"
      ],
      [
        "n",
        "ew"
      ],
      [
        "o",
        "k"
      ],
      [
        "o",
        "o"
      ],
      [
        "o",
        "pt"
      ],
      [
        "p",
        "p"
      ],
      [
        "p",
        "on"
      ],
      [
        "p",
        "le"
      ],
      [
        "p",
        "ac"
      ],
      [
        "p",
        "ub"
      ],
      [
        "r",
        "d"
      ],
      [
        "r",
        "ch"
      ],
      [
        "r",
        "an"
      ],
      [
        "s",
        "s"
      ],
      [
        "s",
        "eWr"
      ],
      [
        "s",
        "for"
      ],
      [
        "t",
        "er"
      ],
      [
        "t",
        "ype"
      ],
      [
        "u",
        "mber"
      ],
      [
        "v",
        "e"
      ],
      [
        "v",
        "er"
      ],
      [
        "v",
        "ar"
      ],
      [
        "{",
        "\""
      ],
      [
        "{",
        "}"
      ],
      [
        "Ġ",
        "%"
      ],
      [
        "Ġ",
        "["
      ],
      [
        "Ġ",
        "on"
      ],
      [
        "Ġ",
        "or"
      ],
      [
        "Ġ",
        "id"
      ],
      [
        "Ġ",
        "http"
      ],
      [
        "Ġ",
        "us"
      ],
      [
        "Ġ",
        "DE"
      ],
      [
        "Ġ",
        "Pr"
      ],
      [
        "Ġ",
        "git"
      ],
      [
        "Ġ",
        "'%@"
      ],
      [
        "Ġ",
        "Age"
      ],
      [
        "Ġ",
        "Des"
      ],
      [
        "Ġ",
        "Event"
      ],
      [
        "Ġ",
        "FR"
      ],
      [
        "Ġ",
        "Han"
      ],
      [
        "Ġ",
        "LIK"
      ],
      [
        "Ġ",
        "MAX"
      ],
      [
        "Ġ",
        "des"
      ],
      [
        "Ġ",
        "let"
      ],
      [
        "Ġ",
        "min"
      ],
      [
        "Ġ",
        "opt"
      ],
      [
        "in",
        "e"
      ],
      [
        "on",
        "struct"
      ],
      [
        "Ġ{",
        "};"
      ],
      [
        "st",
        "at"
      ],
      [
        "at",
        "tent"
      ],
      [
        "er",
        "fac"
      ],
      [
        "Ġf",
        "or"
      ],
      [
        "Ġf",
        "mt"
      ],
      [
        "Ġf",
        "ree"
      ],
      [
        "Ġf",
        "eat"
      ],
      [
        "Ġ=",
        "=="
      ],
      [
        "Ġa",
        "n"
      ],
      [
        "Ġa",
        "lgor"
      ],
      [
        "Ġa",
        "pp"
      ],
      [
        "Ġa",
        "rch"
      ],
      [
        "en",
        "ces"
      ],
      [
        "int",
        "ln"
      ],
      [
        "int",
        "ain"
      ],
      [
        "int",
        "erfac"
      ],
      [
        "it",
        "er"
      ],
      [
        "it",
        "ect"
      ],
      [
        "Ġr",
        "ig"
      ],
      [
        "Ġr",
        "oo"
      ],
      [
        "ma",
        "p"
      ],
      [
        "Ġp",
        "ort"
      ],
      [
        "Ġp",
        "us"
      ],
      [
        "Ġp",
        "tr"
      ],
      [
        "Ġp",
        "ub"
      ],
      [
        "Ġt",
        "o"
      ],
      [
        "Ġt",
        "ree"
      ],
      [
        "Ġt",
        "ran"
      ],
      [
        "Ġv",
        "ec"
      ],
      [
        "Ġs",
        "ize"
      ],
      [
        "Ġs",
        "equ"
      ],
      [
        "Ġs",
        "ear"
      ],
      [
        "Ġma",
        "llo"
      ],
      [
        "Ġma",
        "intain"
      ],
      [
        "ĠN",
        "ame"
      ],
      [
        "):",
        "("
      ],
      [
        "Ġ2",
        "00"
      ],
      [
        "Ġn",
        "ame"
      ],
      [
        "Ġn",
        "ew"
      ],
      [
        "Ġn",
        "umber"
      ],
      [
        "Ġth",
        "is"
      ],
      [
        "def",
        "ine"
      ],
      [
        "ig",
        "in"
      ],
      [
        "ser",
        "s"
      ],
      [
        "am",
        "ple"
      ],
      [
        "Ġc",
        "om"
      ],
      [
        "Ġc",
        "re"
      ],
      [
        "Ġc",
        "onst"
      ],
      [
        "Ġc",
        "onstruct"
      ],
      [
        "ex",
        "ample"
      ],
      [
        "lt",
        "er"
      ],
      [
        "Ġi",
        "s"
      ],
      [
        "Ġin",
        "var"
      ],
      [
        "imp",
        "l"
      ],
      [
        "Ġfetch",
        "Data"
      ],
      [
        "fu",
        "nction"
      ],
      [
        "om",
        "is"
      ],
      [
        "Ġ(",
        "("
      ],
      [
        "ĠO",
        "K"
      ],
      [
        "ĠO",
        "RDE"
      ],
      [
        "ĠO",
        "rd"
      ],
      [
        "ĠS",
        "erialize"
      ],
      [
        "ad",
        "ient"
      ],
      [
        "ĠV",
        "ec"
      ],
      [
        "ĠW",
        "HER"
      ],
      [
        "Ġb",
        "inary"
      ],
      [
        "Ġlo",
        "ss"
      ],
      [
        "Ġle",
        "ft"
      ],
      [
        "ate",
        "d"
      ],
      [
        "ith",
        "m"
      ],
      [
        "Ġprint",
        "ln"
      ],
      [
        "\"`",
        ";"
      ],
      [
        "Pr",
        "intln"
      ],
      [
        "event",
        "s"
      ],
      [
        "Ġ&",
        "&"
      ],
      [
        "Ġ-",
        ">"
      ],
      [
        "ĠB",
        "Y"
      ],
      [
        "ĠB",
        "inary"
      ],
      [
        "Ġu",
        "sers"
      ],
      [
        "imiz",
        "es"
      ],
      [
        "imiz",
        "ation"
      ],
      [
        "!(\"",
        "{}"
      ],
      [
        ")?",
        "("
      ],
      [
        "Ad",
        "d"
      ],
      [
        "Con",
        "tent"
      ],
      [
        "De",
        "bu"
      ],
      [
        "Emit",
        "ter"
      ],
      [
        "Gr",
        "adient"
      ],
      [
        "HT",
        "TP"
      ],
      [
        "He",
        "ap"
      ],
      [
        "Res",
        "pon"
      ],
      [
        "Ser",
        "ver"
      ],
      [
        "SEL",
        "ECT"
      ],
      [
        "dle",
        "Request"
      ],
      [
        "deri",
        "ve"
      ],
      [
        "fi",
        "lter"
      ],
      [
        "ian",
        "t"
      ],
      [
        "lic",
        "ation"
      ],
      [
        "pac",
        "kage"
      ],
      [
        "seWr",
        "iter"
      ],
      [
        "sfor",
        "mer"
      ],
      [
        "Ġor",
        "igin"
      ],
      [
        "Ġus",
        "es"
      ],
      [
        "ĠDE",
        "SC"
      ],
      [
        "ĠPr",
        "omis"
      ],
      [
        "ĠDes",
        "erialize"
      ],
      [
        "ĠEvent",
        "Emitter"
      ],
      [
        "ĠFR",
        "OM"
      ],
      [
        "ĠHan",
        "dleRequest"
      ],
      [
        "ĠLIK",
        "E"
      ],
      [
        "Ġdes",
        "cent"
      ],
      [
        "Ġmin",
        "imizes"
      ],
      [
        "Ġopt",
        "imization"
      ],
      [
        "stat",
        "us"
      ],
      [
        "attent",
        "ion"
      ],
      [
        "Ġfeat",
        "ure"
      ],
      [
        "Ġalgor",
        "ithm"
      ],
      [
        "Ġapp",
        "lication"
      ],
      [
        "Ġarch",
        "itect"
      ],
      [
        "interfac",
        "e"
      ],
      [
        "Ġrig",
        "ht"
      ],
      [
        "Ġroo",
        "t"
      ],
      [
        "Ġpus",
        "h"
      ],
      [
        "Ġtran",
        "sformer"
      ],
      [
        "Ġsequ",
        "ences"
      ],
      [
        "Ġsear",
        "ch"
      ],
      [
        "Ġmallo",
        "c"
      ],
      [
        "Ġmaintain",
        "s"
      ],
      [
        "Ġcom",
        "mit"
      ],
      [
        "Ġcre",
        "ated"
      ],
      [
        "Ġconstruct",
        "or"
      ],
      [
        "Ġinvar",
        "iant"
      ],
      [
        "ĠORDE",
        "R"
      ],
      [
        "ĠWHER",
        "E"
      ],
      [
        "ĠBinary",
        "Heap"
      ],
      [
        "!(\"{}",
        "\","
      ],
      [
        "Debu",
        "g"
      ],
      [
        "Respon",
        "seWriter"
      ],
      [
        "ĠPromis",
        "e"
      ],
      [
        "Ġarchitect",
        "ure"
      ]
    ]
  }
}