{
  "version": "1.0",
  "truncation": null,
  "padding": null,
  "added_tokens": [
    {
      "id": 0,
      "content": "<s>",
      "single_word": false,
      "lstrip": false,
      "rstrip": false,
      "normalized": false,
      "special": true
    },
    {
      "id": 1,
      "content": "</s>",
      "single_word": false,
      "lstrip": false,
      "rstrip": false,
      "normalized": false,
      "special": true
    },
    {
      "id": 2,
      "content": "<pad>",
      "single_word": false,
      "lstrip": false,
      "rstrip": false,
      "normalized": false,
      "special": true
    },
    {
      "id": 3,
      "content": "<unk>",
      "single_word": false,
      "lstrip": false,
      "rstrip": false,
      "normalized": false,
      "special": true
    },
    {
      "id": 4,
      "content": "<fim_prefix>",
      "single_word": false,
      "lstrip": false,
      "rstrip": false,
      "normalized": false,
      "special": true
    },
    {
      "id": 5,
      "content": "<fim_suffix>",
      "single_word": false,
      "lstrip": false,
      "rstrip": false,
      "normalized": false,
      "special": true
    },
    {
      "id": 6,
      "content": "<fim_middle>",
      "single_word": false,
      "lstrip": false,
      "rstrip": false,
      "normalized": false,
      "special": true
    },
    {
      "id": 7,
      "content": "<fim_hole>",
      "single_word": false,
      "lstrip": false,
      "rstrip": false,
      "normalized": false,
      "special": true
    },
    {
      "id": 8,
      "content": "<fim_pad>",
      "single_word": false,
      "lstrip": false,
      "rstrip": false,
      "normalized": false,
      "special": true
    },
    {
      "id": 9,
      "content": "<repo_name>",
      "single_word": false,
      "lstrip": false,
      "rstrip": false,
      "normalized": false,
      "special": true
    },
    {
      "id": 10,
      "content": "<file_sep>",
      "single_word": false,
      "lstrip": false,
      "rstrip": false,
      "normalized": false,
      "special": true
    },
    {
      "id": 11,
      "content": "<file_path>",
      "single_word": false,
      "lstrip": false,
      "rstrip": false,
      "normalized": false,
      "special": true
    },
    {
      "id": 12,
      "content": "<tool_call>",
      "single_word": false,
      "lstrip": false,
      "rstrip": false,
      "normalized": false,
      "special": true
    },
    {
      "id": 13,
      "content": "</tool_call>",
      "single_word": false,
      "lstrip": false,
      "rstrip": false,
      "normalized": false,
      "special": true
    },
    {
      "id": 14,
      "content": "<tool_response>",
      "single_word": false,
      "lstrip": false,
      "rstrip": false,
      "normalized": false,
      "special": true
    },
    {
      "id": 15,
      "content": "</tool_response>",
      "single_word": false,
      "lstrip": false,
      "rstrip": false,
      "normalized": false,
      "special": true
    },
    {
      "id": 16,
      "content": "<scratchpad>",
      "single_word": false,
      "lstrip": false,
      "rstrip": false,
      "normalized": false,
      "special": true
    },
    {
      "id": 17,
      "content": "</scratchpad>",
      "single_word": false,
      "lstrip": false,
      "rstrip": false,
      "normalized": false,
      "special": true
    },
    {
      "id": 18,
      "content": "<|system|>",
      "single_word": false,
      "lstrip": false,
      "rstrip": false,
      "normalized": false,
      "special": true
    },
    {
      "id": 19,
      "content": "<|user|>",
      "single_word": false,
      "lstrip": false,
      "rstrip": false,
      "normalized": false,
      "special": true
    },
    {
      "id": 20,
      "content": "<|assistant|>",
      "single_word": false,
      "lstrip": false,
      "rstrip": false,
      "normalized": false,
      "special": true
    }
  ],
  "normalizer": {
    "type": "NFKC"
  },
  "pre_tokenizer": {
    "type": "ByteLevel",
    "add_prefix_space": false,
    "trim_offsets": true,
    "use_regex": true
  },
  "post_processor": {
    "type": "TemplateProcessing",
    "single": [
      {
        "SpecialToken": {
          "id": "<s>",
          "type_id": 0
        }
      },
      {
        "Sequence": {
          "id": "A",
          "type_id": 0
        }
      },
      {
        "SpecialToken": {
          "id": "</s>",
          "type_id": 0
        }
      }
    ],
    "pair": [
      {
        "SpecialToken": {
          "id": "<s>",
          "type_id": 0
        }
      },
      {
        "Sequence": {
          "id": "A",
          "type_id": 0
        }
      },
      {
        "SpecialToken": {
          "id": "</s>",
          "type_id": 0
        }
      },
      {
        "SpecialToken": {
          "id": "<s>",
          "type_id": 0
        }
      },
      {
        "Sequence": {
          "id": "B",
          "type_id": 0
        }
      },
      {
        "SpecialToken": {
          "id": "</s>",
          "type_id": 0
        }
      }
    ],
    "special_tokens": {
      "</s>": {
        "id": "</s>",
        "ids": [
          1
        ],
        "tokens": [
          "</s>"
        ]
      },
      "<s>": {
        "id": "<s>",
        "ids": [
          0
        ],
        "tokens": [
          "<s>"
        ]
      }
    }
  },
  "decoder": {
    "type": "ByteLevel",
    "add_prefix_space": true,
    "trim_offsets": true,
    "use_regex": true
  },
  "model": {
    "type": "BPE",
    "dropout": null,
    "unk_token": null,
    "continuing_subword_prefix": null,
    "end_of_word_suffix": null,
    "fuse_unk": false,
    "byte_fallback": false,
    "ignore_merges": false,
    "vocab": {
      "<s>": 0,
      "</s>": 1,
      "<pad>": 2,
      "<unk>": 3,
      "<fim_prefix>": 4,
      "<fim_suffix>": 5,
      "<fim_middle>": 6,
      "<fim_hole>": 7,
      "<fim_pad>": 8,
      "<repo_name>": 9,
      "<file_sep>": 10,
      "<file_path>": 11,
      "<tool_call>": 12,
      "</tool_call>": 13,
      "<tool_response>": 14,
      "</tool_response>": 15,
      "<scratchpad>": 16,
      "</scratchpad>": 17,
      "<|system|>": 18,
      "<|user|>": 19,
      "<|assistant|>": 20,
      "!": 21,
      "\"": 22,
      "#": 23,
      "$": 24,
      "%": 25,
      "&": 26,
      "'": 27,
      "(": 28,
      ")": 29,
      "*": 30,
      "+": 31,
      ",": 32,
      "-": 33,
      ".": 34,
      "/": 35,
      "0": 36,
      "1": 37,
      "2": 38,
      "3": 39,
      "4": 40,
      "5": 41,
      "6": 42,
      "7": 43,
      "8": 44,
      "9": 45,
      ":": 46,
      ";": 47,
      "<": 48,
      "=": 49,
      ">": 50,
      "?": 51,
      "@": 52,
      "A": 53,
      "B": 54,
      "C": 55,
      "D": 56,
      "E": 57,
      "F": 58,
      "G": 59,
      "H": 60,
      "I": 61,
      "J": 62,
      "K": 63,
      "L": 64,
      "M": 65,
      "N": 66,
      "O": 67,
      "P": 68,
      "Q": 69,
      "R": 70,
      "S": 71,
      "T": 72,
      "U": 73,
      "V": 74,
      "W": 75,
      "X": 76,
      "Y": 77,
      "Z": 78,
      "[": 79,
      "\\": 80,
      "]": 81,
      "^": 82,
      "_": 83,
      "`": 84,
      "a": 85,
      "b": 86,
      "c": 87,
      "d": 88,
      "e": 89,
      "f": 90,
      "g": 91,
      "h": 92,
      "i": 93,
      "j": 94,
      "k": 95,
      "l": 96,
      "m": 97,
      "n": 98,
      "o": 99,
      "p": 100,
      "q": 101,
      "r": 102,
      "s": 103,
      "t": 104,
      "u": 105,
      "v": 106,
      "w": 107,
      "x": 108,
      "y": 109,
      "z": 110,
      "{": 111,
      "|": 112,
      "}": 113,
      "~": 114,
      "¡": 115,
      "¢": 116,
      "£": 117,
      "¤": 118,
      "¥": 119,
      "¦": 120,
      "§": 121,
      "¨": 122,
      "©": 123,
      "ª": 124,
      "«": 125,
      "¬": 126,
      "®": 127,
      "¯": 128,
      "°": 129,
      "±": 130,
      "²": 131,
      "³": 132,
      "´": 133,
      "µ": 134,
      "¶": 135,
      "·": 136,
      "¸": 137,
      "¹": 138,
      "º": 139,
      "»": 140,
      "¼": 141,
      "½": 142,
      "¾": 143,
      "¿": 144,
      "À": 145,
      "Á": 146,
      "Â": 147,
      "Ã": 148,
      "Ä": 149,
      "Å": 150,
      "Æ": 151,
      "Ç": 152,
      "È": 153,
      "É": 154,
      "Ê": 155,
      "Ë": 156,
      "Ì": 157,
      "Í": 158,
      "Î": 159,
      "Ï": 160,
      "Ð": 161,
      "Ñ": 162,
      "Ò": 163,
      "Ó": 164,
      "Ô": 165,
      "Õ": 166,
      "Ö": 167,
      "×": 168,
      "Ø": 169,
      "Ù": 170,
      "Ú": 171,
      "Û": 172,
      "Ü": 173,
      "Ý": 174,
      "Þ": 175,
      "ß": 176,
      "à": 177,
      "á": 178,
      "â": 179,
      "ã": 180,
      "ä": 181,
      "å": 182,
      "æ": 183,
      "ç": 184,
      "è": 185,
      "é": 186,
      "ê": 187,
      "ë": 188,
      "ì": 189,
      "í": 190,
      "î": 191,
      "ï": 192,
      "ð": 193,
      "ñ": 194,
      "ò": 195,
      "ó": 196,
      "ô": 197,
      "õ": 198,
      "ö": 199,
      "÷": 200,
      "ø": 201,
      "ù": 202,
      "ú": 203,
      "û": 204,
      "ü": 205,
      "ý": 206,
      "þ": 207,
      "ÿ": 208,
      "Ā": 209,
      "ā": 210,
      "Ă": 211,
      "ă": 212,
      "Ą": 213,
      "ą": 214,
      "Ć": 215,
      "ć": 216,
      "Ĉ": 217,
      "ĉ": 218,
      "Ċ": 219,
      "ċ": 220,
      "Č": 221,
      "č": 222,
      "Ď": 223,
      "ď": 224,
      "Đ": 225,
      "đ": 226,
      "Ē": 227,
      "ē": 228,
      "Ĕ": 229,
      "ĕ": 230,
      "Ė": 231,
      "ė": 232,
      "Ę": 233,
      "ę": 234,
      "Ě": 235,
      "ě": 236,
      "Ĝ": 237,
      "ĝ": 238,
      "Ğ": 239,
      "ğ": 240,
      "Ġ": 241,
      "ġ": 242,
      "Ģ": 243,
      "ģ": 244,
      "Ĥ": 245,
      "ĥ": 246,
      "Ħ": 247,
      "ħ": 248,
      "Ĩ": 249,
      "ĩ": 250,
      "Ī": 251,
      "ī": 252,
      "Ĭ": 253,
      "ĭ": 254,
      "Į": 255,
      "į": 256,
      "İ": 257,
      "ı": 258,
      "Ĳ": 259,
      "ĳ": 260,
      "Ĵ": 261,
      "ĵ": 262,
      "Ķ": 263,
      "ķ": 264,
      "ĸ": 265,
      "Ĺ": 266,
      "ĺ": 267,
      "Ļ": 268,
      "ļ": 269,
      "Ľ": 270,
      "ľ": 271,
      "Ŀ": 272,
      "ŀ": 273,
      "Ł": 274,
      "ł": 275,
      "Ń": 276,
      "ãģ": 277,
      "ãĥ": 278,
      "ãĤ": 279,
      "in": 280,
      "on": 281,
      "er": 282,
      "at": 283,
      "or": 284,
      "re": 285,
      "st": 286,
      "Ġt": 287,
      "ĠĠ": 288,
      "Ġa": 289,
      "en": 290,
      "se": 291,
      "de": 292,
      "ro": 293,
      "ion": 294,
      "Ġc": 295,
      "al": 296,
      "im": 297,
      "it": 298,
      "ãģĻ": 299,
      "ct": 300,
      "ãĢ": 301,
      "he": 302,
      "ing": 303,
      "ãĢĤ": 304,
      "Ġf": 305,
      "ãĥ¼": 306,
      "Ġp": 307,
      "Ġre": 308,
      "ãĤĴ": 309,
      "es": 310,
      "iz": 311,
      "ãģ®": 312,
      ");": 313,
      "ut": 314,
      "lo": 315,
      "int": 316,
      "Ġ{": 317,
      "ãģ§": 318,
      "le": 319,
      "an": 320,
      "Ġs": 321,
      "Ġ=": 322,
      "Ġn": 323,
      "ãģ¯": 324,
      "am": 325,
      "Ġb": 326,
      "ex": 327,
      "ent": 328,
      "ort": 329,
      "imp": 330,
      "ch": 331,
      "ãģ«": 332,
      "et": 333,
      "ss": 334,
      "ãģĹ": 335,
      "Ġd": 336,
      "ĠĠĠ": 337,
      "ãģ¾": 338,
      "ed": 339,
      "ul": 340,
      "ation": 341,
      "ãģ¾ãģĻ": 342,
      "rom": 343,
      "ãģ¦": 344,
      "ãĥ³": 345,
      "Ġst": 346,
      "ize": 347,
      "import": 348,
      "ma": 349,
      "ur": 350,
      "ãģ¨": 351,
      "un": 352,
      "use": 353,
      "Ġ(": 354,
      "il": 355,
      "Ġ-": 356,
      "pp": 357,
      "ãģĦ": 358,
      "id": 359,
      "ãĥ¼ãĤ": 360,
      "ar": 361,
      "ce": 362,
      "ata": 363,
      "ĊĠĠĠ": 364,
      "Ġ'": 365,
      "def": 366,
      "pe": 367,
      "cl": 368,
      "li": 369,
      "Ġo": 370,
      "Ġto": 371,
      "Ġthe": 372,
      "ãģ§ãģĻ": 373,
      "us": 374,
      "()": 375,
      "con": 376,
      "Ġan": 377,
      "ult": 378,
      "om": 379,
      "ãĥª": 380,
      "Ġcon": 381,
      "::": 382,
      "ra": 383,
      "orm": 384,
      "ãģĮ": 385,
      "Ġw": 386,
      "Ġ<": 387,
      "Ġpro": 388,
      "ue": 389,
      "ĠR": 390,
      "ãģª": 391,
      "ãĥ©": 392,
      "ãĤ¹": 393,
      "ãĥ¼ãĥ": 394,
      "ode": 395,
      "Ġint": 396,
      "ig": 397,
      "ãĤ¤": 398,
      "Ġand": 399,
      "as": 400,
      "em": 401,
      "ke": 402,
      "Ġv": 403,
      "Ġin": 404,
      "ãĥĪ": 405,
      "ãĤĭ": 406,
      "Ġm": 407,
      "The": 408,
      "lf": 409,
      "Ġimport": 410,
      "ine": 411,
      "00": 412,
      "ãĥĩ": 413,
      "from": 414,
      "is": 415,
      "oid": 416,
      "ĠC": 417,
      "Ġx": 418,
      "orch": 419,
      "ction": 420,
      "çĶ": 421,
      "iv": 422,
      "pt": 423,
      "ude": 424,
      "Ġde": 425,
      "clude": 426,
      "ho": 427,
      "ic": 428,
      "ate": 429,
      "Ġapp": 430,
      "Ġsize": 431,
      "yn": 432,
      "ab": 433,
      "ad": 434,
      "ãĤ¯": 435,
      "ers": 436,
      "ĠA": 437,
      "ĠS": 438,
      "Ġ}": 439,
      "include": 440,
      "Ġtorch": 441,
      "Ġas": 442,
      "Ġres": 443,
      "ag": 444,
      "Ġh": 445,
      "Ġl": 446,
      "self": 447,
      "ä¸": 448,
      "ãĤ³": 449,
      "ync": 450,
      "ment": 451,
      "ty": 452,
      "ith": 453,
      "ĠF": 454,
      "Ġuse": 455,
      "Ġfrom": 456,
      "ext": 457,
      "ãģŁ": 458,
      "ol": 459,
      "tur": 460,
      "ĠT": 461,
      "Ġen": 462,
      "Ġdata": 463,
      "turn": 464,
      "ck": 465,
      "æľ": 466,
      "çĲ": 467,
      "è¨": 468,
      "ķãĤ": 469,
      "ãģĹãģ¦": 470,
      "ãĥ³ãĥ": 471,
      "çĲĨ": 472,
      "ly": 473,
      "put": 474,
      "ial": 475,
      "js": 476,
      "ame": 477,
      "Ġ->": 478,
      "const": 479,
      "::{": 480,
      "json": 481,
      "tr": 482,
      "åĪ": 483,
      "åĲ": 484,
      "ĠP": 485,
      "ãĥĥ": 486,
      "ime": 487,
      "ations": 488,
      "Ġstr": 489,
      "ase": 490,
      "ps": 491,
      "ver": 492,
      "Ġe": 493,
      "exp": 494,
      "Ġma": 495,
      "odel": 496,
      "è¡": 497,
      "ãĥĨ": 498,
      "çĶ¨": 499,
      "!(": 500,
      "),": 501,
      "80": 502,
      "IN": 503,
      "__": 504,
      "``": 505,
      "ect": 506,
      "fig": 507,
      "void": 508,
      "};": 509,
      "Ġ\"": 510,
      "ĠD": 511,
      "log": 512,
      "ER": 513,
      "text": 514,
      "ĠB": 515,
      "ath": 516,
      "Ġreturn": 517,
      "ä½": 518,
      "è¦": 519,
      "ress": 520,
      "ãĤĴæ": 521,
      "ãģĹãģ¾ãģĻ": 522,
      "Ġof": 523,
      "ub": 524,
      "che": 525,
      "ces": 526,
      "el": 527,
      "form": 528,
      "Ġ1": 529,
      "ore": 530,
      "Ġfor": 531,
      "ay": 532,
      "du": 533,
      "ht": 534,
      "Ġ*": 535,
      "Ġ0": 536,
      "ĠN": 537,
      "ĠO": 538,
      "Ġy": 539,
      "Ġval": 540,
      "able": 541,
      "type": 542,
      "å®": 543,
      "ãģı": 544,
      "ãģĦãģ¾ãģĻ": 545,
      "ãĥ¼ãĥī": 546,
      "di": 547,
      "Ġse": 548,
      "res": 549,
      "Ġtr": 550,
      "ug": 551,
      "wa": 552,
      "atch": 553,
      "ens": 554,
      "Ġcom": 555,
      "unction": 556,
      "key": 557,
      "åĩ": 558,
      "åı": 559,
      "æĢ": 560,
      "æĸ": 561,
      "Ġg": 562,
      "Ġus": 563,
      "ãĥĹ": 564,
      "ãĤ°": 565,
      "all": 566,
      "ãģĻãĤĭ": 567,
      "ance": 568,
      "Ġbu": 569,
      "ãĥ¼ãĤ¿": 570,
      "';": 571,
      "RO": 572,
      "ap": 573,
      "ass": 574,
      "der": 575,
      "ist": 576,
      "met": 577,
      "ror": 578,
      "um": 579,
      "ĠM": 580,
      "Ġth": 581,
      "Ġtra": 582,
      "Ġ=>": 583,
      "define": 584,
      "!(\"": 585,
      "app": 586,
      "ot": 587,
      "que": 588,
      "ans": 589,
      "like": 590,
      "ash": 591,
      "ptim": 592,
      "Ġresult": 593,
      "æķ": 594,
      "ãģĵ": 595,
      "ãĥ«": 596,
      "ãĤ¢": 597,
      "ãĤ·": 598,
      "ãĤĮ": 599,
      "ãĤĴè": 600,
      "ãģ¨ãģĹãģ¦": 601,
      "ãĥĩãĥ¼ãĤ¿": 602,
      "ãĤ³ãĥ¼ãĥī": 603,
      "åĲĪ": 604,
      "è¡Į": 605,
      "Con": 606,
      "qu": 607,
      "ure": 608,
      "Ġis": 609,
      "loc": 610,
      "ild": 611,
      "ive": 612,
      "Re": 613,
      "act": 614,
      "ec": 615,
      "ff": 616,
      "os": 617,
      "our": 618,
      "size": 619,
      "tent": 620,
      "ining": 621,
      "ated": 622,
      "rop": 623,
      "ity": 624,
      "age": 625,
      "Ġtraining": 626,
      "();": 627,
      ":\"": 628,
      "Er": 629,
      "data": 630,
      "nn": 631,
      "optim": 632,
      "¦çĲĨ": 633,
      "§ĭ": 634,
      "ä»": 635,
      "å¤": 636,
      "éĢ": 637,
      "éģ": 638,
      "Ġ?": 639,
      "ĠU": 640,
      "ĠW": 641,
      "Ġdef": 642,
      "ãĥ¡": 643,
      "ãĥ¢": 644,
      "ãĥ¬": 645,
      "ãĥŃ": 646,
      "ãĥķãĤ": 647,
      "Ġawa": 648,
      "ãģ§ãģ¯": 649,
      "amp": 650,
      "ãģĹãģŁ": 651,
      "mail": 652,
      "ãĥ¼ãĤ¹": 653,
      "Ġwith": 654,
      "ĠRe": 655,
      "ĠRes": 656,
      "express": 657,
      "è¦ģ": 658,
      "åĩ¦çĲĨ": 659,
      "ansform": 660,
      "Ġawait": 661,
      "ding": 662,
      "of": 663,
      "up": 664,
      "vi": 665,
      "ĠL": 666,
      "Ġi": 667,
      "Ġon": 668,
      "Ġlike": 669,
      "set": 670,
      "iter": 671,
      "pect": 672,
      "Ġwe": 673,
      "io": 674,
      "ock": 675,
      "gr": 676,
      "out": 677,
      "ĠI": 678,
      "ence": 679,
      "aliz": 680,
      "Ġnorm": 681,
      "ä¾": 682,
      "ä¿": 683,
      "åĬ": 684,
      "åĮ": 685,
      "åŃ": 686,
      "èª": 687,
      "Łæ": 688,
      "ãģ£": 689,
      "ãģį": 690,
      "ãĥĸ": 691,
      "ãĥł": 692,
      "ãĤ¿": 693,
      "ãĤĬ": 694,
      "ãģ®æ": 695,
      "ãģ«ãģ¯": 696,
      "ãĥ©ãĤ¤": 697,
      "ãĤ¹ãĥĪ": 698,
      "ä½¿": 699,
      "åı¯": 700,
      "æĢ§": 701,
      "ain": 702,
      "ew": 703,
      "Ġtok": 704,
      "Ġproces": 705,
      "ayer": 706,
      "tention": 707,
      "':": 708,
      "))": 709,
      "LE": 710,
      "SE": 711,
      "Ser": 712,
      "co": 713,
      "da": 714,
      "get": 715,
      "ict": 716,
      "lon": 717,
      "model": 718,
      "name": 719,
      "ser": 720,
      "tp": 721,
      "time": 722,
      "Ġ+": 723,
      "Ġlo": 724,
      "Ġid": 725,
      "Ġ__": 726,
      "attr": 727,
      "ork": 728,
      "ĠĠĠĠ": 729,
      "ross": 730,
      "uto": 731,
      "Ġsy": 732,
      "Ġname": 733,
      "Ġstd": 734,
      "class": 735,
      "lic": 736,
      "user": 737,
      "Ġvoid": 738,
      "ĠCon": 739,
      "Ġapplic": 740,
      "Ġasync": 741,
      "ialize": 742,
      "Ġstring": 743,
      "Ġmain": 744,
      "8080": 745,
      "```": 746,
      "ĠNO": 747,
      "Ġtransform": 748,
      "Ġusers": 749,
      "ast": 750,
      "ault": 751,
      "com": 752,
      "sc": 753,
      "val": 754,
      "äº": 755,
      "å¾": 756,
      "åħ": 757,
      "åī": 758,
      "çĻ": 759,
      "ãģķãĤ": 760,
      "ãĥŀ": 761,
      "ãĤ¸": 762,
      "ãĤ»": 763,
      "ãĤģ": 764,
      "alloc": 765,
      "hel": 766,
      "Ġfunction": 767,
      "Ġpre": 768,
      "low": 769,
      "loat": 770,
      "ang": 771,
      "expect": 772,
      "etw": 773,
      "ãĥ³ãĤ°": 774,
      "ãģĦãģ¦": 775,
      "Ġcontext": 776,
      "Ġinput": 777,
      "ctions": 778,
      "ä¸į": 779,
      "ãĤ³ãĥ³ãĥ": 780,
      "ched": 781,
      "quest": 782,
      "ãģĵãģ¨": 783,
      "éģ©": 784,
      "Ġnormaliz": 785,
      "åĮĸ": 786,
      "ãģķãĤĮ": 787,
      "LR": 788,
      "net": 789,
      "if": 790,
      "tin": 791,
      "war": 792,
      "Ġr": 793,
      "main": 794,
      "Ġbuild": 795,
      "Ġprocess": 796,
      "ree": 797,
      "Git": 798,
      "cur": 799,
      "cross": 800,
      "ep": 801,
      "line": 802,
      "ph": 803,
      "po": 804,
      "Ġle": 805,
      "attention": 806,
      "ions": 807,
      "Ġch": 808,
      "Ġpar": 809,
      "and": 810,
      "Ġdo": 811,
      "ight": 812,
      "Ġcomput": 813,
      "£æ": 814,
      "¦ç": 815,
      "å¿": 816,
      "æ³": 817,
      "æħ": 818,
      "èĥ": 819,
      "éĩ": 820,
      "éĸ": 821,
      "įè¦ģ": 822,
      "Ļãĥ¼ãĤ¹": 823,
      "Ľ¸": 824,
      "ãģĬ": 825,
      "ãģł": 826,
      "ãĥ¥": 827,
      "ãĥ§": 828,
      "ãĥĲ": 829,
      "ãĥĳ": 830,
      "ãĤ£": 831,
      "ãĤª": 832,
      "ãĤµ": 833,
      "ãĤĦ": 834,
      "ãĤī": 835,
      "ãĤı": 836,
      "ãĢģ": 837,
      "ä¸Ģ": 838,
      "æľĢ": 839,
      "ãĥĨãĤ¹ãĥĪ": 840,
      "ãĥĹãĥŃ": 841,
      "æķ°": 842,
      "ãĥ¡ãĥ¢": 843,
      "çĻº": 844,
      "èĥ½": 845,
      "éĩįè¦ģ": 846,
      "ãĥ¡ãĥ¢ãĥª": 847,
      "\",": 848,
      "\");": 849,
      "')": 850,
      "',": 851,
      "):": 852,
      "//": 853,
      "://": 854,
      "AT": 855,
      "CT": 856,
      "ES": 857,
      "HER": 858,
      "IM": 859,
      "LU": 860,
      "St": 861,
      "Vec": 862,
      "bj": 863,
      "bda": 864,
      "dam": 865,
      "ip": 866,
      "ject": 867,
      "ming": 868,
      "ool": 869,
      "obj": 870,
      "pon": 871,
      "sync": 872,
      "ter": 873,
      "uf": 874,
      "Ġ&": 875,
      "Ġ.": 876,
      "Ġ:": 877,
      "Ġ>": 878,
      "ĠH": 879,
      "Ġ[": 880,
      "Ġimp": 881,
      "ĠIN": 882,
      "Ġlog": 883,
      "err": 884,
      "erat": 885,
      "error": 886,
      "erialize": 887,
      "atic": 888,
      "ors": 889,
      "std": 890,
      "stem": 891,
      "static": 892,
      "Ġad": 893,
      "roug": 894,
      "Ġcre": 895,
      "Ġcode": 896,
      "Ġcase": 897,
      "Ġfd": 898,
      "izer": 899,
      "Ġ{}": 900,
      "lement": 901,
      "Ġnn": 902,
      "aml": 903,
      "ambda": 904,
      "amming": 905,
      "Ġby": 906,
      "max": 907,
      "lib": 908,
      "Ġout": 909,
      "());": 910,
      "Ġconst": 911,
      "radi": 912,
      "Ġprogr": 913,
      "emo": 914,
      "Ġme": 915,
      "hod": 916,
      "host": 917,
      "ĠAuto": 918,
      "ĠSe": 919,
      "ages": 920,
      "Ġht": 921,
      "ĠFRO": 922,
      "olle": 923,
      "Ġemail": 924,
      "http": 925,
      "Ġsess": 926,
      "api": 927,
      "method": 928,
      "Ġthroug": 929,
      "Error": 930,
      "ĠWHER": 931,
      "Ġdefault": 932,
      "ĠResult": 933,
      "Server": 934,
      "lone": 935,
      "Ġsystem": 936,
      "ĠConfig": 937,
      "ĠNOW": 938,
      "score": 939,
      "helmet": 940,
      "ponse": 941,
      "radient": 942,
      "Ġprogramming": 943,
      "ĠFROM": 944,
      "Ġthrough": 945,
      "ĠWHERE": 946,
      "Layer": 947,
      "ail": 948,
      "ack": 949,
      "bug": 950,
      "cer": 951,
      "ge": 952,
      "ipe": 953,
      "mut": 954,
      "prop": 955,
      "ri": 956,
      "uct": 957,
      "Ġ2": 958,
      "Ġself": 959,
      "Ġiter": 960,
      "ren": 961,
      "Ġtime": 962,
      "Ġca": 963,
      "Ġfloat": 964,
      "Ġpipe": 965,
      "ull": 966,
      "uler": 967,
      "how": 968,
      "atest": 969,
      "Ġstruct": 970,
      "Ġvalue": 971,
      "dict": 972,
      "Ġtrue": 973,
      "Ref": 974,
      "cheduler": 975,
      "IT": 976,
      "RA": 977,
      "ype": 978,
      "async": 979,
      "ocker": 980,
      "Data": 981,
      "gor": 982,
      "ire": 983,
      "ms": 984,
      "plo": 985,
      "uo": 986,
      "¤ĩ": 987,
      "§£æ": 988,
      "¯ī": 989,
      "¿Ĵ": 990,
      "ä¼": 991,
      "å½": 992,
      "åĨ": 993,
      "åĭ": 994,
      "æ©": 995,
      "æĹ": 996,
      "çµ": 997,
      "çī": 998,
      "çļ": 999,
      "ç¯ī": 1000,
      "è³": 1001,
      "Ġ4": 1002,
      "Ġun": 1003,
      "Ġexp": 1004,
      "ĪĲ": 1005,
      "Ńè¨": 1006,
      "ãģ¤": 1007,
      "ãģ¿": 1008,
      "ãģĭ": 1009,
      "ãģĳ": 1010,
      "ãģĽ": 1011,
      "ãĥ£": 1012,
      "ãĥģ": 1013,
      "ãĤ§": 1014,
      "ãĤ¨": 1015,
      "ãĤº": 1016,
      "ãĤĤ": 1017,
      "ional": 1018,
      "Ġper": 1019,
      "Ġredu": 1020,
      "Ġrequ": 1021,
      "ãĤĴçĶ¨": 1022,
      "ãģ®é": 1023,
      "ãģ§ãģį": 1024,
      "Ġnum": 1025,
      "Ġnew": 1026,
      "ãģ¯è": 1027,
      "Ġdim": 1028,
      "ãģ¾ãģĹãģŁ": 1029,
      "ãģ¦ãģĦãģ¾ãģĻ": 1030,
      "ary": 1031,
      "Ġcons": 1032,
      "ãĤ¤ãĥ«": 1033,
      "000": 1034,
      "çĶŁæ": 1035,
      "Ġdeplo": 1036,
      "ersion": 1037,
      "ments": 1038,
      "ãģŁãĤģ": 1039,
      "è¨¼": 1040,
      "è¨Ńè¨": 1041,
      "ãĥĥãĤ¯": 1042,
      "ä½ľ": 1043,
      "ãĤĴæĽ¸": 1044,
      "å®Ł": 1045,
      "ãģĻãĤĭæ": 1046,
      "§ĭç¯ī": 1047,
      "Ġweight": 1048,
      "ä¿Ŀ": 1049,
      "åĬĽ": 1050,
      "ãģ£ãģ¦": 1051,
      "ãĥĸãĥ©": 1052,
      "ãĤĬãģ¾ãģĻ": 1053,
      "ä½¿çĶ¨": 1054,
      "ãģĵãģ¨ãģ§": 1055,
      "æ³ķ": 1056,
      "éĩįè¦ģãģ§ãģĻ": 1057,
      "åĭķ": 1058,
      "çļĦ": 1059,
      "Ġdeploy": 1060,
      "è¨Ńè¨Ī": 1061,
      "100": 1062,
      "bit": 1063,
      "but": 1064,
      "ds": 1065,
      "een": 1066,
      "fer": 1067,
      "ning": 1068,
      "pres": 1069,
      "ual": 1070,
      "Ġ3": 1071,
      "Ġem": 1072,
      "ative": 1073,
      "Ġal": 1074,
      "Ġar": 1075,
      "Ġact": 1076,
      "Ġacross": 1077,
      "rov": 1078,
      "Ġfe": 1079,
      "Ġrepres": 1080,
      "ant": 1081,
      "Ġsour": 1082,
      "Ġbase": 1083,
      "Ġstep": 1084,
      "arning": 1085,
      "Ġover": 1086,
      "Ġproject": 1087,
      "Ġinto": 1088,
      "Ġmodel": 1089,
      "abil": 1090,
      "Ġlr": 1091,
      "Ġlang": 1092,
      "Ġenco": 1093,
      "Ġloss": 1094,
      "Ġapplications": 1095,
      "etwork": 1096,
      "Ġnormalization": 1097,
      "Ġimprov": 1098,
      "Ġoutput": 1099,
      "Ġactiv": 1100,
      "Ġrepresent": 1101,
      "Ġsource": 1102,
      "Ġbased": 1103,
      "Ġlangu": 1104,
      "!!(": 1105,
      "\"`": 1106,
      "##": 1107,
      "#[": 1108,
      "${": 1109,
      "'/": 1110,
      "(&": 1111,
      "(*": 1112,
      "(|": 1113,
      "(!!(": 1114,
      "('/": 1115,
      ").": 1116,
      "++": 1117,
      "=-": 1118,
      ">>": 1119,
      "AB": 1120,
      "AX": 1121,
      "At": 1122,
      "Ann": 1123,
      "DE": 1124,
      "De": 1125,
      "He": 1126,
      "LT": 1127,
      "Model": 1128,
      "Map": 1129,
      "Memo": 1130,
      "Norm": 1131,
      "OU": 1132,
      "Res": 1133,
      "ST": 1134,
      "Tens": 1135,
      "UP": 1136,
      "Wr": 1137,
      "With": 1138,
      "]);": 1139,
      "bu": 1140,
      "bin": 1141,
      "bash": 1142,
      "cf": 1143,
      "cp": 1144,
      "cast": 1145,
      "cors": 1146,
      "colle": 1147,
      "div": 1148,
      "docker": 1149,
      "eal": 1150,
      "email": 1151,
      "fn": 1152,
      "fun": 1153,
      "git": 1154,
      "ise": 1155,
      "iel": 1156,
      "ln": 1157,
      "lambda": 1158,
      "latest": 1159,
      "match": 1160,
      "norm": 1161,
      "ole": 1162,
      "oun": 1163,
      "py": 1164,
      "port": 1165,
      "rit": 1166,
      "rint": 1167,
      "rder": 1168,
      "scheduler": 1169,
      "tps": 1170,
      "uint": 1171,
      "yhow": 1172,
      "zip": 1173,
      "}'": 1174,
      "ĊĠĠ": 1175,
      "ĠV": 1176,
      "Ġ`": 1177,
      "Ġjson": 1178,
      "ĠEr": 1179,
      "Ġexpress": 1180,
      "Ġ${": 1181,
      "inst": 1182,
      "inet": 1183,
      "erty": 1184,
      "atus": 1185,
      "return": 1186,
      "react": 1187,
      "stall": 1188,
      "Ġcl": 1189,
      "Ġcance": 1190,
      "its": 1191,
      "head": 1192,
      "ingLR": 1193,
      "Ġfn": 1194,
      "Ġfet": 1195,
      "Ġptr": 1196,
      "eserialize": 1197,
      "exce": 1198,
      "examp": 1199,
      "implement": 1200,
      "ssize": 1201,
      "Ġdict": 1202,
      "Ġstate": 1203,
      "url": 1204,
      "Ġ((": 1205,
      "iltin": 1206,
      "Ġok": 1207,
      "users": 1208,
      "(),": 1209,
      "config": 1210,
      "context": 1211,
      "Ġanyhow": 1212,
      "omic": 1213,
      "ineAnn": 1214,
      "ĠCos": 1215,
      "ĠClone": 1216,
      "Ġsizeof": 1217,
      "ader": 1218,
      "ĠAdam": 1219,
      "Ġresp": 1220,
      "ĠFC": 1221,
      "ĠuseRef": 1222,
      "ĠuseMemo": 1223,
      "ĠTIM": 1224,
      "try": 1225,
      "ĠPath": 1226,
      "Ġeps": 1227,
      "ĠData": 1228,
      "ĠDeserialize": 1229,
      "logits": 1230,
      "ĠBY": 1231,
      "ĠBuf": 1232,
      "ĠOrder": 1233,
      "Ġyaml": 1234,
      "typedef": 1235,
      "Ġbuf": 1236,
      "ĠMIN": 1237,
      "ĠMAX": 1238,
      "Config": 1239,
      "ildren": 1240,
      "optimizer": 1241,
      "ĠUser": 1242,
      "ĠReact": 1243,
      "ĠRequest": 1244,
      "ĠResponse": 1245,
      "uple": 1246,
      "Ġtokio": 1247,
      "LECT": 1248,
      "SELECT": 1249,
      "ĠĠĠĠĠĠĠ": 1250,
      "ATE": 1251,
      "State": 1252,
      "ools": 1253,
      "Ġ&&": 1254,
      "ĠINT": 1255,
      "Ġlogg": 1256,
      "Ġcreated": 1257,
      "Ġ{}\",": 1258,
      "ĠSelf": 1259,
      "Ġhttps": 1260,
      "Ġsession": 1261,
      "property": 1262,
      "Tensor": 1263,
      "Writer": 1264,
      "builtin": 1265,
      "cfg": 1266,
      "ealingLR": 1267,
      "func": 1268,
      "ield": 1269,
      "rite": 1270,
      "rintln": 1271,
      "ĊĠĠĠĠĠ": 1272,
      "ĠErr": 1273,
      "instance": 1274,
      "Ġcancel": 1275,
      "Ġfetch": 1276,
      "except": 1277,
      "example": 1278,
      "ineAnnealingLR": 1279,
      "ĠCosineAnnealingLR": 1280,
      "¥½": 1281,
      "¬ł": 1282,
      "°Ĺ": 1283,
      "±æľ": 1284,
      "·±": 1285,
      "·ãĥ§": 1286,
      "åį": 1287,
      "åĵ": 1288,
      "åķ": 1289,
      "åĽ": 1290,
      "æ¨": 1291,
      "æĺ": 1292,
      "æ¬ł": 1293,
      "æ°Ĺ": 1294,
      "çİ": 1295,
      "çı": 1296,
      "çķ": 1297,
      "è¶": 1298,
      "ģè³": 1299,
      "ĩª": 1300,
      "ĬĢ": 1301,
      "ĻĤ": 1302,
      "ĿãģĦãģ¾ãģĻ": 1303,
      "ãģĤ": 1304,
      "ãģĨ": 1305,
      "ãģķ": 1306,
      "ãĥĭ": 1307,
      "ãĥį": 1308,
      "ãĥĿ": 1309,
      "ãĥŁ": 1310,
      "ãĥĻãĥ¼ãĤ¹": 1311,
      "ãĤ«": 1312,
      "ãĤĴè¡Į": 1313,
      "ãĤĴçµ": 1314,
      "ãĤĴçĶŁæ": 1315,
      "ãĤĴä½ľ": 1316,
      "ãģ®è": 1317,
      "ãģ®ãģĮ": 1318,
      "ãģ¯ãĤ": 1319,
      "ãģĹãģĦ": 1320,
      "ãĥ³ãĤ¹": 1321,
      "ãĥ¼ãĤ¯": 1322,
      "ãĥ¼ãĤ¸": 1323,
      "ãĥ¼ãĤ·ãĥ§": 1324,
      "ãģĮéĩįè¦ģãģ§ãģĻ": 1325,
      "ãĤ¹ãĥĨ": 1326,
      "ãĤ¤ãĥ³": 1327,
      "ãĤ¯ãĥĪ": 1328,
      "ä¸¦": 1329,
      "åĪĨ": 1330,
      "åĪĹ": 1331,
      "ãĥĥãĥĪ": 1332,
      "ãĥĨãĤ£": 1333,
      "è¦ı": 1334,
      "ãĤĴæ§ĭç¯ī": 1335,
      "å®ļ": 1336,
      "æĢĿãģĦãģ¾ãģĻ": 1337,
      "æĸ°": 1338,
      "æĸ¹": 1339,
      "æĸĻ": 1340,
      "ãĤ°ãĥ©": 1341,
      "ãĤ·ãĤ¹ãĥĨ": 1342,
      "ãĤĴè§£æ": 1343,
      "ãĤ³ãĥ¼ãĥīãĤĴæĽ¸": 1344,
      "åĲĪãĤı": 1345,
      "å¤§": 1346,
      "å¤ĸ": 1347,
      "ãĥķãĤ¡": 1348,
      "ãĥķãĤ©": 1349,
      "åŃ¦ç": 1350,
      "èªį": 1351,
      "ãĥ©ãĤ¤ãĥĸãĥ©": 1352,
      "åı¯èĥ½": 1353,
      "åı¯æ¬ł": 1354,
      "ãĤ¸ãĤ§": 1355,
      "ä¸įåı¯æ¬ł": 1356,
      "ãĤ³ãĥ³ãĥĳ": 1357,
      "éĸ¢": 1358,
      "ãĤµãĥ¼ãĥ": 1359,
      "æľĢéģ©": 1360,
      "ãĥĹãĥŃãĤ°ãĥ©": 1361,
      "æķ°ãģ®": 1362,
      "¤ĩæķ°ãģ®": 1363,
      "æ©Łæ": 1364,
      "æĹ¥": 1365,
      "ãĤĴçĶ¨ãģĦãģ¦": 1366,
      "ãģ§ãģįãģ¾ãģĻ": 1367,
      "æ³ķãģ§ãģĻ": 1368,
      "è¨Ńè¨Īãģ§ãģ¯": 1369,
      "åĵģè³": 1370,
      "åķı": 1371,
      "çİĩ": 1372,
      "çı¾": 1373,
      "ãĤĴè¡ĮãģĦãģ¾ãģĻ": 1374,
      "ãĤĴçĶŁæĪĲ": 1375,
      "ãĤ·ãĤ¹ãĥĨãĥł": 1376,
      "ãĤ³ãĥ¼ãĥīãĤĴæĽ¸ãģı": 1377,
      "åĲĪãĤıãģĽ": 1378,
      "åŃ¦ç¿Ĵ": 1379,
      "ãĥ©ãĤ¤ãĥĸãĥ©ãĥª": 1380,
      "ãĤ¸ãĤ§ãĤ¯ãĥĪ": 1381,
      "åĵģè³ª": 1382,
      "Function": 1383,
      "Tr": 1384,
      "ach": 1385,
      "ber": 1386,
      "cu": 1387,
      "cay": 1388,
      "dated": 1389,
      "fa": 1390,
      "for": 1391,
      "gra": 1392,
      "ires": 1393,
      "ne": 1394,
      "no": 1395,
      "ny": 1396,
      "oint": 1397,
      "ron": 1398,
      "sion": 1399,
      "sure": 1400,
      "to": 1401,
      "tra": 1402,
      "tain": 1403,
      "ĠG": 1404,
      "Ġra": 1405,
      "Ġkey": 1406,
      "Ġup": 1407,
      "inary": 1408,
      "erfa": 1409,
      "read": 1410,
      "str": 1411,
      "end": 1412,
      "ses": 1413,
      "ized": 1414,
      "anag": 1415,
      "entrop": 1416,
      "Ġdis": 1417,
      "uld": 1418,
      "omet": 1419,
      "Ġprodu": 1420,
      "ign": 1421,
      "Ġmem": 1422,
      "Ġhash": 1423,
      "Ġenvi": 1424,
      "Ġensure": 1425,
      "ERT": 1426,
      "oth": 1427,
      "Ġresults": 1428,
      "ffect": 1429,
      "osit": 1430,
      "oft": 1431,
      "Ġapplication": 1432,
      "expected": 1433,
      "ward": 1434,
      "Ġpart": 1435,
      "andle": 1436,
      "irements": 1437,
      "Ġreduce": 1438,
      "Ġrequirements": 1439,
      "Ġdeployment": 1440,
      "Ġupdated": 1441,
      "entropy": 1442,
      "Ġenviron": 1443,
      "Type": 1444,
      "hon": 1445,
      "thon": 1446,
      "04": 1447,
      "Gradient": 1448,
      "ax": 1449,
      "bed": 1450,
      "cre": 1451,
      "dit": 1452,
      "est": 1453,
      "egr": 1454,
      "gress": 1455,
      "gence": 1456,
      "han": 1457,
      "ix": 1458,
      "ks": 1459,
      "ou": 1460,
      "te": 1461,
      "ting": 1462,
      "vent": 1463,
      "wo": 1464,
      "Ġ5": 1465,
      "Ġk": 1466,
      "Ġext": 1467,
      "Ġqu": 1468,
      "Ġattention": 1469,
      "ined": 1470,
      "ern": 1471,
      "ery": 1472,
      "ature": 1473,
      "ory": 1474,
      "Ġtwo": 1475,
      "Ġaut": 1476,
      "enerat": 1477,
      "Ġcol": 1478,
      "itting": 1479,
      "Ġpat": 1480,
      "izes": 1481,
      "anis": 1482,
      "Ġsim": 1483,
      "Ġsub": 1484,
      "Ġnetwork": 1485,
      "Ġbe": 1486,
      "Ġbetw": 1487,
      "exec": 1488,
      "chanis": 1489,
      "Ġdur": 1490,
      "Ġsto": 1491,
      "pping": 1492,
      "idation": 1493,
      "pec": 1494,
      "Ġop": 1495,
      "Ġprovi": 1496,
      "Ġintegr": 1497,
      "ement": 1498,
      "Ġvect": 1499,
      "Ġdead": 1500,
      "mentation": 1501,
      "Ġuses": 1502,
      "Ġenable": 1503,
      "cks": 1504,
      "Ġmach": 1505,
      "formance": 1506,
      "Ġ10": 1507,
      "Ġ100": 1508,
      "Ġyour": 1509,
      "Ġyou": 1510,
      "Ġvalidation": 1511,
      "Ġsequ": 1512,
      "ware": 1513,
      "ension": 1514,
      "Ġcomp": 1515,
      "Ġgradient": 1516,
      "Ġgenerat": 1517,
      "Ġusing": 1518,
      "istri": 1519,
      "Ġthis": 1520,
      "Ġtokens": 1521,
      "Ġtransformations": 1522,
      "Ġfunctions": 1523,
      "Ġprevent": 1524,
      "ific": 1525,
      "tinuo": 1526,
      "curity": 1527,
      "Ġlearning": 1528,
      "Ġchang": 1529,
      "Ġadds": 1530,
      "Ġmechanis": 1531,
      "Ġsystems": 1532,
      "gorith": 1533,
      "Ġperformance": 1534,
      "Ġdimension": 1535,
      "Ġembed": 1536,
      "Ġalgorith": 1537,
      "Ġfeature": 1538,
      "Ġprojects": 1539,
      "ability": 1540,
      "Ġencoder": 1541,
      "Ġimproves": 1542,
      "Ġactivations": 1543,
      "Ġrepresentations": 1544,
      "Ġlanguages": 1545,
      "ixed": 1546,
      "Ġquery": 1547,
      "Ġbetween": 1548,
      "execut": 1549,
      "Ġduring": 1550,
      "Ġprovide": 1551,
      "Ġvector": 1552,
      "Ġgenerates": 1553,
      "istribut": 1554,
      "tinuous": 1555,
      "Ġembedding": 1556,
      "ust": 1557,
      "16": 1558,
      "64": 1559,
      "AP": 1560,
      "Hub": 1561,
      "Sc": 1562,
      "UI": 1563,
      "¡Į": 1564,
      "¡ãģ¾ãģĻ": 1565,
      "¢°": 1566,
      "¢º": 1567,
      "£è¦ı": 1568,
      "¤ľ": 1569,
      "¥ãģ¨ãģĹãģ¦": 1570,
      "¥ãģķãĤĮ": 1571,
      "¨æ": 1572,
      "©çĶ¨": 1573,
      "«ĭ": 1574,
      "«ĺ": 1575,
      "¶æħ": 1576,
      "ºĥ": 1577,
      "å¹": 1578,
      "å¼": 1579,
      "åİ": 1580,
      "åĳ": 1581,
      "åŀ": 1582,
      "åºĥ": 1583,
      "æĥ": 1584,
      "æĪ": 1585,
      "æĮ": 1586,
      "æı": 1587,
      "æĿ": 1588,
      "æ¥½": 1589,
      "æĻĤ": 1590,
      "æ¤ľ": 1591,
      "ç´": 1592,
      "ç¶": 1593,
      "ç·": 1594,
      "çĬ": 1595,
      "çŁ": 1596,
      "ç¢º": 1597,
      "ç«ĭ": 1598,
      "è²": 1599,
      "èĪ": 1600,
      "èŃ": 1601,
      "éĥ": 1602,
      "éļ": 1603,
      "éĿ": 1604,
      "é¡Į": 1605,
      "é«ĺ": 1606,
      "Ħı": 1607,
      "Ħãĥ¼ãĥ": 1608,
      "Ħãģ¿": 1609,
      "ħè¦ģ": 1610,
      "ĩãģ«": 1611,
      "īåħ": 1612,
      "ĭçĻº": 1613,
      "ĭå¤ĸ": 1614,
      "Įæľ": 1615,
      "İĴ": 1616,
      "ĲåĲĪ": 1617,
      "Ĳä¾": 1618,
      "ĵãģ§": 1619,
      "ĵãģ§ãģĻ": 1620,
      "ĵãĤ¹": 1621,
      "ķæ": 1622,
      "ķ¥ãģ¨ãģĹãģ¦": 1623,
      "ļãģ«": 1624,
      "ľå®": 1625,
      "Łãģª": 1626,
      "ŃãĥĨ": 1627,
      "Ń£è¦ı": 1628,
      "ãģĶ": 1629,
      "ãģ¡ãģ¾ãģĻ": 1630,
      "ãĥī": 1631,
      "ãĥĵ": 1632,
      "ãĥķ": 1633,
      "ãĤ¦": 1634,
      "ãĤ±": 1635,
      "ãĤ¶": 1636,
      "ãĤĪ": 1637,
      "ãĤŃ": 1638,
      "ãĤĵãģ§": 1639,
      "ãĥ¼ãĤĴ": 1640,
      "ãĥ¼ãģ«": 1641,
      "ãĤĴä½¿çĶ¨": 1642,
      "ãģ®ãĥ": 1643,
      "ãģ®ãģ«": 1644,
      "ãģ®ãĥĲ": 1645,
      "ãģ®åİ": 1646,
      "ãģ¯ãĥĩãĥ¼ãĤ¿": 1647,
      "ãģ¯ãĤ³ãĥ³ãĥ": 1648,
      "ãģ«å": 1649,
      "ãģ«ä¸įåı¯æ¬ł": 1650,
      "ãģ¦ãĤĤ": 1651,
      "ãģ¨ãĥĩ": 1652,
      "ãģ¨æĢĿãģĦãģ¾ãģĻ": 1653,
      "ãģ¨ãģ¦ãĤĤ": 1654,
      "ãĥ¼ãĤŃãĥĨ": 1655,
      "ãĥªãĤ¢": 1656,
      "ãĥªãĥ³ãĤ°": 1657,
      "ãĥªãĥĥãĥĪ": 1658,
      "ãĥªãĥĨãĤ£": 1659,
      "ãģĮãģĤ": 1660,
      "ãģĮå¤§": 1661,
      "ãģªãĤĭ": 1662,
      "ãģªæĸ¹": 1663,
      "ãĥ©ãĥ³ãĤ¹": 1664,
      "ãĤ¹ãĤ¯": 1665,
      "ãĥ¼ãĥŀ": 1666,
      "ãĤĭãģĵãģ¨ãģ§": 1667,
      "ãĥĩãĥ«": 1668,
      "ãĥĩãĤ£": 1669,
      "ãĥĩãĤ¶": 1670,
      "ãĤ¯ãĥ©": 1671,
      "ãĤ¯ãĤ»": 1672,
      "ãĤ¯ãĥģ": 1673,
      "ĠFlow": 1674,
      "æľ¬": 1675,
      "ãĥ³ãĥģ": 1676,
      "ãĥ³ãĥī": 1677,
      "ãĥ³ãĥĻãĥ¼ãĤ¹": 1678,
      "åĪ©çĶ¨": 1679,
      "åĲĳ": 1680,
      "åĲĮæľ": 1681,
      "ãĥĥãĤ·": 1682,
      "ãĥĥãĥģ": 1683,
      "è¡¨": 1684,
      "è¡ĵãģ§ãģĻ": 1685,
      "å®īåħ": 1686,
      "ãģıä½¿": 1687,
      "ãģıãģł": 1688,
      "åĩº": 1689,
      "ãĥĹãĥª": 1690,
      "ãģĻãĤĭãģĵãģ¨ãģ§": 1691,
      "æķ£": 1692,
      "ãĤ¢ãĤ¯ãĤ»": 1693,
      "ãĤ·ãĥªãĤ¢": 1694,
      "ãĤĮãģ¾ãģĻ": 1695,
      "ãģ¨ãģĹãģ¦åºĥ": 1696,
      "ãĥĩãĥ¼ãĤ¿ãĤĴ": 1697,
      "ãĥĩãĥ¼ãĤ¿ãĥĻãĥ¼ãĤ¹": 1698,
      "ãĤ³ãĥ¼ãĥīãģ®": 1699,
      "ãĤ³ãĥ¼ãĥīãĤĴçĶŁæĪĲ": 1700,
      "è¡Įåĩ¦çĲĨ": 1701,
      "§ĭéĢ": 1702,
      "ä»Ĭ": 1703,
      "éĢļ": 1704,
      "éĢ±æľ": 1705,
      "ãĥ¡ãĥªãĥĥãĥĪ": 1706,
      "ãĥ¢ãĥĩãĥ«": 1707,
      "ãĥ¬ãĥĥ": 1708,
      "ãĥ¬ãĥĿ": 1709,
      "ãĥ¼ãĤ¹ãģ¯è": 1710,
      "ä¾Ŀ": 1711,
      "ä¾ĭå¤ĸ": 1712,
      "ä¿¡": 1713,
      "åĬł": 1714,
      "åŃĺ": 1715,
      "èªŀ": 1716,
      "èªŃ": 1717,
      "ãģ£ãģŁ": 1718,
      "ãĥĸãĤ¸ãĤ§ãĤ¯ãĥĪ": 1719,
      "ãĤ¿ãĥ¼": 1720,
      "ãģ®æĮ": 1721,
      "ãĥ©ãĤ¤ãĥ³": 1722,
      "ãĥ©ãĤ¤ãĤº": 1723,
      "æĢ§ãĤĴ": 1724,
      "æĢ§ãģ®": 1725,
      "äºĮ": 1726,
      "å¾Ĺ": 1727,
      "åħ¥": 1728,
      "åī²": 1729,
      "åīį": 1730,
      "ä¸įè¶": 1731,
      "åĮĸãģķãĤĮ": 1732,
      "åĮĸãĤĦ": 1733,
      "GitHub": 1734,
      "¦çķ¥ãģ¨ãģĹãģ¦": 1735,
      "å¿ħè¦ģ": 1736,
      "æħ®": 1737,
      "éĸĭçĻº": 1738,
      "ãģłãģ¨æĢĿãģĦãģ¾ãģĻ": 1739,
      "ãĤªãĥĸãĤ¸ãĤ§ãĤ¯ãĥĪ": 1740,
      "ä¸Ģè²": 1741,
      "ript": 1742,
      "å½¹": 1743,
      "åĨį": 1744,
      "çī©": 1745,
      "çī¹": 1746,
      "ãģĭãĤī": 1747,
      "ãĤ¨ãĥ©": 1748,
      "ãģ®éĽ": 1749,
      "ãģŁãĤģãģ«": 1750,
      "ãĥĥãĤ¯ãĤ¹": 1751,
      "å®Łè¡Į": 1752,
      "ãģĻãĤĭæĬĢ": 1753,
      "ä¿Ŀè¨¼": 1754,
      "heads": 1755,
      "åįĺ": 1756,
      "æĺİ": 1757,
      "ĩªåĭķ": 1758,
      "ãģķãģĦ": 1759,
      "ãĥŁãĥ³ãĤ°": 1760,
      "ãĤĴçµĦãģ¿": 1761,
      "ãģ¯ãĤ½": 1762,
      "ãĥ¼ãĤ·ãĥ§ãĥ³": 1763,
      "ä¸¦è¡Įåĩ¦çĲĨ": 1764,
      "åĪĨæķ£": 1765,
      "ãĤĴæ§ĭç¯īãģĹãģ¾ãģĻ": 1766,
      "æĸ°ãģĹãģĦ": 1767,
      "æĸĻçĲĨ": 1768,
      "ãĥķãĤ¡ãĤ¤ãĥ«": 1769,
      "ãĥķãĤ©ãĥ¼ãĥŀ": 1770,
      "ãĤ³ãĥ³ãĥĳãĤ¤ãĥ«": 1771,
      "éĸ¢æķ°": 1772,
      "ãĤµãĥ¼ãĥĵãĤ¹": 1773,
      "ãĥĹãĥŃãĤ°ãĥ©ãĥŁãĥ³ãĤ°": 1774,
      "æ©Łæ¢°": 1775,
      "æĹ¥ãģ®": 1776,
      "åķıé¡Į": 1777,
      "åĲĪãĤıãģĽãģ¦": 1778,
      "åŃ¦ç¿Ĵãĥ¢ãĥĩãĥ«": 1779,
      "Script": 1780,
      "¥ãģķãĤĮãģ¦ãģĦãģ¾ãģĻ": 1781,
      "¶æħĭ": 1782,
      "åĳ³": 1783,
      "åŀĭ": 1784,
      "æĪ¦çķ¥ãģ¨ãģĹãģ¦": 1785,
      "æĿ¥": 1786,
      "æĻĤãģ«": 1787,
      "çĬ¶æħĭ": 1788,
      "éļľå®": 1789,
      "Ħãĥ¼ãĥ«": 1790,
      "Ĳä¾Ľ": 1791,
      "ãģ®åİŁ": 1792,
      "ãģ«ä¸įåı¯æ¬łãģª": 1793,
      "ãĥ¼ãĤŃãĥĨãĤ¯ãĥģ": 1794,
      "å®īåħ¨": 1795,
      "ãģıä½¿ãĤı": 1796,
      "ãģıãģłãģķãģĦ": 1797,
      "ãĤ·ãĥªãĤ¢ãĥ©ãĤ¤ãĤº": 1798,
      "§ĭéĢł": 1799,
      "éĢ±æľ«": 1800,
      "ä¸įè¶³": 1801,
      "ãģĻãĤĭæĬĢè¡ĵãģ§ãģĻ": 1802,
      "ãĤĴçµĦãģ¿åĲĪãĤıãģĽãģ¦": 1803,
      "åķıé¡Įãģ§ãģĻ": 1804,
      "éļľå®³": 1805,
      "ãĥ¼ãĤŃãĥĨãĤ¯ãĥģãĥ£": 1806,
      "!/": 1807,
      "!=": 1808,
      "!\",": 1809,
      "\":\"": 1810,
      "\"}'": 1811,
      "#!/": 1812,
      "$(": 1813,
      "%@": 1814,
      "'>": 1815,
      "');": 1816,
      "((": 1817,
      "(`": 1818,
      "(()": 1819,
      ")(": 1820,
      ")[": 1821,
      ")]": 1822,
      ")}'": 1823,
      "._": 1824,
      "</": 1825,
      "<_": 1826,
      "<()": 1827,
      "='": 1828,
      ">(": 1829,
      ">;": 1830,
      "?,": 1831,
      "AC": 1832,
      "AD": 1833,
      "AM": 1834,
      "AU": 1835,
      "Ar": 1836,
      "ASE": 1837,
      "ACT": 1838,
      "ALU": 1839,
      "Adam": 1840,
      "ALT": 1841,
      "BE": 1842,
      "Buf": 1843,
      "BAC": 1844,
      "CO": 1845,
      "CR": 1846,
      "Ch": 1847,
      "Cli": 1848,
      "Call": 1849,
      "DD": 1850,
      "Der": 1851,
      "Div": 1852,
      "DIN": 1853,
      "DER": 1854,
      "Dict": 1855,
      "DATE": 1856,
      "EF": 1857,
      "EN": 1858,
      "ET": 1859,
      "EX": 1860,
      "Ex": 1861,
      "Element": 1862,
      "EOU": 1863,
      "EATE": 1864,
      "Effect": 1865,
      "EAD": 1866,
      "GD": 1867,
      "GIN": 1868,
      "GLU": 1869,
      "HT": 1870,
      "Hel": 1871,
      "Hash": 1872,
      "IK": 1873,
      "IO": 1874,
      "IZ": 1875,
      "In": 1876,
      "IST": 1877,
      "LL": 1878,
      "Lo": 1879,
      "List": 1880,
      "Lock": 1881,
      "LDiv": 1882,
      "ME": 1883,
      "MM": 1884,
      "MN": 1885,
      "MS": 1886,
      "Mo": 1887,
      "MLDiv": 1888,
      "NS": 1889,
      "NT": 1890,
      "NU": 1891,
      "Node": 1892,
      "Name": 1893,
      "Not": 1894,
      "OK": 1895,
      "OLU": 1896,
      "OST": 1897,
      "Path": 1898,
      "RL": 1899,
      "Red": 1900,
      "RRA": 1901,
      "RDER": 1902,
      "RMS": 1903,
      "Se": 1904,
      "Ses": 1905,
      "Set": 1906,
      "Somet": 1907,
      "SERT": 1908,
      "SIZ": 1909,
      "TE": 1910,
      "To": 1911,
      "Time": 1912,
      "Tree": 1913,
      "Tcp": 1914,
      "TAM": 1915,
      "Usize": 1916,
      "User": 1917,
      "URL": 1918,
      "VG": 1919,
      "[]": 1920,
      "])": 1921,
      "]))": 1922,
      "`);": 1923,
      "ache": 1924,
      "auto": 1925,
      "bf": 1926,
      "bool": 1927,
      "back": 1928,
      "cm": 1929,
      "code": 1930,
      "cache": 1931,
      "db": 1932,
      "do": 1933,
      "dtype": 1934,
      "euo": 1935,
      "fm": 1936,
      "fo": 1937,
      "fin": 1938,
      "fil": 1939,
      "function": 1940,
      "fail": 1941,
      "gs": 1942,
      "gith": 1943,
      "gres": 1944,
      "hi": 1945,
      "hing": 1946,
      "has": 1947,
      "hread": 1948,
      "iss": 1949,
      "iHe": 1950,
      "iGLU": 1951,
      "ken": 1952,
      "kub": 1953,
      "kwar": 1954,
      "lr": 1955,
      "my": 1956,
      "mps": 1957,
      "math": 1958,
      "manag": 1959,
      "np": 1960,
      "nion": 1961,
      "not": 1962,
      "null": 1963,
      "nstall": 1964,
      "ost": 1965,
      "pa": 1966,
      "ping": 1967,
      "pan": 1968,
      "par": 1969,
      "path": 1970,
      "pub": 1971,
      "patch": 1972,
      "pip": 1973,
      "pack": 1974,
      "println": 1975,
      "rm": 1976,
      "ransform": 1977,
      "sw": 1978,
      "sy": 1979,
      "sort": 1980,
      "sho": 1981,
      "sage": 1982,
      "sock": 1983,
      "sole": 1984,
      "soft": 1985,
      "tx": 1986,
      "torch": 1987,
      "tatus": 1988,
      "tuple": 1989,
      "tools": 1990,
      "upp": 1991,
      "ucer": 1992,
      "vic": 1993,
      "vel": 1994,
      "version": 1995,
      "with": 1996,
      "wLock": 1997,
      "whi": 1998,
      "wiGLU": 1999,
      "yaml": 2000,
      "yield": 2001,
      "yping": 2002,
      "{\"": 2003,
      "},": 2004,
      "}};": 2005,
      "}')": 2006,
      "}</": 2007,
      "}`);": 2008,
      "ĊĠ": 2009,
      "Ġ/": 2010,
      "Ġ|": 2011,
      "Ġat": 2012,
      "ĠER": 2013,
      "Ġ8080": 2014,
      "ĠVec": 2015,
      "Ġerr": 2016,
      "Ġerror": 2017,
      "Ġhelmet": 2018,
      "Ġuint": 2019,
      "Ġzip": 2020,
      "Ġign": 2021,
      "Ġ!=": 2022,
      "ĠEX": 2023,
      "inde": 2024,
      "init": 2025,
      "one": 2026,
      "ert": 2027,
      "erde": 2028,
      "erate": 2029,
      "erLayer": 2030,
      "ater": 2031,
      "atet": 2032,
      "req": 2033,
      "ream": 2034,
      "redu": 2035,
      "repo": 2036,
      "reach": 2037,
      "state": 2038,
      "stdi": 2039,
      "stamp": 2040,
      "stgres": 2041,
      "Ġtype": 2042,
      "Ġtyping": 2043,
      "Ġaction": 2044,
      "Ġaio": 2045,
      "ener": 2046,
      "enum": 2047,
      "enco": 2048,
      "debug": 2049,
      "decay": 2050,
      "roc": 2051,
      "road": 2052,
      "rops": 2053,
      "Ġcd": 2054,
      "Ġcle": 2055,
      "Ġcate": 2056,
      "Ġcatch": 2057,
      "Ġcalloc": 2058,
      "Ġcors": 2059,
      "Ġcolle": 2060,
      "Ġclone": 2061,
      "alse": 2062,
      "alue": 2063,
      "ally": 2064,
      "alhost": 2065,
      "itch": 2066,
      "item": 2067,
      "itial": 2068,
      "ctx": 2069,
      "ctools": 2070,
      "Ġfun": 2071,
      "Ġfree": 2072,
      "Ġfield": 2073,
      "Ġfalse": 2074,
      "Ġport": 2075,
      "Ġpath": 2076,
      "Ġref": 2077,
      "Ġread": 2078,
      "Ġrever": 2079,
      "Ġrealloc": 2080,
      "Ġrepo": 2081,
      "esho": 2082,
      "utex": 2083,
      "util": 2084,
      "loss": 2085,
      "into": 2086,
      "interfa": 2087,
      "Ġ{'": 2088,
      "level": 2089,
      "anup": 2090,
      "anoth": 2091,
      "Ġsupp": 2092,
      "Ġserde": 2093,
      "Ġ==": 2094,
      "Ġnp": 2095,
      "Ġnam": 2096,
      "Ġnot": 2097,
      "Ġnull": 2098,
      "ams": 2099,
      "Ġbail": 2100,
      "Ġbroad": 2101,
      "entSes": 2102,
      "impl": 2103,
      "children": 2104,
      "Ġdatet": 2105,
      "edDict": 2106,
      "edtuple": 2107,
      "romise": 2108,
      "Ġstar": 2109,
      "Ġstatus": 2110,
      "map": 2111,
      "maph": 2112,
      "unist": 2113,
      "untime": 2114,
      "unimplement": 2115,
      "unexpected": 2116,
      "unreach": 2117,
      "Ġ()": 2118,
      "Ġ(*": 2119,
      "Ġ():": 2120,
      "Ġ(?,": 2121,
      "Ġ--": 2122,
      "arpa": 2123,
      "Ġ'\\": 2124,
      "Ġ'__": 2125,
      "Ġ'%@": 2126,
      "Ġ'{\"": 2127,
      "defer": 2128,
      "cls": 2129,
      "clas": 2130,
      "Ġos": 2131,
      "Ġtolow": 2132,
      "()),": 2133,
      "cond": 2134,
      "conne": 2135,
      "contain": 2136,
      "console": 2137,
      "ultiHe": 2138,
      "ome": 2139,
      "Ġconfig": 2140,
      "::<": 2141,
      "raps": 2142,
      "Ġwrite": 2143,
      "Ġwraps": 2144,
      "ĠRout": 2145,
      "ĠREAD": 2146,
      "ĠRwLock": 2147,
      "ĠRuntime": 2148,
      "Ġinline": 2149,
      "Ġinstall": 2150,
      "Ġinfo": 2151,
      "Ġinitial": 2152,
      "Ġmath": 2153,
      "Ġmalloc": 2154,
      "Ġmemo": 2155,
      "isinstance": 2156,
      "ĠCall": 2157,
      "ĠCOU": 2158,
      "ĠCoun": 2159,
      "ĠCOLU": 2160,
      "ived": 2161,
      "ptional": 2162,
      "pthread": 2163,
      "Ġdeque": 2164,
      "Ġapply": 2165,
      "abel": 2166,
      "adAt": 2167,
      "ĠApp": 2168,
      "ĠAge": 2169,
      "ĠAny": 2170,
      "ĠADD": 2171,
      "ĠARRA": 2172,
      "ĠAVG": 2173,
      "ĠSync": 2174,
      "ĠSerialize": 2175,
      "ĠSend": 2176,
      "ĠSET": 2177,
      "ĠSGD": 2178,
      "ĠStatus": 2179,
      "ĠSwiGLU": 2180,
      "ĠSome": 2181,
      "Ġ};": 2182,
      "Ġasdict": 2183,
      "Ġhi": 2184,
      "Ġhapp": 2185,
      "Ġlen": 2186,
      "Ġlast": 2187,
      "Ġlater": 2188,
      "Ġlabel": 2189,
      "ĠFoun": 2190,
      "ĠuseState": 2191,
      "ĠuseCall": 2192,
      "ĠuseEffect": 2193,
      "ĠuseRed": 2194,
      "extFunction": 2195,
      "ĠTRA": 2196,
      "ĠTAB": 2197,
      "ĠTcp": 2198,
      "ĠTuple": 2199,
      "ĠTransform": 2200,
      "Ġenum": 2201,
      "Ġdataclass": 2202,
      "Ġdataclas": 2203,
      "ĠPort": 2204,
      "ĠPoint": 2205,
      "ĠPEN": 2206,
      "ĠPOST": 2207,
      "ĠProps": 2208,
      "ĠPromise": 2209,
      "export": 2210,
      "Ġmake": 2211,
      "INSERT": 2212,
      "__(": 2213,
      "__':": 2214,
      "ectl": 2215,
      "ĠDict": 2216,
      "ĠDAT": 2217,
      "ĠDES": 2218,
      "ĠDEF": 2219,
      "login": 2220,
      "ĠBase": 2221,
      "ĠBinary": 2222,
      "ĠBTree": 2223,
      "ubclass": 2224,
      "Ġ16": 2225,
      "Ġforward": 2226,
      "dule": 2227,
      "ĠNew": 2228,
      "ĠNone": 2229,
      "ĠNextFunction": 2230,
      "ĠOK": 2231,
      "ĠON": 2232,
      "ĠOk": 2233,
      "ĠORDER": 2234,
      "ĠOptional": 2235,
      "Ġyet": 2236,
      "ableData": 2237,
      "result": 2238,
      "Ġcombin": 2239,
      "Ġgot": 2240,
      "ROR": 2241,
      "ROUP": 2242,
      "ROLL": 2243,
      "assName": 2244,
      "assert": 2245,
      "derive": 2246,
      "ĠMutex": 2247,
      "ĠMultiHe": 2248,
      "likely": 2249,
      "ashSet": 2250,
      "Context": 2251,
      "Content": 2252,
      "Ġisinstance": 2253,
      "localhost": 2254,
      "Request": 2255,
      "Reader": 2256,
      "ffn": 2257,
      "sizeof": 2258,
      "Ġ?,": 2259,
      "Ġ?;": 2260,
      "Ġ?);": 2261,
      "ĠUNU": 2262,
      "ĠUnion": 2263,
      "ĠUsage": 2264,
      "ĠWork": 2265,
      "ĠWrite": 2266,
      "ĠRead": 2267,
      "ĠList": 2268,
      "ĠLIM": 2269,
      "ĠLambda": 2270,
      "ĠLIK": 2271,
      "Ġif": 2272,
      "Ġonesho": 2273,
      "Ġlikely": 2274,
      "setattr": 2275,
      "pected": 2276,
      "ĠIF": 2277,
      "ĠIter": 2278,
      "ĠInstall": 2279,
      "LETE": 2280,
      "SED": 2281,
      "Serialize": 2282,
      "getattr": 2283,
      "longe": 2284,
      "servic": 2285,
      "timeout": 2286,
      "Ġidx": 2287,
      "ĠĠĠĠĠĠĠĠĠĠĠ": 2288,
      "Ġsys": 2289,
      "classmethod": 2290,
      "ĠContext": 2291,
      "ĠNOT": 2292,
      "Ġtransformers": 2293,
      "valid": 2294,
      "Ġcontextlib": 2295,
      "Ġcontextmanag": 2296,
      "netinet": 2297,
      "Ġrun": 2298,
      "curl": 2299,
      "eprintln": 2300,
      "postgres": 2301,
      "Ġlet": 2302,
      "Ġchain": 2303,
      "ĠdoSomet": 2304,
      "Ġcompute": 2305,
      "ESTAM": 2306,
      "Stream": 2307,
      "Ġ&[": 2308,
      "Ġ:=": 2309,
      "ĠHandle": 2310,
      "ĠHost": 2311,
      "ĠHashSet": 2312,
      "ĠINDE": 2313,
      "Ġlogs": 2314,
      "stdint": 2315,
      "stdlib": 2316,
      "stdbool": 2317,
      "staticmethod": 2318,
      "Ġcreate": 2319,
      "Ġ{}!\",": 2320,
      "ĠAutoModel": 2321,
      "ĠAutoConfig": 2322,
      "ĠAutoTo": 2323,
      "ĠSemaph": 2324,
      "Ġhttp": 2325,
      "Ġsessions": 2326,
      "Ġdefaultdict": 2327,
      "ponseWriter": 2328,
      "LayerNorm": 2329,
      "mutations": 2330,
      "Ġ200": 2331,
      "Ġiterable": 2332,
      "Ġitertools": 2333,
      "Ġtimestamp": 2334,
      "Ġcache": 2335,
      "Ġcached": 2336,
      "Ġpipefail": 2337,
      "gory": 2338,
      "Ġ42": 2339,
      "Ġ404": 2340,
      "Ġunlikely": 2341,
      "Ġexpires": 2342,
      "Ġpermutations": 2343,
      "Ġnumpy": 2344,
      "Ġnumber": 2345,
      "Ġconsole": 2346,
      "100000": 2347,
      "Ġ30": 2348,
      "Ġlru": 2349,
      "(*),": 2350,
      "++)": 2351,
      "++;": 2352,
      ">>()": 2353,
      "ABASE": 2354,
      "Atomic": 2355,
      "DELETE": 2356,
      "Deque": 2357,
      "Debug": 2358,
      "Heap": 2359,
      "Result": 2360,
      "ResponseWriter": 2361,
      "UPDATE": 2362,
      "WithCh": 2363,
      "WithTime": 2364,
      "collect": 2365,
      "collections": 2366,
      "python": 2367,
      "ĠVALU": 2368,
      "ĠValue": 2369,
      "Ġclamp": 2370,
      "ĠclassName": 2371,
      "ĠAdamW": 2372,
      "ĠTIMEOU": 2373,
      "ĠTIMESTAM": 2374,
      "ĠPathBuf": 2375,
      "ĠDataset": 2376,
      "ĠDataLo": 2377,
      "ĠBufWriter": 2378,
      "ĠBufReader": 2379,
      "ĠOrdering": 2380,
      "ĠOrderedDict": 2381,
      "ĠReactNode": 2382,
      "ĠINTO": 2383,
      "Ġlogger": 2384,
      "Ġlogging": 2385,
      "True": 2386,
      "cuda": 2387,
      "grad": 2388,
      "todo": 2389,
      "trait": 2390,
      "ĠGROUP": 2391,
      "Ġraise": 2392,
      "string": 2393,
      "Ġdispatch": 2394,
      "Ġproduct": 2395,
      "Ġmemcm": 2396,
      "Ġpartial": 2397,
      "Ġenvironment": 2398,
      "Ġ5000": 2399,
      "'>{": 2400,
      "<_>>()": 2401,
      "<()>": 2402,
      "AULT": 2403,
      "Arc": 2404,
      "ACTIO": 2405,
      "AdamW": 2406,
      "ALTER": 2407,
      "BEGIN": 2408,
      "BACK": 2409,
      "COMM": 2410,
      "CREATE": 2411,
      "ClientSes": 2412,
      "Derived": 2413,
      "DING": 2414,
      "Expected": 2415,
      "HTMLDiv": 2416,
      "Hello": 2417,
      "HashMap": 2418,
      "Invalid": 2419,
      "ISTS": 2420,
      "Listener": 2421,
      "Module": 2422,
      "NSACTIO": 2423,
      "RMSNorm": 2424,
      "Second": 2425,
      "SIZE": 2426,
      "TcpListener": 2427,
      "autocast": 2428,
      "bfloat": 2429,
      "fmt": 2430,
      "finally": 2431,
      "filter": 2432,
      "functional": 2433,
      "github": 2434,
      "hasattr": 2435,
      "issubclass": 2436,
      "kenizer": 2437,
      "kubectl": 2438,
      "kwargs": 2439,
      "mydb": 2440,
      "mpsc": 2441,
      "nproc": 2442,
      "panic": 2443,
      "params": 2444,
      "package": 2445,
      "switch": 2446,
      "sys": 2447,
      "sorted": 2448,
      "should": 2449,
      "socket": 2450,
      "softmax": 2451,
      "txt": 2452,
      "while": 2453,
      "Ġatomic": 2454,
      "ĠERROR": 2455,
      "ĠVecDeque": 2456,
      "Ġignore": 2457,
      "ĠEXISTS": 2458,
      "index": 2459,
      "reducer": 2460,
      "stdio": 2461,
      "Ġaiohttp": 2462,
      "enumerate": 2463,
      "encoding": 2464,
      "Ġcleanup": 2465,
      "Ġcategory": 2466,
      "Ġcollections": 2467,
      "items": 2468,
      "Ġfunctools": 2469,
      "Ġports": 2470,
      "Ġpathlib": 2471,
      "Ġreverse": 2472,
      "utils": 2473,
      "interface": 2474,
      "another": 2475,
      "Ġsuppress": 2476,
      "Ġnamedtuple": 2477,
      "Ġnullcontext": 2478,
      "Ġbroadcast": 2479,
      "Ġdatetime": 2480,
      "Ġstart": 2481,
      "unistd": 2482,
      "unimplemented": 2483,
      "unreachable": 2484,
      "Ġtolower": 2485,
      "connections": 2486,
      "container": 2487,
      "ĠRouter": 2488,
      "ĠREADME": 2489,
      "ĠRuntimeError": 2490,
      "ĠinitialState": 2491,
      "Ġmemoized": 2492,
      "ĠCallable": 2493,
      "ĠCOUNT": 2494,
      "ĠCounter": 2495,
      "ĠCOLUMN": 2496,
      "adAttention": 2497,
      "ĠARRAY": 2498,
      "Ġhappen": 2499,
      "Ġlabels": 2500,
      "ĠFound": 2501,
      "ĠuseCallback": 2502,
      "ĠuseReducer": 2503,
      "ĠTRANSACTIO": 2504,
      "ĠTABLE": 2505,
      "ĠTcpStream": 2506,
      "ĠTransformerLayer": 2507,
      "Ġdataclasses": 2508,
      "ĠPENDING": 2509,
      "ĠPropsWithCh": 2510,
      "ĠDATABASE": 2511,
      "ĠDESC": 2512,
      "ĠDEFAULT": 2513,
      "ĠBinaryHeap": 2514,
      "ĠBTreeMap": 2515,
      "ĠNewServer": 2516,
      "ableDataset": 2517,
      "Ġcombinations": 2518,
      "ROLLBACK": 2519,
      "ĠMultiHeadAttention": 2520,
      "ĠUNUSED": 2521,
      "ĠWorker": 2522,
      "ĠLIMIT": 2523,
      "ĠLambdaLR": 2524,
      "ĠLIKE": 2525,
      "Ġoneshot": 2526,
      "ĠIterableDataset": 2527,
      "ĠInstallation": 2528,
      "longest": 2529,
      "services": 2530,
      "Ġcontextmanager": 2531,
      "ĠdoSomething": 2532,
      "ĠINDEX": 2533,
      "ĠAutoTokenizer": 2534,
      "ĠSemaphore": 2535,
      "AtomicUsize": 2536,
      "WithTimeout": 2537,
      "ĠVALUES": 2538,
      "ĠValueError": 2539,
      "ĠTIMEOUT": 2540,
      "ĠTIMESTAMP": 2541,
      "ĠDataLoader": 2542,
      "Ġmemcmp": 2543,
      "COMMIT": 2544,
      "ClientSession": 2545,
      "HTMLDivElement": 2546,
      "ĠTRANSACTION": 2547,
      "ĠPropsWithChildren": 2548,
      "'s": 2549,
      "24": 2550,
      "99": 2551,
      "Batch": 2552,
      "CP": 2553,
      "Co": 2554,
      "Cr": 2555,
      "Cross": 2556,
      "Do": 2557,
      "Drop": 2558,
      "Distribut": 2559,
      "Ear": 2560,
      "Each": 2561,
      "Le": 2562,
      "Mult": 2563,
      "Mem": 2564,
      "Mixed": 2565,
      "Network": 2566,
      "PT": 2567,
      "Ple": 2568,
      "Posit": 2569,
      "She": 2570,
      "Than": 2571,
      "Vi": 2572,
      "Version": 2573,
      "We": 2574,
      "af": 2575,
      "ak": 2576,
      "ause": 2577,
      "avi": 2578,
      "ble": 2579,
      "base": 2580,
      "bout": 2581,
      "ci": 2582,
      "cr": 2583,
      "cy": 2584,
      "cing": 2585,
      "cis": 2586,
      "col": 2587,
      "cour": 2588,
      "dan": 2589,
      "dun": 2590,
      "day": 2591,
      "dge": 2592,
      "dware": 2593,
      "eo": 2594,
      "elo": 2595,
      "eur": 2596,
      "eks": 2597,
      "ful": 2598,
      "fore": 2599,
      "flow": 2600,
      "fitting": 2601,
      "gre": 2602,
      "ges": 2603,
      "ght": 2604,
      "hen": 2605,
      "havi": 2606,
      "ies": 2607,
      "ient": 2608,
      "iff": 2609,
      "ience": 2610,
      "ibut": 2611,
      "just": 2612,
      "ked": 2613,
      "ling": 2614,
      "lab": 2615,
      "lain": 2616,
      "layer": 2617,
      "mun": 2618,
      "mall": 2619,
      "mant": 2620,
      "mend": 2621,
      "mitting": 2622,
      "ner": 2623,
      "ogra": 2624,
      "pment": 2625,
      "rt": 2626,
      "rary": 2627,
      "sign": 2628,
      "spec": 2629,
      "ts": 2630,
      "tro": 2631,
      "tol": 2632,
      "tax": 2633,
      "tific": 2634,
      "ud": 2635,
      "ues": 2636,
      "ures": 2637,
      "ualiz": 2638,
      "uctions": 2639,
      "ven": 2640,
      "velo": 2641,
      "wle": 2642,
      "yle": 2643,
      "ypt": 2644,
      "yber": 2645,
      "ze": 2646,
      "zer": 2647,
      "zens": 2648,
      "Ġor": 2649,
      "Ġim": 2650,
      "Ġit": 2651,
      "Ġli": 2652,
      "ĠThe": 2653,
      "Ġhel": 2654,
      "ĠGit": 2655,
      "Ġhow": 2656,
      "Ġhead": 2657,
      "Ġexecut": 2658,
      "Ġzer": 2659,
      "inim": 2660,
      "ines": 2661,
      "inds": 2662,
      "inner": 2663,
      "ons": 2664,
      "onit": 2665,
      "erence": 2666,
      "erant": 2667,
      "ates": 2668,
      "atly": 2669,
      "oring": 2670,
      "ored": 2671,
      "orial": 2672,
      "orative": 2673,
      "rees": 2674,
      "reci": 2675,
      "reful": 2676,
      "reatly": 2677,
      "Ġtal": 2678,
      "Ġtut": 2679,
      "Ġtas": 2680,
      "Ġtail": 2681,
      "Ġtest": 2682,
      "Ġtak": 2683,
      "Ġtrees": 2684,
      "Ġare": 2685,
      "Ġaug": 2686,
      "Ġabout": 2687,
      "Ġagre": 2688,
      "ende": 2689,
      "enal": 2690,
      "enges": 2691,
      "seen": 2692,
      "security": 2693,
      "rodu": 2694,
      "roval": 2695,
      "rocer": 2696,
      "Ġclo": 2697,
      "Ġcli": 2698,
      "Ġcall": 2699,
      "Ġcapp": 2700,
      "Ġcyber": 2701,
      "alked": 2702,
      "alts": 2703,
      "imes": 2704,
      "itho": 2705,
      "itect": 2706,
      "ctly": 2707,
      "ingual": 2708,
      "Ġfast": 2709,
      "Ġfault": 2710,
      "Ġfixed": 2711,
      "Ġfinds": 2712,
      "Ġpure": 2713,
      "Ġpull": 2714,
      "Ġpoint": 2715,
      "Ġposit": 2716,
      "Ġpenal": 2717,
      "Ġreli": 2718,
      "Ġrevi": 2719,
      "Ġrecom": 2720,
      "Ġrequest": 2721,
      "Ġrewar": 2722,
      "Ġredun": 2723,
      "ization": 2724,
      "loding": 2725,
      "locks": 2726,
      "intain": 2727,
      "lete": 2728,
      "anages": 2729,
      "aneo": 2730,
      "Ġsun": 2731,
      "Ġsyn": 2732,
      "Ġsche": 2733,
      "Ġsum": 2734,
      "Ġscheduler": 2735,
      "Ġsomet": 2736,
      "Ġsoft": 2737,
      "Ġspec": 2738,
      "Ġscr": 2739,
      "Ġsmall": 2740,
      "Ġnon": 2741,
      "Ġnode": 2742,
      "Ġneur": 2743,
      "amet": 2744,
      "Ġbut": 2745,
      "Ġbatch": 2746,
      "Ġbec": 2747,
      "Ġblow": 2748,
      "Ġbree": 2749,
      "Ġback": 2750,
      "Ġbeen": 2751,
      "Ġbinary": 2752,
      "Ġboth": 2753,
      "ential": 2754,
      "chitect": 2755,
      "ssue": 2756,
      "Ġdue": 2757,
      "Ġdig": 2758,
      "Ġdire": 2759,
      "Ġdistribut": 2760,
      "Ġdiff": 2761,
      "Ġdinner": 2762,
      "ular": 2763,
      "ational": 2764,
      "Ġstore": 2765,
      "Ġstabil": 2766,
      "Ġstyle": 2767,
      "ilation": 2768,
      "ilar": 2769,
      "ilingual": 2770,
      "idual": 2771,
      "arative": 2772,
      "ardware": 2773,
      "defined": 2774,
      "clarative": 2775,
      "liver": 2776,
      "lision": 2777,
      "ligence": 2778,
      "Ġoptim": 2779,
      "Ġtoday": 2780,
      "usly": 2781,
      "ultaneo": 2782,
      "omly": 2783,
      "omates": 2784,
      "Ġcontr": 2785,
      "Ġconver": 2786,
      "Ġconfer": 2787,
      "Ġconne": 2788,
      "Ġcontain": 2789,
      "Ġcondit": 2790,
      "Ġcontinuous": 2791,
      "Ġcontro": 2792,
      "raph": 2793,
      "Ġwel": 2794,
      "Ġwork": 2795,
      "Ġwhen": 2796,
      "Ġwalked": 2797,
      "Ġwitho": 2798,
      "Ġproto": 2799,
      "Ġprogress": 2800,
      "Ġproble": 2801,
      "ĠRaf": 2802,
      "Ġintel": 2803,
      "Ġinterfa": 2804,
      "Ġintrodu": 2805,
      "asizes": 2806,
      "asures": 2807,
      "Ġversion": 2808,
      "Ġinclude": 2809,
      "Ġinform": 2810,
      "Ġinject": 2811,
      "Ġinstr": 2812,
      "Ġincre": 2813,
      "Ġmanag": 2814,
      "Ġminim": 2815,
      "Ġmonit": 2816,
      "Ġmanages": 2817,
      "Ġimportant": 2818,
      "inear": 2819,
      "001": 2820,
      "Ġdeco": 2821,
      "Ġdesc": 2822,
      "Ġdealloc": 2823,
      "Ġdebug": 2824,
      "Ġdecay": 2825,
      "Ġdesign": 2826,
      "Ġdevelo": 2827,
      "Ġdeclarative": 2828,
      "Ġdeliver": 2829,
      "ics": 2830,
      "icient": 2831,
      "icular": 2832,
      "Ġappreci": 2833,
      "Ġapproval": 2834,
      "Ġresist": 2835,
      "Ġresour": 2836,
      "Ġresidual": 2837,
      "agation": 2838,
      "Ġhas": 2839,
      "Ġhand": 2840,
      "Ġhandle": 2841,
      "Ġhalts": 2842,
      "Ġhardware": 2843,
      "Ġlayer": 2844,
      "Ġlatest": 2845,
      "Ġlinear": 2846,
      "Ġused": 2847,
      "olated": 2848,
      "ĠTCP": 2849,
      "Ġenhan": 2850,
      "Ġencour": 2851,
      "Ġdataset": 2852,
      "ialized": 2853,
      "ĠPax": 2854,
      "ases": 2855,
      "verages": 2856,
      "Ġeff": 2857,
      "Ġeffect": 2858,
      "Ġeven": 2859,
      "Ġmaps": 2860,
      "Ġmaintain": 2861,
      "ĠBERT": 2862,
      "ather": 2863,
      "Ġreturns": 2864,
      "Ġoffer": 2865,
      "ches": 2866,
      "oregress": 2867,
      "Ġvalues": 2868,
      "Ġset": 2869,
      "Ġsecurity": 2870,
      "Ġsemant": 2871,
      "ensus": 2872,
      "Ġcommun": 2873,
      "Ġgreatly": 2874,
      "Ġgrocer": 2875,
      "Ġgraph": 2876,
      "Ġusage": 2877,
      "allenges": 2878,
      "Ġbuy": 2879,
      "dered": 2880,
      "ists": 2881,
      "Ġthat": 2882,
      "Ġthread": 2883,
      "Ġtrack": 2884,
      "ansfer": 2885,
      "Concur": 2886,
      "Continuous": 2887,
      "Ġisolated": 2888,
      "location": 2889,
      "ively": 2890,
      "actoring": 2891,
      "Ġissue": 2892,
      "Ġweb": 2893,
      "Ġweeks": 2894,
      "Ġweather": 2895,
      "ĠIP": 2896,
      "ĠIt": 2897,
      "Ġtoken": 2898,
      "Ġprocesses": 2899,
      "Ġlocks": 2900,
      "Ġtransforms": 2901,
      "Ġtransformer": 2902,
      "Ġpredict": 2903,
      "Ġprecis": 2904,
      "Ġcontextualiz": 2905,
      "Ġnormalizing": 2906,
      "Ġnormalizes": 2907,
      "Ġrate": 2908,
      "Ġrand": 2909,
      "mains": 2910,
      "linear": 2911,
      "phic": 2912,
      "phasizes": 2913,
      "Ġleverages": 2914,
      "Ġchallenges": 2915,
      "Ġparty": 2916,
      "Ġparamet": 2917,
      "Ġdocu": 2918,
      "Ġdozens": 2919,
      "Ġdomains": 2920,
      "Ġcomputing": 2921,
      "Ġcomputes": 2922,
      "Ġcomputational": 2923,
      "Ġimperat": 2924,
      "erating": 2925,
      "Ġaddit": 2926,
      "Ġadjust": 2927,
      "Ġmeasures": 2928,
      "mutability": 2929,
      "propagation": 2930,
      "Ġiterative": 2931,
      "rent": 2932,
      "Ġcareful": 2933,
      "Ġfloating": 2934,
      "Ġpipeline": 2935,
      "Ġstructure": 2936,
      "Refactoring": 2937,
      "Database": 2938,
      "Ġunexpected": 2939,
      "Ġunseen": 2940,
      "Ġexplain": 2941,
      "Ġexploding": 2942,
      "Ġreduces": 2943,
      "Ġrequires": 2944,
      "Ġconsensus": 2945,
      "Ġconsists": 2946,
      "Ġweights": 2947,
      "Ġweighted": 2948,
      "Ġdeploying": 2949,
      "bitrary": 2950,
      "Ġ32": 2951,
      "Ġemphasizes": 2952,
      "Ġallocation": 2953,
      "Ġartific": 2954,
      "Ġarchitect": 2955,
      "Ġarbitrary": 2956,
      "Ġfeed": 2957,
      "Ġoverfitting": 2958,
      "Ġmodels": 2959,
      "Ġencoding": 2960,
      "Ġimproving": 2961,
      "Ġactivation": 2962,
      "Ġrepresentation": 2963,
      "Ġlanguage": 2964,
      "Functional": 2965,
      "Transfer": 2966,
      "forward": 2967,
      "nowle": 2968,
      "trained": 2969,
      "ĠGPT": 2970,
      "Ġrace": 2971,
      "Ġdiscre": 2972,
      "Ġproduce": 2973,
      "Ġmemory": 2974,
      "Ġparticular": 2975,
      "Ġenvironments": 2976,
      "ests": 2977,
      "Ġkern": 2978,
      "Ġknowle": 2979,
      "Ġextern": 2980,
      "Ġextende": 2981,
      "Ġautomates": 2982,
      "Ġautoregress": 2983,
      "Ġcollab": 2984,
      "Ġcollision": 2985,
      "Ġpatience": 2986,
      "Ġpatches": 2987,
      "Ġsimilar": 2988,
      "Ġsimultaneo": 2989,
      "Ġsublayer": 2990,
      "Ġsubmitting": 2991,
      "Ġnetworks": 2992,
      "Ġbefore": 2993,
      "Ġbehavi": 2994,
      "Ġstops": 2995,
      "Ġstopping": 2996,
      "Ġopen": 2997,
      "Ġoperating": 2998,
      "Ġintegration": 2999,
      "Ġintegrity": 3000,
      "Ġdeadline": 3001,
      "Ġdeadlocks": 3002,
      "Ġmachine": 3003,
      "Ġmachines": 3004,
      "Ġsequence": 3005,
      "Ġsequential": 3006,
      "Ġcomplete": 3007,
      "Ġcompilation": 3008,
      "Ġgradients": 3009,
      "Ġprevents": 3010,
      "Ġchanging": 3011,
      "Ġchanges": 3012,
      "Ġmechanism": 3013,
      "Ġmechanisms": 3014,
      "Ġalgorithm": 3015,
      "Ġalgorithms": 3016,
      "Ġfeatured": 3017,
      "executable": 3018,
      "Ġprovides": 3019,
      "Ġembeddings": 3020,
      "Could": 3021,
      "Crypt": 3022,
      "Domain": 3023,
      "Dropout": 3024,
      "Distributed": 3025,
      "Early": 3026,
      "Learning": 3027,
      "Multilingual": 3028,
      "Memory": 3029,
      "Please": 3030,
      "Positional": 3031,
      "Thank": 3032,
      "Virt": 3033,
      "Weight": 3034,
      "cols": 3035,
      "dancy": 3036,
      "flows": 3037,
      "ibution": 3038,
      "ographic": 3039,
      "specific": 3040,
      "tolerant": 3041,
      "Ġordered": 3042,
      "Ġimmutability": 3043,
      "Ġlight": 3044,
      "Ġhelp": 3045,
      "Ġexecution": 3046,
      "Ġzeros": 3047,
      "Ġtalks": 3048,
      "Ġtutorial": 3049,
      "Ġtask": 3050,
      "Ġtailored": 3051,
      "Ġtakes": 3052,
      "Ġaugmentation": 3053,
      "Ġagreement": 3054,
      "Ġcloud": 3055,
      "Ġclipping": 3056,
      "Ġcapping": 3057,
      "Ġcybersecurity": 3058,
      "Ġfaster": 3059,
      "Ġpositions": 3060,
      "Ġpenalty": 3061,
      "Ġreliable": 3062,
      "Ġreview": 3063,
      "Ġrecommend": 3064,
      "Ġrewarding": 3065,
      "Ġredundancy": 3066,
      "Ġsunny": 3067,
      "Ġsyntax": 3068,
      "Ġschema": 3069,
      "Ġsums": 3070,
      "Ġsometimes": 3071,
      "Ġsoftware": 3072,
      "Ġspecialized": 3073,
      "Ġscratch": 3074,
      "Ġsmaller": 3075,
      "Ġnodes": 3076,
      "Ġneurons": 3077,
      "Ġbecause": 3078,
      "Ġblowing": 3079,
      "Ġbreeze": 3080,
      "Ġbackpropagation": 3081,
      "Ġdigests": 3082,
      "Ġdirectly": 3083,
      "Ġdistributions": 3084,
      "Ġdifference": 3085,
      "Ġstabilizes": 3086,
      "Ġoptimization": 3087,
      "Ġcontribution": 3088,
      "Ġconvergence": 3089,
      "Ġconference": 3090,
      "Ġconnection": 3091,
      "Ġcontainers": 3092,
      "Ġconditions": 3093,
      "Ġcontrol": 3094,
      "Ġwell": 3095,
      "Ġworkflows": 3096,
      "Ġwithout": 3097,
      "Ġprotocols": 3098,
      "Ġproblem": 3099,
      "ĠRaft": 3100,
      "Ġintelligence": 3101,
      "Ġinterfaces": 3102,
      "Ġintroduces": 3103,
      "Ġincludes": 3104,
      "Ġinformation": 3105,
      "Ġinjects": 3106,
      "Ġinstructions": 3107,
      "Ġincreases": 3108,
      "Ġmanagement": 3109,
      "Ġminimum": 3110,
      "Ġmonitor": 3111,
      "Ġdecoder": 3112,
      "Ġdescent": 3113,
      "Ġdeallocation": 3114,
      "Ġdevelopment": 3115,
      "Ġdelivery": 3116,
      "iciently": 3117,
      "Ġappreciated": 3118,
      "Ġresistance": 3119,
      "Ġresources": 3120,
      "Ġhandling": 3121,
      "Ġenhancing": 3122,
      "Ġencourage": 3123,
      "ĠPaxos": 3124,
      "Ġefficiently": 3125,
      "Ġeffective": 3126,
      "Ġevening": 3127,
      "Ġmaintainability": 3128,
      "Ġsemantics": 3129,
      "Ġcommunity": 3130,
      "Ġgroceries": 3131,
      "Ġthreads": 3132,
      "Concurrent": 3133,
      "Ġpredicted": 3134,
      "Ġprecision": 3135,
      "Ġcontextualized": 3136,
      "Ġrandomly": 3137,
      "Ġparameters": 3138,
      "Ġdocumentation": 3139,
      "Ġimperative": 3140,
      "Ġadditional": 3141,
      "Ġadjusts": 3142,
      "Ġexplains": 3143,
      "Ġartificial": 3144,
      "Ġarchitecture": 3145,
      "Ġdiscrete": 3146,
      "Ġkernel": 3147,
      "Ġknowledge": 3148,
      "Ġexternal": 3149,
      "Ġextended": 3150,
      "Ġautoregressively": 3151,
      "Ġcollaborative": 3152,
      "Ġsimilarity": 3153,
      "Ġsimultaneously": 3154,
      "Ġbehavior": 3155,
      "Cryptographic": 3156,
      "Virtual": 3157,
      "CD": 3158,
      "CI": 3159,
      "CAP": 3160,
      "Docker": 3161,
      "FU": 3162,
      "GP": 3163,
      "II": 3164,
      "Iãģ®": 3165,
      "Ja": 3166,
      "JIT": 3167,
      "Kub": 3168,
      "LFU": 3169,
      "Py": 3170,
      "Rust": 3171,
      "UãģĮ": 3172,
      "UãĤĦ": 3173,
      "aScript": 3174,
      "tree": 3175,
      "vaScript": 3176,
      "¡ãģª": 3177,
      "¡çĲĨ": 3178,
      "¡ãģ«ãģ¯": 3179,
      "¡çķ": 3180,
      "¡ãĤĴè¡ĮãģĦãģ¾ãģĻ": 3181,
      "¢ĥ": 3182,
      "¢ãĤĴ": 3183,
      "¢çĻ": 3184,
      "¢ãģ¨ãģĹãģ¦åºĥ": 3185,
      "¢ãĥ¼ãĤŃãĥĨãĤ¯ãĥģãĥ£": 3186,
      "£²": 3187,
      "£ħ": 3188,
      "£ľ": 3189,
      "£ãģĮ": 3190,
      "£ãģ¨ãģĹãģ¦": 3191,
      "£ãĥĥãĤ¯": 3192,
      "£åĳ³": 3193,
      "¤Ĭ": 3194,
      "¤ãģĹ": 3195,
      "¤ãģ®ãĥĲ": 3196,
      "¤åŃ¦ç¿Ĵãĥ¢ãĥĩãĥ«": 3197,
      "¥ä¸": 3198,
      "¥ãģĦãģ¦": 3199,
      "¥èŃ": 3200,
      "¥åĮĸãģķãĤĮ": 3201,
      "¦ģ": 3202,
      "¦Ĥ": 3203,
      "¦ãĥ¼ãĤ": 3204,
      "§ģ": 3205,
      "§Ĩ": 3206,
      "§ĺ": 3207,
      "§ãĥĥãĥģ": 3208,
      "§ãĥ¼ãĤ¹ãģ¯è": 3209,
      "§£ãģĮ": 3210,
      "¨ãģĹãģ¾ãģĻ": 3211,
      "¨ãģ®æĮ": 3212,
      "©±": 3213,
      "©¶": 3214,
      "©ķ": 3215,
      "©ãģ®": 3216,
      "©ãģ«": 3217,
      "©åĬĽ": 3218,
      "©æ°Ĺ": 3219,
      "©ãĤ·ãĤ¹ãĥĨãĥł": 3220,
      "ªãģ«": 3221,
      "ªãĤĮ": 3222,
      "«æĢ§": 3223,
      "¬ī": 3224,
      "¬ä»": 3225,
      "¬ç«ĭ": 3226,
      "®æĥ": 3227,
      "®¡çĲĨ": 3228,
      "¯¾": 3229,
      "¯İ": 3230,
      "¯ãģĦ": 3231,
      "¯ãĤĭ": 3232,
      "¯ä½ľ": 3233,
      "°¸": 3234,
      "°å": 3235,
      "°Ĩ": 3236,
      "°ãģ§ãģ¯": 3237,
      "°ãģªãĤĭ": 3238,
      "°¡çķ": 3239,
      "±º": 3240,
      "±ãĤĴæ": 3241,
      "±ãĤ¹ãĥĪ": 3242,
      "±æ°Ĺ": 3243,
      "±¤åŃ¦ç¿Ĵãĥ¢ãĥĩãĥ«": 3244,
      "²ĭ": 3245,
      "²ãĤģ": 3246,
      "³»": 3247,
      "³ãģ«": 3248,
      "³è¨": 3249,
      "³æ¥½": 3250,
      "´ãĥª": 3251,
      "´çĲĨ": 3252,
      "´åĲĪ": 3253,
      "´ãģį": 3254,
      "´ãģ£ãģŁ": 3255,
      "µãģ¨ãģĹãģ¦": 3256,
      "¶Ī": 3257,
      "¶ãģ¯": 3258,
      "¶å¾": 3259,
      "¶ãĥ¼ãģ«": 3260,
      "·æĢ§": 3261,
      "·åĬĽ": 3262,
      "¸ãģĦ": 3263,
      "¹å": 3264,
      "¹ãģ¦": 3265,
      "¹ãģĮ": 3266,
      "¹çİĩ": 3267,
      "ºĸ": 3268,
      "ºãģ": 3269,
      "ºãģ¨": 3270,
      "ºåĪ": 3271,
      "»½": 3272,
      "»ãĤĴ": 3273,
      "»ãģª": 3274,
      "»è¦ģ": 3275,
      "»ãģ®åİŁ": 3276,
      "¼ãģĹãģ¦": 3277,
      "¼ãģ¦ãģĦãģ¾ãģĻ": 3278,
      "¼ãĤĵãģ§": 3279,
      "½ä»": 3280,
      "½ãģĭ": 3281,
      "½åĬł": 3282,
      "¾ãģĹ": 3283,
      "¾¼ãĤĵãģ§": 3284,
      "¿½åĬł": 3285,
      "åĢ": 3286,
      "åĤ": 3287,
      "åľ": 3288,
      "åł": 3289,
      "å§ĭ": 3290,
      "å¥½": 3291,
      "å·±": 3292,
      "å¯¾": 3293,
      "å°Ĩ": 3294,
      "å±¤åŃ¦ç¿Ĵãĥ¢ãĥĩãĥ«": 3295,
      "æģ": 3296,
      "æĨ": 3297,
      "æĽ¸": 3298,
      "æĪĲ": 3299,
      "æ·±": 3300,
      "æĬĢ": 3301,
      "æĦı": 3302,
      "æİĴ": 3303,
      "æŃ£è¦ı": 3304,
      "æ§ĭéĢł": 3305,
      "æ¦Ĥ": 3306,
      "æ¯İ": 3307,
      "çĤ": 3308,
      "çĭ": 3309,
      "çĴ": 3310,
      "çŃ": 3311,
      "ç¿Ĵ": 3312,
      "ç¦ģ": 3313,
      "ç§ģ": 3314,
      "ç©¶": 3315,
      "ç®¡çĲĨ": 3316,
      "ç°¡çķ": 3317,
      "ç²ĭ": 3318,
      "ç³»": 3319,
      "èī": 3320,
      "èĭ": 3321,
      "è£ħ": 3322,
      "è§£ãģĮ": 3323,
      "è©±": 3324,
      "è»½": 3325,
      "è¾¼ãĤĵãģ§": 3326,
      "éħ": 3327,
      "éķ": 3328,
      "éĻ": 3329,
      "éĽ": 3330,
      "éŁ": 3331,
      "éł": 3332,
      "é£²": 3333,
      "é¤Ĭ": 3334,
      "é§Ĩ": 3335,
      "Ģĥ": 3336,
      "Ģæľ": 3337,
      "Ģãģ®ãģĮ": 3338,
      "Ģèªŀ": 3339,
      "ģãĤ«": 3340,
      "ģãģĮéĩįè¦ģãģ§ãģĻ": 3341,
      "ģ´ãģį": 3342,
      "Ĥãģ®è": 3343,
      "ĤåĬł": 3344,
      "ĥãģĭãĤī": 3345,
      "ĦãģĻãĤĭæ": 3346,
      "ĦãĤµãĥ¼ãĥĵãĤ¹": 3347,
      "ħãģ«": 3348,
      "ħè¡Į": 3349,
      "ħéĥ": 3350,
      "ħåł": 3351,
      "Ĩãĥ": 3352,
      "Ĩä¸": 3353,
      "Ĩãģ£": 3354,
      "ĨãĥĥãĤ¯ãĤ¹": 3355,
      "ĩåŃ": 3356,
      "ĩæ¨": 3357,
      "ĩæĸĻ": 3358,
      "ĩåĲĳ": 3359,
      "ĩãģłãģ¨æĢĿãģĦãģ¾ãģĻ": 3360,
      "Īãģ": 3361,
      "Īãģ®": 3362,
      "Īå®ļ": 3363,
      "Īåĳ³": 3364,
      "ĪéĢ±æľ«": 3365,
      "īĭ": 3366,
      "īãģ": 3367,
      "īãģĹãģ¾ãģĻ": 3368,
      "īãĥĩãĥ¼ãĤ¿": 3369,
      "īæ¨": 3370,
      "īĢæľ": 3371,
      "ĬãĤĴ": 3372,
      "ĬãĤª": 3373,
      "ĭäº": 3374,
      "ĭåĭķ": 3375,
      "ĭåīį": 3376,
      "Įæĸ¹": 3377,
      "įãĥ³": 3378,
      "įķæ": 3379,
      "įæħ®": 3380,
      "įæģ": 3381,
      "įīãģĹãģ¾ãģĻ": 3382,
      "İãĥ¬ãĥĿ": 3383,
      "İä¿¡": 3384,
      "ıåĲĪ": 3385,
      "ıãģĮãģĤ": 3386,
      "ıãĥ³ãĥī": 3387,
      "ıĲä¾Ľ": 3388,
      "Ĳãģ¨": 3389,
      "ĲãģĹãģ¦": 3390,
      "ĲãĤĮ": 3391,
      "Ĳãĥ¼ãģ«": 3392,
      "ĳãģª": 3393,
      "ĳãĤĵãģ§": 3394,
      "ĳãĤ¿ãĥ¼": 3395,
      "Ĵãģ«": 3396,
      "Ĵæı": 3397,
      "Ĵãĥ¼ãĤĴ": 3398,
      "ĵãĥĨãĤ¹ãĥĪ": 3399,
      "ĵãģ£ãģ¦": 3400,
      "ĵãģ«å": 3401,
      "Ķãĥ¥": 3402,
      "Ķ¹å": 3403,
      "Ķ¾ãģĹ": 3404,
      "Ķç²ĭ": 3405,
      "ķ´çĲĨ": 3406,
      "ĸãģĦ": 3407,
      "ĸåĪ": 3408,
      "ĸãģ¨ãģĹãģ¦": 3409,
      "ĸãĤĭãģĵãģ¨ãģ§": 3410,
      "ĸĦãģĻãĤĭæ": 3411,
      "ĹåĪĹ": 3412,
      "Ĺéķ": 3413,
      "ĺãĤĴ": 3414,
      "ĺãĤĮ": 3415,
      "ĺãģĳ": 3416,
      "ĺæĨ": 3417,
      "ĻãĤĴ": 3418,
      "Ļãģ¨ãģĹãģ¦": 3419,
      "ĻçļĦ": 3420,
      "ĻãģĹãģĦ": 3421,
      "Ļãĥ³ãĥģ": 3422,
      "ļèŃ": 3423,
      "ļåĮĸãĤĦ": 3424,
      "Ľå½": 3425,
      "ĽæĢ§ãģ®": 3426,
      "ľãĥĪ": 3427,
      "Ŀŀ": 3428,
      "Ŀãģ«": 3429,
      "Ŀãĥ¼ãĥ": 3430,
      "ĿãĤĮ": 3431,
      "Ŀä¸Ģ": 3432,
      "ŀãģĦ": 3433,
      "ŀãĤĮ": 3434,
      "ŀå¾": 3435,
      "ŀãĥĥãĥģ": 3436,
      "ŀĲãģĹãģ¦": 3437,
      "Łåĩ¦çĲĨ": 3438,
      "Łèĥ½": 3439,
      "ŁãģĻãĤĭæ": 3440,
      "Łºãģ": 3441,
      "łçĶ": 3442,
      "łç©¶": 3443,
      "łĥãģĭãĤī": 3444,
      "Ńæ³ķãģ§ãģĻ": 3445,
      "ŃæĮ": 3446,
      "Ń©ãģ«": 3447,
      "ãģŃ": 3448,
      "ãģ©ãģ®": 3449,
      "ãģ´ãģ£ãģŁ": 3450,
      "ãģ¹ãģ¦": 3451,
      "ãģĸãģĦ": 3452,
      "ãģĿãĤĮ": 3453,
      "ãģŀãĤĮ": 3454,
      "ãĥĦãĥ¼ãĥ«": 3455,
      "ãĥİãĥ¬ãĥĿ": 3456,
      "ãĥĻãĥ³ãĥģ": 3457,
      "ãĤ´ãĥª": 3458,
      "ãĤĢãģ®ãģĮ": 3459,
      "ãĤįæģ": 3460,
      "ernet": 3461,
      "ãģĻãģ¹ãģ¦": 3462,
      "ãĥ¼ãģ¯": 3463,
      "ãĥ¼ãĤĴæ": 3464,
      "ãĤĴåı": 3465,
      "ãĤĴå¤": 3466,
      "ãĤĴä½¿": 3467,
      "ãĤĴãĥ¡ãĥ¢ãĥª": 3468,
      "ãĤĴåĪĨ": 3469,
      "ãĤĴåīį": 3470,
      "ãĤĴçī¹": 3471,
      "ãĤĴé¤Ĭ": 3472,
      "esãģ¯ãĤ³ãĥ³ãĥ": 3473,
      "ãģ®ãģª": 3474,
      "ãģ®ä¸": 3475,
      "ãģ®çĲĨ": 3476,
      "ãģ®ä»": 3477,
      "ãģ®ãĥĳ": 3478,
      "ãģ®ä¸Ģ": 3479,
      "ãģ®æľĢ": 3480,
      "ãģ®éĩįè¦ģ": 3481,
      "ãģ®åĨ": 3482,
      "ãģ®ãĥĸãĥ©": 3483,
      "ãģ®ãģĤ": 3484,
      "ãģ®ãĤ¤ãĥ³": 3485,
      "ãģ®åŃ¦ç¿Ĵ": 3486,
      "ãģ®UI": 3487,
      "ãģ®äºĮ": 3488,
      "ãģ®æĸ°ãģĹãģĦ": 3489,
      "ãģ®ä¸įè¶³": 3490,
      "ãģ§ãģ«": 3491,
      "ãģ§ãĥĹ": 3492,
      "ãģ§ãĤĤ": 3493,
      "ãģ¯B": 3494,
      "ãģ¯åı": 3495,
      "ãģ¯æĸ": 3496,
      "ãģ¯ãĤ¢": 3497,
      "ãģ¯åī": 3498,
      "ãģ¯ãĥĳ": 3499,
      "ãģ¯ãĥ¡ãĥ¢ãĥª": 3500,
      "ãģ¯ä¼": 3501,
      "ãģ¯å¤ĸ": 3502,
      "ãģ¯åĵģè³ª": 3503,
      "ãģ¯ç¢º": 3504,
      "ãģ¯ãģ¨ãģ¦ãĤĤ": 3505,
      "ãģ¯åĨį": 3506,
      "ãģ¯å®Łè¡Į": 3507,
      "ãģ¯æĸ°ãģĹãģĦ": 3508,
      "ãģ¯éļľå®³": 3509,
      "ãģ¯Ja": 3510,
      "ãģ¯å°Ĩ": 3511,
      "ãģ¯ç¦ģ": 3512,
      "ãģ¯ãģĻãģ¹ãģ¦": 3513,
      "ãģ«åı": 3514,
      "ãģ«åħ": 3515,
      "ãģ«éģ©": 3516,
      "ãģ«ãģĬ": 3517,
      "ãģ«ãĥĳ": 3518,
      "ãģ«ãģ¤": 3519,
      "ãģ«ä½¿çĶ¨": 3520,
      "ãģ«æ¤ľ": 3521,
      "ãģ«èĪ": 3522,
      "ãģ«éĿ": 3523,
      "ãģ«ãģªãĤĭ": 3524,
      "ãģ«ãĤ¢ãĤ¯ãĤ»": 3525,
      "ãģ«éĢļ": 3526,
      "ãģ«èªŃ": 3527,
      "ãģ«éħ": 3528,
      "ãģĹãģı": 3529,
      "ãģĹåĲĪ": 3530,
      "ãģĹãģ¿": 3531,
      "ãģĹãģ«åħ": 3532,
      "ãģ¾ãģ§ãģ«": 3533,
      "ãģ¾ãģĻãģ¨": 3534,
      "ãģ¦ãģĬ": 3535,
      "ãģ¦è³": 3536,
      "ãģ¦æľ¬": 3537,
      "ãĥ³ãĤ¸": 3538,
      "ãĥ³ãĤµ": 3539,
      "ãĥ³ãĤ«": 3540,
      "ãĥ³ãĤ³ãĥ¼ãĥīãĤĴçĶŁæĪĲ": 3541,
      "ãĥ³ãģ¯åĨį": 3542,
      "ãģ¨ãĥĪ": 3543,
      "ãģ¨ãģĵ": 3544,
      "ãģ¨åı¯": 3545,
      "ãģ¨å¾": 3546,
      "ãģ¨ãĤµ": 3547,
      "ãģ¨çµ": 3548,
      "ãģ¨ãģ£ãģ¦": 3549,
      "ãģ¨ãĥĿ": 3550,
      "ãģ¨é«ĺ": 3551,
      "ãģ¨ãĤ³ãĥ¼ãĥīãĤĴçĶŁæĪĲ": 3552,
      "ãģ¨åĨį": 3553,
      "ãģ¨ä¸¦è¡Įåĩ¦çĲĨ": 3554,
      "ãģĦãĤĭ": 3555,
      "ãģĦãģŁ": 3556,
      "ãģĦãĤī": 3557,
      "ãģĦãģ¤": 3558,
      "ãģĦåĲĪãĤıãģĽ": 3559,
      "ãģĦç´": 3560,
      "ãģĦå§ĭ": 3561,
      "ãĥ¼ãĤ¢ãĥ¼ãĤŃãĥĨãĤ¯ãĥģãĥ£": 3562,
      "ãĥ¼ãĤ±ãĤ¹ãĥĪ": 3563,
      "ãģ§ãģĻãģŃ": 3564,
      "ãĥªãĥĩ": 3565,
      "ãĥªãĤ¯": 3566,
      "ãĥªãĥĹ": 3567,
      "ãĥªãĥ¼ãĤ¯": 3568,
      "ãĥªãĥķãĤ¡": 3569,
      "ãĥªãĥ¬ãĥĿ": 3570,
      "ãĥªãĥ³ãĤ«": 3571,
      "ãģĮéģ": 3572,
      "ãģĮãĤī": 3573,
      "ãģĮçķ": 3574,
      "ãģĮãģ§ãģįãģ¾ãģĻ": 3575,
      "ãģĮãĤĪ": 3576,
      "ãģĮåĪ©çĶ¨": 3577,
      "ãģĮåĲĮæľ": 3578,
      "ãģĮåŃĺ": 3579,
      "ãģĮå¾Ĺ": 3580,
      "ãģĮå¥½": 3581,
      "ãģĮçĭ": 3582,
      "ãģªãĥŀ": 3583,
      "ãģªè¨Ńè¨Ī": 3584,
      "ãģªè¨Ńè¨Īãģ§ãģ¯": 3585,
      "ãģªãĤ³ãĥ¼ãĥīãĤĴæĽ¸ãģı": 3586,
      "ãģªåĵģè³ª": 3587,
      "ãģªå½¹": 3588,
      "ãģªGP": 3589,
      "ãģªçĤ": 3590,
      "ãģªãģ©ãģ®": 3591,
      "ãģªãĥĦãĥ¼ãĥ«": 3592,
      "ãģªãģĮãĤī": 3593,
      "ãĥ©ãĥķãĤ": 3594,
      "ãĥ©ãģ¯ãĤ½": 3595,
      "ãĥ©ãĥ³ãĤµ": 3596,
      "ãĤ¹ãģĻãĤĭ": 3597,
      "ãĤ¹ãĤ¿": 3598,
      "ãĤ¹ãĥ¬ãĥĥ": 3599,
      "ãĤ¹ãĤĴåĪĨ": 3600,
      "ãĥ¼ãĥķãĤ": 3601,
      "ãĥ¼ãĥĨãĥĥãĤ¯ãĤ¹": 3602,
      "ãĥ¼ãĥıãĥ³ãĥī": 3603,
      "ãĥ¼ãĥĴãĥ¼ãĤĴ": 3604,
      "ãĤ¤ãĤ¯": 3605,
      "ãĤ¤ãĥ³ãĥ": 3606,
      "ãĤ¤ãĥĹ": 3607,
      "ãĤ¤ãĤº": 3608,
      "ãĤ¤ãĥĨãĤ£": 3609,
      "ãĤ¤åı¯èĥ½": 3610,
      "ãĤ¤ãĥĩãĤ£": 3611,
      "ãĤ¤ãĥ©ãģ¯ãĤ½": 3612,
      "ãĥĪãĥ¬": 3613,
      "ãĥĪåĩ¦çĲĨ": 3614,
      "ãĥĪãĥĻãĥ¼ãĤ¹": 3615,
      "ãĥĪãĤ¦": 3616,
      "ãĥĪãĥ©ãĥ³ãĤ¹": 3617,
      "ãĥĪãĥ©ãĥķãĤ": 3618,
      "ãĤĭãģŁãĤģ": 3619,
      "ãĤĭãģ®ãģĮ": 3620,
      "ãĤĭãĤ·ãĤ¹ãĥĨãĥł": 3621,
      "ãĤĭå¼": 3622,
      "ãĤĭãģ®ãģ«": 3623,
      "ãĥĩãĥĹãĥŃ": 3624,
      "ãĥĩãĥĥãĤ¯ãĤ¹": 3625,
      "çĶŁãģĻãĤĭæ": 3626,
      "ãĤ¯ãĤ¿": 3627,
      "ãĤ³ãĥŀ": 3628,
      "ãĤ³ãĥ¼ãĥĴãĥ¼ãĤĴ": 3629,
      "ãģŁæ©Łæ¢°": 3630,
      "æľĪãģ®": 3631,
      "æľĿä¸Ģ": 3632,
      "è¨ªãĤĮ": 3633,
      "è¨Ģèªŀ": 3634,
      "ãģĹãģ¦ãģĦãģ¾ãģĻ": 3635,
      "ãģĹãģ¦ãĤ³ãĥ¼ãĥī": 3636,
      "ãģĹãģ¦å®Łè¡Į": 3637,
      "ãģĹãģ¦ãĥĩãĥĹãĥŃ": 3638,
      "ãĥ³ãĥĦãĥ¼ãĥ«": 3639,
      "ãĥ³ãĥŀãĥĥãĥģ": 3640,
      "çĲĨãĥ¡ãĥ¢ãĥª": 3641,
      "çĲĨãģ«å": 3642,
      "åĪĩãģ«": 3643,
      "åĪ»ãģª": 3644,
      "åĪĩãģłãģ¨æĢĿãģĦãģ¾ãģĻ": 3645,
      "åĪĿãģ«": 3646,
      "åĲĦãĤµãĥ¼ãĥĵãĤ¹": 3647,
      "ãĥĥãĤ±": 3648,
      "çĶ¨æĢ§ãģ®": 3649,
      "çĶ¨ãģ®ãģª": 3650,
      "çĶ¨ãģĦãĤī": 3651,
      "ä½ĵãĥĨãĤ¹ãĥĪ": 3652,
      "è¦³ãģ«": 3653,
      "ãĤĴæİĴ": 3654,
      "ãĤĴæĶ¹å": 3655,
      "ãĤĴæķ´çĲĨ": 3656,
      "ãģıãĤĬ": 3657,
      "ãģıèªį": 3658,
      "ãģıæľĢéģ©": 3659,
      "ãĥ¼ãĥīãĥĲ": 3660,
      "ãĥ¼ãĥīãĤª": 3661,
      "ãĤ°åĩº": 3662,
      "ãģĻãĤĭãĤ³ãĥ¼ãĥīãĤĴæĽ¸ãģı": 3663,
      "ãģĻãĤĭãģ®ãģ«": 3664,
      "ãģĻãĤĭãģŁãĤģãģ«": 3665,
      "ãĥ¼ãĤ¿ãģ«èĪ": 3666,
      "æķ£æ": 3667,
      "æķ´åĲĪ": 3668,
      "ãģĵãĤĮ": 3669,
      "ãģĵãģ®æĸ°ãģĹãģĦ": 3670,
      "ãĥ«ãĥį": 3671,
      "ãĥ«ãĤ´ãĥª": 3672,
      "ãĥ«ãĥªãĤ¯": 3673,
      "ãĤ¢ãģ§ãģĻ": 3674,
      "ãĤ¢ãĤ¨": 3675,
      "ãĤ¢ãĥ¼ãĤŃãĥĨãĤ¯ãĥģãĥ£": 3676,
      "ãĤ¢ãĥ«ãĤ´ãĥª": 3677,
      "ãĤ·ãĥĵ": 3678,
      "ãĤ·ãĥ³ãĤ³ãĥ¼ãĥīãĤĴçĶŁæĪĲ": 3679,
      "ãĤĮãģ¦ãģĦãģ¾ãģĻ": 3680,
      "ãĤĴè¤ĩæķ°ãģ®": 3681,
      "ãĤĴèĩªåĭķ": 3682,
      "ãĤĴè£ľ": 3683,
      "ãĤĴè¿½åĬł": 3684,
      "ãĤĴèĢĥ": 3685,
      "ãĤĴèģ´ãģį": 3686,
      "ãģ¨ãģĹãģ¦ä½¿çĶ¨": 3687,
      "ãĥĩãĥ¼ãĤ¿ãĥ¬": 3688,
      "ãĥĩãĥ¼ãĤ¿ãĤ»": 3689,
      "ãĤ³ãĥ¼ãĥīãĤĴè§£æ": 3690,
      "åĲĪçİĩ": 3691,
      "è¡Įãģį": 3692,
      "React": 3693,
      "§ĭãĤĴçĶ¨ãģĦãģ¦": 3694,
      "ä»®æĥ": 3695,
      "ä»ĸåĪ": 3696,
      "ä»ĺãģĳ": 3697,
      "å¤©æ°Ĺ": 3698,
      "éĢŁãģª": 3699,
      "éĢ²ãĤģ": 3700,
      "éģĭåĭķ": 3701,
      "ãĥ¡ãĤ¿": 3702,
      "ãĥ¢ãĥİãĥ¬ãĥĿ": 3703,
      "ãĥ¬ãĥ¼ãĤ·ãĥ§": 3704,
      "ãĥ¬ãĥĵ": 3705,
      "ãĥŃãĤµãĥ¼ãĥĵãĤ¹": 3706,
      "ãĥŃãĥ¼ãĥīãĥĲ": 3707,
      "ãĥŃãĤ°åĩº": 3708,
      "ãĥķãĤ§ãĥĥãĥģ": 3709,
      "ãģ§ãģ¯æľĢ": 3710,
      "ãģ§ãģ¯ãĥŁ": 3711,
      "ãģ§ãģ¯CAP": 3712,
      "ãģ§ãģ¯åĲĦãĤµãĥ¼ãĥĵãĤ¹": 3713,
      "ãģĹãģŁãĥ¡ãĥ¢ãĥª": 3714,
      "ãģĹãģŁåĽ": 3715,
      "ãģĹãģŁUI": 3716,
      "ãģĹãģŁè¨Ģèªŀ": 3717,
      "ãĥ¼ãĤ¹ãĤ³ãĥ¼ãĥīãĤĴè§£æ": 3718,
      "åĩ¦çĲĨãģ§ãģĻ": 3719,
      "åĩ¦çĲĨãģĹãģ¾ãģĻ": 3720,
      "åĩ¦çĲĨãĤĴçĶ¨ãģĦãģ¦": 3721,
      "åĩ¦çĲĨãģ¨ä¸¦è¡Įåĩ¦çĲĨ": 3722,
      "ioãĥ©ãĤ¤ãĥĸãĥ©ãĥª": 3723,
      "ä¾¡ãģ«ãģ¯": 3724,
      "ä¿Ĥãģ®è": 3725,
      "åĬ¹çİĩ": 3726,
      "åĮºåĪ": 3727,
      "åŃĲä¾Ľ": 3728,
      "ãģįãģ§": 3729,
      "ãĥĸãģªè¨Ńè¨Īãģ§ãģ¯": 3730,
      "ãĥłãĤĴæ§ĭç¯īãģĹãģ¾ãģĻ": 3731,
      "ãĥłãģ®çĲĨ": 3732,
      "ãĥłãģ«éĢļ": 3733,
      "ãĥłãģĮåĪ©çĶ¨": 3734,
      "ãĤ¿ãĥ¼ãĥķãĤ": 3735,
      "ãĤ¿ãĤ¤ãĤº": 3736,
      "ãĤĬãģ§ãģĻ": 3737,
      "ãĤĬæľĢéģ©": 3738,
      "ãģ®æ§ĭç¯ī": 3739,
      "ãģ®æŃ£è¦ı": 3740,
      "ãģ®æ°¸": 3741,
      "ãģ®æºĸ": 3742,
      "ãģ®æīĢæľ": 3743,
      "ãģ«ãģ¯ãĤ»": 3744,
      "ãģ«ãģ¯RA": 3745,
      "ãģ«ãģ¯async": 3746,
      "ãģ«ãģ¯å¤§": 3747,
      "ãģ«ãģ¯ä¾ĭå¤ĸ": 3748,
      "ãģ«ãģ¯ãģĿãĤĮ": 3749,
      "ãĤ¹ãĥĪãĤĴä½ľ": 3750,
      "æĢ§èĥ½": 3751,
      "äºĪå®ļ": 3752,
      "äºĭåīį": 3753,
      "äºĴæı": 3754,
      "å¾ĵãģ£ãģ¦": 3755,
      "åħĪéĢ±æľ«": 3756,
      "åīĩãģ«": 3757,
      "ãĥŀãĥį": 3758,
      "ãĥŀãĥ¼ãĤ¯": 3759,
      "ãĥŀãĥķãĤ©": 3760,
      "ãĥŀãĤ¤ãĤ¯": 3761,
      "ãĤ¸ãģ¯åĵģè³ª": 3762,
      "ãĤ¸ãĥłãģ«éĢļ": 3763,
      "ãĤ»ãĤŃ": 3764,
      "ãĤ»ãĥŀãĥķãĤ©": 3765,
      "ãĤģãģ¾ãģĹãģŁ": 3766,
      "ãĥ³ãĤ°ãģ«ä½¿çĶ¨": 3767,
      "ãĥ³ãĤ°ãģ¨å¾": 3768,
      "ãģĦãģ¦ãģĭãĤī": 3769,
      "ãģĦãģ¦è©±": 3770,
      "ä¸įæĺİ": 3771,
      "ãĤ³ãĥ³ãĥĶãĥ¥": 3772,
      "ãģĵãģ¨ãģĮå¤§": 3773,
      "ãģĵãģ¨ãģĮãģ§ãģįãģ¾ãģĻ": 3774,
      "éģ©åĪĩãģ«": 3775,
      "éģ©åĲĪçİĩ": 3776,
      "åĮĸãģ¯ãĥĩãĥ¼ãĤ¿": 3777,
      "åĮĸæĬĢ": 3778,
      "ãģķãĤĮãģ¾ãģĻ": 3779,
      "ãģķãĤĮãĤĭå¼": 3780,
      "LRUãĤĦ": 3781,
      "Gitãģ®ãĥĸãĥ©": 3782,
      "å¿µãģ¨ãģĹãģ¦": 3783,
      "å¿ĺãĤĮ": 3784,
      "å¿ĻãģĹãģĦ": 3785,
      "æ³¨æ": 3786,
      "æħ£ãģ¨ãģĹãģ¦": 3787,
      "ãģĬæ°Ĺ": 3788,
      "ãģĬãģıæľĢéģ©": 3789,
      "ãģĬå¿ĻãģĹãģĦ": 3790,
      "ãģłãģĳ": 3791,
      "ãĥ¥ãĥ¼ãĤĴ": 3792,
      "ãĥ¥ãĥªãĥĨãĤ£": 3793,
      "ãĥ¥æĪ¦çķ¥ãģ¨ãģĹãģ¦": 3794,
      "ãĥ¥ãĥ¼ãĥĨãĥĥãĤ¯ãĤ¹": 3795,
      "ãĥ§ãĥĭ": 3796,
      "ãĥ§ãĥ³ãĥĻãĥ¼ãĤ¹": 3797,
      "ãĥĲãĥ¼ãĤ¸": 3798,
      "ãĥĲãĥ¬ãĥĥ": 3799,
      "ãĥĳãĥķãĤ©ãĥ¼ãĥŀ": 3800,
      "ãĥĳãĤ¤ãĥĹ": 3801,
      "ãĤªãĥłãģ®çĲĨ": 3802,
      "ãĤĦGit": 3803,
      "ãĤĦãĤ»ãĥŀãĥķãĤ©": 3804,
      "ä¸Ģç·": 3805,
      "ãĥĨãĤ¹ãĥĪãĤĴæĽ¸": 3806,
      "ãĥĨãĤ¹ãĥĪãĤ³ãĥ¼ãĥīãģ®": 3807,
      "ãĥĨãĤ¹ãĥĪãĤĴçµĦãģ¿åĲĪãĤıãģĽãģ¦": 3808,
      "ãĥĨãĤ¹ãĥĪé§Ĩ": 3809,
      "ãĥĹãĥŃãĤ¸ãĤ§ãĤ¯ãĥĪ": 3810,
      "çĻºçĶŁæ": 3811,
      "çĻºè¡¨": 3812,
      "çĻºçĶŁãģĻãĤĭæ": 3813,
      "ãĥ¡ãĥ¢ãĥªãĥªãĥ¼ãĤ¯": 3814,
      "¤ĩéĽ": 3815,
      "§£æ±º": 3816,
      "ä¼ļãģ«": 3817,
      "ä¼ĳãĤĵãģ§": 3818,
      "ä¼ļèŃ": 3819,
      "å½ĵãģ«å": 3820,
      "åĨħéĥ": 3821,
      "æ©Łèĥ½": 3822,
      "æĹħè¡Į": 3823,
      "ãģ¤ãģ§ãģĻ": 3824,
      "ãģ¤ãģ®ä¸": 3825,
      "ãģ¿è¾¼ãĤĵãģ§": 3826,
      "ãģĭãģĳ": 3827,
      "ãģĳãģ¦è³": 3828,
      "ãģĽãģ¾ãģĻ": 3829,
      "ãĥ£ãĥĥãĤ·": 3830,
      "ãĥ£ãģ®éĩįè¦ģ": 3831,
      "ãĤ§ãĤ¢ãĤ¨": 3832,
      "ãĤ¨ãĤ¹ãĥĪãĤĴä½ľ": 3833,
      "ãĤºãĥłãģĮåĪ©çĶ¨": 3834,
      "ãĤĤåĬ¹çİĩ": 3835,
      "ãĤĴçĶ¨ãģĦãĤĭ": 3836,
      "ãģ®éĿŀ": 3837,
      "ãģ®éłĥãģĭãĤī": 3838,
      "ãģ§ãģįãģ¦æľ¬": 3839,
      "ãģ¯èĩª": 3840,
      "ãģ¯è¤ĩæķ°ãģ®": 3841,
      "ãģ¾ãģĹãģŁãĤī": 3842,
      "ãģŁãĤģãģ«ãģ¯RA": 3843,
      "è¨¼ãģ§ãģįãģ¾ãģĻ": 3844,
      "è¨¼ãģ«ãģ¯ãĤ»": 3845,
      "ãĥĥãĤ¯ãĤĴçī¹": 3846,
      "å®Łçı¾": 3847,
      "å®Łè£ħ": 3848,
      "ä¿Ŀãģ¡ãģ¾ãģĻ": 3849,
      "ä¿ĿãģĹãģŁãĥ¡ãĥ¢ãĥª": 3850,
      "åĬĽåĢ": 3851,
      "åĬĽãģ¯éļľå®³": 3852,
      "ãģ£ãģ¦æİĴ": 3853,
      "ãĤĬãģ¾ãģĻãģĮ": 3854,
      "æ³ķãģłãģ¨æĢĿãģĦãģ¾ãģĻ": 3855,
      "åĭķéĸĭçĻº": 3856,
      "çļĦãģªæĸ¹": 3857,
      "çļĦãģ«æ¤ľ": 3858,
      "çļĦãģªåĵģè³ª": 3859,
      "±æľīãĥĩãĥ¼ãĤ¿": 3860,
      "·±åĪ»ãģª": 3861,
      "åįģãĤ«": 3862,
      "åĽ½ä»": 3863,
      "åĽłç©¶": 3864,
      "æ¨¡ãģª": 3865,
      "æĺłçĶ": 3866,
      "çķªãģ«": 3867,
      "è¶£åĳ³": 3868,
      "ĻĤãģ®åİŁ": 3869,
      "ãģĨãģŁãĤģãģ«": 3870,
      "ãģĨäºĪå®ļ": 3871,
      "ãģĨãģĵãģ¨ãģĮå¤§": 3872,
      "ãģķãģĽãģ¾ãģĻ": 3873,
      "ãĥĭãĤ¢ãģ§ãģĻ": 3874,
      "ãĥĭãĤ¿ãĤ¤ãĤº": 3875,
      "ãĥįãĤ¤ãĥĨãĤ£": 3876,
      "ãĤ«ãĥĲãĥ¬ãĥĥ": 3877,
      "ãĤĴçµĲåĲĪ": 3878,
      "ãĤĴä½ľãĤĬãģ¾ãģĻ": 3879,
      "ãĤĴä½ľãĤĭãģ®ãģĮ": 3880,
      "ãģ®è©ķ": 3881,
      "ãģ®è¤ĩéĽ": 3882,
      "ãģ®ãģĮç§ģ": 3883,
      "ãģ¯ãĤĨãģ£": 3884,
      "ãĥ³ãĤ¹ãģ®ãĥ": 3885,
      "ãĥ¼ãĤ¯ãĥ³ãĥĻãĥ¼ãĤ¹": 3886,
      "ãĥ¼ãĤ¸ãĥŀãĥį": 3887,
      "ãĥ¼ãĤ¸ãĥ£ãģ®éĩįè¦ģ": 3888,
      "ãĤ¤ãĥ³ãģ¯ãģĻãģ¹ãģ¦": 3889,
      "ãĤ¤ãĥ³ãĤ¿ãĥ¼ãĥķãĤ": 3890,
      "ä¸¦åĪĹ": 3891,
      "åĪĹãĥĩãĥ¼ãĤ¿ãĤĴ": 3892,
      "ãĥĥãĥĪãģ¨é«ĺ": 3893,
      "è¦ıæ¨¡ãģª": 3894,
      "ãĤĴæ§ĭç¯īãģĻãĤĭãģĵãģ¨ãģ§": 3895,
      "å®ļãģ§ãģįãģ¾ãģĻ": 3896,
      "å®ļçĲĨãģ«å": 3897,
      "æĸ°æ©Łèĥ½": 3898,
      "ãĤĴè§£æ¶Ī": 3899,
      "ãĤĴè§£æĶ¾ãģĹ": 3900,
      "èªįãģĦãģŁ": 3901,
      "èªįè¨¼ãģ«ãģ¯ãĤ»": 3902,
      "åı¯èĥ½ãĥķãĤ¡ãĤ¤ãĥ«": 3903,
      "åı¯èĥ½ãģªè¨Ńè¨Ī": 3904,
      "ä¸įåı¯æ¬łãģ§ãģĻ": 3905,
      "ãĤ³ãĥ³ãĥĳãĤ¤ãĥ©ãģ¯ãĤ½": 3906,
      "éĸ¢ä¿Ĥãģ®è": 3907,
      "ãĤµãĥ¼ãĥĲãĥ¼ãģ«": 3908,
      "æľĢéģ©åĮĸãģķãĤĮ": 3909,
      "ãĥĹãĥŃãĤ°ãĥ©ãĥłãĤĴæ§ĭç¯īãģĹãģ¾ãģĻ": 3910,
      "¤ĩæķ°ãģ®ãĤ¹ãĥ¬ãĥĥ": 3911,
      "æ©Łæ§ĭãĤĴçĶ¨ãģĦãģ¦": 3912,
      "æĹ¥ãģ¯ãģ¨ãģ¦ãĤĤ": 3913,
      "ãĤĴçĶ¨ãģĦãģ¦é«ĺ": 3914,
      "è¨Ńè¨Īãģ§ãģ¯åįĺ": 3915,
      "è¨Ńè¨Īãģ§ãģ¯ãĥĲãĥ¼ãĤ¸": 3916,
      "åķıãģĦåĲĪãĤıãģĽ": 3917,
      "çİĩãģ®ãĥĲ": 3918,
      "çı¾ãģ¯æĸ": 3919,
      "çı¾çİĩãģ®ãĥĲ": 3920,
      "ãĤĴçĶŁæĪĲãģĹãģ¾ãģĻ": 3921,
      "ãĤ·ãĤ¹ãĥĨãĥłãģ§ãģ¯CAP": 3922,
      "ãĤ³ãĥ¼ãĥīãĤĴæĽ¸ãģıãģ®ãģĮç§ģ": 3923,
      "ãĥ©ãĤ¤ãĥĸãĥ©ãĥªãģ§ãģĻ": 3924,
      "ãĥ©ãĤ¤ãĥĸãĥ©ãĥªãģ¯ãĤ¢": 3925,
      "åĵģè³ªãĤĴèĩªåĭķ": 3926,
      "TypeScript": 3927,
      "thonãģ®éĿŀ": 3928,
      "APIãģ®": 3929,
      "¨æ§ĭéĢł": 3930,
      "å¹¸ãģĦ": 3931,
      "å¹ħãģ«": 3932,
      "å¼ıãģĮãģĤ": 3933,
      "æĥħåł": 3934,
      "æĮĩåĲĳ": 3935,
      "æıĲãģ¨": 3936,
      "æ¥½ãģĹãģ¿": 3937,
      "æ¤ľç´": 3938,
      "ç¶ļåĮĸãĤĦ": 3939,
      "ç¶ŃæĮ": 3940,
      "ç·ıåĲĪ": 3941,
      "çŁ¥ãģķãĤĮãģ¦ãģĦãģ¾ãģĻ": 3942,
      "çŁ¥èŃ": 3943,
      "ç¢ºèªįãģĦãģŁ": 3944,
      "ç«ĭãģ¡ãģ¾ãģĻ": 3945,
      "èĪŀãģĦ": 3946,
      "éĥ¨ãģ®æĮ": 3947,
      "éĿ¢çĻ": 3948,
      "Ħıæ©Łæ§ĭãĤĴçĶ¨ãģĦãģ¦": 3949,
      "ĲåĲĪãĥĨãĤ¹ãĥĪãĤĴçµĦãģ¿åĲĪãĤıãģĽãģ¦": 3950,
      "ķæ§ĺ": 3951,
      "ļãģ«åĨħéĥ": 3952,
      "ŁãģªãģĹãģ«åħ": 3953,
      "ãģĶãģĸãģĦ": 3954,
      "ãģĶç¢ºèªįãģĦãģŁ": 3955,
      "ãĥīãģĮåĲĮæľ": 3956,
      "ãĥīãĥįãĤ¤ãĥĨãĤ£": 3957,
      "ãĥķãĥĪãĤ¦": 3958,
      "ãĥķãĤĴèĢĥ": 3959,
      "ãĤ¦ãĥīãĥįãĤ¤ãĥĨãĤ£": 3960,
      "ãĤ±ãĥ¼ãĤ·ãĥ§ãĥ³": 3961,
      "ãĤĪãĤĬæľĢéģ©": 3962,
      "ãĤŃãĥ£ãĥĥãĤ·": 3963,
      "ãĤĴä½¿çĶ¨ãģĹãģ¾ãģĻ": 3964,
      "ãĤĴä½¿çĶ¨ãģĻãĤĭãģĵãģ¨ãģ§": 3965,
      "ãģ®ãĥ¦ãĥ¼ãĤ": 3966,
      "ãģ¯ãĥĩãĥ¼ãĤ¿ãģ®æ°¸": 3967,
      "ãģ¯ãĤ³ãĥ³ãĥĿãĥ¼ãĥ": 3968,
      "ãģ¨ãĥĩãĥ¡ãĥªãĥĥãĥĪ": 3969,
      "ãģ¨ãĥĩãĤ·ãĥªãĤ¢ãĥ©ãĤ¤ãĤº": 3970,
      "ãģ¨ãģ¦ãĤĤéĿ¢çĻ": 3971,
      "ãĥªãĥ³ãĤ°ãģ¯å¤ĸ": 3972,
      "ãĥªãĥ³ãĤ°ãģ«ãģ¯ä¾ĭå¤ĸ": 3973,
      "ãĥªãĥĨãĤ£ãģ«éħ": 3974,
      "ãģĮãģĤãģ£ãģ¦": 3975,
      "ãģĮå¤§å¹ħãģ«": 3976,
      "ãģªæĸ¹å¼ıãģĮãģĤ": 3977,
      "ãĥ©ãĥ³ãĤ¹ãģĮéĩįè¦ģãģ§ãģĻ": 3978,
      "ãĤ¹ãĤ¯ãĤĴãĥ¡ãĥ¢ãĥª": 3979,
      "ãĤ¹ãĤ¯ãĥªãĥĹ": 3980,
      "ãĤĭãģĵãģ¨ãģ§çĻºçĶŁãģĻãĤĭæ": 3981,
      "ãĥĩãĤ£ãĤ¹ãĤ¯ãĤĴãĥ¡ãĥ¢ãĥª": 3982,
      "ãĥĩãĤ¶ãĤ¤ãĥ³ãĥ": 3983,
      "ãĥĩãĤ¶ãĤ¤ãĥ³ãģ¯ãģĻãģ¹ãģ¦": 3984,
      "ãĤ¯ãĥ©ãĤ¹ãĤĴåĪĨ": 3985,
      "ãĤ¯ãĥ©ãĤ¦ãĥīãĥįãĤ¤ãĥĨãĤ£": 3986,
      "ĠFlowãģĮãĤĪ": 3987,
      "ĠFlowãĤĦGit": 3988,
      "æľ¬æĹ¥ãģ®": 3989,
      "ãĥ³ãĥģæĪ¦çķ¥ãģ¨ãģĹãģ¦": 3990,
      "ãĥ³ãĥīãĥ©ãĤ¤ãĥ³": 3991,
      "åĪ©çĶ¨åı¯èĥ½ãģªè¨Ńè¨Ī": 3992,
      "åĲĳãģĳãģ¦è³": 3993,
      "åĲĮæľŁåĩ¦çĲĨ": 3994,
      "ãĥĥãĤ·ãĥ§ãĥ³ãĥĻãĥ¼ãĤ¹": 3995,
      "è¡¨çı¾ãģ¯æĸ": 3996,
      "åĩºãģĭãģĳ": 3997,
      "ãĥĹãĥªãĥķãĤ§ãĥĥãĥģ": 3998,
      "ãĥĹãĥªãĤ±ãĥ¼ãĤ·ãĥ§ãĥ³": 3999,
      "ãĤ¢ãĤ¯ãĤ»ãĤ·ãĥĵ": 4000,
      "ãĤĮãģ¾ãģĻãģĮéģ": 4001,
      "ãģ¨ãģĹãģ¦åºĥãģıä½¿ãĤı": 4002,
      "ãĥĩãĥ¼ãĤ¿ãĤĴäºĭåīį": 4003,
      "ãĥĩãĥ¼ãĤ¿ãĥĻãĥ¼ãĤ¹ãģ®ãĤ¤ãĥ³": 4004,
      "ãĥĩãĥ¼ãĤ¿ãĥĻãĥ¼ãĤ¹ãģ®æŃ£è¦ı": 4005,
      "ãĤ³ãĥ¼ãĥīãģ®åĵģè³ªãĤĴèĩªåĭķ": 4006,
      "ä»Ĭãģ¯ãĤ½": 4007,
      "ä»ĬæĹ¥ãģ¯ãģ¨ãģ¦ãĤĤ": 4008,
      "éĢļä¿¡": 4009,
      "ãĥ¡ãĥªãĥĥãĥĪãģ¨ãĥĩãĥ¡ãĥªãĥĥãĥĪ": 4010,
      "ãĥ¼ãĤ¹ãģ¯è¤ĩæķ°ãģ®ãĤ¹ãĥ¬ãĥĥ": 4011,
      "ä¾ĿåŃĺ": 4012,
      "ä¾Ŀéł": 4013,
      "ä¾ĭå¤ĸå®īåħ¨": 4014,
      "èªŀãĤĴçĶŁæĪĲãģĹãģ¾ãģĻ": 4015,
      "èªŃæĽ¸": 4016,
      "ãģ£ãģŁãģ§ãģĻ": 4017,
      "ãĤ¿ãĥ¼ãĥ³ãĥŀãĥĥãĥģ": 4018,
      "ãģ®æĮĩæ¨": 4019,
      "ãĥ©ãĤ¤ãĥ³ãĤĴæ§ĭç¯īãģĻãĤĭãģĵãģ¨ãģ§": 4020,
      "æĢ§ãĤĴãĤ³ãĥ³ãĥĳãĤ¤ãĥ«": 4021,
      "æĢ§ãĤĴä¿Ŀãģ¡ãģ¾ãģĻ": 4022,
      "äºĮåįģãĤ«": 4023,
      "å¾ĹãĤĭãģŁãĤģ": 4024,
      "åħ¥åĬĽåĢ": 4025,
      "åħ¥ãĤĬãģ¾ãģĻãģĮ": 4026,
      "åī²ãģĹãģ¾ãģĻ": 4027,
      "åī²ãģ®ä¸Ģ": 4028,
      "åĮĸãĤĦãĤ¹ãĤ¯ãĥªãĥĹ": 4029,
      "GitHubãģ§ãĥĹ": 4030,
      "å¿ħè¦ģãģ§ãģĻ": 4031,
      "å¿ħè¦ģãģ«ãģªãĤĭ": 4032,
      "æħ®ãģĹãģ¾ãģĻ": 4033,
      "éĸĭçĻºçĴ": 4034,
      "ãĤªãĥĸãĤ¸ãĤ§ãĤ¯ãĥĪãĥķãĤ¡ãĤ¤ãĥ«": 4035,
      "ãĤªãĥĸãĤ¸ãĤ§ãĤ¯ãĥĪæĮĩåĲĳ": 4036,
      "ä¸Ģè²«æĢ§": 4037,
      "ä¸Ģè²¬ä»": 4038,
      "å½¹ç«ĭãģ¡ãģ¾ãģĻ": 4039,
      "çī©ãģ§ãģĻ": 4040,
      "çī©çĲĨãĥ¡ãĥ¢ãĥª": 4041,
      "çī¹ãģ«ãĥĳ": 4042,
      "ãĤ¨ãĥ©ãĥ¼ãĤĴæ": 4043,
      "ãĤ¨ãĥ©ãĥ¼ãĥıãĥ³ãĥī": 4044,
      "ãģ®éĽĨä¸": 4045,
      "ãģ®éĽĽå½": 4046,
      "ä¿Ŀè¨¼ãģĹãģ¾ãģĻ": 4047,
      "ä¿Ŀè¨¼ãĤĴè¡ĮãģĦãģ¾ãģĻ": 4048,
      "åįĺä½ĵãĥĨãĤ¹ãĥĪ": 4049,
      "æĺİãģ«ä¸įåı¯æ¬łãģª": 4050,
      "ĩªåĭķåĮĸãĤĦãĤ¹ãĤ¯ãĥªãĥĹ": 4051,
      "ãĥ¼ãĤ·ãĥ§ãĥ³ãģ¨ãĤµ": 4052,
      "ä¸¦è¡Įåĩ¦çĲĨãģ§ãģ¯ãĥŁ": 4053,
      "åĪĨæķ£ãģķãģĽãģ¾ãģĻ": 4054,
      "åĪĨæķ£ãĤ·ãĤ¹ãĥĨãĥłãģ§ãģ¯CAP": 4055,
      "æĸĻçĲĨãģĮå¾Ĺ": 4056,
      "æĸĻçĲĨãĤĴä½ľãĤĭãģ®ãģĮ": 4057,
      "ãĥķãĤ©ãĥ¼ãĥŀãĥ¼ãĤ¢ãĥ¼ãĤŃãĥĨãĤ¯ãĥģãĥ£": 4058,
      "ãĤ³ãĥ³ãĥĳãĤ¤ãĥ«ãģ¯å®Łè¡Į": 4059,
      "éĸ¢æķ°åŀĭ": 4060,
      "éĸ¢æķ°ãĤĴçµĦãģ¿åĲĪãĤıãģĽãģ¦": 4061,
      "ãĥĹãĥŃãĤ°ãĥ©ãĥŁãĥ³ãĤ°ãģ¯åī": 4062,
      "ãĥĹãĥŃãĤ°ãĥ©ãĥŁãĥ³ãĤ°ãĤĴçĶ¨ãģĦãĤĭ": 4063,
      "æ©Łæ¢°åŃ¦ç¿Ĵãĥ¢ãĥĩãĥ«": 4064,
      "æĹ¥ãģ®ç¿Ĵ": 4065,
      "åŀĭä»ĺãģĳ": 4066,
      "æĿ¥æľĪãģ®": 4067,
      "æĿ¥å¿ħè¦ģãģ«ãģªãĤĭ": 4068,
      "æĻĤãģ«ãĤĪãĤĬæľĢéģ©": 4069,
      "æĻĤãģ«ä¿Ŀè¨¼ãģĹãģ¾ãģĻ": 4070,
      "çĬ¶æħĭç®¡çĲĨ": 4071,
      "çĬ¶æħĭãĤĴæķ´çĲĨ": 4072,
      "ãģ«ä¸įåı¯æ¬łãģªåĩ¦çĲĨãģ§ãģĻ": 4073,
      "å®īåħ¨æĢ§ãĤĴãĤ³ãĥ³ãĥĳãĤ¤ãĥ«": 4074,
      "ãģıä½¿ãĤıãĤĮãģ¾ãģĻ": 4075,
      "ãĤ·ãĥªãĤ¢ãĥ©ãĤ¤ãĤºãģ¨ãĥĩãĤ·ãĥªãĤ¢ãĥ©ãĤ¤ãĤº": 4076,
      "éĢ±æľ«ãģ¯ãĤĨãģ£": 4077,
      "ä¸įè¶³ãĤĴè§£æ¶Ī": 4078,
      "éļľå®³ãĤĴåīį": 4079,
      "CDãĥĳãĤ¤ãĥĹ": 4080,
      "DockerãĤĴä½¿çĶ¨ãģĻãĤĭãģĵãģ¨ãģ§": 4081,
      "IIãĤ¤ãĥĩãĤ£": 4082,
      "JITãĤ³ãĥ³ãĥĳãĤ¤ãĥ«ãģ¯å®Łè¡Į": 4083,
      "Kubernet": 4084,
      "LFUãģªãģ©ãģ®": 4085,
      "Pythonãģ®éĿŀ": 4086,
      "Rustãģ®æīĢæľ": 4087,
      "UãģĮå¿ħè¦ģãģ§ãģĻ": 4088,
      "treeæ§ĭéĢł": 4089,
      "vaScriptãģ«éĿ": 4090,
      "¢ĥãģ®æ§ĭç¯ī": 4091,
      "¢ãĤĴå®Łçı¾": 4092,
      "¢ãģ¨ãģĹãģ¦åºĥãģıèªį": 4093,
      "£ãĥĥãĤ¯ãĤĴè¤ĩæķ°ãģ®": 4094,
      "¤ãģĹæķ´åĲĪ": 4095,
      "¤ãģ®ãĥĲãĥªãĥĩ": 4096,
      "¥ä¸ĬãĤĴ": 4097,
      "¥ãģĦãģ¦ä¸Ģè²«æĢ§": 4098,
      "¥åĮĸãģķãĤĮãģ¾ãģĻ": 4099,
      "§ãĥ¼ãĤ¹ãģ¯èĩªåĭķåĮĸãĤĦãĤ¹ãĤ¯ãĥªãĥĹ": 4100,
      "©åĬĽãģ®ãģĤ": 4101,
      "©ãĤ·ãĤ¹ãĥĨãĥłãģ¯ãĥ¡ãĥ¢ãĥª": 4102,
      "¬īãģĹãģı": 4103,
      "¬ç«ĭãģĹãģ¦ãĥĩãĥĹãĥŃ": 4104,
      "¯ãģĦå¤©æ°Ĺ": 4105,
      "¯ãĤĭèĪŀãģĦ": 4106,
      "¯ä½ľçĶ¨ãģ®ãģª": 4107,
      "°å¢ĥãģ®æ§ĭç¯ī": 4108,
      "°ãģ§ãģ¯æĸ°æ©Łèĥ½": 4109,
      "°ãģªãĤĭæ¦Ĥ": 4110,
      "±ãĤĴæıĲä¾Ľ": 4111,
      "±æ°ĹãĤĴé¤Ĭ": 4112,
      "³è¨ĺæĨ": 4113,
      "³æ¥½ãĤĴèģ´ãģį": 4114,
      "¶ãģ¯çī©çĲĨãĥ¡ãĥ¢ãĥª": 4115,
      "¶å¾¡ãĤĴè¡ĮãģĦãģ¾ãģĻ": 4116,
      "¶ãĥ¼ãģ«ãģ¨ãģ£ãģ¦": 4117,
      "·æĢ§ãĤĴæİĴ": 4118,
      "·åĬĽãģªãĥĦãĥ¼ãĥ«": 4119,
      "¹ãģĮãģĶãģĸãģĦ": 4120,
      "ºãģ¨ä¸Ģç·": 4121,
      "»ãĤĴè¦³ãģ«": 4122,
      "»è¦ģãģªæĸ¹å¼ıãģĮãģĤ": 4123,
      "»ãģ®åİŁåīĩãģ«": 4124,
      "¼ãģĹãģ¦ãģıãģłãģķãģĦ": 4125,
      "¼ãģ¦ãģĦãģ¾ãģĻãģĮçķ": 4126,
      "½ãģĭãģ£ãģŁãģ§ãģĻ": 4127,
      "åĤĻãĤĴ": 4128,
      "åľ¨ãģĹãģ¾ãģĻ": 4129,
      "å·±æ³¨æ": 4130,
      "å¯¾çŃ": 4131,
      "å±¤åŃ¦ç¿Ĵãĥ¢ãĥĩãĥ«ãģ®åŃ¦ç¿Ĵ": 4132,
      "æĪĲãģĹãģ¦ãĤ³ãĥ¼ãĥī": 4133,
      "æ·±å±¤åŃ¦ç¿Ĵãĥ¢ãĥĩãĥ«ãģ®åŃ¦ç¿Ĵ": 4134,
      "æĦıãģ§ãģĻ": 4135,
      "æŃ£è¦ıè¡¨çı¾ãģ¯æĸ": 4136,
      "æ¯İæĹ¥ãģ®ç¿Ĵ": 4137,
      "ç°¡çķ¥åĮĸãģķãĤĮãģ¾ãģĻ": 4138,
      "ç³»åĪĹãĥĩãĥ¼ãĤ¿ãĤĴ": 4139,
      "èī¯ãģĦå¤©æ°Ĺ": 4140,
      "èĭ±æ°ĹãĤĴé¤Ĭ": 4141,
      "è§£ãģĮä¸įåı¯æ¬łãģ§ãģĻ": 4142,
      "è»½ãģ«ãģĬ": 4143,
      "éĻ¤ãģĹæķ´åĲĪ": 4144,
      "éŁ³æ¥½ãĤĴèģ´ãģį": 4145,
      "é£²ãĤĢãģ®ãģĮ": 4146,
      "ĤåĬłãģ§ãģįãģ¦æľ¬": 4147,
      "ĨãĥĬãĤª": 4148,
      "ĩåŃĹåĪĹ": 4149,
      "ĩæĸĻãģ®æºĸ": 4150,
      "Īãģļãģ«åĨħéĥ": 4151,
      "Īåĳ³ãģĮãģĤãģ£ãģ¦": 4152,
      "īĭæ³ķãģ§ãģĻ": 4153,
      "īãģĪãģļãģ«åĨħéĥ": 4154,
      "īæ¨©ãĤ·ãĤ¹ãĥĨãĥłãģ¯ãĥ¡ãĥ¢ãĥª": 4155,
      "ĭäººãģ¨ä¸Ģç·": 4156,
      "Įæĸ¹äºĴæı": 4157,
      "įãĥ³ãĥĪãĥĻãĥ¼ãĤ¹": 4158,
      "įķæįīãģĹãģ¾ãģĻ": 4159,
      "įæħ®ãģĹãģŁUI": 4160,
      "İä¿¡ãģ¯ç¦ģ": 4161,
      "ĲãĤĮåħ¥ãĤĬãģ¾ãģĻãģĮ": 4162,
      "ĳãģªçĬ¶æħĭãĤĴæķ´çĲĨ": 4163,
      "ĳãĤ¿ãĥ¼ãĥ³ãģ¯åĨį": 4164,
      "Ĵãģ«æĺłçĶ": 4165,
      "Ķç²ĭéĸ¢æķ°ãĤĴçµĦãģ¿åĲĪãĤıãģĽãģ¦": 4166,
      "ĸãģ¨ãģĹãģ¦åħ¥åĬĽåĢ": 4167,
      "ĸãĤĭãģĵãģ¨ãģ§ãĥĳãĥķãĤ©ãĥ¼ãĥŀ": 4168,
      "ĸĦãģĻãĤĭæīĭæ³ķãģ§ãģĻ": 4169,
      "Ĺéķ·æĢ§ãĤĴæİĴ": 4170,
      "ĺãĤĴå¾ĹãĤĭãģŁãĤģ": 4171,
      "Ļãģ¨ãģĹãģ¦çĶ¨ãģĦãĤī": 4172,
      "ĻçļĦåŀĭä»ĺãģĳ": 4173,
      "ĽæĢ§ãģ®ç¶ŃæĮ": 4174,
      "ľãĥĪãĥ«ãĥį": 4175,
      "ŀå¾©åĬĽãģ®ãģĤ": 4176,
      "ŀĲãģĹãģ¦æľĢéģ©åĮĸãģķãĤĮ": 4177,
      "Łºãģ¥ãģĦãģ¦ä¸Ģè²«æĢ§": 4178,
      "Ń©ãģ«åĩºãģĭãģĳ": 4179,
      "ãģ´ãģ£ãģŁãĤĬãģ§ãģĻ": 4180,
      "ãģŀãĤĮãĥ¡ãĥªãĥĥãĥĪãģ¨ãĥĩãĥ¡ãĥªãĥĥãĥĪ": 4181,
      "ãĥĻãĥ³ãĥģãĥŀãĥ¼ãĤ¯": 4182,
      "ãĤįæģĲãĤĮåħ¥ãĤĬãģ¾ãģĻãģĮ": 4183,
      "ãĥ¼ãģ¯ãĥĪãĥ©ãĥķãĤ": 4184,
      "ãĤĴåıĸãĤĭãģĵãģ¨ãģ§ãĥĳãĥķãĤ©ãĥ¼ãĥŀ": 4185,
      "ãĤĴå¤īãģĪãģļãģ«åĨħéĥ": 4186,
      "ãĤĴä½¿ãģ£ãģ¦æİĴ": 4187,
      "esãģ¯ãĤ³ãĥ³ãĥĨãĥĬãĤª": 4188,
      "ãģ®ä»ķæ§ĺ": 4189,
      "ãģ®ãĥĳãĤ¿ãĥ¼ãĥ³ãĥŀãĥĥãĥģ": 4190,
      "ãģ®æľĢãĤĤåĬ¹çİĩ": 4191,
      "ãģ®åĨĹéķ·æĢ§ãĤĴæİĴ": 4192,
      "ãģ®UIãĥ©ãĤ¤ãĥĸãĥ©ãĥªãģ§ãģĻ": 4193,
      "ãģ®äºĮãģ¤ãģ®ä¸": 4194,
      "ãģ®ä¸įè¶³ãĤĴè£ľ": 4195,
      "ãģ§ãĤĤãģĬæ°Ĺ": 4196,
      "ãģ¯åıĭäººãģ¨ä¸Ģç·": 4197,
      "ãģ¯ãĥĳãĥĥãĤ±": 4198,
      "ãģ¯ä¼¼ãģ¦ãģĦãģ¾ãģĻãģĮçķ": 4199,
      "ãģ¯ç¢ºä¿ĿãģĹãģŁãĥ¡ãĥ¢ãĥª": 4200,
      "ãģ¯æĸ°ãģĹãģĦçŁ¥èŃ": 4201,
      "ãģ¯JavaScriptãģ«éĿ": 4202,
      "ãģ¯å°ĨæĿ¥å¿ħè¦ģãģ«ãģªãĤĭ": 4203,
      "ãģ«åıĤåĬłãģ§ãģįãģ¦æľ¬": 4204,
      "ãģ«éģ©ãģĹãģ¦ãģĦãģ¾ãģĻ": 4205,
      "ãģ«ãģ¤ãģĦãģ¦è©±": 4206,
      "ãģ«ãĤ¢ãĤ¯ãĤ»ãĤ¹ãģĻãĤĭ": 4207,
      "ãģ«èªŃãģ¿è¾¼ãĤĵãģ§": 4208,
      "ãģĹåĲĪãģĨäºĪå®ļ": 4209,
      "ãģ¾ãģ§ãģ«äºĮåįģãĤ«": 4210,
      "ãģ¾ãģĻãģ¨å¹¸ãģĦ": 4211,
      "ãģ¦ãģĬãĤĬãģ¾ãģĻ": 4212,
      "ãĥ³ãĤ¸ãĥĭãĤ¢ãģ§ãģĻ": 4213,
      "ãģ¨ãĥĪãĥ¼ãĤ¯ãĥ³ãĥĻãĥ¼ãĤ¹": 4214,
      "ãģ¨ãģĵãĤįæģĲãĤĮåħ¥ãĤĬãģ¾ãģĻãģĮ": 4215,
      "ãģ¨åı¯çĶ¨æĢ§ãģ®": 4216,
      "ãģ¨çµĲåĲĪãĥĨãĤ¹ãĥĪãĤĴçµĦãģ¿åĲĪãĤıãģĽãģ¦": 4217,
      "ãģ¨ãĥĿãĥªãĥ¬ãĥĿ": 4218,
      "ãģ¨ãĤ³ãĥ¼ãĥīãĤĴçĶŁæĪĲãģĻãĤĭãĤ³ãĥ¼ãĥīãĤĴæĽ¸ãģı": 4219,
      "ãģ¨åĨįçı¾çİĩãģ®ãĥĲ": 4220,
      "ãģĦãģ¤ãģ§ãĤĤãģĬæ°Ĺ": 4221,
      "ãģĦç´Ķç²ĭéĸ¢æķ°ãĤĴçµĦãģ¿åĲĪãĤıãģĽãģ¦": 4222,
      "ãģĦå§ĭãĤģãģ¾ãģĹãģŁ": 4223,
      "ãĥ¼ãĤ±ãĤ¹ãĥĪãĥ¬ãĥ¼ãĤ·ãĥ§": 4224,
      "ãĥªãĥķãĤ¡ãĤ¯ãĤ¿": 4225,
      "ãĥªãĥ³ãĤ«ãģ¯è¤ĩæķ°ãģ®": 4226,
      "ãģĮåŃĺåľ¨ãģĹãģ¾ãģĻ": 4227,
      "ãģĮå¥½ãģįãģ§": 4228,
      "ãģĮçĭ¬ç«ĭãģĹãģ¦ãĥĩãĥĹãĥŃ": 4229,
      "ãģªãĥŀãĤ·ãĥ³ãĤ³ãĥ¼ãĥīãĤĴçĶŁæĪĲ": 4230,
      "ãģªãĤ³ãĥ¼ãĥīãĤĴæĽ¸ãģıãģŁãĤģãģ«ãģ¯RA": 4231,
      "ãģªå½¹åī²ãģ®ä¸Ģ": 4232,
      "ãģªGPUãģĮå¿ħè¦ģãģ§ãģĻ": 4233,
      "ãģªçĤ¹ãģĮãģĶãģĸãģĦ": 4234,
      "ãģªãģĮãĤīãĤ³ãĥ¼ãĥīãĤĴæĽ¸ãģıãģ®ãģĮç§ģ": 4235,
      "ãĥ©ãĥ³ãĤµãĥ¼ãģ¯ãĥĪãĥ©ãĥķãĤ": 4236,
      "ãĤ¹ãĤ¿æĸĻçĲĨãģĮå¾Ĺ": 4237,
      "ãĤ¤åı¯èĥ½ãģ§ãģĻ": 4238,
      "ãĥĪãĥ¬ãĥ¼ãĥīãĤª": 4239,
      "ãĥĪåĩ¦çĲĨãģ«éģ©ãģĹãģ¦ãģĦãģ¾ãģĻ": 4240,
      "ãĥĪãĥ©ãĥ³ãĤ¹ãĥķãĤ©ãĥ¼ãĥŀãĥ¼ãĤ¢ãĥ¼ãĤŃãĥĨãĤ¯ãĥģãĥ£": 4241,
      "ãĤĭãĤ·ãĤ¹ãĥĨãĥłãĤĴæ§ĭç¯īãģĹãģ¾ãģĻ": 4242,
      "ãĤĭãģ®ãģ«ãģ´ãģ£ãģŁãĤĬãģ§ãģĻ": 4243,
      "ãĥĩãĥĥãĤ¯ãĤ¹ãģ¯B": 4244,
      "ãĤ³ãĥŀãĥ³ãĥīãĥ©ãĤ¤ãĥ³": 4245,
      "ãĤ³ãĥ¼ãĥĴãĥ¼ãĤĴé£²ãĤĢãģ®ãģĮ": 4246,
      "ãģŁæ©Łæ¢°èªŀãĤĴçĶŁæĪĲãģĹãģ¾ãģĻ": 4247,
      "æľĿä¸Ģçķªãģ«": 4248,
      "è¨ªãĤĮãģ¾ãģĹãģŁ": 4249,
      "ãģĹãģ¦å®Łè¡Įåı¯èĥ½ãĥķãĤ¡ãĤ¤ãĥ«": 4250,
      "ãĥ³ãĥĦãĥ¼ãĥ«ãģ¨ãģĹãģ¦åºĥãģıä½¿ãĤı": 4251,
      "åĪĿãģ«ãĥĨãĤ¹ãĥĪãĤĴæĽ¸": 4252,
      "ãĤĴæĶ¹åĸĦãģĻãĤĭæīĭæ³ķãģ§ãģĻ": 4253,
      "ãģıãĤĬä¼ĳãĤĵãģ§": 4254,
      "ãģĻãĤĭãģ®ãģ«å½¹ç«ĭãģ¡ãģ¾ãģĻ": 4255,
      "ãģĻãĤĭãģŁãĤģãģ«ãĤ¸ãĥłãģ«éĢļ": 4256,
      "ãĥ¼ãĤ¿ãģ«èĪĪåĳ³ãģĮãģĤãģ£ãģ¦": 4257,
      "æķ£æŃ©ãģ«åĩºãģĭãģĳ": 4258,
      "ãģĵãĤĮãģ¾ãģ§ãģ«äºĮåįģãĤ«": 4259,
      "ãģĵãģ®æĸ°ãģĹãģĦãĥĹãĥŃãĤ¸ãĤ§ãĤ¯ãĥĪ": 4260,
      "ãĥ«ãĥªãĤ¯ãĤ¨ãĤ¹ãĥĪãĤĴä½ľ": 4261,
      "ãĤ¢ãĥ¼ãĤŃãĥĨãĤ¯ãĥģãĥ£ãģ§ãģ¯åĲĦãĤµãĥ¼ãĥĵãĤ¹": 4262,
      "ãĤ¢ãĥ«ãĤ´ãĥªãĤºãĥłãģĮåĪ©çĶ¨": 4263,
      "ãĤĴè¿½åĬłãģĹãģŁè¨Ģèªŀ": 4264,
      "ãģ¨ãģĹãģ¦ä½¿çĶ¨ãģĻãĤĭæĬĢè¡ĵãģ§ãģĻ": 4265,
      "ãĥĩãĥ¼ãĤ¿ãĥ¬ãĥ¼ãĤ¹ãģ¯è¤ĩæķ°ãģ®ãĤ¹ãĥ¬ãĥĥ": 4266,
      "ãĥĩãĥ¼ãĤ¿ãĤ»ãĥĥãĥĪãģ¨é«ĺ": 4267,
      "è¡Įãģįãģ¾ãģĹãģŁ": 4268,
      "Reactãģ¯ãĤ³ãĥ³ãĥĿãĥ¼ãĥ": 4269,
      "ä»®æĥ³è¨ĺæĨ": 4270,
      "ä»ĸåĪ¶å¾¡ãĤĴè¡ĮãģĦãģ¾ãģĻ": 4271,
      "éĢŁãģªæ¤ľç´": 4272,
      "éĢ²ãĤģãģ¦ãģĬãĤĬãģ¾ãģĻ": 4273,
      "éģĭåĭķä¸įè¶³ãĤĴè§£æ¶Ī": 4274,
      "ãĥ¡ãĤ¿ãĥĹãĥŃãĤ°ãĥ©ãĥŁãĥ³ãĤ°ãĤĴçĶ¨ãģĦãĤĭ": 4275,
      "ãĥ¢ãĥİãĥ¬ãĥĿãģ¨ãĥĿãĥªãĥ¬ãĥĿ": 4276,
      "ãĥ¬ãĥĵãĥ¥ãĥ¼ãĤĴ": 4277,
      "ãĥŃãĤµãĥ¼ãĥĵãĤ¹ãĤ¢ãĥ¼ãĤŃãĥĨãĤ¯ãĥģãĥ£ãģ§ãģ¯åĲĦãĤµãĥ¼ãĥĵãĤ¹": 4278,
      "ãĥŃãĥ¼ãĥīãĥĲãĥ©ãĥ³ãĤµãĥ¼ãģ¯ãĥĪãĥ©ãĥķãĤ": 4279,
      "ãĥŃãĤ°åĩºåĬĽãģ¯éļľå®³": 4280,
      "ãģ§ãģ¯æľĢåĪĿãģ«ãĥĨãĤ¹ãĥĪãĤĴæĽ¸": 4281,
      "ãģĹãģŁåĽŀå¾©åĬĽãģ®ãģĤ": 4282,
      "ãĥ¼ãĤ¹ãĤ³ãĥ¼ãĥīãĤĴè§£æŀĲãģĹãģ¦æľĢéģ©åĮĸãģķãĤĮ": 4283,
      "åĩ¦çĲĨãĤĴçĶ¨ãģĦãģ¦éģ©åĪĩãģ«": 4284,
      "åĩ¦çĲĨãģ¨ä¸¦è¡Įåĩ¦çĲĨãģ¯ä¼¼ãģ¦ãģĦãģ¾ãģĻãģĮçķ": 4285,
      "ioãĥ©ãĤ¤ãĥĸãĥ©ãĥªãĤĴä½¿çĶ¨ãģĹãģ¾ãģĻ": 4286,
      "ä¾¡ãģ«ãģ¯éģ©åĲĪçİĩ": 4287,
      "åĮºåĪ¥ãģķãĤĮãģ¦ãģĦãģ¾ãģĻ": 4288,
      "åŃĲä¾Ľãģ®éłĥãģĭãĤī": 4289,
      "ãĥĸãģªè¨Ńè¨Īãģ§ãģ¯éļľå®³ãĤĴåīį": 4290,
      "ãģ«ãģ¯asyncioãĥ©ãĤ¤ãĥĸãĥ©ãĥªãĤĴä½¿çĶ¨ãģĹãģ¾ãģĻ": 4291,
      "ãģ«ãģ¯å¤§è¦ıæ¨¡ãģª": 4292,
      "ãģ«ãģ¯ãģĿãĤĮãģŀãĤĮãĥ¡ãĥªãĥĥãĥĪãģ¨ãĥĩãĥ¡ãĥªãĥĥãĥĪ": 4293,
      "æĢ§èĥ½ãģªGPUãģĮå¿ħè¦ģãģ§ãģĻ": 4294,
      "å¾ĵãģ£ãģ¦ãĤ¯ãĥ©ãĤ¹ãĤĴåĪĨ": 4295,
      "åħĪéĢ±æľ«ãģ¯åıĭäººãģ¨ä¸Ģç·": 4296,
      "ãĥŀãĤ¤ãĤ¯ãĥŃãĤµãĥ¼ãĥĵãĤ¹ãĤ¢ãĥ¼ãĤŃãĥĨãĤ¯ãĥģãĥ£ãģ§ãģ¯åĲĦãĤµãĥ¼ãĥĵãĤ¹": 4297,
      "ãĤ¸ãģ¯åĵģè³ªãģ®æĮĩæ¨": 4298,
      "ãĤ»ãĤŃãĥ¥ãĥªãĥĨãĤ£": 4299,
      "ãĥ³ãĤ°ãģ«ä½¿çĶ¨ãģķãĤĮãĤĭå¼": 4300,
      "ãĥ³ãĤ°ãģ¨å¾Įæĸ¹äºĴæı": 4301,
      "ãģĦãģ¦ãģĭãĤīå®Łè£ħ": 4302,
      "ä¸įæĺİãģªçĤ¹ãģĮãģĶãģĸãģĦ": 4303,
      "ãĤ³ãĥ³ãĥĶãĥ¥ãĥ¼ãĤ¿ãģ«èĪĪåĳ³ãģĮãģĤãģ£ãģ¦": 4304,
      "åĮĸãģ¯ãĥĩãĥ¼ãĤ¿ãģ®åĨĹéķ·æĢ§ãĤĴæİĴ": 4305,
      "åĮĸæĬĢæ³ķãģ§ãģĻ": 4306,
      "LRUãĤĦLFUãģªãģ©ãģ®": 4307,
      "Gitãģ®ãĥĸãĥ©ãĥ³ãĥģæĪ¦çķ¥ãģ¨ãģĹãģ¦": 4308,
      "å¿µãģ¨ãģĹãģ¦åĮºåĪ¥ãģķãĤĮãģ¦ãģĦãģ¾ãģĻ": 4309,
      "å¿ĺãĤĮãĤĭãģĵãģ¨ãģ§çĻºçĶŁãģĻãĤĭæ": 4310,
      "æħ£ãģ¨ãģĹãģ¦æľĿä¸Ģçķªãģ«": 4311,
      "ãģĬãģıæľĢéģ©åĮĸæĬĢæ³ķãģ§ãģĻ": 4312,
      "ãģĬå¿ĻãģĹãģĦãģ¨ãģĵãĤįæģĲãĤĮåħ¥ãĤĬãģ¾ãģĻãģĮ": 4313,
      "ãģłãģĳãģ¾ãģĻãģ¨å¹¸ãģĦ": 4314,
      "ãĥ¥æĪ¦çķ¥ãģ¨ãģĹãģ¦LRUãĤĦLFUãģªãģ©ãģ®": 4315,
      "ãĥ¥ãĥ¼ãĥĨãĥĥãĤ¯ãĤ¹ãĤĦãĤ»ãĥŀãĥķãĤ©": 4316,
      "ãĥ§ãĥĭãĥ³ãĤ°ãģ¨å¾Įæĸ¹äºĴæı": 4317,
      "ãĤªãĥłãģ®çĲĨè§£ãģĮä¸įåı¯æ¬łãģ§ãģĻ": 4318,
      "ãĥĨãĤ¹ãĥĪãĤ³ãĥ¼ãĥīãģ®ãĤ«ãĥĲãĥ¬ãĥĥ": 4319,
      "ãĥĨãĤ¹ãĥĪé§ĨåĭķéĸĭçĻº": 4320,
      "çĻºçĶŁæĻĤãģ®åİŁ": 4321,
      "çĻºè¡¨ä¼ļãģ«": 4322,
      "ãĥ¡ãĥ¢ãĥªãĥªãĥ¼ãĤ¯ãģ¯ç¢ºä¿ĿãģĹãģŁãĥ¡ãĥ¢ãĥª": 4323,
      "§£æ±ºãģ¯ãĥĳãĥĥãĤ±": 4324,
      "ä¼ļèŃ°ãģ§ãģ¯æĸ°æ©Łèĥ½": 4325,
      "å½ĵãģ«å¬īãģĹãģı": 4326,
      "æĹħè¡ĮãģĮå¥½ãģįãģ§": 4327,
      "ãĤ§ãĤ¢ãĤ¨ãĥ³ãĤ¸ãĥĭãĤ¢ãģ§ãģĻ": 4328,
      "ãģ¯èĩªå·±æ³¨æ": 4329,
      "ãĥĥãĤ¯ãĤĴçī¹å®ļãģ§ãģįãģ¾ãģĻ": 4330,
      "çļĦãģªæĸ¹æ³ķãģłãģ¨æĢĿãģĦãģ¾ãģĻ": 4331,
      "çļĦãģ«æ¤ľè¨¼ãģ§ãģįãģ¾ãģĻ": 4332,
      "çļĦãģªåĵģè³ªä¿Ŀè¨¼ãĤĴè¡ĮãģĦãģ¾ãģĻ": 4333,
      "±æľīãĥĩãĥ¼ãĤ¿ãģ«ãĤ¢ãĤ¯ãĤ»ãĤ¹ãģĻãĤĭ": 4334,
      "·±åĪ»ãģªåķıé¡Įãģ§ãģĻ": 4335,
      "åĽ½ä»¥ä¸ĬãĤĴ": 4336,
      "åĽłç©¶æĺİãģ«ä¸įåı¯æ¬łãģª": 4337,
      "è¶£åĳ³ãģ§": 4338,
      "ãģĨãģŁãĤģãģ«ãĥĩãĤ£ãĤ¹ãĤ¯ãĤĴãĥ¡ãĥ¢ãĥª": 4339,
      "ãģĨãģĵãģ¨ãģĮå¤§åĪĩãģłãģ¨æĢĿãģĦãģ¾ãģĻ": 4340,
      "ãĥĭãĤ¿ãĤ¤ãĤºãģĮéĩįè¦ģãģ§ãģĻ": 4341,
      "ãĤĴçµĲåĲĪãģĹãģ¦å®Łè¡Įåı¯èĥ½ãĥķãĤ¡ãĤ¤ãĥ«": 4342,
      "ãģ®è©ķä¾¡ãģ«ãģ¯éģ©åĲĪçİĩ": 4343,
      "ãģ®è¤ĩéĽĳãģªçĬ¶æħĭãĤĴæķ´çĲĨ": 4344,
      "ãĥ³ãĤ¹ãģ®ãĥľãĥĪãĥ«ãĥį": 4345,
      "ãĥ¼ãĤ¸ãĥŀãĥįãĥ¼ãĤ¸ãĥ£ãģ®éĩįè¦ģ": 4346,
      "ãĤ¤ãĥ³ãĤ¿ãĥ¼ãĥķãĤ§ãĥ¼ãĤ¹ãģ¯èĩªåĭķåĮĸãĤĦãĤ¹ãĤ¯ãĥªãĥĹ": 4347,
      "ä¸¦åĪĹåĩ¦çĲĨãģ¨ä¸¦è¡Įåĩ¦çĲĨãģ¯ä¼¼ãģ¦ãģĦãģ¾ãģĻãģĮçķ": 4348,
      "å®ļçĲĨãģ«åŁºãģ¥ãģĦãģ¦ä¸Ģè²«æĢ§": 4349,
      "ãĤĴè§£æĶ¾ãģĹå¿ĺãĤĮãĤĭãģĵãģ¨ãģ§çĻºçĶŁãģĻãĤĭæ": 4350,
      "èªįè¨¼ãģ«ãģ¯ãĤ»ãĥĥãĤ·ãĥ§ãĥ³ãĥĻãĥ¼ãĤ¹": 4351,
      "ãĤ³ãĥ³ãĥĳãĤ¤ãĥ©ãģ¯ãĤ½ãĥ¼ãĤ¹ãĤ³ãĥ¼ãĥīãĤĴè§£æŀĲãģĹãģ¦æľĢéģ©åĮĸãģķãĤĮ": 4352,
      "éĸ¢ä¿Ĥãģ®è§£æ±ºãģ¯ãĥĳãĥĥãĤ±": 4353,
      "ãĤµãĥ¼ãĥĲãĥ¼ãģ«åĪĨæķ£ãģķãģĽãģ¾ãģĻ": 4354,
      "ãĤĴçĶ¨ãģĦãģ¦é«ĺéĢŁãģªæ¤ľç´": 4355,
      "è¨Ńè¨Īãģ§ãģ¯åįĺä¸Ģè²¬ä»": 4356,
      "è¨Ńè¨Īãģ§ãģ¯ãĥĲãĥ¼ãĤ¸ãĥ§ãĥĭãĥ³ãĤ°ãģ¨å¾Įæĸ¹äºĴæı": 4357,
      "åķıãģĦåĲĪãĤıãģĽãģıãģłãģķãģĦ": 4358,
      "ãĥ©ãĤ¤ãĥĸãĥ©ãĥªãģ¯ãĤ¢ãĥĹãĥªãĤ±ãĥ¼ãĤ·ãĥ§ãĥ³": 4359,
      "TypeScriptãģ¯JavaScriptãģ«éĿ": 4360,
      "APIãģ®è¨Ńè¨Īãģ§ãģ¯ãĥĲãĥ¼ãĤ¸ãĥ§ãĥĭãĥ³ãĤ°ãģ¨å¾Įæĸ¹äºĴæı": 4361,
      "¨æ§ĭéĢłãĤĴæĶ¹åĸĦãģĻãĤĭæīĭæ³ķãģ§ãģĻ": 4362,
      "æĥħåł±ãĤĴæıĲä¾Ľ": 4363,
      "æıĲãģ¨ãģĹãģŁåĽŀå¾©åĬĽãģ®ãģĤ": 4364,
      "æ¥½ãģĹãģ¿ãģ§ãģĻ": 4365,
      "ç¶ļåĮĸãĤĦéĢļä¿¡": 4366,
      "ç·ıåĲĪçļĦãģªåĵģè³ªä¿Ŀè¨¼ãĤĴè¡ĮãģĦãģ¾ãģĻ": 4367,
      "éĥ¨ãģ®æĮ¯ãĤĭèĪŀãģĦ": 4368,
      "Ħıæ©Łæ§ĭãĤĴçĶ¨ãģĦãģ¦ç³»åĪĹãĥĩãĥ¼ãĤ¿ãĤĴ": 4369,
      "ŁãģªãģĹãģ«åħ±æľīãĥĩãĥ¼ãĤ¿ãģ«ãĤ¢ãĤ¯ãĤ»ãĤ¹ãģĻãĤĭ": 4370,
      "ãģĶç¢ºèªįãģĦãģŁãģłãģĳãģ¾ãģĻãģ¨å¹¸ãģĦ": 4371,
      "ãĥīãģĮåĲĮæľŁãģªãģĹãģ«åħ±æľīãĥĩãĥ¼ãĤ¿ãģ«ãĤ¢ãĤ¯ãĤ»ãĤ¹ãģĻãĤĭ": 4372,
      "ãĥķãĥĪãĤ¦ãĤ§ãĤ¢ãĤ¨ãĥ³ãĤ¸ãĥĭãĤ¢ãģ§ãģĻ": 4373,
      "ãĥķãĤĴèĢĥæħ®ãģĹãģ¾ãģĻ": 4374,
      "ãĤŃãĥ£ãĥĥãĤ·ãĥ¥æĪ¦çķ¥ãģ¨ãģĹãģ¦LRUãĤĦLFUãģªãģ©ãģ®": 4375,
      "ãģ®ãĥ¦ãĥ¼ãĤ¶ãĥ¼ãģ«ãģ¨ãģ£ãģ¦": 4376,
      "ãģ¯ãĥĩãĥ¼ãĤ¿ãģ®æ°¸ç¶ļåĮĸãĤĦéĢļä¿¡": 4377,
      "ãģ¨ãģ¦ãĤĤéĿ¢çĻ½ãģĭãģ£ãģŁãģ§ãģĻ": 4378,
      "ãĥªãĥ³ãĤ°ãģ¯å¤ĸéĥ¨ãģ®æĮ¯ãĤĭèĪŀãģĦ": 4379,
      "ãĥªãĥ³ãĤ°ãģ«ãģ¯ä¾ĭå¤ĸåĩ¦çĲĨãĤĴçĶ¨ãģĦãģ¦éģ©åĪĩãģ«": 4380,
      "ãĥªãĥĨãĤ£ãģ«éħįæħ®ãģĹãģŁUI": 4381,
      "ãģĮå¤§å¹ħãģ«ç°¡çķ¥åĮĸãģķãĤĮãģ¾ãģĻ": 4382,
      "ãĥĩãĤ¶ãĤ¤ãĥ³ãĥĳãĤ¿ãĥ¼ãĥ³ãģ¯åĨį": 4383,
      "ãĥĩãĤ¶ãĤ¤ãĥ³ãģ¯ãģĻãģ¹ãģ¦ãģ®ãĥ¦ãĥ¼ãĤ¶ãĥ¼ãģ«ãģ¨ãģ£ãģ¦": 4384,
      "ãĤ¯ãĥ©ãĤ¦ãĥīãĥįãĤ¤ãĥĨãĤ£ãĥĸãģªè¨Ńè¨Īãģ§ãģ¯éļľå®³ãĤĴåīį": 4385,
      "ĠFlowãģĮãĤĪãģıä½¿ãĤıãĤĮãģ¾ãģĻ": 4386,
      "æľ¬æĹ¥ãģ®ä¼ļèŃ°ãģ§ãģ¯æĸ°æ©Łèĥ½": 4387,
      "åĪ©çĶ¨åı¯èĥ½ãģªè¨Ńè¨Īãģ®éĽĽå½": 4388,
      "åĲĳãģĳãģ¦è³ĩæĸĻãģ®æºĸ": 4389,
      "åĲĮæľŁåĩ¦çĲĨãģ«ãģ¯asyncioãĥ©ãĤ¤ãĥĸãĥ©ãĥªãĤĴä½¿çĶ¨ãģĹãģ¾ãģĻ": 4390,
      "ãĥĹãĥªãĥķãĤ§ãĥĥãĥģãģ¯å°ĨæĿ¥å¿ħè¦ģãģ«ãģªãĤĭ": 4391,
      "ãĤ¢ãĤ¯ãĤ»ãĤ·ãĥĵãĥªãĥĨãĤ£ãģ«éħįæħ®ãģĹãģŁUI": 4392,
      "ãĤĮãģ¾ãģĻãģĮéģİä¿¡ãģ¯ç¦ģ": 4393,
      "ãĥĩãĥ¼ãĤ¿ãĤĴäºĭåīįãģ«èªŃãģ¿è¾¼ãĤĵãģ§": 4394,
      "ãĥĩãĥ¼ãĤ¿ãĥĻãĥ¼ãĤ¹ãģ®ãĤ¤ãĥ³ãĥĩãĥĥãĤ¯ãĤ¹ãģ¯B": 4395,
      "ãĥĩãĥ¼ãĤ¿ãĥĻãĥ¼ãĤ¹ãģ®æŃ£è¦ıåĮĸãģ¯ãĥĩãĥ¼ãĤ¿ãģ®åĨĹéķ·æĢ§ãĤĴæİĴ": 4396,
      "ãĤ³ãĥ¼ãĥīãģ®åĵģè³ªãĤĴèĩªåĭķçļĦãģ«æ¤ľè¨¼ãģ§ãģįãģ¾ãģĻ": 4397,
      "ä»Ĭãģ¯ãĤ½ãĥķãĥĪãĤ¦ãĤ§ãĤ¢ãĤ¨ãĥ³ãĤ¸ãĥĭãĤ¢ãģ§ãģĻ": 4398,
      "ä»ĬæĹ¥ãģ¯ãģ¨ãģ¦ãĤĤèī¯ãģĦå¤©æ°Ĺ": 4399,
      "ä¾ĿåŃĺéĸ¢ä¿Ĥãģ®è§£æ±ºãģ¯ãĥĳãĥĥãĤ±": 4400,
      "ä¾Ŀéł¼ãģĹãģ¦ãģıãģłãģķãģĦ": 4401,
      "ä¾ĭå¤ĸå®īåħ¨ãģªãĤ³ãĥ¼ãĥīãĤĴæĽ¸ãģıãģŁãĤģãģ«ãģ¯RA": 4402,
      "èªŃæĽ¸ãģ¯æĸ°ãģĹãģĦçŁ¥èŃ": 4403,
      "ãĥ©ãĤ¤ãĥ³ãĤĴæ§ĭç¯īãģĻãĤĭãģĵãģ¨ãģ§ãĤ³ãĥ¼ãĥīãģ®åĵģè³ªãĤĴèĩªåĭķçļĦãģ«æ¤ľè¨¼ãģ§ãģįãģ¾ãģĻ": 4404,
      "GitHubãģ§ãĥĹãĥ«ãĥªãĤ¯ãĤ¨ãĤ¹ãĥĪãĤĴä½ľ": 4405,
      "éĸĭçĻºçĴ°å¢ĥãģ®æ§ĭç¯ī": 4406,
      "ãĤªãĥĸãĤ¸ãĤ§ãĤ¯ãĥĪãĥķãĤ¡ãĤ¤ãĥ«ãĤĴçµĲåĲĪãģĹãģ¦å®Łè¡Įåı¯èĥ½ãĥķãĤ¡ãĤ¤ãĥ«": 4407,
      "ãĤªãĥĸãĤ¸ãĤ§ãĤ¯ãĥĪæĮĩåĲĳè¨Ńè¨Īãģ§ãģ¯åįĺä¸Ģè²¬ä»": 4408,
      "çī¹ãģ«ãĥĳãĤ¹ãĤ¿æĸĻçĲĨãģĮå¾Ĺ": 4409,
      "ãĤ¨ãĥ©ãĥ¼ãĤĴæįķæįīãģĹãģ¾ãģĻ": 4410,
      "ãĤ¨ãĥ©ãĥ¼ãĥıãĥ³ãĥīãĥªãĥ³ãĤ°ãģ«ãģ¯ä¾ĭå¤ĸåĩ¦çĲĨãĤĴçĶ¨ãģĦãģ¦éģ©åĪĩãģ«": 4411,
      "ãģ®éĽĨä¸Ńæ³ķãģ§ãģĻ": 4412,
      "åįĺä½ĵãĥĨãĤ¹ãĥĪãģ¨çµĲåĲĪãĥĨãĤ¹ãĥĪãĤĴçµĦãģ¿åĲĪãĤıãģĽãģ¦": 4413,
      "ãĥ¼ãĤ·ãĥ§ãĥ³ãģ¨ãĤµãĥĭãĤ¿ãĤ¤ãĤºãģĮéĩįè¦ģãģ§ãģĻ": 4414,
      "ä¸¦è¡Įåĩ¦çĲĨãģ§ãģ¯ãĥŁãĥ¥ãĥ¼ãĥĨãĥĥãĤ¯ãĤ¹ãĤĦãĤ»ãĥŀãĥķãĤ©": 4415,
      "åĪĨæķ£ãĤ·ãĤ¹ãĥĨãĥłãģ§ãģ¯CAPå®ļçĲĨãģ«åŁºãģ¥ãģĦãģ¦ä¸Ģè²«æĢ§": 4416,
      "æĸĻçĲĨãĤĴä½ľãĤĭãģ®ãģĮè¶£åĳ³ãģ§": 4417,
      "éĸ¢æķ°åŀĭãĥĹãĥŃãĤ°ãĥ©ãĥŁãĥ³ãĤ°ãģ¯åī": 4418,
      "æ©Łæ¢°åŃ¦ç¿Ĵãĥ¢ãĥĩãĥ«ãģ®è©ķä¾¡ãģ«ãģ¯éģ©åĲĪçİĩ": 4419,
      "æĿ¥æľĪãģ®çĻºè¡¨ä¼ļãģ«": 4420,
      "æĻĤãģ«ãĤĪãĤĬæľĢéģ©ãģªãĥŀãĤ·ãĥ³ãĤ³ãĥ¼ãĥīãĤĴçĶŁæĪĲ": 4421,
      "çĬ¶æħĭç®¡çĲĨãĥ©ãĤ¤ãĥĸãĥ©ãĥªãģ¯ãĤ¢ãĥĹãĥªãĤ±ãĥ¼ãĤ·ãĥ§ãĥ³": 4422,
      "å®īåħ¨æĢ§ãĤĴãĤ³ãĥ³ãĥĳãĤ¤ãĥ«æĻĤãģ«ä¿Ŀè¨¼ãģĹãģ¾ãģĻ": 4423,
      "ãĤ·ãĥªãĤ¢ãĥ©ãĤ¤ãĤºãģ¨ãĥĩãĤ·ãĥªãĤ¢ãĥ©ãĤ¤ãĤºãģ¯ãĥĩãĥ¼ãĤ¿ãģ®æ°¸ç¶ļåĮĸãĤĦéĢļä¿¡": 4424,
      "éĢ±æľ«ãģ¯ãĤĨãģ£ãģıãĤĬä¼ĳãĤĵãģ§": 4425,
      "CDãĥĳãĤ¤ãĥĹãĥ©ãĤ¤ãĥ³ãĤĴæ§ĭç¯īãģĻãĤĭãģĵãģ¨ãģ§ãĤ³ãĥ¼ãĥīãģ®åĵģè³ªãĤĴèĩªåĭķçļĦãģ«æ¤ľè¨¼ãģ§ãģįãģ¾ãģĻ": 4426,
      "DockerãĤĴä½¿çĶ¨ãģĻãĤĭãģĵãģ¨ãģ§éĸĭçĻºçĴ°å¢ĥãģ®æ§ĭç¯ī": 4427,
      "IIãĤ¤ãĥĩãĤ£ãĤªãĥłãģ®çĲĨè§£ãģĮä¸įåı¯æ¬łãģ§ãģĻ": 4428,
      "JITãĤ³ãĥ³ãĥĳãĤ¤ãĥ«ãģ¯å®Łè¡ĮæĻĤãģ«ãĤĪãĤĬæľĢéģ©ãģªãĥŀãĤ·ãĥ³ãĤ³ãĥ¼ãĥīãĤĴçĶŁæĪĲ": 4429,
      "Kubernetesãģ¯ãĤ³ãĥ³ãĥĨãĥĬãĤª": 4430,
      "Pythonãģ®éĿŀåĲĮæľŁåĩ¦çĲĨãģ«ãģ¯asyncioãĥ©ãĤ¤ãĥĸãĥ©ãĥªãĤĴä½¿çĶ¨ãģĹãģ¾ãģĻ": 4431,
      "Rustãģ®æīĢæľīæ¨©ãĤ·ãĤ¹ãĥĨãĥłãģ¯ãĥ¡ãĥ¢ãĥª": 4432,
      "treeæ§ĭéĢłãĤĴçĶ¨ãģĦãģ¦é«ĺéĢŁãģªæ¤ľç´": 4433,
      "¢ãĤĴå®Łçı¾ãģĹãģ¾ãģĻ": 4434,
      "¢ãģ¨ãģĹãģ¦åºĥãģıèªįçŁ¥ãģķãĤĮãģ¦ãģĦãģ¾ãģĻ": 4435,
      "£ãĥĥãĤ¯ãĤĴè¤ĩæķ°ãģ®ãĤµãĥ¼ãĥĲãĥ¼ãģ«åĪĨæķ£ãģķãģĽãģ¾ãģĻ": 4436,
      "¤ãģ®ãĥĲãĥªãĥĩãĥ¼ãĤ·ãĥ§ãĥ³ãģ¨ãĤµãĥĭãĤ¿ãĤ¤ãĤºãģĮéĩįè¦ģãģ§ãģĻ": 4437,
      "¯ä½ľçĶ¨ãģ®ãģªãģĦç´Ķç²ĭéĸ¢æķ°ãĤĴçµĦãģ¿åĲĪãĤıãģĽãģ¦": 4438,
      "°ãģªãĤĭæ¦Ĥå¿µãģ¨ãģĹãģ¦åĮºåĪ¥ãģķãĤĮãģ¦ãģĦãģ¾ãģĻ": 4439,
      "¶ãģ¯çī©çĲĨãĥ¡ãĥ¢ãĥªãģ®ä¸įè¶³ãĤĴè£ľ": 4440,
      "·åĬĽãģªãĥĦãĥ¼ãĥ«ãģ§ãģĻ": 4441,
      "»ãĤĴè¦³ãģ«è¡Įãģįãģ¾ãģĹãģŁ": 4442,
      "»è¦ģãģªæĸ¹å¼ıãģĮãģĤãĤĬãģ¾ãģĻ": 4443,
      "»ãģ®åİŁåīĩãģ«å¾ĵãģ£ãģ¦ãĤ¯ãĥ©ãĤ¹ãĤĴåĪĨ": 4444,
      "åĤĻãĤĴéĢ²ãĤģãģ¦ãģĬãĤĬãģ¾ãģĻ": 4445,
      "å¯¾çŃĸãģ¨ãģĹãģ¦åħ¥åĬĽåĢ": 4446,
      "æĪĲãģĹãģ¦ãĤ³ãĥ¼ãĥīãĥ¬ãĥĵãĥ¥ãĥ¼ãĤĴ": 4447,
      "æ·±å±¤åŃ¦ç¿Ĵãĥ¢ãĥĩãĥ«ãģ®åŃ¦ç¿Ĵãģ«ãģ¯å¤§è¦ıæ¨¡ãģª": 4448,
      "æŃ£è¦ıè¡¨çı¾ãģ¯æĸĩåŃĹåĪĹ": 4449,
      "æ¯İæĹ¥ãģ®ç¿Ĵæħ£ãģ¨ãģĹãģ¦æľĿä¸Ģçķªãģ«": 4450,
      "èĭ±æ°ĹãĤĴé¤ĬãģĨãģĵãģ¨ãģĮå¤§åĪĩãģłãģ¨æĢĿãģĦãģ¾ãģĻ": 4451,
      "è»½ãģ«ãģĬåķıãģĦåĲĪãĤıãģĽãģıãģłãģķãģĦ": 4452,
      "éĻ¤ãģĹæķ´åĲĪæĢ§ãĤĴä¿Ŀãģ¡ãģ¾ãģĻ": 4453,
      "éŁ³æ¥½ãĤĴèģ´ãģįãģªãģĮãĤīãĤ³ãĥ¼ãĥīãĤĴæĽ¸ãģıãģ®ãģĮç§ģ": 4454,
      "įãĥ³ãĥĪãĥĻãĥ¼ãĤ¹ãģ®UIãĥ©ãĤ¤ãĥĸãĥ©ãĥªãģ§ãģĻ": 4455,
      "Ĵãģ«æĺłçĶ»ãĤĴè¦³ãģ«è¡Įãģįãģ¾ãģĹãģŁ": 4456,
      "ĺãĤĴå¾ĹãĤĭãģŁãĤģãģ®æľĢãĤĤåĬ¹çİĩ": 4457,
      "Ļãģ¨ãģĹãģ¦çĶ¨ãģĦãĤīãĤĮãģ¾ãģĻãģĮéģİä¿¡ãģ¯ç¦ģ": 4458,
      "ĻçļĦåŀĭä»ĺãģĳãĤĴè¿½åĬłãģĹãģŁè¨Ģèªŀ": 4459,
      "ĽæĢ§ãģ®ç¶ŃæĮģãģĮéĩįè¦ģãģ§ãģĻ": 4460,
      "ãĥĻãĥ³ãĥģãĥŀãĥ¼ãĤ¯ãĤĴåıĸãĤĭãģĵãģ¨ãģ§ãĥĳãĥķãĤ©ãĥ¼ãĥŀ": 4461,
      "ãĤĴå¤īãģĪãģļãģ«åĨħéĥ¨æ§ĭéĢłãĤĴæĶ¹åĸĦãģĻãĤĭæīĭæ³ķãģ§ãģĻ": 4462,
      "ãĤĴä½¿ãģ£ãģ¦æİĴä»ĸåĪ¶å¾¡ãĤĴè¡ĮãģĦãģ¾ãģĻ": 4463,
      "ãģ®ä»ķæ§ĺãģ«ãģ¤ãģĦãģ¦è©±": 4464,
      "ãģ®ãĥĳãĤ¿ãĥ¼ãĥ³ãĥŀãĥĥãĥģãĥ³ãĤ°ãģ«ä½¿çĶ¨ãģķãĤĮãĤĭå¼": 4465,
      "ãģ®äºĮãģ¤ãģ®ä¸»è¦ģãģªæĸ¹å¼ıãģĮãģĤãĤĬãģ¾ãģĻ": 4466,
      "ãģ«åıĤåĬłãģ§ãģįãģ¦æľ¬å½ĵãģ«å¬īãģĹãģı": 4467,
      "ãģĹåĲĪãģĨäºĪå®ļãģ§ãģĻ": 4468,
      "ãģ¨ãĥĪãĥ¼ãĤ¯ãĥ³ãĥĻãĥ¼ãĤ¹ãģ®äºĮãģ¤ãģ®ä¸»è¦ģãģªæĸ¹å¼ıãģĮãģĤãĤĬãģ¾ãģĻ": 4469,
      "ãģ¨åı¯çĶ¨æĢ§ãģ®ãĥĪãĥ¬ãĥ¼ãĥīãĤª": 4470,
      "ãģ¨ãĤ³ãĥ¼ãĥīãĤĴçĶŁæĪĲãģĻãĤĭãĤ³ãĥ¼ãĥīãĤĴæĽ¸ãģıãģĵãģ¨ãģĮãģ§ãģįãģ¾ãģĻ": 4471,
      "ãģ¨åĨįçı¾çİĩãģ®ãĥĲãĥ©ãĥ³ãĤ¹ãģĮéĩįè¦ģãģ§ãģĻ": 4472,
      "ãģĦãģ¤ãģ§ãĤĤãģĬæ°Ĺè»½ãģ«ãģĬåķıãģĦåĲĪãĤıãģĽãģıãģłãģķãģĦ": 4473,
      "ãĥ¼ãĤ±ãĤ¹ãĥĪãĥ¬ãĥ¼ãĤ·ãĥ§ãĥ³ãĥĦãĥ¼ãĥ«ãģ¨ãģĹãģ¦åºĥãģıä½¿ãĤı": 4474,
      "ãĥªãĥķãĤ¡ãĤ¯ãĤ¿ãĥªãĥ³ãĤ°ãģ¯å¤ĸéĥ¨ãģ®æĮ¯ãĤĭèĪŀãģĦ": 4475,
      "ãĥªãĥ³ãĤ«ãģ¯è¤ĩæķ°ãģ®ãĤªãĥĸãĤ¸ãĤ§ãĤ¯ãĥĪãĥķãĤ¡ãĤ¤ãĥ«ãĤĴçµĲåĲĪãģĹãģ¦å®Łè¡Įåı¯èĥ½ãĥķãĤ¡ãĤ¤ãĥ«": 4476,
      "ãģĮçĭ¬ç«ĭãģĹãģ¦ãĥĩãĥĹãĥŃãĤ¤åı¯èĥ½ãģ§ãģĻ": 4477,
      "ãģªå½¹åī²ãģ®ä¸Ģãģ¤ãģ§ãģĻ": 4478,
      "ãĥĪãĥ©ãĥ³ãĤ¹ãĥķãĤ©ãĥ¼ãĥŀãĥ¼ãĤ¢ãĥ¼ãĤŃãĥĨãĤ¯ãĥģãĥ£ãģ¯èĩªå·±æ³¨æ": 4479,
      "ãĤ³ãĥŀãĥ³ãĥīãĥ©ãĤ¤ãĥ³ãĤ¤ãĥ³ãĤ¿ãĥ¼ãĥķãĤ§ãĥ¼ãĤ¹ãģ¯èĩªåĭķåĮĸãĤĦãĤ¹ãĤ¯ãĥªãĥĹ": 4480,
      "ãĤ³ãĥ¼ãĥĴãĥ¼ãĤĴé£²ãĤĢãģ®ãģĮæ¥½ãģĹãģ¿ãģ§ãģĻ": 4481,
      "ãģĻãĤĭãģŁãĤģãģ«ãĤ¸ãĥłãģ«éĢļãģĦå§ĭãĤģãģ¾ãģĹãģŁ": 4482,
      "æķ£æŃ©ãģ«åĩºãģĭãģĳãĤĭãģ®ãģ«ãģ´ãģ£ãģŁãĤĬãģ§ãģĻ": 4483,
      "ãģĵãĤĮãģ¾ãģ§ãģ«äºĮåįģãĤ«åĽ½ä»¥ä¸ĬãĤĴ": 4484,
      "ãģĵãģ®æĸ°ãģĹãģĦãĥĹãĥŃãĤ¸ãĤ§ãĤ¯ãĥĪãģ«åıĤåĬłãģ§ãģįãģ¦æľ¬å½ĵãģ«å¬īãģĹãģı": 4485,
      "ãĤ¢ãĥ«ãĤ´ãĥªãĤºãĥłãģĮåĪ©çĶ¨ãģķãĤĮãģ¾ãģĻ": 4486,
      "ãĥĩãĥ¼ãĤ¿ãĥ¬ãĥ¼ãĤ¹ãģ¯è¤ĩæķ°ãģ®ãĤ¹ãĥ¬ãĥĥãĥīãģĮåĲĮæľŁãģªãģĹãģ«åħ±æľīãĥĩãĥ¼ãĤ¿ãģ«ãĤ¢ãĤ¯ãĤ»ãĤ¹ãģĻãĤĭ": 4487,
      "ãĥĩãĥ¼ãĤ¿ãĤ»ãĥĥãĥĪãģ¨é«ĺæĢ§èĥ½ãģªGPUãģĮå¿ħè¦ģãģ§ãģĻ": 4488,
      "Reactãģ¯ãĤ³ãĥ³ãĥĿãĥ¼ãĥįãĥ³ãĥĪãĥĻãĥ¼ãĤ¹ãģ®UIãĥ©ãĤ¤ãĥĸãĥ©ãĥªãģ§ãģĻ": 4489,
      "ä»®æĥ³è¨ĺæĨ¶ãģ¯çī©çĲĨãĥ¡ãĥ¢ãĥªãģ®ä¸įè¶³ãĤĴè£ľ": 4490,
      "éģĭåĭķä¸įè¶³ãĤĴè§£æ¶ĪãģĻãĤĭãģŁãĤģãģ«ãĤ¸ãĥłãģ«éĢļãģĦå§ĭãĤģãģ¾ãģĹãģŁ": 4491,
      "ãĥ¡ãĤ¿ãĥĹãĥŃãĤ°ãĥ©ãĥŁãĥ³ãĤ°ãĤĴçĶ¨ãģĦãĤĭãģ¨ãĤ³ãĥ¼ãĥīãĤĴçĶŁæĪĲãģĻãĤĭãĤ³ãĥ¼ãĥīãĤĴæĽ¸ãģıãģĵãģ¨ãģĮãģ§ãģįãģ¾ãģĻ": 4492,
      "ãĥ¢ãĥİãĥ¬ãĥĿãģ¨ãĥĿãĥªãĥ¬ãĥĿãģ«ãģ¯ãģĿãĤĮãģŀãĤĮãĥ¡ãĥªãĥĥãĥĪãģ¨ãĥĩãĥ¡ãĥªãĥĥãĥĪ": 4493,
      "ãĥŃãĥ¼ãĥīãĥĲãĥ©ãĥ³ãĤµãĥ¼ãģ¯ãĥĪãĥ©ãĥķãĤ£ãĥĥãĤ¯ãĤĴè¤ĩæķ°ãģ®ãĤµãĥ¼ãĥĲãĥ¼ãģ«åĪĨæķ£ãģķãģĽãģ¾ãģĻ": 4494,
      "ãĥŃãĤ°åĩºåĬĽãģ¯éļľå®³çĻºçĶŁæĻĤãģ®åİŁ": 4495,
      "ãģ§ãģ¯æľĢåĪĿãģ«ãĥĨãĤ¹ãĥĪãĤĴæĽ¸ãģĦãģ¦ãģĭãĤīå®Łè£ħ": 4496,
      "åŃĲä¾Ľãģ®éłĥãģĭãĤīãĤ³ãĥ³ãĥĶãĥ¥ãĥ¼ãĤ¿ãģ«èĪĪåĳ³ãģĮãģĤãģ£ãģ¦": 4497,
      "åħĪéĢ±æľ«ãģ¯åıĭäººãģ¨ä¸Ģç·Ĵãģ«æĺłçĶ»ãĤĴè¦³ãģ«è¡Įãģįãģ¾ãģĹãģŁ": 4498,
      "ãĥŀãĤ¤ãĤ¯ãĥŃãĤµãĥ¼ãĥĵãĤ¹ãĤ¢ãĥ¼ãĤŃãĥĨãĤ¯ãĥģãĥ£ãģ§ãģ¯åĲĦãĤµãĥ¼ãĥĵãĤ¹ãģĮçĭ¬ç«ĭãģĹãģ¦ãĥĩãĥĹãĥŃãĤ¤åı¯èĥ½ãģ§ãģĻ": 4499,
      "ãĤ¸ãģ¯åĵģè³ªãģ®æĮĩæ¨Ļãģ¨ãģĹãģ¦çĶ¨ãģĦãĤīãĤĮãģ¾ãģĻãģĮéģİä¿¡ãģ¯ç¦ģ": 4500,
      "ãĤ»ãĤŃãĥ¥ãĥªãĥĨãĤ£å¯¾çŃĸãģ¨ãģĹãģ¦åħ¥åĬĽåĢ": 4501,
      "ä¸įæĺİãģªçĤ¹ãģĮãģĶãģĸãģĦãģ¾ãģĹãģŁãĤī": 4502,
      "Gitãģ®ãĥĸãĥ©ãĥ³ãĥģæĪ¦çķ¥ãģ¨ãģĹãģ¦GitHub": 4503,
      "ãĥĨãĤ¹ãĥĪãĤ³ãĥ¼ãĥīãģ®ãĤ«ãĥĲãĥ¬ãĥĥãĤ¸ãģ¯åĵģè³ªãģ®æĮĩæ¨Ļãģ¨ãģĹãģ¦çĶ¨ãģĦãĤīãĤĮãģ¾ãģĻãģĮéģİä¿¡ãģ¯ç¦ģ": 4504,
      "ãĥĨãĤ¹ãĥĪé§ĨåĭķéĸĭçĻºãģ§ãģ¯æľĢåĪĿãģ«ãĥĨãĤ¹ãĥĪãĤĴæĽ¸ãģĦãģ¦ãģĭãĤīå®Łè£ħ": 4505,
      "ãĥ¡ãĥ¢ãĥªãĥªãĥ¼ãĤ¯ãģ¯ç¢ºä¿ĿãģĹãģŁãĥ¡ãĥ¢ãĥªãĤĴè§£æĶ¾ãģĹå¿ĺãĤĮãĤĭãģĵãģ¨ãģ§çĻºçĶŁãģĻãĤĭæ": 4506,
      "åĽłç©¶æĺİãģ«ä¸įåı¯æ¬łãģªæĥħåł±ãĤĴæıĲä¾Ľ": 4507,
      "ãģĨãģŁãĤģãģ«ãĥĩãĤ£ãĤ¹ãĤ¯ãĤĴãĥ¡ãĥ¢ãĥªãģ¨ãģĹãģ¦ä½¿çĶ¨ãģĻãĤĭæĬĢè¡ĵãģ§ãģĻ": 4508,
      "ãģ®è¤ĩéĽĳãģªçĬ¶æħĭãĤĴæķ´çĲĨãģĻãĤĭãģ®ãģ«å½¹ç«ĭãģ¡ãģ¾ãģĻ": 4509,
      "ãĥ³ãĤ¹ãģ®ãĥľãĥĪãĥ«ãĥįãĥĥãĤ¯ãĤĴçī¹å®ļãģ§ãģįãģ¾ãģĻ": 4510,
      "ãĥ¼ãĤ¸ãĥŀãĥįãĥ¼ãĤ¸ãĥ£ãģ®éĩįè¦ģãģªå½¹åī²ãģ®ä¸Ģãģ¤ãģ§ãģĻ": 4511,
      "ä¸¦åĪĹåĩ¦çĲĨãģ¨ä¸¦è¡Įåĩ¦çĲĨãģ¯ä¼¼ãģ¦ãģĦãģ¾ãģĻãģĮçķ°ãģªãĤĭæ¦Ĥå¿µãģ¨ãģĹãģ¦åĮºåĪ¥ãģķãĤĮãģ¦ãģĦãģ¾ãģĻ": 4512,
      "èªįè¨¼ãģ«ãģ¯ãĤ»ãĥĥãĤ·ãĥ§ãĥ³ãĥĻãĥ¼ãĤ¹ãģ¨ãĥĪãĥ¼ãĤ¯ãĥ³ãĥĻãĥ¼ãĤ¹ãģ®äºĮãģ¤ãģ®ä¸»è¦ģãģªæĸ¹å¼ıãģĮãģĤãĤĬãģ¾ãģĻ": 4513,
      "ãĤ³ãĥ³ãĥĳãĤ¤ãĥ©ãģ¯ãĤ½ãĥ¼ãĤ¹ãĤ³ãĥ¼ãĥīãĤĴè§£æŀĲãģĹãģ¦æľĢéģ©åĮĸãģķãĤĮãģŁæ©Łæ¢°èªŀãĤĴçĶŁæĪĲãģĹãģ¾ãģĻ": 4514,
      "TypeScriptãģ¯JavaScriptãģ«éĿĻçļĦåŀĭä»ĺãģĳãĤĴè¿½åĬłãģĹãģŁè¨Ģèªŀ": 4515,
      "APIãģ®è¨Ńè¨Īãģ§ãģ¯ãĥĲãĥ¼ãĤ¸ãĥ§ãĥĭãĥ³ãĤ°ãģ¨å¾Įæĸ¹äºĴæıĽæĢ§ãģ®ç¶ŃæĮģãģĮéĩįè¦ģãģ§ãģĻ": 4516,
      "æıĲãģ¨ãģĹãģŁåĽŀå¾©åĬĽãģ®ãģĤãĤĭãĤ·ãĤ¹ãĥĨãĥłãĤĴæ§ĭç¯īãģĹãģ¾ãģĻ": 4517,
      "Ħıæ©Łæ§ĭãĤĴçĶ¨ãģĦãģ¦ç³»åĪĹãĥĩãĥ¼ãĤ¿ãĤĴåĩ¦çĲĨãģĹãģ¾ãģĻ": 4518,
      "ãģĶç¢ºèªįãģĦãģŁãģłãģĳãģ¾ãģĻãģ¨å¹¸ãģĦãģ§ãģĻ": 4519,
      "ãĤŃãĥ£ãĥĥãĤ·ãĥ¥æĪ¦çķ¥ãģ¨ãģĹãģ¦LRUãĤĦLFUãģªãģ©ãģ®ãĤ¢ãĥ«ãĤ´ãĥªãĤºãĥłãģĮåĪ©çĶ¨ãģķãĤĮãģ¾ãģĻ": 4520,
      "ãĥĩãĤ¶ãĤ¤ãĥ³ãĥĳãĤ¿ãĥ¼ãĥ³ãģ¯åĨįåĪ©çĶ¨åı¯èĥ½ãģªè¨Ńè¨Īãģ®éĽĽå½": 4521,
      "ãĥĩãĤ¶ãĤ¤ãĥ³ãģ¯ãģĻãģ¹ãģ¦ãģ®ãĥ¦ãĥ¼ãĤ¶ãĥ¼ãģ«ãģ¨ãģ£ãģ¦éĩįè¦ģãģ§ãģĻ": 4522,
      "ãĤ¯ãĥ©ãĤ¦ãĥīãĥįãĤ¤ãĥĨãĤ£ãĥĸãģªè¨Ńè¨Īãģ§ãģ¯éļľå®³ãĤĴåīįæıĲãģ¨ãģĹãģŁåĽŀå¾©åĬĽãģ®ãģĤãĤĭãĤ·ãĤ¹ãĥĨãĥłãĤĴæ§ĭç¯īãģĹãģ¾ãģĻ": 4523,
      "æľ¬æĹ¥ãģ®ä¼ļèŃ°ãģ§ãģ¯æĸ°æ©Łèĥ½ãģ®ä»ķæ§ĺãģ«ãģ¤ãģĦãģ¦è©±": 4524,
      "åĲĳãģĳãģ¦è³ĩæĸĻãģ®æºĸåĤĻãĤĴéĢ²ãĤģãģ¦ãģĬãĤĬãģ¾ãģĻ": 4525,
      "ãĥĹãĥªãĥķãĤ§ãĥĥãĥģãģ¯å°ĨæĿ¥å¿ħè¦ģãģ«ãģªãĤĭãĥĩãĥ¼ãĤ¿ãĤĴäºĭåīįãģ«èªŃãģ¿è¾¼ãĤĵãģ§": 4526,
      "ãĤ¢ãĤ¯ãĤ»ãĤ·ãĥĵãĥªãĥĨãĤ£ãģ«éħįæħ®ãģĹãģŁUIãĥĩãĤ¶ãĤ¤ãĥ³ãģ¯ãģĻãģ¹ãģ¦ãģ®ãĥ¦ãĥ¼ãĤ¶ãĥ¼ãģ«ãģ¨ãģ£ãģ¦éĩįè¦ģãģ§ãģĻ": 4527,
      "ãĥĩãĥ¼ãĤ¿ãĥĻãĥ¼ãĤ¹ãģ®æŃ£è¦ıåĮĸãģ¯ãĥĩãĥ¼ãĤ¿ãģ®åĨĹéķ·æĢ§ãĤĴæİĴéĻ¤ãģĹæķ´åĲĪæĢ§ãĤĴä¿Ŀãģ¡ãģ¾ãģĻ": 4528,
      "ä»ĬæĹ¥ãģ¯ãģ¨ãģ¦ãĤĤèī¯ãģĦå¤©æ°Ĺãģ§ãģĻãģŃ": 4529,
      "ä¾ĿåŃĺéĸ¢ä¿Ĥãģ®è§£æ±ºãģ¯ãĥĳãĥĥãĤ±ãĥ¼ãĤ¸ãĥŀãĥįãĥ¼ãĤ¸ãĥ£ãģ®éĩįè¦ģãģªå½¹åī²ãģ®ä¸Ģãģ¤ãģ§ãģĻ": 4530,
      "ä¾ĭå¤ĸå®īåħ¨ãģªãĤ³ãĥ¼ãĥīãĤĴæĽ¸ãģıãģŁãĤģãģ«ãģ¯RAIIãĤ¤ãĥĩãĤ£ãĤªãĥłãģ®çĲĨè§£ãģĮä¸įåı¯æ¬łãģ§ãģĻ": 4531,
      "èªŃæĽ¸ãģ¯æĸ°ãģĹãģĦçŁ¥èŃĺãĤĴå¾ĹãĤĭãģŁãĤģãģ®æľĢãĤĤåĬ¹çİĩ": 4532,
      "GitHubãģ§ãĥĹãĥ«ãĥªãĤ¯ãĤ¨ãĤ¹ãĥĪãĤĴä½ľæĪĲãģĹãģ¦ãĤ³ãĥ¼ãĥīãĥ¬ãĥĵãĥ¥ãĥ¼ãĤĴ": 4533,
      "ãĤªãĥĸãĤ¸ãĤ§ãĤ¯ãĥĪæĮĩåĲĳè¨Ńè¨Īãģ§ãģ¯åįĺä¸Ģè²¬ä»»ãģ®åİŁåīĩãģ«å¾ĵãģ£ãģ¦ãĤ¯ãĥ©ãĤ¹ãĤĴåĪĨ": 4534,
      "çī¹ãģ«ãĥĳãĤ¹ãĤ¿æĸĻçĲĨãģĮå¾ĹæĦıãģ§ãģĻ": 4535,
      "ãĤ¨ãĥ©ãĥ¼ãĥıãĥ³ãĥīãĥªãĥ³ãĤ°ãģ«ãģ¯ä¾ĭå¤ĸåĩ¦çĲĨãĤĴçĶ¨ãģĦãģ¦éģ©åĪĩãģ«ãĤ¨ãĥ©ãĥ¼ãĤĴæįķæįīãģĹãģ¾ãģĻ": 4536,
      "åįĺä½ĵãĥĨãĤ¹ãĥĪãģ¨çµĲåĲĪãĥĨãĤ¹ãĥĪãĤĴçµĦãģ¿åĲĪãĤıãģĽãģ¦ç·ıåĲĪçļĦãģªåĵģè³ªä¿Ŀè¨¼ãĤĴè¡ĮãģĦãģ¾ãģĻ": 4537,
      "ä¸¦è¡Įåĩ¦çĲĨãģ§ãģ¯ãĥŁãĥ¥ãĥ¼ãĥĨãĥĥãĤ¯ãĤ¹ãĤĦãĤ»ãĥŀãĥķãĤ©ãĤĴä½¿ãģ£ãģ¦æİĴä»ĸåĪ¶å¾¡ãĤĴè¡ĮãģĦãģ¾ãģĻ": 4538,
      "åĪĨæķ£ãĤ·ãĤ¹ãĥĨãĥłãģ§ãģ¯CAPå®ļçĲĨãģ«åŁºãģ¥ãģĦãģ¦ä¸Ģè²«æĢ§ãģ¨åı¯çĶ¨æĢ§ãģ®ãĥĪãĥ¬ãĥ¼ãĥīãĤª": 4539,
      "éĸ¢æķ°åŀĭãĥĹãĥŃãĤ°ãĥ©ãĥŁãĥ³ãĤ°ãģ¯åī¯ä½ľçĶ¨ãģ®ãģªãģĦç´Ķç²ĭéĸ¢æķ°ãĤĴçµĦãģ¿åĲĪãĤıãģĽãģ¦": 4540,
      "æ©Łæ¢°åŃ¦ç¿Ĵãĥ¢ãĥĩãĥ«ãģ®è©ķä¾¡ãģ«ãģ¯éģ©åĲĪçİĩãģ¨åĨįçı¾çİĩãģ®ãĥĲãĥ©ãĥ³ãĤ¹ãģĮéĩįè¦ģãģ§ãģĻ": 4541,
      "æĿ¥æľĪãģ®çĻºè¡¨ä¼ļãģ«åĲĳãģĳãģ¦è³ĩæĸĻãģ®æºĸåĤĻãĤĴéĢ²ãĤģãģ¦ãģĬãĤĬãģ¾ãģĻ": 4542,
      "çĬ¶æħĭç®¡çĲĨãĥ©ãĤ¤ãĥĸãĥ©ãĥªãģ¯ãĤ¢ãĥĹãĥªãĤ±ãĥ¼ãĤ·ãĥ§ãĥ³ãģ®è¤ĩéĽĳãģªçĬ¶æħĭãĤĴæķ´çĲĨãģĻãĤĭãģ®ãģ«å½¹ç«ĭãģ¡ãģ¾ãģĻ": 4543,
      "ãĤ·ãĥªãĤ¢ãĥ©ãĤ¤ãĤºãģ¨ãĥĩãĤ·ãĥªãĤ¢ãĥ©ãĤ¤ãĤºãģ¯ãĥĩãĥ¼ãĤ¿ãģ®æ°¸ç¶ļåĮĸãĤĦéĢļä¿¡ãģ«ä¸įåı¯æ¬łãģªåĩ¦çĲĨãģ§ãģĻ": 4544,
      "éĢ±æľ«ãģ¯ãĤĨãģ£ãģıãĤĬä¼ĳãĤĵãģ§èĭ±æ°ĹãĤĴé¤ĬãģĨãģĵãģ¨ãģĮå¤§åĪĩãģłãģ¨æĢĿãģĦãģ¾ãģĻ": 4545,
      "DockerãĤĴä½¿çĶ¨ãģĻãĤĭãģĵãģ¨ãģ§éĸĭçĻºçĴ°å¢ĥãģ®æ§ĭç¯īãģĮå¤§å¹ħãģ«ç°¡çķ¥åĮĸãģķãĤĮãģ¾ãģĻ": 4546,
      "JITãĤ³ãĥ³ãĥĳãĤ¤ãĥ«ãģ¯å®Łè¡ĮæĻĤãģ«ãĤĪãĤĬæľĢéģ©ãģªãĥŀãĤ·ãĥ³ãĤ³ãĥ¼ãĥīãĤĴçĶŁæĪĲãģĻãĤĭæĬĢè¡ĵãģ§ãģĻ": 4547,
      "Kubernetesãģ¯ãĤ³ãĥ³ãĥĨãĥĬãĤªãĥ¼ãĤ±ãĤ¹ãĥĪãĥ¬ãĥ¼ãĤ·ãĥ§ãĥ³ãĥĦãĥ¼ãĥ«ãģ¨ãģĹãģ¦åºĥãģıä½¿ãĤı": 4548,
      "Rustãģ®æīĢæľīæ¨©ãĤ·ãĤ¹ãĥĨãĥłãģ¯ãĥ¡ãĥ¢ãĥªå®īåħ¨æĢ§ãĤĴãĤ³ãĥ³ãĥĳãĤ¤ãĥ«æĻĤãģ«ä¿Ŀè¨¼ãģĹãģ¾ãģĻ": 4549,
      "treeæ§ĭéĢłãĤĴçĶ¨ãģĦãģ¦é«ĺéĢŁãģªæ¤ľç´¢ãĤĴå®Łçı¾ãģĹãģ¾ãģĻ": 4550,
      "æ·±å±¤åŃ¦ç¿Ĵãĥ¢ãĥĩãĥ«ãģ®åŃ¦ç¿Ĵãģ«ãģ¯å¤§è¦ıæ¨¡ãģªãĥĩãĥ¼ãĤ¿ãĤ»ãĥĥãĥĪãģ¨é«ĺæĢ§èĥ½ãģªGPUãģĮå¿ħè¦ģãģ§ãģĻ": 4551,
      "æŃ£è¦ıè¡¨çı¾ãģ¯æĸĩåŃĹåĪĹãģ®ãĥĳãĤ¿ãĥ¼ãĥ³ãĥŀãĥĥãĥģãĥ³ãĤ°ãģ«ä½¿çĶ¨ãģķãĤĮãĤĭå¼": 4552,
      "æ¯İæĹ¥ãģ®ç¿Ĵæħ£ãģ¨ãģĹãģ¦æľĿä¸Ģçķªãģ«ãĤ³ãĥ¼ãĥĴãĥ¼ãĤĴé£²ãĤĢãģ®ãģĮæ¥½ãģĹãģ¿ãģ§ãģĻ": 4553,
      "éŁ³æ¥½ãĤĴèģ´ãģįãģªãģĮãĤīãĤ³ãĥ¼ãĥīãĤĴæĽ¸ãģıãģ®ãģĮç§ģãģ®éĽĨä¸Ńæ³ķãģ§ãģĻ": 4554,
      "ãĥĻãĥ³ãĥģãĥŀãĥ¼ãĤ¯ãĤĴåıĸãĤĭãģĵãģ¨ãģ§ãĥĳãĥķãĤ©ãĥ¼ãĥŀãĥ³ãĤ¹ãģ®ãĥľãĥĪãĥ«ãĥįãĥĥãĤ¯ãĤĴçī¹å®ļãģ§ãģįãģ¾ãģĻ": 4555,
      "ãĥªãĥķãĤ¡ãĤ¯ãĤ¿ãĥªãĥ³ãĤ°ãģ¯å¤ĸéĥ¨ãģ®æĮ¯ãĤĭèĪŀãģĦãĤĴå¤īãģĪãģļãģ«åĨħéĥ¨æ§ĭéĢłãĤĴæĶ¹åĸĦãģĻãĤĭæīĭæ³ķãģ§ãģĻ": 4556,
      "ãĥªãĥ³ãĤ«ãģ¯è¤ĩæķ°ãģ®ãĤªãĥĸãĤ¸ãĤ§ãĤ¯ãĥĪãĥķãĤ¡ãĤ¤ãĥ«ãĤĴçµĲåĲĪãģĹãģ¦å®Łè¡Įåı¯èĥ½ãĥķãĤ¡ãĤ¤ãĥ«ãĤĴä½ľãĤĬãģ¾ãģĻ": 4557,
      "ãĥĪãĥ©ãĥ³ãĤ¹ãĥķãĤ©ãĥ¼ãĥŀãĥ¼ãĤ¢ãĥ¼ãĤŃãĥĨãĤ¯ãĥģãĥ£ãģ¯èĩªå·±æ³¨æĦıæ©Łæ§ĭãĤĴçĶ¨ãģĦãģ¦ç³»åĪĹãĥĩãĥ¼ãĤ¿ãĤĴåĩ¦çĲĨãģĹãģ¾ãģĻ": 4558,
      "ãĤ³ãĥŀãĥ³ãĥīãĥ©ãĤ¤ãĥ³ãĤ¤ãĥ³ãĤ¿ãĥ¼ãĥķãĤ§ãĥ¼ãĤ¹ãģ¯èĩªåĭķåĮĸãĤĦãĤ¹ãĤ¯ãĥªãĥĹãĥĪåĩ¦çĲĨãģ«éģ©ãģĹãģ¦ãģĦãģ¾ãģĻ": 4559,
      "ãģĵãĤĮãģ¾ãģ§ãģ«äºĮåįģãĤ«åĽ½ä»¥ä¸ĬãĤĴè¨ªãĤĮãģ¾ãģĹãģŁ": 4560,
      "ãģĵãģ®æĸ°ãģĹãģĦãĥĹãĥŃãĤ¸ãĤ§ãĤ¯ãĥĪãģ«åıĤåĬłãģ§ãģįãģ¦æľ¬å½ĵãģ«å¬īãģĹãģıæĢĿãģĦãģ¾ãģĻ": 4561,
      "ãĥĩãĥ¼ãĤ¿ãĥ¬ãĥ¼ãĤ¹ãģ¯è¤ĩæķ°ãģ®ãĤ¹ãĥ¬ãĥĥãĥīãģĮåĲĮæľŁãģªãģĹãģ«åħ±æľīãĥĩãĥ¼ãĤ¿ãģ«ãĤ¢ãĤ¯ãĤ»ãĤ¹ãģĻãĤĭåķıé¡Įãģ§ãģĻ": 4562,
      "ä»®æĥ³è¨ĺæĨ¶ãģ¯çī©çĲĨãĥ¡ãĥ¢ãĥªãģ®ä¸įè¶³ãĤĴè£ľãģĨãģŁãĤģãģ«ãĥĩãĤ£ãĤ¹ãĤ¯ãĤĴãĥ¡ãĥ¢ãĥªãģ¨ãģĹãģ¦ä½¿çĶ¨ãģĻãĤĭæĬĢè¡ĵãģ§ãģĻ": 4563,
      "ãĥ¢ãĥİãĥ¬ãĥĿãģ¨ãĥĿãĥªãĥ¬ãĥĿãģ«ãģ¯ãģĿãĤĮãģŀãĤĮãĥ¡ãĥªãĥĥãĥĪãģ¨ãĥĩãĥ¡ãĥªãĥĥãĥĪãģĮåŃĺåľ¨ãģĹãģ¾ãģĻ": 4564,
      "ãĥŃãĤ°åĩºåĬĽãģ¯éļľå®³çĻºçĶŁæĻĤãģ®åİŁåĽłç©¶æĺİãģ«ä¸įåı¯æ¬łãģªæĥħåł±ãĤĴæıĲä¾Ľ": 4565,
      "ãĤ»ãĤŃãĥ¥ãĥªãĥĨãĤ£å¯¾çŃĸãģ¨ãģĹãģ¦åħ¥åĬĽåĢ¤ãģ®ãĥĲãĥªãĥĩãĥ¼ãĤ·ãĥ§ãĥ³ãģ¨ãĤµãĥĭãĤ¿ãĤ¤ãĤºãģĮéĩįè¦ģãģ§ãģĻ": 4566,
      "ãĥĨãĤ¹ãĥĪãĤ³ãĥ¼ãĥīãģ®ãĤ«ãĥĲãĥ¬ãĥĥãĤ¸ãģ¯åĵģè³ªãģ®æĮĩæ¨Ļãģ¨ãģĹãģ¦çĶ¨ãģĦãĤīãĤĮãģ¾ãģĻãģĮéģİä¿¡ãģ¯ç¦ģçī©ãģ§ãģĻ": 4567,
      "ãĥĨãĤ¹ãĥĪé§ĨåĭķéĸĭçĻºãģ§ãģ¯æľĢåĪĿãģ«ãĥĨãĤ¹ãĥĪãĤĴæĽ¸ãģĦãģ¦ãģĭãĤīå®Łè£ħãĤĴè¡ĮãģĦãģ¾ãģĻ": 4568,
      "ãĥ¡ãĥ¢ãĥªãĥªãĥ¼ãĤ¯ãģ¯ç¢ºä¿ĿãģĹãģŁãĥ¡ãĥ¢ãĥªãĤĴè§£æĶ¾ãģĹå¿ĺãĤĮãĤĭãģĵãģ¨ãģ§çĻºçĶŁãģĻãĤĭæ·±åĪ»ãģªåķıé¡Įãģ§ãģĻ": 4569,
      "TypeScriptãģ¯JavaScriptãģ«éĿĻçļĦåŀĭä»ĺãģĳãĤĴè¿½åĬłãģĹãģŁè¨Ģèªŀãģ§ãģĻ": 4570,
      "ãĥĩãĤ¶ãĤ¤ãĥ³ãĥĳãĤ¿ãĥ¼ãĥ³ãģ¯åĨįåĪ©çĶ¨åı¯èĥ½ãģªè¨Ńè¨Īãģ®éĽĽå½¢ãģ¨ãģĹãģ¦åºĥãģıèªįçŁ¥ãģķãĤĮãģ¦ãģĦãģ¾ãģĻ": 4571,
      "æľ¬æĹ¥ãģ®ä¼ļèŃ°ãģ§ãģ¯æĸ°æ©Łèĥ½ãģ®ä»ķæ§ĺãģ«ãģ¤ãģĦãģ¦è©±ãģĹåĲĪãģĨäºĪå®ļãģ§ãģĻ": 4572,
      "ãĥĹãĥªãĥķãĤ§ãĥĥãĥģãģ¯å°ĨæĿ¥å¿ħè¦ģãģ«ãģªãĤĭãĥĩãĥ¼ãĤ¿ãĤĴäºĭåīįãģ«èªŃãģ¿è¾¼ãĤĵãģ§ãģĬãģıæľĢéģ©åĮĸæĬĢæ³ķãģ§ãģĻ": 4573,
      "èªŃæĽ¸ãģ¯æĸ°ãģĹãģĦçŁ¥èŃĺãĤĴå¾ĹãĤĭãģŁãĤģãģ®æľĢãĤĤåĬ¹çİĩçļĦãģªæĸ¹æ³ķãģłãģ¨æĢĿãģĦãģ¾ãģĻ": 4574,
      "GitHubãģ§ãĥĹãĥ«ãĥªãĤ¯ãĤ¨ãĤ¹ãĥĪãĤĴä½ľæĪĲãģĹãģ¦ãĤ³ãĥ¼ãĥīãĥ¬ãĥĵãĥ¥ãĥ¼ãĤĴä¾Ŀéł¼ãģĹãģ¦ãģıãģłãģķãģĦ": 4575,
      "ãĤªãĥĸãĤ¸ãĤ§ãĤ¯ãĥĪæĮĩåĲĳè¨Ńè¨Īãģ§ãģ¯åįĺä¸Ģè²¬ä»»ãģ®åİŁåīĩãģ«å¾ĵãģ£ãģ¦ãĤ¯ãĥ©ãĤ¹ãĤĴåĪĨåī²ãģĹãģ¾ãģĻ": 4576,
      "åĪĨæķ£ãĤ·ãĤ¹ãĥĨãĥłãģ§ãģ¯CAPå®ļçĲĨãģ«åŁºãģ¥ãģĦãģ¦ä¸Ģè²«æĢ§ãģ¨åı¯çĶ¨æĢ§ãģ®ãĥĪãĥ¬ãĥ¼ãĥīãĤªãĥķãĤĴèĢĥæħ®ãģĹãģ¾ãģĻ": 4577,
      "éĸ¢æķ°åŀĭãĥĹãĥŃãĤ°ãĥ©ãĥŁãĥ³ãĤ°ãģ¯åī¯ä½ľçĶ¨ãģ®ãģªãģĦç´Ķç²ĭéĸ¢æķ°ãĤĴçµĦãģ¿åĲĪãĤıãģĽãģ¦ãĥĹãĥŃãĤ°ãĥ©ãĥłãĤĴæ§ĭç¯īãģĹãģ¾ãģĻ": 4578,
      "Kubernetesãģ¯ãĤ³ãĥ³ãĥĨãĥĬãĤªãĥ¼ãĤ±ãĤ¹ãĥĪãĥ¬ãĥ¼ãĤ·ãĥ§ãĥ³ãĥĦãĥ¼ãĥ«ãģ¨ãģĹãģ¦åºĥãģıä½¿ãĤıãĤĮãģ¦ãģĦãģ¾ãģĻ": 4579,
      "æŃ£è¦ıè¡¨çı¾ãģ¯æĸĩåŃĹåĪĹãģ®ãĥĳãĤ¿ãĥ¼ãĥ³ãĥŀãĥĥãĥģãĥ³ãĤ°ãģ«ä½¿çĶ¨ãģķãĤĮãĤĭå¼·åĬĽãģªãĥĦãĥ¼ãĥ«ãģ§ãģĻ": 4580,
      "ãĥŃãĤ°åĩºåĬĽãģ¯éļľå®³çĻºçĶŁæĻĤãģ®åİŁåĽłç©¶æĺİãģ«ä¸įåı¯æ¬łãģªæĥħåł±ãĤĴæıĲä¾ĽãģĹãģ¾ãģĻ": 4581,
      "19": 4582,
      "32": 4583,
      "36": 4584,
      "55": 4585,
      "655": 4586,
      "819": 4587,
      "048": 4588,
      "65536": 4589,
      "8192": 4590,
      "09": 4591,
      "024": 4592,
      "12": 4593,
      "1024": 4594,
      "28": 4595,
      "2048": 4596,
      "38": 4597,
      "56": 4598,
      "95": 4599,
      "batch": 4600,
      "cab": 4601,
      "den": 4602,
      "dim": 4603,
      "len": 4604,
      "lay": 4605,
      "ocab": 4606,
      "posit": 4607,
      "vocab": 4608,
      "Ġ6": 4609,
      "Ġ7": 4610,
      "Ġ8": 4611,
      "Ġ9": 4612,
      "Ġ64": 4613,
      "Ġ65536": 4614,
      "Ġ8192": 4615,
      "seq": 4616,
      "chs": 4617,
      "idden": 4618,
      "00001": 4619,
      "Ġhidden": 4620,
      "Ġepo": 4621,
      "Ġmax": 4622,
      "Ġ1000": 4623,
      "Ġ128": 4624,
      "Ġ2048": 4625,
      "Ġ256": 4626,
      "Ġ409": 4627,
      "0001": 4628,
      "Ġ512": 4629,
      "Ġ1024": 4630,
      "Ġ10000": 4631,
      "Ġ1638": 4632,
      "999": 4633,
      "layers": 4634,
      "position": 4635,
      "Ġepochs": 4636,
      "Ġ4096": 4637,
      "Ġ16384": 4638
    },
    "merges": [
      [
        "ã",
        "ģ"
      ],
      [
        "ã",
        "ĥ"
      ],
      [
        "ã",
        "Ĥ"
      ],
      [
        "i",
        "n"
      ],
      [
        "o",
        "n"
      ],
      [
        "e",
        "r"
      ],
      [
        "a",
        "t"
      ],
      [
        "o",
        "r"
      ],
      [
        "r",
        "e"
      ],
      [
        "s",
        "t"
      ],
      [
        "Ġ",
        "t"
      ],
      [
        "Ġ",
        "Ġ"
      ],
      [
        "Ġ",
        "a"
      ],
      [
        "e",
        "n"
      ],
      [
        "s",
        "e"
      ],
      [
        "d",
        "e"
      ],
      [
        "r",
        "o"
      ],
      [
        "i",
        "on"
      ],
      [
        "Ġ",
        "c"
      ],
      [
        "a",
        "l"
      ],
      [
        "i",
        "m"
      ],
      [
        "i",
        "t"
      ],
      [
        "ãģ",
        "Ļ"
      ],
      [
        "c",
        "t"
      ],
      [
        "ã",
        "Ģ"
      ],
      [
        "h",
        "e"
      ],
      [
        "in",
        "g"
      ],
      [
        "ãĢ",
        "Ĥ"
      ],
      [
        "Ġ",
        "f"
      ],
      [
        "ãĥ",
        "¼"
      ],
      [
        "Ġ",
        "p"
      ],
      [
        "Ġ",
        "re"
      ],
      [
        "ãĤ",
        "Ĵ"
      ],
      [
        "e",
        "s"
      ],
      [
        "i",
        "z"
      ],
      [
        "ãģ",
        "®"
      ],
      [
        ")",
        ";"
      ],
      [
        "u",
        "t"
      ],
      [
        "l",
        "o"
      ],
      [
        "in",
        "t"
      ],
      [
        "Ġ",
        "{"
      ],
      [
        "ãģ",
        "§"
      ],
      [
        "l",
        "e"
      ],
      [
        "a",
        "n"
      ],
      [
        "Ġ",
        "s"
      ],
      [
        "Ġ",
        "="
      ],
      [
        "Ġ",
        "n"
      ],
      [
        "ãģ",
        "¯"
      ],
      [
        "a",
        "m"
      ],
      [
        "Ġ",
        "b"
      ],
      [
        "e",
        "x"
      ],
      [
        "en",
        "t"
      ],
      [
        "or",
        "t"
      ],
      [
        "im",
        "p"
      ],
      [
        "c",
        "h"
      ],
      [
        "ãģ",
        "«"
      ],
      [
        "e",
        "t"
      ],
      [
        "s",
        "s"
      ],
      [
        "ãģ",
        "Ĺ"
      ],
      [
        "Ġ",
        "d"
      ],
      [
        "ĠĠ",
        "Ġ"
      ],
      [
        "ãģ",
        "¾"
      ],
      [
        "e",
        "d"
      ],
      [
        "u",
        "l"
      ],
      [
        "at",
        "ion"
      ],
      [
        "ãģ¾",
        "ãģĻ"
      ],
      [
        "ro",
        "m"
      ],
      [
        "ãģ",
        "¦"
      ],
      [
        "ãĥ",
        "³"
      ],
      [
        "Ġ",
        "st"
      ],
      [
        "iz",
        "e"
      ],
      [
        "imp",
        "ort"
      ],
      [
        "m",
        "a"
      ],
      [
        "u",
        "r"
      ],
      [
        "ãģ",
        "¨"
      ],
      [
        "u",
        "n"
      ],
      [
        "u",
        "se"
      ],
      [
        "Ġ",
        "("
      ],
      [
        "i",
        "l"
      ],
      [
        "Ġ",
        "-"
      ],
      [
        "p",
        "p"
      ],
      [
        "ãģ",
        "Ħ"
      ],
      [
        "i",
        "d"
      ],
      [
        "ãĥ¼",
        "ãĤ"
      ],
      [
        "a",
        "r"
      ],
      [
        "c",
        "e"
      ],
      [
        "at",
        "a"
      ],
      [
        "Ċ",
        "ĠĠĠ"
      ],
      [
        "Ġ",
        "'"
      ],
      [
        "de",
        "f"
      ],
      [
        "p",
        "e"
      ],
      [
        "c",
        "l"
      ],
      [
        "l",
        "i"
      ],
      [
        "Ġ",
        "o"
      ],
      [
        "Ġt",
        "o"
      ],
      [
        "Ġt",
        "he"
      ],
      [
        "ãģ§",
        "ãģĻ"
      ],
      [
        "u",
        "s"
      ],
      [
        "(",
        ")"
      ],
      [
        "c",
        "on"
      ],
      [
        "Ġa",
        "n"
      ],
      [
        "ul",
        "t"
      ],
      [
        "o",
        "m"
      ],
      [
        "ãĥ",
        "ª"
      ],
      [
        "Ġc",
        "on"
      ],
      [
        ":",
        ":"
      ],
      [
        "r",
        "a"
      ],
      [
        "or",
        "m"
      ],
      [
        "ãģ",
        "Į"
      ],
      [
        "Ġ",
        "w"
      ],
      [
        "Ġ",
        "<"
      ],
      [
        "Ġp",
        "ro"
      ],
      [
        "u",
        "e"
      ],
      [
        "Ġ",
        "R"
      ],
      [
        "ãģ",
        "ª"
      ],
      [
        "ãĥ",
        "©"
      ],
      [
        "ãĤ",
        "¹"
      ],
      [
        "ãĥ¼",
        "ãĥ"
      ],
      [
        "o",
        "de"
      ],
      [
        "Ġ",
        "int"
      ],
      [
        "i",
        "g"
      ],
      [
        "ãĤ",
        "¤"
      ],
      [
        "Ġan",
        "d"
      ],
      [
        "a",
        "s"
      ],
      [
        "e",
        "m"
      ],
      [
        "k",
        "e"
      ],
      [
        "Ġ",
        "v"
      ],
      [
        "Ġ",
        "in"
      ],
      [
        "ãĥ",
        "Ī"
      ],
      [
        "ãĤ",
        "ĭ"
      ],
      [
        "Ġ",
        "m"
      ],
      [
        "T",
        "he"
      ],
      [
        "l",
        "f"
      ],
      [
        "Ġ",
        "import"
      ],
      [
        "in",
        "e"
      ],
      [
        "0",
        "0"
      ],
      [
        "ãĥ",
        "ĩ"
      ],
      [
        "f",
        "rom"
      ],
      [
        "i",
        "s"
      ],
      [
        "o",
        "id"
      ],
      [
        "Ġ",
        "C"
      ],
      [
        "Ġ",
        "x"
      ],
      [
        "or",
        "ch"
      ],
      [
        "ct",
        "ion"
      ],
      [
        "ç",
        "Ķ"
      ],
      [
        "i",
        "v"
      ],
      [
        "p",
        "t"
      ],
      [
        "u",
        "de"
      ],
      [
        "Ġ",
        "de"
      ],
      [
        "cl",
        "ude"
      ],
      [
        "h",
        "o"
      ],
      [
        "i",
        "c"
      ],
      [
        "at",
        "e"
      ],
      [
        "Ġa",
        "pp"
      ],
      [
        "Ġs",
        "ize"
      ],
      [
        "y",
        "n"
      ],
      [
        "a",
        "b"
      ],
      [
        "a",
        "d"
      ],
      [
        "ãĤ",
        "¯"
      ],
      [
        "er",
        "s"
      ],
      [
        "Ġ",
        "A"
      ],
      [
        "Ġ",
        "S"
      ],
      [
        "Ġ",
        "}"
      ],
      [
        "in",
        "clude"
      ],
      [
        "Ġt",
        "orch"
      ],
      [
        "Ġa",
        "s"
      ],
      [
        "Ġre",
        "s"
      ],
      [
        "a",
        "g"
      ],
      [
        "Ġ",
        "h"
      ],
      [
        "Ġ",
        "l"
      ],
      [
        "se",
        "lf"
      ],
      [
        "ä",
        "¸"
      ],
      [
        "ãĤ",
        "³"
      ],
      [
        "yn",
        "c"
      ],
      [
        "m",
        "ent"
      ],
      [
        "t",
        "y"
      ],
      [
        "it",
        "h"
      ],
      [
        "Ġ",
        "F"
      ],
      [
        "Ġ",
        "use"
      ],
      [
        "Ġf",
        "rom"
      ],
      [
        "ex",
        "t"
      ],
      [
        "ãģ",
        "Ł"
      ],
      [
        "o",
        "l"
      ],
      [
        "t",
        "ur"
      ],
      [
        "Ġ",
        "T"
      ],
      [
        "Ġ",
        "en"
      ],
      [
        "Ġd",
        "ata"
      ],
      [
        "tur",
        "n"
      ],
      [
        "c",
        "k"
      ],
      [
        "æ",
        "ľ"
      ],
      [
        "ç",
        "Ĳ"
      ],
      [
        "è",
        "¨"
      ],
      [
        "ķ",
        "ãĤ"
      ],
      [
        "ãģĹ",
        "ãģ¦"
      ],
      [
        "ãĥ³",
        "ãĥ"
      ],
      [
        "çĲ",
        "Ĩ"
      ],
      [
        "l",
        "y"
      ],
      [
        "p",
        "ut"
      ],
      [
        "i",
        "al"
      ],
      [
        "j",
        "s"
      ],
      [
        "am",
        "e"
      ],
      [
        "Ġ-",
        ">"
      ],
      [
        "con",
        "st"
      ],
      [
        "::",
        "{"
      ],
      [
        "js",
        "on"
      ],
      [
        "t",
        "r"
      ],
      [
        "å",
        "Ī"
      ],
      [
        "å",
        "Ĳ"
      ],
      [
        "Ġ",
        "P"
      ],
      [
        "ãĥ",
        "ĥ"
      ],
      [
        "im",
        "e"
      ],
      [
        "ation",
        "s"
      ],
      [
        "Ġst",
        "r"
      ],
      [
        "a",
        "se"
      ],
      [
        "p",
        "s"
      ],
      [
        "v",
        "er"
      ],
      [
        "Ġ",
        "e"
      ],
      [
        "ex",
        "p"
      ],
      [
        "Ġ",
        "ma"
      ],
      [
        "ode",
        "l"
      ],
      [
        "è",
        "¡"
      ],
      [
        "ãĥ",
        "Ĩ"
      ],
      [
        "çĶ",
        "¨"
      ],
      [
        "!",
        "("
      ],
      [
        ")",
        ","
      ],
      [
        "8",
        "0"
      ],
      [
        "I",
        "N"
      ],
      [
        "_",
        "_"
      ],
      [
        "`",
        "`"
      ],
      [
        "e",
        "ct"
      ],
      [
        "f",
        "ig"
      ],
      [
        "v",
        "oid"
      ],
      [
        "}",
        ";"
      ],
      [
        "Ġ",
        "\""
      ],
      [
        "Ġ",
        "D"
      ],
      [
        "lo",
        "g"
      ],
      [
        "E",
        "R"
      ],
      [
        "t",
        "ext"
      ],
      [
        "Ġ",
        "B"
      ],
      [
        "at",
        "h"
      ],
      [
        "Ġre",
        "turn"
      ],
      [
        "ä",
        "½"
      ],
      [
        "è",
        "¦"
      ],
      [
        "re",
        "ss"
      ],
      [
        "ãĤĴ",
        "æ"
      ],
      [
        "ãģĹ",
        "ãģ¾ãģĻ"
      ],
      [
        "Ġo",
        "f"
      ],
      [
        "u",
        "b"
      ],
      [
        "c",
        "he"
      ],
      [
        "c",
        "es"
      ],
      [
        "e",
        "l"
      ],
      [
        "f",
        "orm"
      ],
      [
        "Ġ",
        "1"
      ],
      [
        "or",
        "e"
      ],
      [
        "Ġf",
        "or"
      ],
      [
        "a",
        "y"
      ],
      [
        "d",
        "u"
      ],
      [
        "h",
        "t"
      ],
      [
        "Ġ",
        "*"
      ],
      [
        "Ġ",
        "0"
      ],
      [
        "Ġ",
        "N"
      ],
      [
        "Ġ",
        "O"
      ],
      [
        "Ġ",
        "y"
      ],
      [
        "Ġv",
        "al"
      ],
      [
        "ab",
        "le"
      ],
      [
        "ty",
        "pe"
      ],
      [
        "å",
        "®"
      ],
      [
        "ãģ",
        "ı"
      ],
      [
        "ãģĦ",
        "ãģ¾ãģĻ"
      ],
      [
        "ãĥ¼ãĥ",
        "ī"
      ],
      [
        "d",
        "i"
      ],
      [
        "Ġ",
        "se"
      ],
      [
        "re",
        "s"
      ],
      [
        "Ġt",
        "r"
      ],
      [
        "u",
        "g"
      ],
      [
        "w",
        "a"
      ],
      [
        "at",
        "ch"
      ],
      [
        "en",
        "s"
      ],
      [
        "Ġc",
        "om"
      ],
      [
        "un",
        "ction"
      ],
      [
        "ke",
        "y"
      ],
      [
        "å",
        "ĩ"
      ],
      [
        "å",
        "ı"
      ],
      [
        "æ",
        "Ģ"
      ],
      [
        "æ",
        "ĸ"
      ],
      [
        "Ġ",
        "g"
      ],
      [
        "Ġ",
        "us"
      ],
      [
        "ãĥ",
        "Ĺ"
      ],
      [
        "ãĤ",
        "°"
      ],
      [
        "al",
        "l"
      ],
      [
        "ãģĻ",
        "ãĤĭ"
      ],
      [
        "an",
        "ce"
      ],
      [
        "Ġb",
        "u"
      ],
      [
        "ãĥ¼ãĤ",
        "¿"
      ],
      [
        "'",
        ";"
      ],
      [
        "R",
        "O"
      ],
      [
        "a",
        "p"
      ],
      [
        "a",
        "ss"
      ],
      [
        "d",
        "er"
      ],
      [
        "i",
        "st"
      ],
      [
        "m",
        "et"
      ],
      [
        "r",
        "or"
      ],
      [
        "u",
        "m"
      ],
      [
        "Ġ",
        "M"
      ],
      [
        "Ġt",
        "h"
      ],
      [
        "Ġt",
        "ra"
      ],
      [
        "Ġ=",
        ">"
      ],
      [
        "def",
        "ine"
      ],
      [
        "!(",
        "\""
      ],
      [
        "a",
        "pp"
      ],
      [
        "o",
        "t"
      ],
      [
        "q",
        "ue"
      ],
      [
        "an",
        "s"
      ],
      [
        "li",
        "ke"
      ],
      [
        "as",
        "h"
      ],
      [
        "pt",
        "im"
      ],
      [
        "Ġres",
        "ult"
      ],
      [
        "æ",
        "ķ"
      ],
      [
        "ãģ",
        "ĵ"
      ],
      [
        "ãĥ",
        "«"
      ],
      [
        "ãĤ",
        "¢"
      ],
      [
        "ãĤ",
        "·"
      ],
      [
        "ãĤ",
        "Į"
      ],
      [
        "ãĤĴ",
        "è"
      ],
      [
        "ãģ¨",
        "ãģĹãģ¦"
      ],
      [
        "ãĥĩ",
        "ãĥ¼ãĤ¿"
      ],
      [
        "ãĤ³",
        "ãĥ¼ãĥī"
      ],
      [
        "åĲ",
        "Ī"
      ],
      [
        "è¡",
        "Į"
      ],
      [
        "C",
        "on"
      ],
      [
        "q",
        "u"
      ],
      [
        "u",
        "re"
      ],
      [
        "Ġ",
        "is"
      ],
      [
        "lo",
        "c"
      ],
      [
        "il",
        "d"
      ],
      [
        "iv",
        "e"
      ],
      [
        "R",
        "e"
      ],
      [
        "a",
        "ct"
      ],
      [
        "e",
        "c"
      ],
      [
        "f",
        "f"
      ],
      [
        "o",
        "s"
      ],
      [
        "o",
        "ur"
      ],
      [
        "s",
        "ize"
      ],
      [
        "t",
        "ent"
      ],
      [
        "in",
        "ing"
      ],
      [
        "at",
        "ed"
      ],
      [
        "ro",
        "p"
      ],
      [
        "it",
        "y"
      ],
      [
        "ag",
        "e"
      ],
      [
        "Ġtra",
        "ining"
      ],
      [
        "(",
        ");"
      ],
      [
        ":",
        "\""
      ],
      [
        "E",
        "r"
      ],
      [
        "d",
        "ata"
      ],
      [
        "n",
        "n"
      ],
      [
        "o",
        "ptim"
      ],
      [
        "¦",
        "çĲĨ"
      ],
      [
        "§",
        "ĭ"
      ],
      [
        "ä",
        "»"
      ],
      [
        "å",
        "¤"
      ],
      [
        "é",
        "Ģ"
      ],
      [
        "é",
        "ģ"
      ],
      [
        "Ġ",
        "?"
      ],
      [
        "Ġ",
        "U"
      ],
      [
        "Ġ",
        "W"
      ],
      [
        "Ġ",
        "def"
      ],
      [
        "ãĥ",
        "¡"
      ],
      [
        "ãĥ",
        "¢"
      ],
      [
        "ãĥ",
        "¬"
      ],
      [
        "ãĥ",
        "Ń"
      ],
      [
        "ãĥ",
        "ķãĤ"
      ],
      [
        "Ġa",
        "wa"
      ],
      [
        "ãģ§",
        "ãģ¯"
      ],
      [
        "am",
        "p"
      ],
      [
        "ãģĹ",
        "ãģŁ"
      ],
      [
        "ma",
        "il"
      ],
      [
        "ãĥ¼ãĤ",
        "¹"
      ],
      [
        "Ġw",
        "ith"
      ],
      [
        "ĠR",
        "e"
      ],
      [
        "ĠR",
        "es"
      ],
      [
        "exp",
        "ress"
      ],
      [
        "è¦",
        "ģ"
      ],
      [
        "åĩ",
        "¦çĲĨ"
      ],
      [
        "ans",
        "form"
      ],
      [
        "Ġawa",
        "it"
      ],
      [
        "d",
        "ing"
      ],
      [
        "o",
        "f"
      ],
      [
        "u",
        "p"
      ],
      [
        "v",
        "i"
      ],
      [
        "Ġ",
        "L"
      ],
      [
        "Ġ",
        "i"
      ],
      [
        "Ġ",
        "on"
      ],
      [
        "Ġ",
        "like"
      ],
      [
        "se",
        "t"
      ],
      [
        "it",
        "er"
      ],
      [
        "pe",
        "ct"
      ],
      [
        "Ġw",
        "e"
      ],
      [
        "i",
        "o"
      ],
      [
        "o",
        "ck"
      ],
      [
        "g",
        "r"
      ],
      [
        "o",
        "ut"
      ],
      [
        "Ġ",
        "I"
      ],
      [
        "en",
        "ce"
      ],
      [
        "al",
        "iz"
      ],
      [
        "Ġn",
        "orm"
      ],
      [
        "ä",
        "¾"
      ],
      [
        "ä",
        "¿"
      ],
      [
        "å",
        "Ĭ"
      ],
      [
        "å",
        "Į"
      ],
      [
        "å",
        "Ń"
      ],
      [
        "è",
        "ª"
      ],
      [
        "Ł",
        "æ"
      ],
      [
        "ãģ",
        "£"
      ],
      [
        "ãģ",
        "į"
      ],
      [
        "ãĥ",
        "ĸ"
      ],
      [
        "ãĥ",
        "ł"
      ],
      [
        "ãĤ",
        "¿"
      ],
      [
        "ãĤ",
        "Ĭ"
      ],
      [
        "ãģ®",
        "æ"
      ],
      [
        "ãģ«",
        "ãģ¯"
      ],
      [
        "ãĥ©",
        "ãĤ¤"
      ],
      [
        "ãĤ¹",
        "ãĥĪ"
      ],
      [
        "ä½",
        "¿"
      ],
      [
        "åı",
        "¯"
      ],
      [
        "æĢ",
        "§"
      ],
      [
        "a",
        "in"
      ],
      [
        "e",
        "w"
      ],
      [
        "Ġto",
        "k"
      ],
      [
        "Ġpro",
        "ces"
      ],
      [
        "ay",
        "er"
      ],
      [
        "tent",
        "ion"
      ],
      [
        "'",
        ":"
      ],
      [
        ")",
        ")"
      ],
      [
        "L",
        "E"
      ],
      [
        "S",
        "E"
      ],
      [
        "S",
        "er"
      ],
      [
        "c",
        "o"
      ],
      [
        "d",
        "a"
      ],
      [
        "g",
        "et"
      ],
      [
        "i",
        "ct"
      ],
      [
        "l",
        "on"
      ],
      [
        "m",
        "odel"
      ],
      [
        "n",
        "ame"
      ],
      [
        "s",
        "er"
      ],
      [
        "t",
        "p"
      ],
      [
        "t",
        "ime"
      ],
      [
        "Ġ",
        "+"
      ],
      [
        "Ġ",
        "lo"
      ],
      [
        "Ġ",
        "id"
      ],
      [
        "Ġ",
        "__"
      ],
      [
        "at",
        "tr"
      ],
      [
        "or",
        "k"
      ],
      [
        "ĠĠ",
        "ĠĠ"
      ],
      [
        "ro",
        "ss"
      ],
      [
        "ut",
        "o"
      ],
      [
        "Ġs",
        "y"
      ],
      [
        "Ġn",
        "ame"
      ],
      [
        "Ġst",
        "d"
      ],
      [
        "cl",
        "ass"
      ],
      [
        "li",
        "c"
      ],
      [
        "us",
        "er"
      ],
      [
        "Ġv",
        "oid"
      ],
      [
        "ĠC",
        "on"
      ],
      [
        "Ġapp",
        "lic"
      ],
      [
        "Ġas",
        "ync"
      ],
      [
        "ial",
        "ize"
      ],
      [
        "Ġstr",
        "ing"
      ],
      [
        "Ġma",
        "in"
      ],
      [
        "80",
        "80"
      ],
      [
        "``",
        "`"
      ],
      [
        "ĠN",
        "O"
      ],
      [
        "Ġtr",
        "ansform"
      ],
      [
        "Ġus",
        "ers"
      ],
      [
        "a",
        "st"
      ],
      [
        "a",
        "ult"
      ],
      [
        "c",
        "om"
      ],
      [
        "s",
        "c"
      ],
      [
        "v",
        "al"
      ],
      [
        "ä",
        "º"
      ],
      [
        "å",
        "¾"
      ],
      [
        "å",
        "ħ"
      ],
      [
        "å",
        "ī"
      ],
      [
        "ç",
        "Ļ"
      ],
      [
        "ãģ",
        "ķãĤ"
      ],
      [
        "ãĥ",
        "ŀ"
      ],
      [
        "ãĤ",
        "¸"
      ],
      [
        "ãĤ",
        "»"
      ],
      [
        "ãĤ",
        "ģ"
      ],
      [
        "al",
        "loc"
      ],
      [
        "he",
        "l"
      ],
      [
        "Ġf",
        "unction"
      ],
      [
        "Ġp",
        "re"
      ],
      [
        "lo",
        "w"
      ],
      [
        "lo",
        "at"
      ],
      [
        "an",
        "g"
      ],
      [
        "ex",
        "pect"
      ],
      [
        "et",
        "w"
      ],
      [
        "ãĥ³",
        "ãĤ°"
      ],
      [
        "ãģĦ",
        "ãģ¦"
      ],
      [
        "Ġcon",
        "text"
      ],
      [
        "Ġin",
        "put"
      ],
      [
        "ction",
        "s"
      ],
      [
        "ä¸",
        "į"
      ],
      [
        "ãĤ³",
        "ãĥ³ãĥ"
      ],
      [
        "che",
        "d"
      ],
      [
        "que",
        "st"
      ],
      [
        "ãģĵ",
        "ãģ¨"
      ],
      [
        "éģ",
        "©"
      ],
      [
        "Ġnorm",
        "aliz"
      ],
      [
        "åĮ",
        "ĸ"
      ],
      [
        "ãģķãĤ",
        "Į"
      ],
      [
        "L",
        "R"
      ],
      [
        "n",
        "et"
      ],
      [
        "i",
        "f"
      ],
      [
        "t",
        "in"
      ],
      [
        "w",
        "ar"
      ],
      [
        "Ġ",
        "r"
      ],
      [
        "ma",
        "in"
      ],
      [
        "Ġbu",
        "ild"
      ],
      [
        "Ġproces",
        "s"
      ],
      [
        "re",
        "e"
      ],
      [
        "G",
        "it"
      ],
      [
        "c",
        "ur"
      ],
      [
        "c",
        "ross"
      ],
      [
        "e",
        "p"
      ],
      [
        "l",
        "ine"
      ],
      [
        "p",
        "h"
      ],
      [
        "p",
        "o"
      ],
      [
        "Ġ",
        "le"
      ],
      [
        "at",
        "tention"
      ],
      [
        "ion",
        "s"
      ],
      [
        "Ġc",
        "h"
      ],
      [
        "Ġp",
        "ar"
      ],
      [
        "an",
        "d"
      ],
      [
        "Ġd",
        "o"
      ],
      [
        "ig",
        "ht"
      ],
      [
        "Ġcom",
        "put"
      ],
      [
        "£",
        "æ"
      ],
      [
        "¦",
        "ç"
      ],
      [
        "å",
        "¿"
      ],
      [
        "æ",
        "³"
      ],
      [
        "æ",
        "ħ"
      ],
      [
        "è",
        "ĥ"
      ],
      [
        "é",
        "ĩ"
      ],
      [
        "é",
        "ĸ"
      ],
      [
        "į",
        "è¦ģ"
      ],
      [
        "Ļ",
        "ãĥ¼ãĤ¹"
      ],
      [
        "Ľ",
        "¸"
      ],
      [
        "ãģ",
        "Ĭ"
      ],
      [
        "ãģ",
        "ł"
      ],
      [
        "ãĥ",
        "¥"
      ],
      [
        "ãĥ",
        "§"
      ],
      [
        "ãĥ",
        "Ĳ"
      ],
      [
        "ãĥ",
        "ĳ"
      ],
      [
        "ãĤ",
        "£"
      ],
      [
        "ãĤ",
        "ª"
      ],
      [
        "ãĤ",
        "µ"
      ],
      [
        "ãĤ",
        "Ħ"
      ],
      [
        "ãĤ",
        "ī"
      ],
      [
        "ãĤ",
        "ı"
      ],
      [
        "ãĢ",
        "ģ"
      ],
      [
        "ä¸",
        "Ģ"
      ],
      [
        "æľ",
        "Ģ"
      ],
      [
        "ãĥĨ",
        "ãĤ¹ãĥĪ"
      ],
      [
        "ãĥĹ",
        "ãĥŃ"
      ],
      [
        "æķ",
        "°"
      ],
      [
        "ãĥ¡",
        "ãĥ¢"
      ],
      [
        "çĻ",
        "º"
      ],
      [
        "èĥ",
        "½"
      ],
      [
        "éĩ",
        "įè¦ģ"
      ],
      [
        "ãĥ¡ãĥ¢",
        "ãĥª"
      ],
      [
        "\"",
        ","
      ],
      [
        "\"",
        ");"
      ],
      [
        "'",
        ")"
      ],
      [
        "'",
        ","
      ],
      [
        ")",
        ":"
      ],
      [
        "/",
        "/"
      ],
      [
        ":",
        "//"
      ],
      [
        "A",
        "T"
      ],
      [
        "C",
        "T"
      ],
      [
        "E",
        "S"
      ],
      [
        "H",
        "ER"
      ],
      [
        "I",
        "M"
      ],
      [
        "L",
        "U"
      ],
      [
        "S",
        "t"
      ],
      [
        "V",
        "ec"
      ],
      [
        "b",
        "j"
      ],
      [
        "b",
        "da"
      ],
      [
        "d",
        "am"
      ],
      [
        "i",
        "p"
      ],
      [
        "j",
        "ect"
      ],
      [
        "m",
        "ing"
      ],
      [
        "o",
        "ol"
      ],
      [
        "o",
        "bj"
      ],
      [
        "p",
        "on"
      ],
      [
        "s",
        "ync"
      ],
      [
        "t",
        "er"
      ],
      [
        "u",
        "f"
      ],
      [
        "Ġ",
        "&"
      ],
      [
        "Ġ",
        "."
      ],
      [
        "Ġ",
        ":"
      ],
      [
        "Ġ",
        ">"
      ],
      [
        "Ġ",
        "H"
      ],
      [
        "Ġ",
        "["
      ],
      [
        "Ġ",
        "imp"
      ],
      [
        "Ġ",
        "IN"
      ],
      [
        "Ġ",
        "log"
      ],
      [
        "er",
        "r"
      ],
      [
        "er",
        "at"
      ],
      [
        "er",
        "ror"
      ],
      [
        "er",
        "ialize"
      ],
      [
        "at",
        "ic"
      ],
      [
        "or",
        "s"
      ],
      [
        "st",
        "d"
      ],
      [
        "st",
        "em"
      ],
      [
        "st",
        "atic"
      ],
      [
        "Ġa",
        "d"
      ],
      [
        "ro",
        "ug"
      ],
      [
        "Ġc",
        "re"
      ],
      [
        "Ġc",
        "ode"
      ],
      [
        "Ġc",
        "ase"
      ],
      [
        "Ġf",
        "d"
      ],
      [
        "iz",
        "er"
      ],
      [
        "Ġ{",
        "}"
      ],
      [
        "le",
        "ment"
      ],
      [
        "Ġn",
        "n"
      ],
      [
        "am",
        "l"
      ],
      [
        "am",
        "bda"
      ],
      [
        "am",
        "ming"
      ],
      [
        "Ġb",
        "y"
      ],
      [
        "ma",
        "x"
      ],
      [
        "li",
        "b"
      ],
      [
        "Ġo",
        "ut"
      ],
      [
        "()",
        ");"
      ],
      [
        "Ġcon",
        "st"
      ],
      [
        "ra",
        "di"
      ],
      [
        "Ġpro",
        "gr"
      ],
      [
        "em",
        "o"
      ],
      [
        "Ġm",
        "e"
      ],
      [
        "ho",
        "d"
      ],
      [
        "ho",
        "st"
      ],
      [
        "ĠA",
        "uto"
      ],
      [
        "ĠS",
        "e"
      ],
      [
        "ag",
        "es"
      ],
      [
        "Ġh",
        "t"
      ],
      [
        "ĠF",
        "RO"
      ],
      [
        "ol",
        "le"
      ],
      [
        "Ġe",
        "mail"
      ],
      [
        "ht",
        "tp"
      ],
      [
        "Ġse",
        "ss"
      ],
      [
        "ap",
        "i"
      ],
      [
        "met",
        "hod"
      ],
      [
        "Ġth",
        "roug"
      ],
      [
        "Er",
        "ror"
      ],
      [
        "ĠW",
        "HER"
      ],
      [
        "Ġdef",
        "ault"
      ],
      [
        "ĠRes",
        "ult"
      ],
      [
        "Ser",
        "ver"
      ],
      [
        "lon",
        "e"
      ],
      [
        "Ġsy",
        "stem"
      ],
      [
        "ĠCon",
        "fig"
      ],
      [
        "ĠNO",
        "W"
      ],
      [
        "sc",
        "ore"
      ],
      [
        "hel",
        "met"
      ],
      [
        "pon",
        "se"
      ],
      [
        "radi",
        "ent"
      ],
      [
        "Ġprogr",
        "amming"
      ],
      [
        "ĠFRO",
        "M"
      ],
      [
        "Ġthroug",
        "h"
      ],
      [
        "ĠWHER",
        "E"
      ],
      [
        "L",
        "ayer"
      ],
      [
        "a",
        "il"
      ],
      [
        "a",
        "ck"
      ],
      [
        "b",
        "ug"
      ],
      [
        "c",
        "er"
      ],
      [
        "g",
        "e"
      ],
      [
        "i",
        "pe"
      ],
      [
        "m",
        "ut"
      ],
      [
        "p",
        "rop"
      ],
      [
        "r",
        "i"
      ],
      [
        "u",
        "ct"
      ],
      [
        "Ġ",
        "2"
      ],
      [
        "Ġ",
        "self"
      ],
      [
        "Ġ",
        "iter"
      ],
      [
        "re",
        "n"
      ],
      [
        "Ġt",
        "ime"
      ],
      [
        "Ġc",
        "a"
      ],
      [
        "Ġf",
        "loat"
      ],
      [
        "Ġp",
        "ipe"
      ],
      [
        "ul",
        "l"
      ],
      [
        "ul",
        "er"
      ],
      [
        "ho",
        "w"
      ],
      [
        "ate",
        "st"
      ],
      [
        "Ġstr",
        "uct"
      ],
      [
        "Ġval",
        "ue"
      ],
      [
        "di",
        "ct"
      ],
      [
        "Ġtr",
        "ue"
      ],
      [
        "Re",
        "f"
      ],
      [
        "ched",
        "uler"
      ],
      [
        "I",
        "T"
      ],
      [
        "R",
        "A"
      ],
      [
        "y",
        "pe"
      ],
      [
        "as",
        "ync"
      ],
      [
        "ock",
        "er"
      ],
      [
        "D",
        "ata"
      ],
      [
        "g",
        "or"
      ],
      [
        "i",
        "re"
      ],
      [
        "m",
        "s"
      ],
      [
        "p",
        "lo"
      ],
      [
        "u",
        "o"
      ],
      [
        "¤",
        "ĩ"
      ],
      [
        "§",
        "£æ"
      ],
      [
        "¯",
        "ī"
      ],
      [
        "¿",
        "Ĵ"
      ],
      [
        "ä",
        "¼"
      ],
      [
        "å",
        "½"
      ],
      [
        "å",
        "Ĩ"
      ],
      [
        "å",
        "ĭ"
      ],
      [
        "æ",
        "©"
      ],
      [
        "æ",
        "Ĺ"
      ],
      [
        "ç",
        "µ"
      ],
      [
        "ç",
        "ī"
      ],
      [
        "ç",
        "ļ"
      ],
      [
        "ç",
        "¯ī"
      ],
      [
        "è",
        "³"
      ],
      [
        "Ġ",
        "4"
      ],
      [
        "Ġ",
        "un"
      ],
      [
        "Ġ",
        "exp"
      ],
      [
        "Ī",
        "Ĳ"
      ],
      [
        "Ń",
        "è¨"
      ],
      [
        "ãģ",
        "¤"
      ],
      [
        "ãģ",
        "¿"
      ],
      [
        "ãģ",
        "ĭ"
      ],
      [
        "ãģ",
        "ĳ"
      ],
      [
        "ãģ",
        "Ľ"
      ],
      [
        "ãĥ",
        "£"
      ],
      [
        "ãĥ",
        "ģ"
      ],
      [
        "ãĤ",
        "§"
      ],
      [
        "ãĤ",
        "¨"
      ],
      [
        "ãĤ",
        "º"
      ],
      [
        "ãĤ",
        "Ĥ"
      ],
      [
        "ion",
        "al"
      ],
      [
        "Ġp",
        "er"
      ],
      [
        "Ġre",
        "du"
      ],
      [
        "Ġre",
        "qu"
      ],
      [
        "ãĤĴ",
        "çĶ¨"
      ],
      [
        "ãģ®",
        "é"
      ],
      [
        "ãģ§",
        "ãģį"
      ],
      [
        "Ġn",
        "um"
      ],
      [
        "Ġn",
        "ew"
      ],
      [
        "ãģ¯",
        "è"
      ],
      [
        "Ġd",
        "im"
      ],
      [
        "ãģ¾",
        "ãģĹãģŁ"
      ],
      [
        "ãģ¦",
        "ãģĦãģ¾ãģĻ"
      ],
      [
        "ar",
        "y"
      ],
      [
        "Ġcon",
        "s"
      ],
      [
        "ãĤ¤",
        "ãĥ«"
      ],
      [
        "00",
        "0"
      ],
      [
        "çĶ",
        "Łæ"
      ],
      [
        "Ġde",
        "plo"
      ],
      [
        "ers",
        "ion"
      ],
      [
        "ment",
        "s"
      ],
      [
        "ãģŁ",
        "ãĤģ"
      ],
      [
        "è¨",
        "¼"
      ],
      [
        "è¨",
        "Ńè¨"
      ],
      [
        "ãĥĥ",
        "ãĤ¯"
      ],
      [
        "ä½",
        "ľ"
      ],
      [
        "ãĤĴæ",
        "Ľ¸"
      ],
      [
        "å®",
        "Ł"
      ],
      [
        "ãģĻãĤĭ",
        "æ"
      ],
      [
        "§ĭ",
        "ç¯ī"
      ],
      [
        "Ġwe",
        "ight"
      ],
      [
        "ä¿",
        "Ŀ"
      ],
      [
        "åĬ",
        "Ľ"
      ],
      [
        "ãģ£",
        "ãģ¦"
      ],
      [
        "ãĥĸ",
        "ãĥ©"
      ],
      [
        "ãĤĬ",
        "ãģ¾ãģĻ"
      ],
      [
        "ä½¿",
        "çĶ¨"
      ],
      [
        "ãģĵãģ¨",
        "ãģ§"
      ],
      [
        "æ³",
        "ķ"
      ],
      [
        "éĩįè¦ģ",
        "ãģ§ãģĻ"
      ],
      [
        "åĭ",
        "ķ"
      ],
      [
        "çļ",
        "Ħ"
      ],
      [
        "Ġdeplo",
        "y"
      ],
      [
        "è¨Ńè¨",
        "Ī"
      ],
      [
        "1",
        "00"
      ],
      [
        "b",
        "it"
      ],
      [
        "b",
        "ut"
      ],
      [
        "d",
        "s"
      ],
      [
        "e",
        "en"
      ],
      [
        "f",
        "er"
      ],
      [
        "n",
        "ing"
      ],
      [
        "p",
        "res"
      ],
      [
        "u",
        "al"
      ],
      [
        "Ġ",
        "3"
      ],
      [
        "Ġ",
        "em"
      ],
      [
        "at",
        "ive"
      ],
      [
        "Ġa",
        "l"
      ],
      [
        "Ġa",
        "r"
      ],
      [
        "Ġa",
        "ct"
      ],
      [
        "Ġa",
        "cross"
      ],
      [
        "ro",
        "v"
      ],
      [
        "Ġf",
        "e"
      ],
      [
        "Ġre",
        "pres"
      ],
      [
        "an",
        "t"
      ],
      [
        "Ġs",
        "our"
      ],
      [
        "Ġb",
        "ase"
      ],
      [
        "Ġst",
        "ep"
      ],
      [
        "ar",
        "ning"
      ],
      [
        "Ġo",
        "ver"
      ],
      [
        "Ġpro",
        "ject"
      ],
      [
        "Ġint",
        "o"
      ],
      [
        "Ġm",
        "odel"
      ],
      [
        "ab",
        "il"
      ],
      [
        "Ġl",
        "r"
      ],
      [
        "Ġl",
        "ang"
      ],
      [
        "Ġen",
        "co"
      ],
      [
        "Ġlo",
        "ss"
      ],
      [
        "Ġapplic",
        "ations"
      ],
      [
        "etw",
        "ork"
      ],
      [
        "Ġnormaliz",
        "ation"
      ],
      [
        "Ġimp",
        "rov"
      ],
      [
        "Ġout",
        "put"
      ],
      [
        "Ġact",
        "iv"
      ],
      [
        "Ġrepres",
        "ent"
      ],
      [
        "Ġsour",
        "ce"
      ],
      [
        "Ġbase",
        "d"
      ],
      [
        "Ġlang",
        "u"
      ],
      [
        "!",
        "!("
      ],
      [
        "\"",
        "`"
      ],
      [
        "#",
        "#"
      ],
      [
        "#",
        "["
      ],
      [
        "$",
        "{"
      ],
      [
        "'",
        "/"
      ],
      [
        "(",
        "&"
      ],
      [
        "(",
        "*"
      ],
      [
        "(",
        "|"
      ],
      [
        "(",
        "!!("
      ],
      [
        "(",
        "'/"
      ],
      [
        ")",
        "."
      ],
      [
        "+",
        "+"
      ],
      [
        "=",
        "-"
      ],
      [
        ">",
        ">"
      ],
      [
        "A",
        "B"
      ],
      [
        "A",
        "X"
      ],
      [
        "A",
        "t"
      ],
      [
        "A",
        "nn"
      ],
      [
        "D",
        "E"
      ],
      [
        "D",
        "e"
      ],
      [
        "H",
        "e"
      ],
      [
        "L",
        "T"
      ],
      [
        "M",
        "odel"
      ],
      [
        "M",
        "ap"
      ],
      [
        "M",
        "emo"
      ],
      [
        "N",
        "orm"
      ],
      [
        "O",
        "U"
      ],
      [
        "R",
        "es"
      ],
      [
        "S",
        "T"
      ],
      [
        "T",
        "ens"
      ],
      [
        "U",
        "P"
      ],
      [
        "W",
        "r"
      ],
      [
        "W",
        "ith"
      ],
      [
        "]",
        ");"
      ],
      [
        "b",
        "u"
      ],
      [
        "b",
        "in"
      ],
      [
        "b",
        "ash"
      ],
      [
        "c",
        "f"
      ],
      [
        "c",
        "p"
      ],
      [
        "c",
        "ast"
      ],
      [
        "c",
        "ors"
      ],
      [
        "c",
        "olle"
      ],
      [
        "d",
        "iv"
      ],
      [
        "d",
        "ocker"
      ],
      [
        "e",
        "al"
      ],
      [
        "e",
        "mail"
      ],
      [
        "f",
        "n"
      ],
      [
        "f",
        "un"
      ],
      [
        "g",
        "it"
      ],
      [
        "i",
        "se"
      ],
      [
        "i",
        "el"
      ],
      [
        "l",
        "n"
      ],
      [
        "l",
        "ambda"
      ],
      [
        "l",
        "atest"
      ],
      [
        "m",
        "atch"
      ],
      [
        "n",
        "orm"
      ],
      [
        "o",
        "le"
      ],
      [
        "o",
        "un"
      ],
      [
        "p",
        "y"
      ],
      [
        "p",
        "ort"
      ],
      [
        "r",
        "it"
      ],
      [
        "r",
        "int"
      ],
      [
        "r",
        "der"
      ],
      [
        "s",
        "cheduler"
      ],
      [
        "t",
        "ps"
      ],
      [
        "u",
        "int"
      ],
      [
        "y",
        "how"
      ],
      [
        "z",
        "ip"
      ],
      [
        "}",
        "'"
      ],
      [
        "Ċ",
        "ĠĠ"
      ],
      [
        "Ġ",
        "V"
      ],
      [
        "Ġ",
        "`"
      ],
      [
        "Ġ",
        "json"
      ],
      [
        "Ġ",
        "Er"
      ],
      [
        "Ġ",
        "express"
      ],
      [
        "Ġ",
        "${"
      ],
      [
        "in",
        "st"
      ],
      [
        "in",
        "et"
      ],
      [
        "er",
        "ty"
      ],
      [
        "at",
        "us"
      ],
      [
        "re",
        "turn"
      ],
      [
        "re",
        "act"
      ],
      [
        "st",
        "all"
      ],
      [
        "Ġc",
        "l"
      ],
      [
        "Ġc",
        "ance"
      ],
      [
        "it",
        "s"
      ],
      [
        "he",
        "ad"
      ],
      [
        "ing",
        "LR"
      ],
      [
        "Ġf",
        "n"
      ],
      [
        "Ġf",
        "et"
      ],
      [
        "Ġp",
        "tr"
      ],
      [
        "es",
        "erialize"
      ],
      [
        "ex",
        "ce"
      ],
      [
        "ex",
        "amp"
      ],
      [
        "imp",
        "lement"
      ],
      [
        "ss",
        "ize"
      ],
      [
        "Ġd",
        "ict"
      ],
      [
        "Ġst",
        "ate"
      ],
      [
        "ur",
        "l"
      ],
      [
        "Ġ(",
        "("
      ],
      [
        "il",
        "tin"
      ],
      [
        "Ġo",
        "k"
      ],
      [
        "us",
        "ers"
      ],
      [
        "()",
        ","
      ],
      [
        "con",
        "fig"
      ],
      [
        "con",
        "text"
      ],
      [
        "Ġan",
        "yhow"
      ],
      [
        "om",
        "ic"
      ],
      [
        "ine",
        "Ann"
      ],
      [
        "ĠC",
        "os"
      ],
      [
        "ĠC",
        "lone"
      ],
      [
        "Ġsize",
        "of"
      ],
      [
        "ad",
        "er"
      ],
      [
        "ĠA",
        "dam"
      ],
      [
        "Ġres",
        "p"
      ],
      [
        "ĠF",
        "C"
      ],
      [
        "Ġuse",
        "Ref"
      ],
      [
        "Ġuse",
        "Memo"
      ],
      [
        "ĠT",
        "IM"
      ],
      [
        "tr",
        "y"
      ],
      [
        "ĠP",
        "ath"
      ],
      [
        "Ġe",
        "ps"
      ],
      [
        "ĠD",
        "ata"
      ],
      [
        "ĠD",
        "eserialize"
      ],
      [
        "log",
        "its"
      ],
      [
        "ĠB",
        "Y"
      ],
      [
        "ĠB",
        "uf"
      ],
      [
        "ĠO",
        "rder"
      ],
      [
        "Ġy",
        "aml"
      ],
      [
        "type",
        "def"
      ],
      [
        "Ġbu",
        "f"
      ],
      [
        "ĠM",
        "IN"
      ],
      [
        "ĠM",
        "AX"
      ],
      [
        "Con",
        "fig"
      ],
      [
        "ild",
        "ren"
      ],
      [
        "optim",
        "izer"
      ],
      [
        "ĠU",
        "ser"
      ],
      [
        "ĠRe",
        "act"
      ],
      [
        "ĠRe",
        "quest"
      ],
      [
        "ĠRes",
        "ponse"
      ],
      [
        "up",
        "le"
      ],
      [
        "Ġtok",
        "io"
      ],
      [
        "LE",
        "CT"
      ],
      [
        "SE",
        "LECT"
      ],
      [
        "ĠĠĠĠ",
        "ĠĠĠ"
      ],
      [
        "AT",
        "E"
      ],
      [
        "St",
        "ate"
      ],
      [
        "ool",
        "s"
      ],
      [
        "Ġ&",
        "&"
      ],
      [
        "ĠIN",
        "T"
      ],
      [
        "Ġlog",
        "g"
      ],
      [
        "Ġcre",
        "ated"
      ],
      [
        "Ġ{}",
        "\","
      ],
      [
        "ĠSe",
        "lf"
      ],
      [
        "Ġht",
        "tps"
      ],
      [
        "Ġsess",
        "ion"
      ],
      [
        "prop",
        "erty"
      ],
      [
        "Tens",
        "or"
      ],
      [
        "Wr",
        "iter"
      ],
      [
        "bu",
        "iltin"
      ],
      [
        "cf",
        "g"
      ],
      [
        "eal",
        "ingLR"
      ],
      [
        "fun",
        "c"
      ],
      [
        "iel",
        "d"
      ],
      [
        "rit",
        "e"
      ],
      [
        "rint",
        "ln"
      ],
      [
        "ĊĠĠ",
        "ĠĠĠ"
      ],
      [
        "ĠEr",
        "r"
      ],
      [
        "inst",
        "ance"
      ],
      [
        "Ġcance",
        "l"
      ],
      [
        "Ġfet",
        "ch"
      ],
      [
        "exce",
        "pt"
      ],
      [
        "examp",
        "le"
      ],
      [
        "ineAnn",
        "ealingLR"
      ],
      [
        "ĠCos",
        "ineAnnealingLR"
      ],
      [
        "¥",
        "½"
      ],
      [
        "¬",
        "ł"
      ],
      [
        "°",
        "Ĺ"
      ],
      [
        "±",
        "æľ"
      ],
      [
        "·",
        "±"
      ],
      [
        "·",
        "ãĥ§"
      ],
      [
        "å",
        "į"
      ],
      [
        "å",
        "ĵ"
      ],
      [
        "å",
        "ķ"
      ],
      [
        "å",
        "Ľ"
      ],
      [
        "æ",
        "¨"
      ],
      [
        "æ",
        "ĺ"
      ],
      [
        "æ",
        "¬ł"
      ],
      [
        "æ",
        "°Ĺ"
      ],
      [
        "ç",
        "İ"
      ],
      [
        "ç",
        "ı"
      ],
      [
        "ç",
        "ķ"
      ],
      [
        "è",
        "¶"
      ],
      [
        "ģ",
        "è³"
      ],
      [
        "ĩ",
        "ª"
      ],
      [
        "Ĭ",
        "Ģ"
      ],
      [
        "Ļ",
        "Ĥ"
      ],
      [
        "Ŀ",
        "ãģĦãģ¾ãģĻ"
      ],
      [
        "ãģ",
        "Ĥ"
      ],
      [
        "ãģ",
        "Ĩ"
      ],
      [
        "ãģ",
        "ķ"
      ],
      [
        "ãĥ",
        "ĭ"
      ],
      [
        "ãĥ",
        "į"
      ],
      [
        "ãĥ",
        "Ŀ"
      ],
      [
        "ãĥ",
        "Ł"
      ],
      [
        "ãĥ",
        "Ļãĥ¼ãĤ¹"
      ],
      [
        "ãĤ",
        "«"
      ],
      [
        "ãĤĴ",
        "è¡Į"
      ],
      [
        "ãĤĴ",
        "çµ"
      ],
      [
        "ãĤĴ",
        "çĶŁæ"
      ],
      [
        "ãĤĴ",
        "ä½ľ"
      ],
      [
        "ãģ®",
        "è"
      ],
      [
        "ãģ®",
        "ãģĮ"
      ],
      [
        "ãģ¯",
        "ãĤ"
      ],
      [
        "ãģĹ",
        "ãģĦ"
      ],
      [
        "ãĥ³",
        "ãĤ¹"
      ],
      [
        "ãĥ¼ãĤ",
        "¯"
      ],
      [
        "ãĥ¼ãĤ",
        "¸"
      ],
      [
        "ãĥ¼ãĤ",
        "·ãĥ§"
      ],
      [
        "ãģĮ",
        "éĩįè¦ģãģ§ãģĻ"
      ],
      [
        "ãĤ¹",
        "ãĥĨ"
      ],
      [
        "ãĤ¤",
        "ãĥ³"
      ],
      [
        "ãĤ¯",
        "ãĥĪ"
      ],
      [
        "ä¸",
        "¦"
      ],
      [
        "åĪ",
        "Ĩ"
      ],
      [
        "åĪ",
        "Ĺ"
      ],
      [
        "ãĥĥ",
        "ãĥĪ"
      ],
      [
        "ãĥĨ",
        "ãĤ£"
      ],
      [
        "è¦",
        "ı"
      ],
      [
        "ãĤĴæ",
        "§ĭç¯ī"
      ],
      [
        "å®",
        "ļ"
      ],
      [
        "æĢ",
        "ĿãģĦãģ¾ãģĻ"
      ],
      [
        "æĸ",
        "°"
      ],
      [
        "æĸ",
        "¹"
      ],
      [
        "æĸ",
        "Ļ"
      ],
      [
        "ãĤ°",
        "ãĥ©"
      ],
      [
        "ãĤ·",
        "ãĤ¹ãĥĨ"
      ],
      [
        "ãĤĴè",
        "§£æ"
      ],
      [
        "ãĤ³ãĥ¼ãĥī",
        "ãĤĴæĽ¸"
      ],
      [
        "åĲĪ",
        "ãĤı"
      ],
      [
        "å¤",
        "§"
      ],
      [
        "å¤",
        "ĸ"
      ],
      [
        "ãĥķãĤ",
        "¡"
      ],
      [
        "ãĥķãĤ",
        "©"
      ],
      [
        "åŃ",
        "¦ç"
      ],
      [
        "èª",
        "į"
      ],
      [
        "ãĥ©ãĤ¤",
        "ãĥĸãĥ©"
      ],
      [
        "åı¯",
        "èĥ½"
      ],
      [
        "åı¯",
        "æ¬ł"
      ],
      [
        "ãĤ¸",
        "ãĤ§"
      ],
      [
        "ä¸į",
        "åı¯æ¬ł"
      ],
      [
        "ãĤ³ãĥ³ãĥ",
        "ĳ"
      ],
      [
        "éĸ",
        "¢"
      ],
      [
        "ãĤµ",
        "ãĥ¼ãĥ"
      ],
      [
        "æľĢ",
        "éģ©"
      ],
      [
        "ãĥĹãĥŃ",
        "ãĤ°ãĥ©"
      ],
      [
        "æķ°",
        "ãģ®"
      ],
      [
        "¤ĩ",
        "æķ°ãģ®"
      ],
      [
        "æ©",
        "Łæ"
      ],
      [
        "æĹ",
        "¥"
      ],
      [
        "ãĤĴçĶ¨",
        "ãģĦãģ¦"
      ],
      [
        "ãģ§ãģį",
        "ãģ¾ãģĻ"
      ],
      [
        "æ³ķ",
        "ãģ§ãģĻ"
      ],
      [
        "è¨Ńè¨Ī",
        "ãģ§ãģ¯"
      ],
      [
        "åĵ",
        "ģè³"
      ],
      [
        "åķ",
        "ı"
      ],
      [
        "çİ",
        "ĩ"
      ],
      [
        "çı",
        "¾"
      ],
      [
        "ãĤĴè¡Į",
        "ãģĦãģ¾ãģĻ"
      ],
      [
        "ãĤĴçĶŁæ",
        "ĪĲ"
      ],
      [
        "ãĤ·ãĤ¹ãĥĨ",
        "ãĥł"
      ],
      [
        "ãĤ³ãĥ¼ãĥīãĤĴæĽ¸",
        "ãģı"
      ],
      [
        "åĲĪãĤı",
        "ãģĽ"
      ],
      [
        "åŃ¦ç",
        "¿Ĵ"
      ],
      [
        "ãĥ©ãĤ¤ãĥĸãĥ©",
        "ãĥª"
      ],
      [
        "ãĤ¸ãĤ§",
        "ãĤ¯ãĥĪ"
      ],
      [
        "åĵģè³",
        "ª"
      ],
      [
        "F",
        "unction"
      ],
      [
        "T",
        "r"
      ],
      [
        "a",
        "ch"
      ],
      [
        "b",
        "er"
      ],
      [
        "c",
        "u"
      ],
      [
        "c",
        "ay"
      ],
      [
        "d",
        "ated"
      ],
      [
        "f",
        "a"
      ],
      [
        "f",
        "or"
      ],
      [
        "g",
        "ra"
      ],
      [
        "i",
        "res"
      ],
      [
        "n",
        "e"
      ],
      [
        "n",
        "o"
      ],
      [
        "n",
        "y"
      ],
      [
        "o",
        "int"
      ],
      [
        "r",
        "on"
      ],
      [
        "s",
        "ion"
      ],
      [
        "s",
        "ure"
      ],
      [
        "t",
        "o"
      ],
      [
        "t",
        "ra"
      ],
      [
        "t",
        "ain"
      ],
      [
        "Ġ",
        "G"
      ],
      [
        "Ġ",
        "ra"
      ],
      [
        "Ġ",
        "key"
      ],
      [
        "Ġ",
        "up"
      ],
      [
        "in",
        "ary"
      ],
      [
        "er",
        "fa"
      ],
      [
        "re",
        "ad"
      ],
      [
        "st",
        "r"
      ],
      [
        "en",
        "d"
      ],
      [
        "se",
        "s"
      ],
      [
        "iz",
        "ed"
      ],
      [
        "an",
        "ag"
      ],
      [
        "ent",
        "rop"
      ],
      [
        "Ġd",
        "is"
      ],
      [
        "ul",
        "d"
      ],
      [
        "om",
        "et"
      ],
      [
        "Ġpro",
        "du"
      ],
      [
        "ig",
        "n"
      ],
      [
        "Ġm",
        "em"
      ],
      [
        "Ġh",
        "ash"
      ],
      [
        "Ġen",
        "vi"
      ],
      [
        "Ġen",
        "sure"
      ],
      [
        "ER",
        "T"
      ],
      [
        "ot",
        "h"
      ],
      [
        "Ġresult",
        "s"
      ],
      [
        "ff",
        "ect"
      ],
      [
        "os",
        "it"
      ],
      [
        "of",
        "t"
      ],
      [
        "Ġapplic",
        "ation"
      ],
      [
        "expect",
        "ed"
      ],
      [
        "war",
        "d"
      ],
      [
        "Ġpar",
        "t"
      ],
      [
        "and",
        "le"
      ],
      [
        "ire",
        "ments"
      ],
      [
        "Ġredu",
        "ce"
      ],
      [
        "Ġrequ",
        "irements"
      ],
      [
        "Ġdeploy",
        "ment"
      ],
      [
        "Ġup",
        "dated"
      ],
      [
        "entrop",
        "y"
      ],
      [
        "Ġenvi",
        "ron"
      ],
      [
        "T",
        "ype"
      ],
      [
        "h",
        "on"
      ],
      [
        "t",
        "hon"
      ],
      [
        "0",
        "4"
      ],
      [
        "G",
        "radient"
      ],
      [
        "a",
        "x"
      ],
      [
        "b",
        "ed"
      ],
      [
        "c",
        "re"
      ],
      [
        "d",
        "it"
      ],
      [
        "e",
        "st"
      ],
      [
        "e",
        "gr"
      ],
      [
        "g",
        "ress"
      ],
      [
        "g",
        "ence"
      ],
      [
        "h",
        "an"
      ],
      [
        "i",
        "x"
      ],
      [
        "k",
        "s"
      ],
      [
        "o",
        "u"
      ],
      [
        "t",
        "e"
      ],
      [
        "t",
        "ing"
      ],
      [
        "v",
        "ent"
      ],
      [
        "w",
        "o"
      ],
      [
        "Ġ",
        "5"
      ],
      [
        "Ġ",
        "k"
      ],
      [
        "Ġ",
        "ext"
      ],
      [
        "Ġ",
        "qu"
      ],
      [
        "Ġ",
        "attention"
      ],
      [
        "in",
        "ed"
      ],
      [
        "er",
        "n"
      ],
      [
        "er",
        "y"
      ],
      [
        "at",
        "ure"
      ],
      [
        "or",
        "y"
      ],
      [
        "Ġt",
        "wo"
      ],
      [
        "Ġa",
        "ut"
      ],
      [
        "en",
        "erat"
      ],
      [
        "Ġc",
        "ol"
      ],
      [
        "it",
        "ting"
      ],
      [
        "Ġp",
        "at"
      ],
      [
        "iz",
        "es"
      ],
      [
        "an",
        "is"
      ],
      [
        "Ġs",
        "im"
      ],
      [
        "Ġs",
        "ub"
      ],
      [
        "Ġn",
        "etwork"
      ],
      [
        "Ġb",
        "e"
      ],
      [
        "Ġb",
        "etw"
      ],
      [
        "ex",
        "ec"
      ],
      [
        "ch",
        "anis"
      ],
      [
        "Ġd",
        "ur"
      ],
      [
        "Ġst",
        "o"
      ],
      [
        "pp",
        "ing"
      ],
      [
        "id",
        "ation"
      ],
      [
        "pe",
        "c"
      ],
      [
        "Ġo",
        "p"
      ],
      [
        "Ġpro",
        "vi"
      ],
      [
        "Ġint",
        "egr"
      ],
      [
        "em",
        "ent"
      ],
      [
        "Ġv",
        "ect"
      ],
      [
        "Ġde",
        "ad"
      ],
      [
        "ment",
        "ation"
      ],
      [
        "Ġuse",
        "s"
      ],
      [
        "Ġen",
        "able"
      ],
      [
        "ck",
        "s"
      ],
      [
        "Ġma",
        "ch"
      ],
      [
        "form",
        "ance"
      ],
      [
        "Ġ1",
        "0"
      ],
      [
        "Ġ1",
        "00"
      ],
      [
        "Ġy",
        "our"
      ],
      [
        "Ġy",
        "ou"
      ],
      [
        "Ġval",
        "idation"
      ],
      [
        "Ġse",
        "qu"
      ],
      [
        "wa",
        "re"
      ],
      [
        "ens",
        "ion"
      ],
      [
        "Ġcom",
        "p"
      ],
      [
        "Ġg",
        "radient"
      ],
      [
        "Ġg",
        "enerat"
      ],
      [
        "Ġus",
        "ing"
      ],
      [
        "ist",
        "ri"
      ],
      [
        "Ġth",
        "is"
      ],
      [
        "Ġtok",
        "ens"
      ],
      [
        "Ġtransform",
        "ations"
      ],
      [
        "Ġfunction",
        "s"
      ],
      [
        "Ġpre",
        "vent"
      ],
      [
        "if",
        "ic"
      ],
      [
        "tin",
        "uo"
      ],
      [
        "cur",
        "ity"
      ],
      [
        "Ġle",
        "arning"
      ],
      [
        "Ġch",
        "ang"
      ],
      [
        "Ġad",
        "ds"
      ],
      [
        "Ġme",
        "chanis"
      ],
      [
        "Ġsystem",
        "s"
      ],
      [
        "gor",
        "ith"
      ],
      [
        "Ġper",
        "formance"
      ],
      [
        "Ġdim",
        "ension"
      ],
      [
        "Ġem",
        "bed"
      ],
      [
        "Ġal",
        "gorith"
      ],
      [
        "Ġfe",
        "ature"
      ],
      [
        "Ġproject",
        "s"
      ],
      [
        "abil",
        "ity"
      ],
      [
        "Ġenco",
        "der"
      ],
      [
        "Ġimprov",
        "es"
      ],
      [
        "Ġactiv",
        "ations"
      ],
      [
        "Ġrepresent",
        "ations"
      ],
      [
        "Ġlangu",
        "ages"
      ],
      [
        "ix",
        "ed"
      ],
      [
        "Ġqu",
        "ery"
      ],
      [
        "Ġbetw",
        "een"
      ],
      [
        "exec",
        "ut"
      ],
      [
        "Ġdur",
        "ing"
      ],
      [
        "Ġprovi",
        "de"
      ],
      [
        "Ġvect",
        "or"
      ],
      [
        "Ġgenerat",
        "es"
      ],
      [
        "istri",
        "but"
      ],
      [
        "tinuo",
        "us"
      ],
      [
        "Ġembed",
        "ding"
      ],
      [
        "u",
        "st"
      ],
      [
        "1",
        "6"
      ],
      [
        "6",
        "4"
      ],
      [
        "A",
        "P"
      ],
      [
        "H",
        "ub"
      ],
      [
        "S",
        "c"
      ],
      [
        "U",
        "I"
      ],
      [
        "¡",
        "Į"
      ],
      [
        "¡",
        "ãģ¾ãģĻ"
      ],
      [
        "¢",
        "°"
      ],
      [
        "¢",
        "º"
      ],
      [
        "£",
        "è¦ı"
      ],
      [
        "¤",
        "ľ"
      ],
      [
        "¥",
        "ãģ¨ãģĹãģ¦"
      ],
      [
        "¥",
        "ãģķãĤĮ"
      ],
      [
        "¨",
        "æ"
      ],
      [
        "©",
        "çĶ¨"
      ],
      [
        "«",
        "ĭ"
      ],
      [
        "«",
        "ĺ"
      ],
      [
        "¶",
        "æħ"
      ],
      [
        "º",
        "ĥ"
      ],
      [
        "å",
        "¹"
      ],
      [
        "å",
        "¼"
      ],
      [
        "å",
        "İ"
      ],
      [
        "å",
        "ĳ"
      ],
      [
        "å",
        "ŀ"
      ],
      [
        "å",
        "ºĥ"
      ],
      [
        "æ",
        "ĥ"
      ],
      [
        "æ",
        "Ī"
      ],
      [
        "æ",
        "Į"
      ],
      [
        "æ",
        "ı"
      ],
      [
        "æ",
        "Ŀ"
      ],
      [
        "æ",
        "¥½"
      ],
      [
        "æ",
        "ĻĤ"
      ],
      [
        "æ",
        "¤ľ"
      ],
      [
        "ç",
        "´"
      ],
      [
        "ç",
        "¶"
      ],
      [
        "ç",
        "·"
      ],
      [
        "ç",
        "Ĭ"
      ],
      [
        "ç",
        "Ł"
      ],
      [
        "ç",
        "¢º"
      ],
      [
        "ç",
        "«ĭ"
      ],
      [
        "è",
        "²"
      ],
      [
        "è",
        "Ī"
      ],
      [
        "è",
        "Ń"
      ],
      [
        "é",
        "ĥ"
      ],
      [
        "é",
        "ļ"
      ],
      [
        "é",
        "Ŀ"
      ],
      [
        "é",
        "¡Į"
      ],
      [
        "é",
        "«ĺ"
      ],
      [
        "Ħ",
        "ı"
      ],
      [
        "Ħ",
        "ãĥ¼ãĥ"
      ],
      [
        "Ħ",
        "ãģ¿"
      ],
      [
        "ħ",
        "è¦ģ"
      ],
      [
        "ĩ",
        "ãģ«"
      ],
      [
        "ī",
        "åħ"
      ],
      [
        "ĭ",
        "çĻº"
      ],
      [
        "ĭ",
        "å¤ĸ"
      ],
      [
        "Į",
        "æľ"
      ],
      [
        "İ",
        "Ĵ"
      ],
      [
        "Ĳ",
        "åĲĪ"
      ],
      [
        "Ĳ",
        "ä¾"
      ],
      [
        "ĵ",
        "ãģ§"
      ],
      [
        "ĵ",
        "ãģ§ãģĻ"
      ],
      [
        "ĵ",
        "ãĤ¹"
      ],
      [
        "ķ",
        "æ"
      ],
      [
        "ķ",
        "¥ãģ¨ãģĹãģ¦"
      ],
      [
        "ļ",
        "ãģ«"
      ],
      [
        "ľ",
        "å®"
      ],
      [
        "Ł",
        "ãģª"
      ],
      [
        "Ń",
        "ãĥĨ"
      ],
      [
        "Ń",
        "£è¦ı"
      ],
      [
        "ãģ",
        "Ķ"
      ],
      [
        "ãģ",
        "¡ãģ¾ãģĻ"
      ],
      [
        "ãĥ",
        "ī"
      ],
      [
        "ãĥ",
        "ĵ"
      ],
      [
        "ãĥ",
        "ķ"
      ],
      [
        "ãĤ",
        "¦"
      ],
      [
        "ãĤ",
        "±"
      ],
      [
        "ãĤ",
        "¶"
      ],
      [
        "ãĤ",
        "Ī"
      ],
      [
        "ãĤ",
        "Ń"
      ],
      [
        "ãĤ",
        "ĵãģ§"
      ],
      [
        "ãĥ¼",
        "ãĤĴ"
      ],
      [
        "ãĥ¼",
        "ãģ«"
      ],
      [
        "ãĤĴ",
        "ä½¿çĶ¨"
      ],
      [
        "ãģ®",
        "ãĥ"
      ],
      [
        "ãģ®",
        "ãģ«"
      ],
      [
        "ãģ®",
        "ãĥĲ"
      ],
      [
        "ãģ®",
        "åİ"
      ],
      [
        "ãģ¯",
        "ãĥĩãĥ¼ãĤ¿"
      ],
      [
        "ãģ¯",
        "ãĤ³ãĥ³ãĥ"
      ],
      [
        "ãģ«",
        "å"
      ],
      [
        "ãģ«",
        "ä¸įåı¯æ¬ł"
      ],
      [
        "ãģ¦",
        "ãĤĤ"
      ],
      [
        "ãģ¨",
        "ãĥĩ"
      ],
      [
        "ãģ¨",
        "æĢĿãģĦãģ¾ãģĻ"
      ],
      [
        "ãģ¨",
        "ãģ¦ãĤĤ"
      ],
      [
        "ãĥ¼ãĤ",
        "ŃãĥĨ"
      ],
      [
        "ãĥª",
        "ãĤ¢"
      ],
      [
        "ãĥª",
        "ãĥ³ãĤ°"
      ],
      [
        "ãĥª",
        "ãĥĥãĥĪ"
      ],
      [
        "ãĥª",
        "ãĥĨãĤ£"
      ],
      [
        "ãģĮ",
        "ãģĤ"
      ],
      [
        "ãģĮ",
        "å¤§"
      ],
      [
        "ãģª",
        "ãĤĭ"
      ],
      [
        "ãģª",
        "æĸ¹"
      ],
      [
        "ãĥ©",
        "ãĥ³ãĤ¹"
      ],
      [
        "ãĤ¹",
        "ãĤ¯"
      ],
      [
        "ãĥ¼ãĥ",
        "ŀ"
      ],
      [
        "ãĤĭ",
        "ãģĵãģ¨ãģ§"
      ],
      [
        "ãĥĩ",
        "ãĥ«"
      ],
      [
        "ãĥĩ",
        "ãĤ£"
      ],
      [
        "ãĥĩ",
        "ãĤ¶"
      ],
      [
        "ãĤ¯",
        "ãĥ©"
      ],
      [
        "ãĤ¯",
        "ãĤ»"
      ],
      [
        "ãĤ¯",
        "ãĥģ"
      ],
      [
        "ĠF",
        "low"
      ],
      [
        "æľ",
        "¬"
      ],
      [
        "ãĥ³ãĥ",
        "ģ"
      ],
      [
        "ãĥ³ãĥ",
        "ī"
      ],
      [
        "ãĥ³ãĥ",
        "Ļãĥ¼ãĤ¹"
      ],
      [
        "åĪ",
        "©çĶ¨"
      ],
      [
        "åĲ",
        "ĳ"
      ],
      [
        "åĲ",
        "Įæľ"
      ],
      [
        "ãĥĥ",
        "ãĤ·"
      ],
      [
        "ãĥĥ",
        "ãĥģ"
      ],
      [
        "è¡",
        "¨"
      ],
      [
        "è¡",
        "ĵãģ§ãģĻ"
      ],
      [
        "å®",
        "īåħ"
      ],
      [
        "ãģı",
        "ä½¿"
      ],
      [
        "ãģı",
        "ãģł"
      ],
      [
        "åĩ",
        "º"
      ],
      [
        "ãĥĹ",
        "ãĥª"
      ],
      [
        "ãģĻãĤĭ",
        "ãģĵãģ¨ãģ§"
      ],
      [
        "æķ",
        "£"
      ],
      [
        "ãĤ¢",
        "ãĤ¯ãĤ»"
      ],
      [
        "ãĤ·",
        "ãĥªãĤ¢"
      ],
      [
        "ãĤĮ",
        "ãģ¾ãģĻ"
      ],
      [
        "ãģ¨ãģĹãģ¦",
        "åºĥ"
      ],
      [
        "ãĥĩãĥ¼ãĤ¿",
        "ãĤĴ"
      ],
      [
        "ãĥĩãĥ¼ãĤ¿",
        "ãĥĻãĥ¼ãĤ¹"
      ],
      [
        "ãĤ³ãĥ¼ãĥī",
        "ãģ®"
      ],
      [
        "ãĤ³ãĥ¼ãĥī",
        "ãĤĴçĶŁæĪĲ"
      ],
      [
        "è¡Į",
        "åĩ¦çĲĨ"
      ],
      [
        "§ĭ",
        "éĢ"
      ],
      [
        "ä»",
        "Ĭ"
      ],
      [
        "éĢ",
        "ļ"
      ],
      [
        "éĢ",
        "±æľ"
      ],
      [
        "ãĥ¡",
        "ãĥªãĥĥãĥĪ"
      ],
      [
        "ãĥ¢",
        "ãĥĩãĥ«"
      ],
      [
        "ãĥ¬",
        "ãĥĥ"
      ],
      [
        "ãĥ¬",
        "ãĥĿ"
      ],
      [
        "ãĥ¼ãĤ¹",
        "ãģ¯è"
      ],
      [
        "ä¾",
        "Ŀ"
      ],
      [
        "ä¾",
        "ĭå¤ĸ"
      ],
      [
        "ä¿",
        "¡"
      ],
      [
        "åĬ",
        "ł"
      ],
      [
        "åŃ",
        "ĺ"
      ],
      [
        "èª",
        "ŀ"
      ],
      [
        "èª",
        "Ń"
      ],
      [
        "ãģ£",
        "ãģŁ"
      ],
      [
        "ãĥĸ",
        "ãĤ¸ãĤ§ãĤ¯ãĥĪ"
      ],
      [
        "ãĤ¿",
        "ãĥ¼"
      ],
      [
        "ãģ®æ",
        "Į"
      ],
      [
        "ãĥ©ãĤ¤",
        "ãĥ³"
      ],
      [
        "ãĥ©ãĤ¤",
        "ãĤº"
      ],
      [
        "æĢ§",
        "ãĤĴ"
      ],
      [
        "æĢ§",
        "ãģ®"
      ],
      [
        "äº",
        "Į"
      ],
      [
        "å¾",
        "Ĺ"
      ],
      [
        "åħ",
        "¥"
      ],
      [
        "åī",
        "²"
      ],
      [
        "åī",
        "į"
      ],
      [
        "ä¸į",
        "è¶"
      ],
      [
        "åĮĸ",
        "ãģķãĤĮ"
      ],
      [
        "åĮĸ",
        "ãĤĦ"
      ],
      [
        "Git",
        "Hub"
      ],
      [
        "¦ç",
        "ķ¥ãģ¨ãģĹãģ¦"
      ],
      [
        "å¿",
        "ħè¦ģ"
      ],
      [
        "æħ",
        "®"
      ],
      [
        "éĸ",
        "ĭçĻº"
      ],
      [
        "ãģł",
        "ãģ¨æĢĿãģĦãģ¾ãģĻ"
      ],
      [
        "ãĤª",
        "ãĥĸãĤ¸ãĤ§ãĤ¯ãĥĪ"
      ],
      [
        "ä¸Ģ",
        "è²"
      ],
      [
        "ri",
        "pt"
      ],
      [
        "å½",
        "¹"
      ],
      [
        "åĨ",
        "į"
      ],
      [
        "çī",
        "©"
      ],
      [
        "çī",
        "¹"
      ],
      [
        "ãģĭ",
        "ãĤī"
      ],
      [
        "ãĤ¨",
        "ãĥ©"
      ],
      [
        "ãģ®é",
        "Ľ"
      ],
      [
        "ãģŁãĤģ",
        "ãģ«"
      ],
      [
        "ãĥĥãĤ¯",
        "ãĤ¹"
      ],
      [
        "å®Ł",
        "è¡Į"
      ],
      [
        "ãģĻãĤĭæ",
        "ĬĢ"
      ],
      [
        "ä¿Ŀ",
        "è¨¼"
      ],
      [
        "head",
        "s"
      ],
      [
        "åį",
        "ĺ"
      ],
      [
        "æĺ",
        "İ"
      ],
      [
        "ĩª",
        "åĭķ"
      ],
      [
        "ãģķ",
        "ãģĦ"
      ],
      [
        "ãĥŁ",
        "ãĥ³ãĤ°"
      ],
      [
        "ãĤĴçµ",
        "Ħãģ¿"
      ],
      [
        "ãģ¯ãĤ",
        "½"
      ],
      [
        "ãĥ¼ãĤ·ãĥ§",
        "ãĥ³"
      ],
      [
        "ä¸¦",
        "è¡Įåĩ¦çĲĨ"
      ],
      [
        "åĪĨ",
        "æķ£"
      ],
      [
        "ãĤĴæ§ĭç¯ī",
        "ãģĹãģ¾ãģĻ"
      ],
      [
        "æĸ°",
        "ãģĹãģĦ"
      ],
      [
        "æĸĻ",
        "çĲĨ"
      ],
      [
        "ãĥķãĤ¡",
        "ãĤ¤ãĥ«"
      ],
      [
        "ãĥķãĤ©",
        "ãĥ¼ãĥŀ"
      ],
      [
        "ãĤ³ãĥ³ãĥĳ",
        "ãĤ¤ãĥ«"
      ],
      [
        "éĸ¢",
        "æķ°"
      ],
      [
        "ãĤµãĥ¼ãĥ",
        "ĵãĤ¹"
      ],
      [
        "ãĥĹãĥŃãĤ°ãĥ©",
        "ãĥŁãĥ³ãĤ°"
      ],
      [
        "æ©Łæ",
        "¢°"
      ],
      [
        "æĹ¥",
        "ãģ®"
      ],
      [
        "åķı",
        "é¡Į"
      ],
      [
        "åĲĪãĤıãģĽ",
        "ãģ¦"
      ],
      [
        "åŃ¦ç¿Ĵ",
        "ãĥ¢ãĥĩãĥ«"
      ],
      [
        "Sc",
        "ript"
      ],
      [
        "¥ãģķãĤĮ",
        "ãģ¦ãģĦãģ¾ãģĻ"
      ],
      [
        "¶æħ",
        "ĭ"
      ],
      [
        "åĳ",
        "³"
      ],
      [
        "åŀ",
        "ĭ"
      ],
      [
        "æĪ",
        "¦çķ¥ãģ¨ãģĹãģ¦"
      ],
      [
        "æĿ",
        "¥"
      ],
      [
        "æĻĤ",
        "ãģ«"
      ],
      [
        "çĬ",
        "¶æħĭ"
      ],
      [
        "éļ",
        "ľå®"
      ],
      [
        "Ħãĥ¼ãĥ",
        "«"
      ],
      [
        "Ĳä¾",
        "Ľ"
      ],
      [
        "ãģ®åİ",
        "Ł"
      ],
      [
        "ãģ«ä¸įåı¯æ¬ł",
        "ãģª"
      ],
      [
        "ãĥ¼ãĤŃãĥĨ",
        "ãĤ¯ãĥģ"
      ],
      [
        "å®īåħ",
        "¨"
      ],
      [
        "ãģıä½¿",
        "ãĤı"
      ],
      [
        "ãģıãģł",
        "ãģķãģĦ"
      ],
      [
        "ãĤ·ãĥªãĤ¢",
        "ãĥ©ãĤ¤ãĤº"
      ],
      [
        "§ĭéĢ",
        "ł"
      ],
      [
        "éĢ±æľ",
        "«"
      ],
      [
        "ä¸įè¶",
        "³"
      ],
      [
        "ãģĻãĤĭæĬĢ",
        "è¡ĵãģ§ãģĻ"
      ],
      [
        "ãĤĴçµĦãģ¿",
        "åĲĪãĤıãģĽãģ¦"
      ],
      [
        "åķıé¡Į",
        "ãģ§ãģĻ"
      ],
      [
        "éļľå®",
        "³"
      ],
      [
        "ãĥ¼ãĤŃãĥĨãĤ¯ãĥģ",
        "ãĥ£"
      ],
      [
        "!",
        "/"
      ],
      [
        "!",
        "="
      ],
      [
        "!",
        "\","
      ],
      [
        "\"",
        ":\""
      ],
      [
        "\"",
        "}'"
      ],
      [
        "#",
        "!/"
      ],
      [
        "$",
        "("
      ],
      [
        "%",
        "@"
      ],
      [
        "'",
        ">"
      ],
      [
        "'",
        ");"
      ],
      [
        "(",
        "("
      ],
      [
        "(",
        "`"
      ],
      [
        "(",
        "()"
      ],
      [
        ")",
        "("
      ],
      [
        ")",
        "["
      ],
      [
        ")",
        "]"
      ],
      [
        ")",
        "}'"
      ],
      [
        ".",
        "_"
      ],
      [
        "<",
        "/"
      ],
      [
        "<",
        "_"
      ],
      [
        "<",
        "()"
      ],
      [
        "=",
        "'"
      ],
      [
        ">",
        "("
      ],
      [
        ">",
        ";"
      ],
      [
        "?",
        ","
      ],
      [
        "A",
        "C"
      ],
      [
        "A",
        "D"
      ],
      [
        "A",
        "M"
      ],
      [
        "A",
        "U"
      ],
      [
        "A",
        "r"
      ],
      [
        "A",
        "SE"
      ],
      [
        "A",
        "CT"
      ],
      [
        "A",
        "LU"
      ],
      [
        "A",
        "dam"
      ],
      [
        "A",
        "LT"
      ],
      [
        "B",
        "E"
      ],
      [
        "B",
        "uf"
      ],
      [
        "B",
        "AC"
      ],
      [
        "C",
        "O"
      ],
      [
        "C",
        "R"
      ],
      [
        "C",
        "h"
      ],
      [
        "C",
        "li"
      ],
      [
        "C",
        "all"
      ],
      [
        "D",
        "D"
      ],
      [
        "D",
        "er"
      ],
      [
        "D",
        "iv"
      ],
      [
        "D",
        "IN"
      ],
      [
        "D",
        "ER"
      ],
      [
        "D",
        "ict"
      ],
      [
        "D",
        "ATE"
      ],
      [
        "E",
        "F"
      ],
      [
        "E",
        "N"
      ],
      [
        "E",
        "T"
      ],
      [
        "E",
        "X"
      ],
      [
        "E",
        "x"
      ],
      [
        "E",
        "lement"
      ],
      [
        "E",
        "OU"
      ],
      [
        "E",
        "ATE"
      ],
      [
        "E",
        "ffect"
      ],
      [
        "E",
        "AD"
      ],
      [
        "G",
        "D"
      ],
      [
        "G",
        "IN"
      ],
      [
        "G",
        "LU"
      ],
      [
        "H",
        "T"
      ],
      [
        "H",
        "el"
      ],
      [
        "H",
        "ash"
      ],
      [
        "I",
        "K"
      ],
      [
        "I",
        "O"
      ],
      [
        "I",
        "Z"
      ],
      [
        "I",
        "n"
      ],
      [
        "I",
        "ST"
      ],
      [
        "L",
        "L"
      ],
      [
        "L",
        "o"
      ],
      [
        "L",
        "ist"
      ],
      [
        "L",
        "ock"
      ],
      [
        "L",
        "Div"
      ],
      [
        "M",
        "E"
      ],
      [
        "M",
        "M"
      ],
      [
        "M",
        "N"
      ],
      [
        "M",
        "S"
      ],
      [
        "M",
        "o"
      ],
      [
        "M",
        "LDiv"
      ],
      [
        "N",
        "S"
      ],
      [
        "N",
        "T"
      ],
      [
        "N",
        "U"
      ],
      [
        "N",
        "ode"
      ],
      [
        "N",
        "ame"
      ],
      [
        "N",
        "ot"
      ],
      [
        "O",
        "K"
      ],
      [
        "O",
        "LU"
      ],
      [
        "O",
        "ST"
      ],
      [
        "P",
        "ath"
      ],
      [
        "R",
        "L"
      ],
      [
        "R",
        "ed"
      ],
      [
        "R",
        "RA"
      ],
      [
        "R",
        "DER"
      ],
      [
        "R",
        "MS"
      ],
      [
        "S",
        "e"
      ],
      [
        "S",
        "es"
      ],
      [
        "S",
        "et"
      ],
      [
        "S",
        "omet"
      ],
      [
        "S",
        "ERT"
      ],
      [
        "S",
        "IZ"
      ],
      [
        "T",
        "E"
      ],
      [
        "T",
        "o"
      ],
      [
        "T",
        "ime"
      ],
      [
        "T",
        "ree"
      ],
      [
        "T",
        "cp"
      ],
      [
        "T",
        "AM"
      ],
      [
        "U",
        "size"
      ],
      [
        "U",
        "ser"
      ],
      [
        "U",
        "RL"
      ],
      [
        "V",
        "G"
      ],
      [
        "[",
        "]"
      ],
      [
        "]",
        ")"
      ],
      [
        "]",
        "))"
      ],
      [
        "`",
        ");"
      ],
      [
        "a",
        "che"
      ],
      [
        "a",
        "uto"
      ],
      [
        "b",
        "f"
      ],
      [
        "b",
        "ool"
      ],
      [
        "b",
        "ack"
      ],
      [
        "c",
        "m"
      ],
      [
        "c",
        "ode"
      ],
      [
        "c",
        "ache"
      ],
      [
        "d",
        "b"
      ],
      [
        "d",
        "o"
      ],
      [
        "d",
        "type"
      ],
      [
        "e",
        "uo"
      ],
      [
        "f",
        "m"
      ],
      [
        "f",
        "o"
      ],
      [
        "f",
        "in"
      ],
      [
        "f",
        "il"
      ],
      [
        "f",
        "unction"
      ],
      [
        "f",
        "ail"
      ],
      [
        "g",
        "s"
      ],
      [
        "g",
        "ith"
      ],
      [
        "g",
        "res"
      ],
      [
        "h",
        "i"
      ],
      [
        "h",
        "ing"
      ],
      [
        "h",
        "as"
      ],
      [
        "h",
        "read"
      ],
      [
        "i",
        "ss"
      ],
      [
        "i",
        "He"
      ],
      [
        "i",
        "GLU"
      ],
      [
        "k",
        "en"
      ],
      [
        "k",
        "ub"
      ],
      [
        "k",
        "war"
      ],
      [
        "l",
        "r"
      ],
      [
        "m",
        "y"
      ],
      [
        "m",
        "ps"
      ],
      [
        "m",
        "ath"
      ],
      [
        "m",
        "anag"
      ],
      [
        "n",
        "p"
      ],
      [
        "n",
        "ion"
      ],
      [
        "n",
        "ot"
      ],
      [
        "n",
        "ull"
      ],
      [
        "n",
        "stall"
      ],
      [
        "o",
        "st"
      ],
      [
        "p",
        "a"
      ],
      [
        "p",
        "ing"
      ],
      [
        "p",
        "an"
      ],
      [
        "p",
        "ar"
      ],
      [
        "p",
        "ath"
      ],
      [
        "p",
        "ub"
      ],
      [
        "p",
        "atch"
      ],
      [
        "p",
        "ip"
      ],
      [
        "p",
        "ack"
      ],
      [
        "p",
        "rintln"
      ],
      [
        "r",
        "m"
      ],
      [
        "r",
        "ansform"
      ],
      [
        "s",
        "w"
      ],
      [
        "s",
        "y"
      ],
      [
        "s",
        "ort"
      ],
      [
        "s",
        "ho"
      ],
      [
        "s",
        "age"
      ],
      [
        "s",
        "ock"
      ],
      [
        "s",
        "ole"
      ],
      [
        "s",
        "oft"
      ],
      [
        "t",
        "x"
      ],
      [
        "t",
        "orch"
      ],
      [
        "t",
        "atus"
      ],
      [
        "t",
        "uple"
      ],
      [
        "t",
        "ools"
      ],
      [
        "u",
        "pp"
      ],
      [
        "u",
        "cer"
      ],
      [
        "v",
        "ic"
      ],
      [
        "v",
        "el"
      ],
      [
        "v",
        "ersion"
      ],
      [
        "w",
        "ith"
      ],
      [
        "w",
        "Lock"
      ],
      [
        "w",
        "hi"
      ],
      [
        "w",
        "iGLU"
      ],
      [
        "y",
        "aml"
      ],
      [
        "y",
        "ield"
      ],
      [
        "y",
        "ping"
      ],
      [
        "{",
        "\""
      ],
      [
        "}",
        ","
      ],
      [
        "}",
        "};"
      ],
      [
        "}",
        "')"
      ],
      [
        "}",
        "</"
      ],
      [
        "}",
        "`);"
      ],
      [
        "Ċ",
        "Ġ"
      ],
      [
        "Ġ",
        "/"
      ],
      [
        "Ġ",
        "|"
      ],
      [
        "Ġ",
        "at"
      ],
      [
        "Ġ",
        "ER"
      ],
      [
        "Ġ",
        "8080"
      ],
      [
        "Ġ",
        "Vec"
      ],
      [
        "Ġ",
        "err"
      ],
      [
        "Ġ",
        "error"
      ],
      [
        "Ġ",
        "helmet"
      ],
      [
        "Ġ",
        "uint"
      ],
      [
        "Ġ",
        "zip"
      ],
      [
        "Ġ",
        "ign"
      ],
      [
        "Ġ",
        "!="
      ],
      [
        "Ġ",
        "EX"
      ],
      [
        "in",
        "de"
      ],
      [
        "in",
        "it"
      ],
      [
        "on",
        "e"
      ],
      [
        "er",
        "t"
      ],
      [
        "er",
        "de"
      ],
      [
        "er",
        "ate"
      ],
      [
        "er",
        "Layer"
      ],
      [
        "at",
        "er"
      ],
      [
        "at",
        "et"
      ],
      [
        "re",
        "q"
      ],
      [
        "re",
        "am"
      ],
      [
        "re",
        "du"
      ],
      [
        "re",
        "po"
      ],
      [
        "re",
        "ach"
      ],
      [
        "st",
        "ate"
      ],
      [
        "st",
        "di"
      ],
      [
        "st",
        "amp"
      ],
      [
        "st",
        "gres"
      ],
      [
        "Ġt",
        "ype"
      ],
      [
        "Ġt",
        "yping"
[...]
